#version: 0.2
Ġ t
Ġ Ċ
h e
Ġ a
i n
Ġt he
Ġ o
r e
e r
o n
Ġo f
Ġ w
n d
i s
Ġ s
e n
a t
i t
e d
Ġ b
e s
o r
Ġ c
Ġ p
Ġ f
a r
o u
a n
Ġ h
Ġ in
Ġa nd
Ġt o
Ġ m
Ġ d
a l
i c
a s
in g
Ġt h
i on
l e
o m
Ġ n
Ġ e
en t
l l
Ġ l
Ġb e
s t
c e
l y
o t
Ġ re
s e
i r
v e
u t
a d
i m
c t
u r
Ġ T
Ġw h
r o
Ġ I
Ġ S
Ġ g
Ġ C
t he
Ġ A
i d
Ġ he
c h
Ġth at
i g
a m
v er
â Ģ
it h
e t
u s
Ġ 1
Ġo n
o w
Ġ M
i l
Ġf or
a nd
o l
Ġ it
Ġ is
ic h
Ġa s
Ġb y
Ġw as
a y
e re
Ġh is
t h
Ġw ith
t er
r i
Ġ u
Ġc on
Ġ B
Ġ P
Ġ ;
Ġd e
Ġ H
Ġa n
at ion
q u
r a
p e
i f
u l
Ġa t
Ġwh ich
l d
a in
u m
Ġ L
Ġ v
e m
Ġ E
r om
o d
ĠT he
o s
Ġo r
a b
Ġs u
Ġ y
es t
Ġn ot
re s
g e
Ġ âĢ
i ll
ou r
t o
Ġh a
Ġe x
i e
Ġ G
es s
h t
o re
is t
n t
Ġs t
Ġs e
Ġ D
er s
a c
an t
Ġf rom
Ġ F
Ġ W
o f
i v
at e
Ġ R
i i
Ġp ro
o p
ou ld
Ġth is
ou s
Ġc om
Ġ O
c i
k e
Ġh ad
al l
Ġ 2
Ġ J
Ġha ve
he r
p p
ar d
Ġthe ir
ar t
u n
Ġw e
it y
Ġ r
Ġ (
re d
Ġ ĠĊ
or d
e l
Ġ N
p t
Ġs h
Ġw ere
Ġa re
ig ht
i es
ĠâĢ Ķ
Ġn e
the r
c c
Ġb ut
Ġc h
Ġa ll
or t
Ġa l
Ġwh o
Ġthe y
as t
i ve
Ġ le
is h
i b
m ent
ou g
Ġh im
e ct
Ġs o
Ġ k
o st
om e
u d
u st
u re
a g
a p
re at
i a
on g
Ġ 3
Ġbe en
am e
Ġ qu
Ġthe m
en ce
t e
ion s
f f
Ġw he
' s
an ce
r y
p er
Ġa d
an s
ver y
ou nd
l i
Ġm an
in e
n e
Ġa r
Ġ i
a v
o se
Ġ j
Ġa b
Ġ 4
ar y
Ġu p
Ġn o
Ġ Ġ
a k
ou nt
in d
Ġm e
b e
T he
ab le
Ġ en
Ġ V
ĠC h
ou t
p l
Ġ im
Ġu n
Ġon e
Ġp l
at ed
se l
n g
Ġ1 8
ic e
on d
er t
Ġo ther
Ġp r
Ġd is
as s
i re
a re
Ġp er
Ġ "
u e
oug h
e ar
Ġ :
o g
b l
he d
Ġp re
Ġthe re
Ġ .
Ġh as
Ġp art
c l
Ġ K
on e
ic al
w n
a u
ĠT h
it t
a ce
âĢ Ļ
o od
im e
f or
re e
Ġa g
o c
Ġt r
Ġm ore
o k
a ct
ad e
al ly
Ġf e
i an
er v
nd er
ig n
Ġo b
w h
Ġit s
l and
f ore
Ġw ill
Ġan y
f t
Ġt w
ĠI n
Ġy ou
c es
f ter
Ġhe r
Ġg reat
w e
on s
b er
a ge
i ous
in t
Ġw or
Ġcon t
v en
Ġd es
Ġl a
Ġw ould
it ion
Ġs ome
Ġd o
Ġa m
i p
r u
ĠI t
ation s
Ġ 5
res s
Ġ 6
s o
d e
Ġs a
or y
en s
Ġo ur
Ġm y
a ch
Ġm ay
Ġ 8
ĠH e
Ġcom m
Ġth an
u ch
ĠS t
at h
n ow
r it
Ġ us
Â ¬
Ġa cc
k s
Ġin to
ĠM r
id e
Ġre s
ing s
d u
Ġs p
ere d
Ġup on
Ġwhe n
0 0
p os
o ve
ul t
Ġt ime
en er
c ed
Ġa p
Ġp e
l es
sel f
Ġc l
Ġ if
o y
Ġ very
Ġthe se
w ard
ay s
e nd
an g
a ke
ir st
j ect
Ġc an
Ġcon s
ct ion
o ver
Ġy ear
o ll
Ġon ly
it e
p h
s h
m an
âĢ Ķ
is e
Ġsu b
ol d
Ġtw o
Ġfor m
Ġa fter
c he
ent s
Ġp res
Ġre m
i z
i ed
ic t
Ġo ut
ot her
Ġ U
Ġs pe
i le
Ġp o
Ġsu ch
ur n
re n
Ġb r
Ġm ade
Ġm ost
Ġa pp
p le
H E
or s
Ġu nder
ot h
a ve
if f
Ġl i
Ġf irst
Ġbe ing
c ri
Ġe t
Ġ 7
e p
o ok
Ġof f
Ġth ose
Ġg r
ut h
Ġag ain
i al
Ġsh ould
O N
t y
i o
v ed
is s
i x
Ġre p
Ġ1 7
ĠS e
ur ch
u bl
Ġin t
ĠE ng
Ġe m
I I
Ġs ame
b y
is hed
Ġ ro
Ġ '
ul ar
u ll
f l
Ġ x
w ith
oug ht
u g
f ul
Ġ ^
Ġim p
if e
Ġat t
f e
n ess
Ġn ow
th at
c on
as e
c om
Ġh ow
at es
ar k
Ġthe n
Ġ ent
e x
E R
pe ct
ain ed
Ġbe fore
m e
c k
Å ¿
Ġwh at
Ġsa id
o b
Ġk now
Ġf ound
ow er
Ġm uch
at her
Ġre l
Ġap pe
for m
Ġc ount
Ġwhe re
Ġs he
l ed
Ġal so
Ġbe t
Ġc ould
ver s
ac k
Ġor d
os s
o h
Ġ ii
r ist
at er
e ver
ig h
v es
u al
c ess
ĠR e
n ot
he n
u nd
ou n
Ġd ist
Ġ ra
Ġm en
v ing
e w
in ce
i ly
Ġman y
ow n
p r
Ġch ar
er m
s u
wh ich
Ġwe ll
r an
ter s
ĠO F
b le
Ġf l
Ġre g
Ġ Y
Ġg ener
Ġ -
h is
Ġo ver
Ġp p
e ll
ar s
Ġo wn
il d
et h
it ed
Ġa c
ic k
Ġ est
Ġk ing
ĠB ut
ĠL ord
le ct
Ġe very
Ġ &
Ġn at
Ġl ong
a il
or n
Ġin st
ĠA n
A N
re t
Â «
Ġd iff
Ġb l
ĠâĢ ľ
Ġab out
oll ow
Ġy our
it s
Ġo cc
O R
Ġp ers
u p
l ie
ra ct
Ġre t
te nd
op le
Ġo p
Ġc ol
ut ion
iv ed
Ġ X
over n
I S
i us
Ġm ust
it her
Ġqu e
Ġcom p
t s
Ġ ,
ad y
Ġ1 6
Ġse c
in ed
1 8
Ġ 9
Ġth r
Ġc all
Ġg iv
Ġp ass
o pe
Ġm ight
ĠTh is
c y
Ġe ar
a ir
Ġg ood
Ġs c
Ġp ubl
E S
ou se
t ed
al s
ib le
Ġpres ent
w as
Ġwith out
Ġe ven
v ent
en e
Ġex p
y s
Ġsu pp
on t
ant s
we en
Ġagain st
Ġp ar
a j
Ġbe c
Ġli ke
m er
Ġre c
ĠD e
Ġre f
Ġcon f
l ish
au se
ro w
a red
itt le
ĠA r
i ans
ĠG od
ĠC om
A L
Ġex t
E N
I N
Ġd ay
Ġle t
at ter
uth or
Ġf ollow
Ġn um
ert ain
et y
oh n
Ġt ak
ff ect
s erv
in s
ward s
ĠT HE
ce ed
Ġpl ace
Ġhim self
it ies
Ġe nd
b r
Ġ1 5
Ġsh all
er n
Ġwor k
Ġyear s
Ġa ct
Ġas s
ce pt
u res
and s
Ã ©
Ġd id
2 3
m en
A R
at t
ent ly
Ġm ar
v o
s s
i er
Ġne w
qu e
ĠP ro
id er
ĠCh rist
Ġs ur
ut e
Ġ [
ish op
t on
n er
ment s
Ġ1 0
Ġin d
A T
al e
Ġc o
ur y
Ġar m
Ġm on
Ġin ter
Ġv ol
Ġl ast
p ro
ur ing
Ġha ving
Ġad d
Ġ |
m on
Ġp ur
a w
Ġ es
Ġn or
Ġthr ough
Ġe l
Ġc our
Ġpe ople
a h
Ġc ar
Ġl ittle
Ġla w
Ġcount ry
in ci
Ġbet ween
im es
Ġth ree
Ġ *
Ġw ar
is ed
ĠA nd
ĠâĢ ĺ
Ġe v
Ġse e
an y
u b
Ġre ce
t en
am ent
Ġp ri
a i
Ġp oss
ol og
if ic
Â »
I n
Ġf ar
r ic
Ġ ed
a e
i am
Ġl ar
Ġs m
Ġb oth
g ed
Ġ1 2
Ġ Q
Ġc or
Ġa uthor
ĠP r
b ut
Ġse em
ent ion
Ġn ame
in k
m ed
in es
che s
Ġin c
sel ves
a pt
e c
Ġp ower
ie f
Ġl ife
Ġwho le
a x
Ġde l
ve l
Ġhow ever
I C
Ġs ent
ĠM ar
Ġy et
as on
he re
at ing
t ion
ord s
ĠJ ohn
Ġg l
cri pt
i red
ĠS ir
t r
Ġam ong
h il
Ġde f
Ġre ad
Ġne ver
Ġsub ject
ĠP ar
Ġad v
Ġhe re
ain s
ĠA l
Ġne ar
Ġj ust
ab ly
ĠW e
Ġcall ed
m ost
ate ly
Ġs erv
u c
Ġdis c
ag es
l ess
Ġs et
Ġd et
t i
ir c
Ġe ach
n i
ond on
g y
ĠA s
ĠD r
ĠE d
ii i
Ġm ake
as ter
Ġm in
p ar
f rom
Ġth ough
en g
ĠO n
Ġgiv en
Ġwh om
an ces
od y
ĠEng land
ic i
Ġ ĠĠĊ
C h
ri ed
ĠA t
Ġs ay
ro wn
ĠC on
Ġ1 3
Ġw rit
Ġt ra
o v
Ġ ?
c il
o int
ic es
ren ch
Ġtr ans
ie w
p art
Ã ¡
Ġv ar
is m
at ive
ou th
Ġgener al
Ġst ill
iz ed
Ġar t
n ce
Ġr ight
Ġo ld
1 7
ĠK ing
Ġf a
ere st
Ġst r
g an
pe nd
ri end
Ġm od
Ġpubl ic
Ġg o
Ġs l
our s
ir d
Ġad m
he s
am es
Ġ1 4
Ġc ertain
Ġl o
ud e
en ed
act er
le y
R E
ĠI nd
c ul
itt ed
in al
ĠThe y
ain t
Ġtak en
ĠW h
ĠL e
Ġd i
Ġo pp
Ġpo int
C H
ĠN ew
Ġacc ount
Ġ !
ĠH is
au g
Ġf our
i or
pos ed
ver al
Ġfe w
em ent
Ġre st
Ġc ent
w ay
ĠEng lish
b t
am p
ĠS o
Ġord er
ot e
ci ent
Ġto o
ĠC ol
Ġ1 1
ord ing
i od
Ġin s
sh ip
Ġw r
r ance
oc k
I T
Ġm em
iv es
h ing
ere nt
Ġpr inci
Ġf o
id ent
Ġin f
Ġsu ff
s on
n o
is on
Ġw ay
Ġs y
r on
p ort
du ced
cc ess
in u
ĠB rit
Ġin de
ar n
i um
ur al
Ġt ri
Ġcons ider
a id
Ġ ill
ĠS c
Ġ ke
ist s
Ġob serv
id es
Ġt em
Ġlar ge
Ġan other
Ġhis t
st it
Ġde ath
Ġd ire
Ġv al
b ed
Ġpro v
Ġ Â
Ġd iv
overn ment
ĠS p
Ġin v
Ġf ind
ie ld
Ġwh ile
Ġs er
Ġu se
Ġl ess
T h
id ed
Ġp ut
ĠCh urch
Ġt ake
Ġ1 9
Ġl ib
Ġsm all
ĠL ondon
iss ion
Ġt e
Ġa ff
Ġ ri
un g
Ġf act
res ent
Ġret urn
Ġf am
1 0
u se
ĠB e
Ġspe ci
Ġh on
ir it
Ġd ou
Ġs im
Ġ Z
Ġg ive
Ġp le
Ġb o
Ġc ap
âĢ ľ
I t
Ġth us
Ġpl ac
Ġc irc
Ġst ate
or k
p re
Ġe ver
Ġn et
ak ing
Ġe ffect
at ure
om an
Ġres pect
Ġd own
ĠF rench
ĠâĢ Ļ
Ġnum ber
00 0
o ol
w ere
Ġpers on
O L
g r
n al
ic ular
x t
Ġh igh
al f
or th
Ġd u
Ġf riend
ur g
ic s
Ġk ind
u nt
ar ch
Ġother s
un e
b ers
Ġch urch
the ir
Ġh and
Ġre qu
is c
Ġs on
Ġd uring
1 5
Ġ er
Ġhe ad
Ġde c
a f
se m
Ġne cess
Ġint erest
Ġb ook
at is
d om
il ity
ap s
Ġe qu
Ġappe ar
Ġob ject
Ġg u
ci ety
o ly
ic a
h ave
Ġle ft
Ġv i
Ġm il
as ion
as ed
Ġb re
em pt
1 6
Ġthere fore
Ġthem selves
c r
h ad
Ġh um
Ġu nd
y n
Ġth ought
Ġchar acter
ge ther
re g
Ġt en
ĠC l
Ġc a
d en
tend ed
Ġwho se
Ġ2 0
g es
ĠF or
Ġg ra
in ation
er y
IS T
se qu
p ri
a pp
Ġsec ond
ĠSe e
ĠI s
Ġor ig
e e
Ġse veral
Ġimp ort
s w
d er
Ġp ol
Ġsu ccess
Ġex am
du ct
w ays
us s
ĠA N
in n
Ġm ind
ĠH en
ull y
Ġf r
Ġbe lie
Ġm er
re w
Ġcon d
Ġ z
t t
Ġc ur
ou ra
oun cil
Ġrece ived
Ġcom e
p s
ĠI I
ow ed
f ect
Ġme ans
i en
Ġwor ld
Ġrel ig
Ġ ir
ĠI f
r s
u es
o le
Ġpro b
u ally
v al
h am
an e
Ġc ame
Ġb u
ot t
li ed
an n
Ġe le
Ġj ud
Ġm et
ĠG e
Ġbe l
ĠO r
id ence
Ġ 0
it er
an ge
Ġ ver
u red
I ON
u f
the y
Ġab ove
Ġ ut
Ġb ody
Ġcomm on
1 2
Ġth ink
Ġf av
i ar
Ġob t
Ġto ok
Ġde cl
Ġcon c
th ough
A P
Ġf ore
Ġbr ought
ere nce
Ġpro per
th is
n s
st er
Ġl ight
Ġf ur
Ġ18 4
Ġp rom
L E
ĠThe re
c a
Ġl and
ru ct
Ġc ase
p ose
as ure
ill iam
pl oy
the m
Ġd ra
Ġ18 5
Ġper iod
we ll
ĠB y
Ġs ays
it ions
Ġknow n
1 4
Ġd er
Â °
et s
ĠA d
en se
Ġcan not
Ġs ix
u i
re m
ar r
Ġe ither
Ġd ays
Ġv is
est ion
ress ed
us ed
Ġb est
om et
Ġp ort
U S
ess ion
Ġbe g
Ġp ap
Ġso on
1 3
or m
Ġs ince
ener al
Ġfollow ing
Ġse en
s c
ĠH ist
Ġpro f
Ġt reat
Ġto wn
a z
Ġw ater
Ġv iew
Ġop in
f ord
T HE
Ġs ide
ĠF rance
Ġform er
Ġp at
y m
U R
e b
ĠE x
Ġh ouse
h im
a ut
Ġreg ard
Ġdiff erent
in a
pl es
Ġs to
Ġnat ure
ĠCh ar
Ġt erm
a im
Ġd one
an k
v i
re ady
l s
1 9
Ġs ol
Ġs um
ib us
ĠT o
d ay
r al
A nd
Ġd ie
ĠS h
Ġnot hing
Ġe y
l ic
is ter
ce ll
Ġc e
Ġl ook
Ġ2 5
Ġc are
os ed
Ġpart icular
Ġc le
2 0
fl u
p o
Ġon ce
Ġre ason
Ġcont inu
t ing
ir m
he m
Ġf re
r um
Ġ2 3
Ġm o
pe ci
ro ss
med i
Ġpro ceed
Ġch ief
ĠP l
ig it
li ament
Ġman ner
ac hed
y l
Ġ2 4
ĠH er
as es
Ġcour se
I L
Ġtr ue
und red
ve re
Ġdire ct
ic ult
y r
ri e
in ess
M r
h aps
g g
st and
ain ing
Ġg ave
Ġch ild
Ġacc ording
v ol
Ġx x
Ġth ings
ĠN o
ĠT r
Ã ³
p or
Ġwith in
Ġyou ng
f i
op h
Ġst re
Ġ Å¿
led ge
Ġt ill
cri bed
Ġs ac
ĠC o
ab it
ar m
Ġ18 3
ĠHen ry
st ant
Ġp os
Ġp h
Ġp op
c hed
ĠB r
eng th
o e
f ort
Ġsh ort
H e
Ġlet ter
st em
Ġr ather
Ġs ing
Ġ2 7
um e
cl ud
Ġhist ory
if ied
m it
Ġbec ause
Ġsu per
Ġen em
av ing
Ġsp irit
i ence
Ġ ve
Ġb ishop
Ġc r
Ġal ways
Ġst ud
ra ph
Ġs ch
Ġm ag
al t
Ġen g
Ġal most
at a
w o
Ġt imes
Ġ ib
S t
Ġw ords
Ġdou bt
Ġs k
ĠM aj
Ġd est
Ġ3 0
Ġan n
be en
Ġpri v
s p
Ġocc asion
Ġ2 8
Ġb ar
l o
Ġapp ro
op s
Ġf ather
Ġarm y
Ġu nt
Ġa ge
ĠA m
ent y
Ġc ity
ir t
Ġus ed
Ġm ention
Ġle g
ow s
D igit
i ent
Ġpers ons
wh o
in ary
est y
Ġt urn
Ġre al
Ġem ploy
Ġ2 6
le t
Ġt er
Ġp ract
Ġh alf
Ġcom ple
f er
O M
Ġl atter
Ġab s
iv ing
r t
g en
n a
com m
c o
Ġd en
ove red
Ġl ab
Ġdo es
aug h
Ġstr ong
Ġhe art
Ġ2 2
ĠP h
re ad
ard s
Ġc ause
Ġoff ic
Digit ized
ĠA b
y ing
1 1
Ġcomm and
et er
k ing
Ġop en
Ġfe el
ang u
ar ing
om in
S T
Ġest ab
Ġne xt
ound ed
Ġac qu
Ġcirc um
ar l
Ġit self
Ġha pp
ĠBrit ish
ĠâĢ ¢
EN T
is ion
er ous
on y
Ġde m
Ġii i
Ġar ri
in c
Ġacc om
âĢ ĺ
â ĸ
Ġan sw
Ġh ands
Ġfa ith
A M
ne w
Ġspeci es
Ġme et
E T
ĠA mer
l t
Ġwhe ther
Ġfor t
ĠW illiam
T his
Ġpart s
O O
Ġd ut
Ġm is
u ly
Ġex ist
Ġs w
in ct
Ġf ull
ĠP hil
Ġseem s
itt en
ĠG r
ĠD u
Ġal ready
Ġl ate
Ġf all
ĠAN D
im ent
h ib
o i
Ġres ult
are nt
Ġh undred
Ġ2 9
al th
Ġ il
Ġle arn
Ġof ten
m in
re ct
Ġc al
Ġb ack
Ġw ord
ent le
Ġcomm un
Ġan im
Ġex per
se c
Ġgr ound
Ġex pl
d o
al es
b o
p an
at or
ci ence
ĠPro f
E D
the n
a pe
Ġ Ã¡
ur ope
lect ed
Ġex cept
en ces
pos ition
g o
ri es
Ġdiff icult
Ġm atter
il t
Ġde v
B ut
le m
Ġf ree
one y
2 2
en cy
Ġme an
Ġw ent
Ġle ast
Ġinde ed
Ġto wards
er man
Ġa way
ĠChrist ian
Ġb ro
ill ed
Ġt ro
Ġr u
Ġpre v
Ġl ove
m o
Ġan cient
OR Y
our n
ot s
Ġbet ter
Ġrep resent
w here
ar ies
âĸ ł
Ġh or
Ġqu estion
l a
Ġl ength
is ing
Ġto gether
al ity
atis f
ac y
the re
ĠG ree
I V
Ġrem ark
r ing
l ing
Ġvar ious
k now
E L
Ġcl ass
g er
Ġn ation
Ġin form
om as
ĠU n
ou red
Ġn ight
Ġp ost
Ġs ign
II I
ut ed
Ġth ing
Ġapp oint
c ount
Ġt re
m ore
Ġl ine
Ġhe ld
Ġappe ars
A n
Ġf t
Ġopin ion
Ġle ad
Ġb ene
âĢ ¢
it ude
3 0
e al
ĠPar is
p al
er ing
Ġ iv
Ġinc re
ur s
ne y
Ġw a
Ġm ed
d es
ĠM ay
Ġfor ce
2 5
ou d
Ġpe ace
ĠS ch
Ã Ń
Ġnecess ary
id d
el t
con t
Ġl ay
b ly
l f
Ġexp ress
Ġunt il
Ġmon th
a ul
it u
cript ion
2 4
u nder
ĠW hen
st r
ter n
Ġth o
Ġpur pose
Ġl ord
ug ht
b es
ĠÂ £
om en
Ġp or
Ġauthor ity
Ġtr uth
olog y
ĠTh at
f ully
Ġg overnment
ĠS he
n ect
Ġpr ot
ant ed
Ġsy stem
Ġf ive
iv il
at s
Ġim medi
Ġcon duct
ĠE s
it es
Ġm ere
Ġc he
er c
ĠSo ciety
oy al
o x
o og
2 9
Ġin flu
Ġfe ll
p it
Ġbec ame
at ic
Ġafter wards
Ġpass ed
st ances
Ġs us
Ġfe et
Ġatt empt
Ġwor ks
Ġm us
per or
i u
ĠH ouse
Ġde g
on es
Ġt be
us ion
w ise
ot ed
ĠC an
ĠI N
il ar
b s
2 7
ow ers
Ġt lie
C T
2 8
Ġdet erm
Ġdo ct
id ered
Ġper haps
ĠA ct
Ġpart y
Ġo bl
ĠRe v
Ġm at
Ġse a
of f
id ge
er gy
ak es
Ġ q
wh at
k ed
Ġnat ural
if t
Ġfur ther
ici ent
Ġh ard
m s
Ġf in
Ġear ly
C E
Ġcour t
Ġg en
le g
e ad
' d
ĠR ome
Ġspe c
Ġs il
ing u
ĠA p
is es
ĠR oman
ĠI II
ol ic
IN G
Ġf if
2 6
Ġnear ly
Ġgreat er
ex t
p he
ot ion
Ġst at
g ress
Ġp en
i k
r ary
re et
T o
iz e
Ġprob ably
Ġex c
le ction
er ve
ĠE urope
y d
Ġfav our
b our
i et
gy pt
g u
Ġper fect
i ers
Ġcon sequ
Ġpubl ished
l er
Ġfam ily
Ġc op
ĠThe se
X X
e v
est ed
Ġab le
ou l
ip s
Ġbel ong
Ġbe h
Ġcar ried
n es
Ġw it
ce nd
Ġent ire
le x
ĠA nt
e k
am ed
om ent
ĠA ll
ch ar
ĠIt al
att le
f s
ict ion
Ġd ied
Ġ3 5
ĠA ug
IST ORY
m y
Ġt it
ĠM e
av es
or um
ri f
O n
or ge
w ould
Ġtw enty
Ġ ide
peci ally
Ġl ie
Ġm or
c ing
Ġy e
Ġh ope
eth od
og raph
A t
Ġp ay
el s
cc les
W h
r is
Ġ4 0
il le
Ġst and
ĠC H
up on
ound s
ĠSc ot
Ġhum an
p ond
o o
ll ed
Ġplac ed
Ġserv ice
ess ed
âĢ Ŀ
Ġsh ow
om s
re nt
T H
4 0
c an
Ġbr other
du ce
W e
our t
a fter
Ġint ro
Ġg e
ign ed
Ġn on
ort s
Ġrelig ion
Ġform ed
Ġear th
m itted
ĠE m
Ġwr itten
f ace
as h
ious ly
pos s
Ġl im
i j
re en
a ff
th ing
Ġv o
6 0
Ġspe ak
Ġpr ay
oog le
Ġc ast
Ġg entle
Ġcl ose
ĠQ u
Ġex pect
Ġbe aut
it ary
Ġobt ained
in ter
ist r
Ġhe av
ĠCom m
ĠF ran
Ġne ed
c ent
ust r
Ġbec ome
u x
augh ter
Ġm ark
ĠC ar
in ing
le ge
Ġh old
b urg
ĠN or
il s
ul ation
orn ing
Ġbelie ve
ĠB ar
Ġh ig
i as
r ang
T ER
Ġf ig
ĠQ ue
Ġcle ar
r d
n ight
ic an
est s
Ġp ie
Ġe as
N o
ĠJ ames
w ill
Ġwor th
Ġknow ledge
li ke
ĠB l
ous and
Ġf ire
ĠChar les
Ġd ang
Ġl angu
omet imes
al d
Ġsu c
Ġ Â«
Ġl os
Ġgener ally
m ber
Ġar ch
Ġ3 8
Ġ18 0
re l
Ġke ep
in ces
Ġ3 7
Ġex ec
re land
i pp
sem bl
Ġb es
ĠI V
re st
Ġ3 3
CH AP
in ent
Ġsupp ort
Ġhe ard
Ġimport ant
ĠL et
Ġb ur
Ġcent ury
Ġqu ar
k en
z e
i y
Ġe ff
ri but
ro y
olog ical
Ġt y
g reat
Ġlaw s
Ġm aj
ent h
ĠP er
ĠM on
ix ed
at us
Ġhon our
Ġin h
ive ly
p id
Ġs old
ĠR ob
Ġto ld
ri a
Ġappe ared
Ġre d
Ġw ind
t ic
Ġh ar
Ġocc up
p ers
Ġth ird
Ġe ight
int ed
Â £
Ġa ir
Ġs atisf
ĠG erman
ĠB ishop
ail ed
im ents
Ġm oney
Ġde p
Ġp ast
Ġ3 4
ĠY ork
i h
s ome
Ġconc ern
b ar
st ance
em ber
ĠTh omas
R O
Ġfre qu
Ġa f
Ġ id
Ġo ught
ĠHist ory
w hen
Ġchild ren
r am
ic ation
Ġbr ing
th an
ru ction
Ġf u
Ġenem y
m ar
Ġen c
ra g
g et
Ġpol it
stit ution
ĠM an
ĠW est
Ġal one
erv ed
ĠN orth
l ar
Ġa ffect
Ġmention ed
ve y
overn or
Ġw ant
p ire
air s
ĠN e
Ġal though
Ġm ount
Ġm oment
Ġobl ig
iv id
us es
Ġh ome
ĠC or
Ġsa w
Ġtro ops
Ġqu ite
and er
Ġ \
AN D
cul iar
ap pe
ĠSe c
am b
c ons
ad o
ĠW ith
Ġne g
Ġt ell
Ġw ife
Ġun i
i ast
Ġorig in
j o
Ġun to
l ished
Ġ3 6
Ġb us
Ġposs ible
Ġcontinu ed
ar i
ous ly
Ġd a
ear s
ĠH ow
in i
Ġorig inal
h as
Ġre ign
ĠN ot
5 0
n et
Ġart ic
ĠE p
ar ce
Ġcomple te
Ġo t
form ed
Ġvi ol
p at
Ġm aking
A s
Ġr ound
Ġi h
ĠO f
Ġth y
Ġs al
Ġ3 9
Ġbl ood
Ġlet ters
Ġle ave
ist ed
Ġc ut
Ġ {
Ġcon nect
Ġem b
Ġplac es
ak en
Ġh ab
re me
n ed
Ġa v
Ġpap er
b ishop
pp er
p any
Ġimp ro
Ġres ol
ag ed
Ġam ount
t a
Ġ ll
Ġset t
Ġfriend s
l or
b id
Ġocc ur
Ġmil es
Ġde ep
Ġth ou
3 4
Ġc ivil
ro p
b re
Ġf ine
Ġemploy ed
c ol
r or
Ġpo or
Ġp un
ĠJ an
du ction
ĠAr ch
Ġes pecially
Ġ18 6
ce ived
Ġse par
Ġatt ention
Ġobserv ed
ĠI reland
Ġsim ilar
Ġcons idered
at o
Ġinflu ence
i qu
3 7
p ed
o ir
Ġth ousand
im ate
ĠE gypt
pe l
2 1
Ġdoct r
Ġne ither
Ġc ouncil
A S
ĠF rom
se t
Ġt al
ut es
Ġking dom
Ġad op
Ġadv ant
Ġc apt
ĠA fter
Ġdut y
Ġarm s
p et
in to
Ġt i
3 8
ru pt
ĠG reat
Ġa ut
ic ated
te en
ad ed
y ond
Ġw all
b ury
ay ed
Ġo per
Ġmem bers
Ġl ost
Ġansw er
at i
or ies
Ġt est
Ġconsider able
Ġh y
if ul
Ġcon st
pr il
te e
Ġsu n
Ġopp os
ra ce
r id
Ġval ue
Ġ4 4
Ġbu ild
Ġpos ition
ubl ic
stand ing
oc al
p ic
ri b
3 5
Ġf i
ĠA c
ĠQue en
Ġv irt
n y
our se
ĠC ouncil
ad a
Ġde part
ach ing
Ġri ver
Ġst e
Ġpo et
i ety
ĠM em
ĠI r
ĠEd ward
at ur
Ġatt ack
Ġfor th
ĠL at
Ġp ra
land s
3 6
Ġlangu age
Ġappoint ed
Ġo m
Ġm orning
Ġdist ingu
ĠP e
t ions
know n
Ġv ii
Ġdeg ree
Ġnor th
Ġth ir
re ed
n ing
ĠG u
Ġg et
ert y
ĠS u
ĠMaj esty
vel op
Ġey es
it ing
Ġla id
g ment
Ġch ap
Ġpe culiar
Ġse nd
ran ge
ri age
ous es
Ġnot e
Ġst ri
Ġf ut
Ġl es
ther n
Ġc rown
ĠC al
Ġref er
w ing
ĠO ne
Ġimmedi ately
d i
t ime
Ġj o
Ġsch ool
Ġex hib
h a
Ġs ense
inn ing
m ay
Ġa ction
Ġc oun
ĠP at
ut ions
Ġcon v
Ġprinci pal
Ġdes cribed
Ġd if
an c
Ġs in
Ġne igh
ĠC apt
Ġbe gan
Ġwh ite
Ġnot ice
ĠDu ke
Ġf ac
ci al
E ng
d is
Ġ2 1
Ġrep ort
Ġpro duced
p i
ĠM ed
ific ation
g in
Ġg old
ĠMar ch
Ġke pt
Ġfollow ed
Ġsubject s
ate ver
ĠC ath
res pond
ĠO ct
ĠG l
Ġw ood
Ġcom pl
Ġh ath
u a
Ġce le
or ough
ceed ed
it al
ul a
o res
A r
Ġf ear
ĠG eneral
Ġrem ain
ĠG overnment
ĠJ une
ill s
Ġent er
ĠInd ia
Ġb ad
u ct
ĠP ort
j ust
m a
Ġm ater
ĠT O
Ġpr ince
idd le
Ġreturn ed
Ġl ed
Ġro y
j oy
Ġd ue
Ġs i
Ġdist inct
ĠJ uly
Ġs ometimes
Ġoff ice
Ġport ion
s ion
Ġf ol
Ġhe l
Ġx v
Ġpr ison
Ġcond ition
ag ain
U N
ĠI m
ist ance
ĠSe pt
ĠWh at
ivid ual
itt ing
if y
ĠGe orge
it or
ĠM ag
i ver
og n
ĠY ou
h ood
Ġcl aim
ĠL a
A l
Ġf ield
n um
ĠR E
Ġform s
at ory
clud ed
re y
an ced
ĠM in
3 9
Ġt l
Ġpre vent
oura ble
Ġm ethod
Ġen ough
Ġpl an
Ġp hil
Ġfo ot
ĠH ISTORY
Ġ4 5
Ġsec ret
Ġm ass
Ġv ict
Ġc ases
e ch
b et
Ġ5 0
ich ard
Ġs itu
I R
Ġdu ke
Ġ4 8
ish ing
4 4
of t
o ke
ac c
g ar
Ġp al
t wo
Ġcon cl
Ġl iter
Ġd ark
Ġv es
act ion
o ved
ĠB er
Ġcar ry
al og
il ed
er a
P ro
y ou
end ed
' t
Ġa w
Ġoffic ers
s ent
ĠC r
Ġspec im
Ġg row
Ġex cell
Ġpriv ate
all ed
abit ants
te ll
ust om
Ġtem per
vers ity
ĠA lex
Ġdes ign
b on
Ġl ater
ĠC ount
Ġm aster
O P
um ent
ĠEs q
Ġw at
Ġin qu
Ġno ble
sh ould
ĠR ep
Ġar rang
Ġm other
ĠR om
le ment
ĠRe g
Ġt li
b ert
Ġam b
g ing
Ġb is
c d
Ġroy al
Ġh i
s pe
e av
Ġm ove
Ġl ow
Ġchar ge
Ġrelig ious
il i
Ġch ange
is ters
ĠAug ust
w orth
Ġe lect
Ġim per
el ve
ĠR oyal
nd ered
ain ted
her s
ĠB o
c ar
Ġtrans l
Ġa ud
ĠV ol
Ġpar liament
w er
ed s
il es
ĠA g
Ġtit le
The re
Ġnum erous
c ap
Ġm aint
p ass
Ġ4 7
ĠC am
D E
Ġbook s
O T
Ġre v
Ġor gan
p on
ĠS am
aug ht
Ġf air
Ġsupp osed
ci ous
ur d
Ġseem ed
Ġre pe
ur ches
4 8
m ade
b el
Ġac cept
Ġcom b
Ġrequ ired
port ion
Å¿ t
Ġm ain
ĠM a
Ġde ad
Ġhist or
c le
Ġre ady
Ġbl ack
i os
Ġal ong
Ġin cl
Ġequ al
p ared
Ġstre ng
AT ION
Ġbene f
an ct
Ġv ill
ĠF eb
ĠRob ert
D e
c ertain
Ġfore ign
u it
ic ed
Ġh oly
R I
arce ly
ast e
Ġf urn
Ġappear ance
ĠE n
v a
os oph
Ġd aughter
be ing
so ci
Ġbe yond
ĠA ng
Ġgiv es
c ome
j ud
Ġe p
ĠO x
ad d
Ġv iii
F or
Ġpl ain
ĠC ourt
Ġlong er
ĠS oc
Ġ17 9
em ents
r as
ren ce
Ġt u
su b
Ġb attle
u ous
Ġex erc
Ã ±
Ġn one
or a
Ġsuff icient
Ġ ign
Ġtak ing
ot est
pl ace
Ġext ra
J ohn
res h
b i
as ures
the se
ĠM y
is hes
ccles iast
Ġadd ed
u ary
Ġcl ergy
in o
Ġgr and
em s
Ġb ound
ĠJ ourn
S S
Ġr un
Ġgreat est
ĠMr s
Ġcircum stances
f a
c n
Ġcele br
ve ll
j e
c er
m i
Ġfr ont
l ong
Ġc ross
it a
on ly
Ġarri ved
b u
un ity
Ġh o
ĠS m
r ough
G E
ore d
Ġsing le
g l
Ġprinci ples
ĠM ad
ess or
Ġs outh
Ġexp ed
el f
ĠS y
Ġ4 6
Ġn ames
Ġsu re
Ġch ang
ĠM ary
Ġentire ly
ĠN at
Ġd ri
U RE
ĠP o
ĠĠ ĠĠ
ĠP aul
ĠJ er
p resent
Ġf elt
ne x
ar ks
4 7
y le
Ġpass age
Ġpolit ical
x x
3 3
Ġrece ive
b and
ĠL ife
ro ad
Ġent ered
U L
r ict
ab les
Ġ18 7
er al
ĠS outh
ĠM iss
ĠS te
Ġim ag
ect ion
Ġestab lish
Ġpro gress
r ight
Ġs om
m uch
Ġind ividual
ĠAn n
Ġp et
c u
al k
p ress
poss ible
ĠA cc
Ġhe ar
ail s
Ġqu i
S e
Ġco ast
ĠScot land
Ġed uc
ĠJ es
ĠS ome
Ġf ace
Ġgra ce
ĠS T
ĠE li
h old
sem bly
it able
Ġremark able
ad es
u ck
h ow
Ġ4 9
Ġb ra
ation al
Ġph ys
ro s
on el
ic ate
Ġdes ire
he st
ĠD av
Ġproper ty
Ġide a
Ġto t
a a
ical ly
Ġhor se
n n
ĠF l
Ġey e
Ġat tend
y e
Ġpro cess
um ed
ĠL ib
Ġjust ice
l in
re es
I X
4 5
Ġg od
eth ing
s he
su ed
Ġcol our
ĠL aw
Ġmy self
Ġext reme
Ġc um
ar a
ert ed
Ġf al
h ouse
ord ed
Ġsur face
A Y
Ġde pend
ĠX V
Ġterm s
ĠP eter
or ks
Ġves sel
ĠE arl
Ġpr im
Ġdis p
Ġdist ance
Ġp aid
ĠGree k
Ġmonth s
Ġst ated
Ġc it
Ġpresent ed
Ġme asure
Ġob s
Ġl ist
to gether
Ġc ell
Ġord ers
Ġin j
en ess
B e
al ed
Ġk new
Ġh our
Ġl ines
ial s
Ġadd ition
ĠV I
ĠL ie
Ġlib erty
Ġs cience
Ġev idence
Ġpoint s
ĠH ar
ĠB ook
Ġexam ple
C om
Ġvis it
Ġtr ust
ĠPr ince
Ġ ess
Ġend eav
i res
Ġse ven
Ġc at
cl aim
ĠP al
Ġel se
Ġm ult
ĠS w
Ġpo pe
Ġd ate
m ir
Ġrem ained
m od
ĠA f
Ġh op
Ġsl ight
w ork
Ġl ady
4 6
s ol
Ġposs ess
ul es
i is
Ġnat ive
Ġcertain ly
Ġar g
ĠIr ish
es e
Ġbr an
Ġfut ure
Ġpre ced
ond er
ĠA pril
et t
id s
B y
ĠS ur
Ġall owed
I A
ĠTh us
Ġpr inted
an a
Ġsu gg
Ġc red
Ġqu ant
l ight
o cc
s uch
Ġde b
p ir
Ġen joy
ĠN ov
Ġl iving
Ġinst rum
E M
Ġm a
Ġf le
p a
t ure
Ġl as
ĠPar liament
ia h
l aw
re f
Ġestab lished
Ã³ n
m ission
ĠX X
Ġst ru
Ġser ies
is ions
Ġ âĸł
P r
Ġc reat
be ll
k ind
o a
Ġex act
c s
ĠS al
Ġill ustr
ere n
om y
th ose
Ġd im
bl es
Ġin tended
ER S
Ġj our
Ġinterest ing
Ġf ir
m ight
Ġdem and
id ing
ĠP res
f ield
ĠD o
Ġt ou
f ound
ĠP ers
an ks
r r
il st
ĠU ni
ver se
Ġdecl ared
Ġcon qu
Ġposs ession
Ġ vel
Ġde velop
ĠA v
b a
Ġinh abitants
Ġadvant age
C I
Ġsy m
Ġmeet ing
Ġl ower
Ġus ual
I f
Ġ17 8
Ġmus ic
ĠJ ew
Ġ =
iv al
Ġpro of
it ive
be fore
ch ing
it i
ĠSp an
em ed
f o
Ġpres ence
Ġm as
E d
ow ing
be y
Ġ <
Ġn amed
ĠC ast
Ġgiv ing
Ġg overn
Ġal t
ish ment
Ġ17 7
Ġdes cription
Ġs qu
ĠSt ate
Ġtr ou
4 9
Ġro ad
Ġeven ing
Ġl ive
Ġpro ved
Ġn ations
Ġwh atever
ĠAmer ican
Ġfam il
Ġst ates
Ġconsequ ence
Ġinst ance
Ġed ition
Ġs ou
R e
Ġfor ward
Ġp red
ĠH ere
c is
Ġp a
ll i
Ġs ort
of e
ĠCol lege
ĠN ove
Ġb od
ĠC he
Ġbeg inning
Ġbishop s
Ġapp re
Ġdire ction
ens ive
Ġwr ote
Ġcon ce
ĠAmer ica
al le
st reet
est ig
Ġthir ty
oun ced
Ġt end
Ġlearn ed
L I
L e
an cy
ĠPro v
Ġvol ume
ord er
Ġbus iness
Ġgo ing
Ġp ress
b ted
um ents
Ġapp arent
W ith
Ġl oss
Ġsh own
ĠM o
ist ry
Ġval u
ri an
ive red
Ġpract ice
Ġ _
it ation
ac es
rie f
U M
ent ed
Ġg ot
n at
Ġfound ed
S ir
O r
av al
ut ation
et e
Ġc ru
Ġpre t
Ġmere ly
Ġadm ir
Ġra pid
ĠĠ Ġ
Ġso ciety
Ġsc arcely
Ġmod ern
Ġord inary
Ġem peror
Ġcons ist
c ur
Ġcor respond
Ġs le
Ġpro s
Ġf at
C on
Ġp owers
Ġdistingu ished
ĠM art
Ġspeci al
Ġcor rect
Ġque en
Ġdang er
Ġhe at
Ġan ti
Ġstud y
Ġet c
Ġ18 9
O f
Ġb ird
ĠC at
Ġtr ade
Ġa ck
Ġl ands
Ġinst it
u er
Ġimport ance
Ġext ent
at ors
Ġm id
sh ire
Ġmil itary
Ġbe ar
ĠâĢ Ŀ
Ġ Â»
Ġs ens
Ġpop ular
ir th
ĠT ur
ra b
ab out
ab eth
W hen
Ġb as
ant ly
c ould
f r
Ġmag n
he ad
Ġf ru
ĠR ichard
ribut ed
Ġbe com
od e
Ġra ised
ĠM il
as ing
Ġs ir
Ġrem ains
br idge
Ġdoctr ine
H is
ac ed
ĠW al
pos es
st on
ver t
Ġgr anted
or row
b it
Ġpro ve
Ġsub s
Ġdeterm ined
Ġth in
Ġc ult
Ġdra wn
Ġear li
Ġjud gment
Ġobserv ations
Ġr ich
Ġack now
Ġamong st
ĠP ri
5 8
Ġabs ol
Ġh ost
Ġcont rary
u v
Ġis land
A D
ib ly
ro g
U T
Ġd om
ter nal
c or
Ġpl ay
Ġdisc uss
ag ue
in ity
Ġw ild
E W
D r
Ġ vers
d ra
Ġneigh bour
ĠSp ain
ĠItal y
ed e
ĠT e
ll y
Ġag ree
Ġd r
Ġm ot
ic o
ĠE l
u y
man y
z a
Ġc ost
ci a
ĠP et
3 1
Ġa id
w r
ĠH on
Ġf it
f irst
ie l
Ġtw elve
ens ion
Ġm ort
ĠV er
Ġh ours
ir y
Ġp ure
am s
Ã ¼
Ġinst ead
ĠW il
Ġprinci ple
pe lled
pan ied
Ġsu d
Ġc amp
Ġinform ation
isc op
Ġro om
IC AL
Ġd on
Ġw ish
Ġre ndered
em b
Ġgr at
am m
it to
Ġsh ip
The y
Ġp ot
S o
ĠO b
ci es
n r
Th at
Ġfrequ ently
Ġcon stant
ON D
Ġple asure
Ġoblig ed
Ġopp ort
Ġst ep
Ġf ully
Ġem pire
g ra
ab ility
L ord
Ġsuper ior
j i
uf act
z abeth
A B
is l
Ġm iddle
ĠG overnor
Ġresult s
ing ly
tell ig
Ġm otion
Ġ6 0
Ġc rit
Ġse lf
s ame
Ġstreng th
c ks
ĠL ady
again st
h i
ord inary
Ġtr ad
with out
c ond
st ood
n l
IS H
ir s
Ġl ived
Ġso vere
ĠV III
Ġlab our
Ġthe e
ĠSt ates
Ġapp lied
ĠJ ud
Ġwh y
en ced
Ġdes p
us al
Ġst ra
form ation
Ġsim ple
Ġuni vers
5 5
Ġoff ered
ur a
Ġsac rif
ĠD es
Ch rist
Ġs ed
f our
Ġcomp ar
om b
Ġadop ted
Ġs we
Ġgr ad
Ġparticular ly
om er
ĠP ap
s al
Ġm ist
che n
A d
u el
Ġd ign
en a
ĠThe ir
Ġper form
ĠM or
Ġ3 1
i U
ĠM us
k es
C ol
ĠD an
Ġbeaut iful
6 6
Ġgu ard
ĠC a
Ġp ain
in ite
qu is
Ġz eal
or ity
Ġf un
ĠLat in
ne ver
Ġsom ething
ĠG oogle
Ġapp lic
ro l
Ġturn ed
d s
he l
ĠS cript
Ġdis ci
ar row
Ġsh ips
Ġqu al
Ġdest roy
Ġh ast
ol it
ant e
L ondon
Ġ ur
r ay
Ġhe ight
Ġm akes
Ġr ank
oth ing
Ġwh ilst
Ġre vol
ing ton
ĠW ar
ĠV II
t ra
Ġpro posed
se ll
Ġequ ally
Ġsto od
un s
u ff
Ġdiv ine
Ġmor al
G oogle
Ġenem ies
Ġc old
Ġde al
Ġp ict
er o
ose ph
m et
Ġwe ak
Ġpre par
w ood
Ġpre pared
Ġh us
Ġv on
Ġdifficult y
ĠCath olic
it z
as ons
ire ct
cclesiast ical
e qu
Ġm i
Ġwe ek
Ġign or
Ġt able
ĠBrit ain
Ġth ick
am ber
8 0
Ġpart ies
ĠH oly
Ġwrit ers
Ġd ed
Ġmat ters
ĠN ow
h y
ĠE ast
d iff
Ġreg ular
Ġ ia
Ġadm in
Ġfact s
Ġo l
Ġf em
Ġcom ing
Ġdist rict
F rom
r ick
3 2
i ation
Ġe e
Ġperson al
Ġst yle
th rough
cient ific
d em
Ġdes cri
Ġinde pend
I G
I AN
h and
Ġobject s
ĠF ather
Ġf il
ut en
Ġanim al
ĠUn ited
as k
ain ts
T S
o ber
Ġch o
Ġwrit er
Ġexpect ed
se ct
Ġap ost
N ew
t l
vent ion
Ġthrough out
Ġan g
burg h
t w
clud ing
s ue
Ġs oul
Ġinst ruct
in us
Ġre ally
Ġpro portion
Ġpie ces
er ate
or ne
Ġpr ice
se e
os pel
Ġs ize
cept ion
ĠTr ans
p ly
Ġv ent
5 9
it led
ib ility
s ide
Ġas ked
en n
Ġf irm
Ġeng aged
Ġinf er
Ġexcell ent
i ance
ic y
o ch
i ke
Ġt b
M ar
Ġlook ed
fort un
Ġ5 7
Ġi x
n est
Ġl at
e very
Ġsud den
S c
Ġcont em
Ġpre f
Ġev il
Ġw oman
Ġw omen
ic ro
Ġcont r
ĠA ust
Ġdra w
5 6
Ġall ow
ĠS on
Ġord ered
5 7
Ġfal se
oura ge
os es
Ġag o
Ġh ither
use um
Ġhel p
G L
Ġw ide
Ġpro duce
Ġpar a
a res
Ġt ext
ul f
ĠOx ford
ad v
Ġdisc overed
c ut
Ġadd ress
or ious
d on
Ġm outh
Ġst ory
su pp
Ġsome what
A m
Ġs ight
em y
Ġser ve
Ġcont in
ll a
Ġnum bers
Ġh ouses
A C
es tern
Ġpl ant
c her
Ġru le
Ġto m
Ġhig her
r ig
ĠInd ian
i it
Ġbeh ind
re c
Ġb ed
Ġexist ence
Ġf ixed
Ġc overed
Ġaff airs
Ġcomp any
lem n
Ġvo ice
st one
Ġfeel ing
Ġheav en
g eneral
Ġre nder
ent ial
Ġbu ilt
mit tee
Ġc u
ou is
count ry
ract ed
Ġworth y
ĠM at
Ġeas ily
Ġmod e
Ġrec ogn
Ġhigh ly
Ġe vent
i ally
Ġc ry
Ġobt ain
Ġconcern ing
Ġdis e
b ook
ot es
O S
Ġs av
Ġconnect ed
Ġim possible
Ġgreat ly
Ġcelebr ated
Ġd omin
Ġwor ship
ell ow
Ġn i
ĠJ ust
Ġsuc ceeded
Ġwe ight
Ġdes cend
er ation
Ġfor ty
Ġg all
ard en
Ġdel ivered
Ġh abit
Ġdirect ed
cl es
Ġmar riage
P ar
h o
Ġs ound
Ġf ail
ĠE N
Ġadv anced
ĠT H
Ġhe alth
if orm
ĠCapt ain
Ġqu od
ur b
ag er
ĠPr otest
wh ile
Ġhig hest
pr ise
Ġv ig
OO K
Ġre ached
o very
Ġpro p
n ers
c al
um es
Ġse vere
Ġcap ital
e a
Ġst one
Ġchief ly
b ra
ruct ure
Ġir on
Ġwall s
ur ies
Ġk illed
Ġcon stit
ul ated
Ġadm itted
Ġpro c
Ġest e
Ġb oy
Ġwit ness
Ġincre ase
ur is
Ġbes ides
pt ion
Ġex tend
on ed
pp ed
Ġnation al
te enth
Ġ /
at io
ress ion
ĠC O
ac ity
with standing
ict ed
Ġsac red
Ġsp ot
ru ary
Ġg one
ch ief
Ġgl ass
h ip
Ġca used
Ġintro duced
Ġ >
Ġev ents
p oint
6 8
Ġfif ty
Ġ +
Ġw est
r im
Ġm el
Ġre comm
Ġcon vers
Ġsupp ly
ur ity
he nd
ce mber
and o
act ers
Ġh om
ent al
Ġthe ory
Ġdiv ided
or ation
ĠThe n
Ġch urches
Ġcount ries
h all
Ġin n
a ud
iv ity
Ġnecess ity
Ġse vent
ĠO ff
aster n
um ph
Ġref erence
v ation
Ġb orn
ĠDav id
Ġcom posed
AR Y
Ġdef ence
ĠL and
s aid
Ġf resh
ĠS uch
p her
id o
ĠM ont
Ġh at
ĠCom pany
ĠT em
ĠD E
ĠR uss
ĠSm ith
ing ham
s m
O F
ĠEli zabeth
Ġw onder
Ġgentle man
or al
Ġm ur
Ġi u
ak er
at ives
Ġdo or
Ġm ut
Ġhard ly
im s
ist ic
Ġother wise
Ġ Ã©
Ġm ir
Ġuse ful
Ġse ason
8 8
ĠB ur
ĠN ap
Ġra ce
4 1
Ġman if
ar ily
Ġregard ed
Ġm ill
be c
ca pe
ĠD i
Ġoccup ied
Ġxx x
ĠI bid
ĠA ss
um b
ĠJ e
I ES
Ġim m
Ġdis pl
us h
Ġcur ious
Å¿ e
v ille
Ġe rect
Ġanim als
Ġv en
Ġdef end
ĠM ac
th ree
Ġvalu able
4 3
Ġcont ains
Ġabsol ute
I s
Ġrep lied
A V
p en
Ġre ven
Ġright s
Ġ8 0
m os
Ġu pper
AR T
le nd
N O
Ġun less
Ġexp ressed
Ġbel ow
on a
I nd
Ġcent re
Ġsold iers
Ġr ise
Ġbod ies
Ġw is
ĠAf ric
Ġcomp an
j us
Ġm al
est ions
Ġpriv ile
Ġal ter
or ia
Ġca uses
Ġrepresent ed
Ġs ides
Ġthr one
ĠC ont
b ody
Ġd il
G e
ĠF R
ĠLord s
Ġtak es
Ġat tended
a ft
Ġan x
E x
p res
Ġcont aining
Ġde ar
Ġsub sequ
AT URE
ge nd
pect ed
ap h
Ġer r
e y
L ES
Ġc re
e ven
Ġbro ad
Ġread er
Ġin tellig
T O
Ġs our
Ġincre ased
T r
ĠH igh
Ġter rit
ors es
Ġgl ory
t f
Ġcomm ission
Ġgr ant
Ġdiff erence
Ġpie ce
Ġk ings
Ġc over
ar ia
7 0
Ġ1 00
Ġopin ions
Ġoff er
d el
Ġse ct
Ġrem oved
re qu
y ng
ĠF ox
av en
ĠP art
Ġyou th
Ġs at
h on
os pit
Ġtreat y
Ġx iv
Ġrespect ing
Ġcont ained
ĠAc ad
Ġp urch
ĠM ess
Ġwrit ing
Ġsovere ign
Ġmark ed
Ġa e
Ġpro phe
Ġcomm er
Ġfor g
ĠCon stant
p ower
Ġl ad
Ġj oy
Ġop ened
C l
m us
Ġin ches
Ġto p
Ġcol lection
Ġview s
Ġcon stitution
ĠM al
Ġ5 9
G eneral
p ur
ĠC y
Ġv ain
Ġst ation
s ch
Ġf illed
Ġdut ies
e ed
Ġde fe
C O
ĠO P
Ġe ast
ĠLord ship
he ther
ĠS ax
Ġa uth
ĠJes us
c alled
c ourse
Ġsp ace
pe ople
Ġvirt ue
Ġex ceed
t em
Ġa vo
av i
A IN
Ġb ill
Ġspe ct
ic ial
ll s
Ġrec ent
ĠD iv
Ġcit iz
ĠH all
ĠS ol
Ġprob able
6 2
him self
Ġproceed ed
ĠT ra
Ġsupp ose
Ġk night
uten ant
Ġra re
ĠB el
Ġcol lect
s ur
Ġsur r
Ġeduc ation
p ret
ape l
u le
fer red
Ġrem arks
ici ently
Ġeas y
Ġjud ge
Ġlike ly
m ark
t ies
Ġag es
Ġexper ience
ir ing
ĠDe c
Ġut ter
Ġ ident
Ġa u
Ġpres erved
Ġnot es
Ġcond em
ir med
ĠB ay
h aving
Ġl ic
an im
Ġun f
Ġmin ister
Ġj u
os a
Ġfell ow
ĠG en
Ġt ax
Ġpap ers
con f
al so
Ġder ived
ie nd
Ġunder stand
w ar
Ġartic le
Ġpol icy
am ong
ĠP re
ert ained
id a
Ġpri est
it ate
I M
Ġspirit ual
g ood
r ation
n or
Ġdes ired
Ġartic les
r at
ract s
Ġv ast
Ġcop y
Ch ar
st e
Ġas sembl
s y
ĠV ir
Ġinv estig
6 4
Ġopport unity
Ġp i
ac on
m ust
Ġu lt
Ġme asures
Ġent itled
os en
ac her
V OL
Ġquar ter
Ġcon ven
ĠO N
ject ed
Ġlike wise
ĠI nt
The se
ĠU e
Ġas soci
ĠInd ians
Ġf und
Ġp u
Ġwar m
s im
ĠS ci
um ber
Ġspecim ens
ur t
Ġgr ou
m as
pl ic
OO Q
Ġf ast
Ġus ually
ĠJan uary
Ġs ons
Ġbre ad
a ult
d ist
Ġs en
Ġn arrow
Ġpl ants
ĠEm peror
in ction
Ġprov ided
Ġquant ity
a uthor
ĠS er
Ġaccom pl
Ġaccom panied
Ġfour th
Ġimpro ve
bet ween
ES T
l as
w or
m t
Ġb old
ut ch
Ġmar ried
Ġsu p
in er
Ġdel ight
Ġany thing
Ġcult iv
Ġmon arch
S E
Ġex cl
Ġsuff er
Ġdo ing
Ġhus band
Ġl oc
L L
b us
e f
ĠB en
Ġeffect s
ĠGerman y
i que
Ġpr inces
Ġc orn
l u
ed y
mon y
Ġda ily
Ġp as
ĠEd in
Ġbuild ing
Ġd oc
Ġformer ly
Ġprev ious
k i
Ġhe ro
Ġdisc over
Ġhapp y
m es
Ġ )
Ġread ing
ĠC ON
Ġact s
Ġexec ution
it ud
ret ary
Ġarri val
al y
ĠUni versity
ĠM S
Ġt or
4 2
Ġb irth
Ġfor ces
A b
ch o
Ġwe alth
in y
Ġsp ir
j r
ĠP ope
Ġv an
ject s
on ies
osoph y
Ġde li
Ġconsider ation
ĠO ur
a is
Ġso lemn
Ġrefer red
6 1
Ġb i
Ġrep ro
Ġdiv ision
Ġw id
Ġre ve
ok en
AR D
b ro
w ater
ĠL u
Ġprov ince
Ġc ustom
Ġv ic
ĠL y
ac ks
iv en
f c
Ġtem por
Ġb ott
t or
ĠI ll
Ġre duced
Ġpass ing
Ġgl ad
f u
it ter
ol s
Ġund ert
h app
ost on
Ġrel ation
Ġcal cul
Ġman ufact
l ook
Ġlar ger
ol k
ĠR o
Ġl ocal
Ġf ame
Ġob ed
Ġbo ard
Ġl y
Ġpower ful
ad or
O H
Ġm ission
ant ic
6 7
n m
O G
Ġbro ken
Ġsil ver
Ġhither to
Ġcomm it
Ġle aves
Ġc ou
Ġf ood
Ġtown s
t ain
v an
ĠG reen
un i
ĠL ouis
Ġst range
ens is
Ġc ere
h ire
y ears
as ant
Ġass ert
in ate
Ġs it
Ġear l
p es
ĠO ld
Ġcomm itted
Ġa i
Ġatt ached
Ġu f
ĠAn nal
Ġsc ene
ver ted
Ġpre c
M y
at ures
Ġd ich
Ġk n
ĠJ oseph
Ġl ately
Ġposs essed
or us
Ġrequ ire
Ġjour ney
P l
V I
Ġcount y
ĠPhil ip
Ġan t
a us
f ollow
w in
se y
Ġmar ch
ĠG ra
app oint
p ot
am a
Ġfollow s
6 9
ent e
Ġle aving
ĠY et
ne cess
Ġmin ute
Ġanti qu
id ently
Ġal together
d ed
o on
w rit
Ġbre ak
che ster
ĠOct ober
l ia
ce ive
ĠV en
Ġfle et
Ġe ld
y ear
W illiam
Ġh ym
en ing
e en
Ġn ine
Ġoppos ite
ĠW ell
ort ed
ĠR es
Ġg reen
re r
v is
G od
Ġcons ent
il ities
ĠE r
Ġw inter
Ġu ne
Ġtreat ed
l ast
Ã ¶
ce l
oll and
Ġbr ight
Ġsing ular
Ġcon vey
to ok
ch an
il ing
ĠNove mber
5 4
i T
d a
ĠÂ §
Ġc ities
h or
Ġadv ance
Ġsitu ation
Ġ ]
bl ed
d iv
ol ar
Ġexped ition
8 7
v y
Ġre sembl
su ff
Ġref used
ĠA the
Ġsuff ered
istr ation
ĠS pe
p ut
ud ed
sh all
Ġw ise
k ins
c ast
um n
ab led
H en
v iew
Ġm ess
ĠSpan ish
b ot
Ġd ro
ig e
ill a
for ce
cl ock
Ġf ight
ens ions
ust ed
com mon
Ġcur rent
A fter
I D
U n
Ġv ir
in st
Ġb ase
ĠT wo
Ġsay ing
n on
H er
ĠOb serv
s l
ĠT re
Ġ7 0
b is
Ġt aste
ĠIt s
f erence
Ġro ck
Ġpat ri
ol es
6 3
Ġo x
Ġcond itions
icro sc
Ġmean ing
Ġfig ure
Ġrepe ated
Ġy ield
Ġlearn ing
Ġf er
Ġar ound
Ġsa fe
Ġpro duct
ic us
n ame
Ġth row
eren ces
Ġacc ur
l im
Eng land
8 9
Ġchar acters
Ġmind s
Ġfre ed
E E
Ġl ives
Ġclass es
ard inal
I F
ES S
Ġproceed ings
Ġm art
Ġbelie ved
an i
ad ing
ĠPort ug
r ant
ĠT y
ĠC ap
Ġsp ring
Ġ3 2
Ġb urn
ac le
Ġab und
Ġs cientific
ĠD on
A ll
Ġvar iety
au x
in th
ĠT est
Ġobs erve
Ġmem ber
Ġtest im
Ġcom fort
ĠG reg
Ġfe e
en es
Ġspe ech
ul ous
m is
Ġs em
ĠS im
ac hes
t ri
it ure
ly ing
b ur
5 3
Ġoffic er
ĠH am
M ay
re ction
Ġwrit e
ĠJ o
Ġpri ests
Ġsp read
ance ll
Ġor n
Ġserv ices
Ġl ords
Ġpr on
ic les
ĠUe ber
Ġthen ce
O D
Ġcon se
Ġoppos ition
u ge
Ġcol lected
ran e
ot us
ograph y
g a
Ġqu iet
y our
ick ed
es ter
AL L
Ġc hem
Ġth rown
Ġp arent
Ġst ructure
ĠV al
Ġdec ided
Ġt aught
Ġple ased
Ġher self
ĠAp ost
ll o
OR D
Ġcred it
r ical
Ġb an
Ġpur su
ĠM ah
Ġc row
Ġp age
Ġro se
d id
Ġansw ered
at um
Ġth reat
f ive
ic le
Ġmo ved
ĠI X
9 0
er able
ch ange
Ġdou ble
Ġmin isters
g reg
Ġr ate
Ġact ive
how ever
Ġle ct
Ġag reed
mir al
S h
ion ed
ĠSc ott
Ġh orses
ĠC ons
ach ment
ar um
as ions
m ond
Ġb ri
claim ed
rib ution
M e
id el
Ġconf idence
ĠMaj or
Ġde pos
Ġcontin ue
A G
ĠHe b
Ġvessel s
Ġpop ulation
EN D
Ġinform ed
usal em
v ii
ra el
Ã© s
ie ge
Ġo ath
Ġthere of
he red
Ġh ot
h r
Ġbelong ing
ĠAr t
Ġpur poses
Ġheav y
in ner
ad el
Ġear nest
Ã ¤
Ġre se
Ġper formed
Ġl u
ĠSept ember
ust ri
Ġrel ative
Ġexpress ion
i L
ent ions
hen s
ENT S
Ġconcl usion
ĠCom mittee
Ġper pet
Ġsee ing
Ġc and
est ic
EL L
Ġgentle men
Ġresol ved
Ġjo ined
F ig
Ġb apt
ĠE t
w s
Ġw ine
ĠAlex ander
Ġs n
Ġextra ordinary
a it
Î ½
Ġprot ect
Ġo d
ĠA then
ia e
are r
B rit
ang er
Ġpro pri
Ġb ank
cript ions
m ag
Ġi he
Ġimmedi ate
Ġwe l
ag ement
Ġmer ch
Ġbeaut y
ĠItal ian
Ġspe aking
t n
b an
Ġe f
tr ans
Ġunder stood
m at
th ren
Ġacqu ainted
5 1
ĠEN GL
O B
U B
ĠG RE
p us
Ġnat ur
Ġa ver
ie ve
CHAP TER
Ġass ist
Ġpro pos
Ġcom es
ĠW here
Ġinst ances
am ents
Ġin fl
Ġexam ination
w all
z en
Ġperfect ly
Ġacknow led
Ġstat ement
Ġsepar ate
oc ks
ic he
Ġj e
S ee
ĠB ill
Ġpreced ing
Ġstr ict
r ich
Ġtri al
ĠI S
Ġib id
ĠSec ond
ĠB ib
ĠChrist ians
Ġapplic ation
s es
Ġtemper ature
Ġfeel ings
p are
Ġd og
b en
Ġst age
h ist
Ġclear ly
ar ly
Ġpart ly
Ġcont ro
R Y
ĠDe cember
Ġoccur red
ĠCol onel
Ġst art
ĠFeb ruary
Ġdes ir
Ġn arr
ĠC orn
ĠA pp
erm on
ĠM useum
ens es
ĠHer od
ĠRom ans
Ġn u
am en
ol a
Ġtr an
h um
Ġsub stance
Ġe cclesiastical
t u
if ying
ĠS i
Ġb rief
Ġpoint ed
Ġdise ase
Ġab and
ĠC hem
Ġ ice
Ġvill age
al i
Ġf ish
ĠAd d
N ATURE
ĠW ood
Ġn av
our nal
ib er
Ġex tended
yl on
Ġc ust
ad s
l ine
im a
appe ar
Ġint ention
Ġnot iced
s a
hen omen
Ġun ited
Ġspecim en
Ġs ong
Ġs anct
d et
Ġass istance
f ar
ĠL ond
Ġinstrum ent
it ect
avi our
Ġdign ity
f ather
Ġd re
Ġcast le
Ġd ress
wh ole
Ġ17 0
ĠPh ys
Ġpers u
K ing
if l
wh om
Ġwa a
Ġhe nce
Ġsh owed
Ġbecom es
Ġfru it
in f
st ron
ac les
Ġgen us
ap er
Ġdev oted
v ious
Ġo w
Ġtre es
Ġtra vell
ro se
Ġrel ations
5 2
Ġis sue
d r
us ing
m outh
ĠD el
ro om
Ġauth ors
Ġabs ence
f act
im us
ge l
Ġs che
Ġr id
Ġmem ory
Ġac ross
Ġpar ish
â Ĥ
ĠComm ons
âĤ ¬
os ing
t ical
du cing
Ġmer it
c m
Ġer ror
ct or
ar p
Ġexhib ited
er d
ĠW ales
o qu
e ks
Ġexerc ise
Ġex ert
Ġsum mer
Ġsa ve
ol is
p ie
t aken
int erest
ĠB on
Ġapparent ly
ĠK e
Ġpray er
Ġadm it
Eng lish
Ġm u
Ġd well
ĠM ore
ĠProtest ant
ĠM er
ch urch
Ġas k
Ġwr ong
r m
s ix
Ġsuff iciently
Ġsh ows
h an
Ġd am
Ġ6 7
Ġrec ently
ut her
Ġlead ing
Ġc oll
pr inci
th s
ĠSp irit
Ġp ounds
ĠA R
ar ation
ain e
H ISTORY
Ġv iz
n ation
ĠM el
ĠW ill
Ġchang es
Ġev ident
Ġis sued
ĠG re
Ġgood s
h us
Ġmater ial
Ġap art
F rench
Ġa a
ÃŃ a
p ath
ĠCam bridge
pl ine
r ate
ubl in
ĠT ri
ut y
ig en
Ġdist ant
Ġcap able
Ġper sec
im o
ult s
j OOQ
Ġd ry
Ġs ick
b ing
ĠF irst
y er
ĠâĢ ŀ
ĠAm ong
or ial
8 6
ast s
M i
a ver
arr ison
su red
Ġpract ical
b oth
o es
Ġcru el
ancell or
ĠSe a
Ġqu ick
Ġw ounded
ang ed
other s
d isc
t ained
Ġcor rupt
ind s
Ġwrit ings
Ġextreme ly
f am
Ġch osen
ĠB ab
Ġhead s
Ġvis ited
ĠIn st
ĠPat rick
Ġcl er
Ġext rem
id i
Ġsp oken
Ġob st
ĠProf essor
Ġx i
Ġo i
ĠS an
ot ten
ĠX L
Ġprev iously
as c
Ġsh are
Ġrequ est
w ich
Ġadd ressed
or ous
Ġcitiz ens
if i
um in
Ġrec ord
Ġd read
Ġ4 3
in et
ere s
ĠF ort
Ġearli er
a un
Ġdis char
Ġf est
Ġfrequ ent
Ġtem ple
Ġfaith ful
the less
Ġtr uly
Ġg ained
l ies
Ġour selves
ces ter
Ġliter ature
Ch urch
r n
Ġsuc ceed
l ittle
st re
Ġann ual
Ġchap ter
B l
v ar
Ġfound ation
c re
Ġsett led
ĠD is
Ġcom pelled
el lect
Ġacqu ired
Ġsw ord
Ġcommand ed
s er
Ġso le
Ġrep ly
Ġconf irm
Ġs ister
Ġfl o
Ġtri umph
in cess
ĠAs sembly
un c
reg ular
Ġfort une
hed ral
Ġde pri
w ick
Ġes cape
Ġm ax
Ġinfer ior
Ġsec ure
Ġtot al
Ġinv ol
Ġcl oth
Ġc ab
Ġaccording ly
de f
c it
Ġinterest s
6 5
Ġ Î
Ġdestroy ed
Ġa x
act ions
Ġobserv ation
j j
Ġre con
ĠGree ks
ĠAct s
I B
Ġexcept ion
ran k
Ġide as
A ST
Ġsent ence
Ġadv ice
Ġsl ow
Ġtri b
Ġact ual
t re
Ġre ach
ĠCh r
Ġkind s
t es
Ġprof ession
Ġde ce
Ġbird s
ĠS to
Ġun known
Ġ16 0
p ublic
ĠC ent
ĠI d
ĠG al
comm un
ĠV OL
Ġfreed om
iz ation
Ġprot ection
Ġb all
ĠChristian ity
Ġserv ed
Ġch air
Ġsp lend
Ġf ix
ir a
m ing
he ld
ol i
Ġarch bishop
Â ®
ber g
Ġact ually
Ġwis dom
ric ult
ot ing
ĠM any
ĠD omin
ac count
Ġf ro
Ġex posed
men se
Ġvict ory
Ġt ry
E n
Ġw al
ot ton
ĠAfric a
O U
Ġr ad
ast ic
au nt
Ġt ong
ter ior
ĠM aster
th ought
su ccess
Ġmount ain
Ġm ach
ĠSec retary
Ġext ensive
Ġprom ise
Ġt n
Ġenc oura
Ġmaint ained
7 7
Ġb and
ri ble
Ġhapp ened
Ġswe et
Ġw y
Ġwhen ce
Ġcomm ence
Ġsupport ed
O W
ill ing
Ġme ant
Ġhop es
O UR
ĠC op
ĠB ot
Ġ6 9
pt on
Ġgen ius
Ġcl oud
b ably
il ty
Ġe at
ant ry
ĠLet ter
ĠB oston
Ġun ion
Ġbran ch
ĠT own
Ġar c
d own
ĠB ra
Ġdisc overy
ĠZ e
Ġa qu
Ġst orm
Ġcom pos
Ġdang erous
ld om
Ġhab its
f ety
Ġw ished
Ġh ill
AN T
Ġnat ives
Pro f
Ġcell s
ir l
w i
oun ce
Ġn ost
Ġaffect ion
und ay
Ġfam ous
Ġmount ains
J i
oy age
Ġman ners
ĠJew s
h l
Ġm ine
ĠW as
ĠN EW
Ġes cap
ĠA rab
Ġl od
ll ing
ul ph
Ġs alt
N e
Ġw li
qu er
ĠSt reet
Ġmer cy
Ġret reat
p se
ĠE ven
Ġ4 1
th us
ĠFran cis
u k
ig ion
t urn
ĠX XX
ĠH y
oll y
ĠJer usalem
r ous
Ġre asons
Ġh all
Ġsol id
Ġwho lly
Ġdevelop ment
L et
Ġrel ating
h n
d ou
Â §
Ġgrad ually
Ġcomplete ly
Ġem inent
Ġn a
Ġ5 8
Ġsuccess ful
Ġve get
Ġfurn ished
ic it
Ġt one
ic ian
e ffect
Ġp ed
Ġreg ret
red er
in ced
T T
Ġmanif est
m n
Ġd iam
Ġestablish ment
or g
Ġf h
un ct
Ġpr ud
Ġvol unt
Ġmaj ority
Ġun fortun
Ġdim in
Ġfin ally
Ġcomm enced
Ġsp oke
ĠBl ack
l ii
Ġt in
Ġn om
Ġfor ced
ill ery
Ġwe ather
Ġal le
Ġbe aring
Ġsacrif ice
Ġf ra
Ġr ul
Ġj uris
Ġcircum stance
ĠCast le
a el
t ro
Ġre form
Ġconf ined
Char les
Ġexam ined
ĠM ount
f on
ĠF r
by ter
Ġgra ve
Ġnatur ally
Ġc ourage
Q u
Ġsu pre
z o
Ġx ii
Ġfall en
alog ue
Ġerect ed
Ġac id
Ġserv ants
m g
m iss
Ġo u
7 9
g ener
w a
p ost
ĠH el
ĠF e
ri ff
Ġz u
pro v
oir s
Ġw on
Ġexpl an
P hil
ot i
ĠC ape
Ġp our
Ġarg ument
O US
ĠAthe ns
ĠM ur
Ġli qu
Ġaccount s
Ġpre jud
ac ob
Ġbenef it
ot he
Ġper mitted
k et
Ġre nt
ar ius
ĠR el
Ġmin utes
se x
Ġd ated
Ġfem ale
Hen ry
Ġin vent
Ġso il
Ġqu estions
stit ute
eal ous
p ul
ce an
H ow
ple te
ĠIs land
ĠEurope an
Ġunivers al
Ġacc ord
Ġl ies
Ġbl ess
Ġser ious
Ġcont ain
Ġstri king
Ġpass ages
Ġstrong ly
ar c
ci an
ung en
ĠSch ool
Ġstru ck
Ġlab ours
r f
Ġs ought
Ġm ale
Ġthought s
Ġ4 2
Ġs and
Ch ap
or ig
Ġeff orts
i Ã³n
Ġt ree
Ġdi vers
Ġd ict
Ġth orough
um ption
Ġc as
Ġdet ails
sel s
R A
att ered
b orough
Ġleg isl
Ġt ried
Ġg re
Ġra il
am in
app ro
Ġg ro
g iven
ĠM et
are t
ĠNat ural
qu es
ob serv
ĠCh ron
Ġimp r
Ġarrang ement
Ġstru gg
S he
Ġt t
Ġcom position
on i
Ġprov inces
Ġm it
ay ing
ĠB es
ĠS ic
Ġsu st
T E
Ġr ig
Ġdis sol
p ons
Ġread ers
ĠAcc ording
Ġpl ate
ci p
ĠY our
Ġtrou ble
us ive
ist le
it ch
Ġrem ember
Ġstand ing
Ġin cluding
ĠP en
Ġfamil iar
Ġen abled
Ġh ut
Ġnot withstanding
res pect
Ġmaint ain
Ġnor thern
m em
Ġ7 9
worth y
Ġmater ials
Ġappro ach
Ġfav ourable
an other
Ġh ia
ul g
T i
op er
Ġab st
Ġviol ent
Ġserv ant
Ġs an
Ġres idence
Ġte nder
Ġprison ers
Ġcomp ared
Ġw o
j u
ĠM en
Ġsh ore
Ġun iform
P h
ĠGree ce
Ġom n
ĠJ u
Ġrec orded
Î ¿
Ġfore st
Ġin ch
ĠR em
Ġcom o
Wh at
c est
Ġhistor ical
Ġp ub
ĠO R
pend ed
r ates
Ġman kind
Ġfig ures
ĠH o
ĠL amb
ĠE v
Ġev idently
m al
Ġcarry ing
ord ers
Ġc ra
Ġse at
Ġbran ches
ĠE very
d iction
Ġin duced
ag o
re ign
ĠB urg
Ġbelie f
it o
num ber
c ation
ĠWh ite
Ġele ction
ĠW or
r ated
lar ge
Ġfamil ies
f riend
Ġro cks
Ġ16 9
Ġsto ck
Ġmaj esty
l n
Ġf rag
Ġsa fety
Ġl it
B r
Ġcons ists
Ġwork ing
Ġneighbour hood
ship s
er ity
nd e
ĠC rown
a o
m ake
ĠLe g
l ow
ĠR h
v iii
ul ations
ard on
Ġdist inction
u ed
ider able
ic ious
i at
act ory
ust ry
M ON
os op
E Y
e ach
Ġf les
t d
Ġst ones
ĠD ublin
Ġdifficult ies
Ġtransl ation
Ġex cess
Ġre new
Ġq e
P er
J an
Ġmon aster
ĠS ac
os h
Ġopen ing
Ġas cend
ĠP ark
Ġpre l
est ab
ograph ical
ĠB as
Ġpun ishment
pr ised
c op
Ġexper iments
Ġob sc
them selves
ĠB u
ĠScript ure
Ġpublic ation
Ġut most
Ġy ellow
Ġen ergy
nex ion
Ġpra ise
OND ON
c irc
k in
Ġhum ble
Ġord in
Ġsmall er
8 2
Ġwill ing
Ġdri ven
h ich
et te
ĠEdin burgh
ul ate
l ife
Ġcomp re
Ġha ir
ind er
Ġcare fully
Ġbott om
Ġterrit ory
char acter
m d
an o
Ġfort un
Ġsa il
Ġsk ill
ĠD er
S p
Ġqu oted
Ġm ad
wh ose
s i
IN E
rew s
V II
m un
Ġpal ace
it ors
Ġn f
ĠF our
T e
b at
if h
d uring
ph ia
Ġon es
Ġsupp lied
Ġimper ial
Ġf ate
ign ation
Ġas sured
ĠL ong
Ġviol ence
Ġt im
in ople
Ġde mon
ĠIs rael
U e
Ġrecomm end
ĠD un
Ġest im
Ġprom ised
h ost
Ġin te
yd ro
O C
Ġe gg
f all
ĠH olland
Ġp henomen
Ġopp osed
Ġpict ure
Ġb rown
Ġr an
ĠS ub
Ġste am
ĠPres ident
U E
CT ION
Ġorigin ally
inu ed
Ġ5 1
ĠD uring
Ġjo in
Ġobed ience
Ġru in
8 4
Ġam i
Ġform ing
Ġbre thren
Ġdis posed
Ġconnect ion
is ation
ĠG ospel
Ã Ł
re nder
Ġindividual s
ĠI l
Ġre n
ĠE st
Ġrest ored
Ġsour ce
Ġassembl ed
ĠN ature
p op
Ġnew s
Ġchang ed
necess ary
p here
Ġcont empt
Ġsle ep
Ġp ath
Ġsatisf action
OH N
ir k
ĠJ ournal
Ġchar ged
Ġexact ly
f in
or i
Ġspe ed
Ġ7 7
lect ions
Ġexper iment
im port
Ġsc ale
Ġprison er
it ated
Ġg ain
ĠH im
ĠSt ra
c ra
Ġb ow
Ġrel ated
Ġpret ty
ĠGreg ory
l ib
Ġsubsequ ent
Ġd ur
IL L
Ġtestim ony
de ath
Ġbelong ed
Ġgod s
Ġaff ord
Ġacqu aint
Ġcon cluded
Ġrem aining
Ġposs ibly
Ġtri bes
m ount
Ġele g
g ement
ruct ed
A ug
ĠR iver
ĠM i
Ġcreat ed
l it
Ġun a
Ġocc asions
nat ural
Ġreg ion
ĠAs ia
ĠCan ada
ab or
Ġd ram
ĠJ ul
Ġleg al
Ġexist ing
Ġad j
Ġtransl ated
g race
ĠP op
min ster
Ġsudden ly
an ch
erv es
s ed
Ġrel ief
N or
Ġc art
ch t
Ġreal m
Ġsp ent
Ġaccept ed
Ġt ail
re ason
Ġra in
on ia
al ys
Ġocc urs
Ġconf ess
ins on
Ġcommun ication
c ular
om p
Ġg rie
um p
Ġrep utation
Ġr is
sec ond
Ġj oint
p ubl
Ġsuccess ion
ĠRep ort
Ġproper ly
ĠArch bishop
A mer
b ack
Ġr ules
Ġb at
or able
ĠG ood
Ġfind ing
c li
Ġcons ult
Ġgr an
ĠEd ition
Ġcomp et
pro per
p rom
at re
ĠAlex and
ĠH ug
s pect
x es
Ġest ate
Ġcommon ly
h ar
c ame
Ġl ying
Ġacc ident
A K
Ġo il
ĠS ar
ash ion
á ½
Ġpro ject
Ġlook ing
ac qu
Ġdeli ver
Ġret ired
Ġendeav our
Ġbl ue
ra ction
Ġro b
Ġsee k
in qu
man n
Ġfl at
A g
l og
t imes
Ġm ix
form er
Ġcall s
Ġspeak s
ĠComm ission
R ob
Ġlim ited
ĠA T
Ġint ellect
Ġint im
p ent
Ġo wing
f av
Ġprinci p
C C
Ġc ens
Ġsh ape
N ow
ke y
ĠN ich
it ia
ud d
Ġresol ution
E l
Ġp ages
el le
there fore
Ġre ward
ĠH ol
ĠSh ak
o is
ou bted
an us
Ġv ener
Ġattack ed
Î ±
no on
O ne
Ġdest ruction
ĠS erv
Ġamb ass
d am
ĠP ol
hem at
ĠC oll
Ġmur der
C ON
Ġs now
ĠJ oh
Ġcr im
v ate
and ed
ĠE le
Ġ2 00
no x
Ġp ul
ass es
Ġarrang ed
Ġdr ink
Ġpet ition
Ġb al
Ġbe at
Ġpros per
y et
Ġtell s
Ġmon ks
Ġwat ch
c en
Ġb reat
ĠF OR
Ġconf irmed
Ġsa ke
Ġbene ath
ĠR ight
Ġty pe
c um
ard ed
oy s
ill er
ound ing
Ġact ed
Ġexec uted
Ġad apt
Ġexc ited
ific ations
Ġdiscuss ion
Ġb ore
Ġcont ent
Ġmagn ific
8 5
F rance
IT H
c ern
f it
Ġfar ther
ĠDiv ine
oc ent
as p
Ġent ertain
Ġin con
Ġd ig
Ġattempt ed
Ġfavour ite
Ġgrou p
Ġw i
ul us
S ON
im um
Ġo e
ad os
Ġconduct ed
ane ous
Ġep iscop
k y
AT E
Ġsix ty
Ġvol s
Ġoper ations
o id
ĠD en
Ġmove ment
Ġpat ron
un a
Ġconf er
H i
id ents
Ġwhere in
Ġbar bar
Ġv ac
a ur
Ġess ential
Ġle vel
ĠCon f
Ġsus pic
ĠT reat
t reat
qu estion
Ġex ternal
Ġinter ior
T ON
Ġd oth
Ġpres ents
Ġsec urity
Ġfif teen
Ġpoet ry
Ġim mense
br ought
n u
Ġin gen
un ction
Ġgo es
R ON
m ind
Ġso cial
p ens
z z
ant a
Ġcompar ative
Ġass umed
Ġclose ly
Ġcommit tee
Ġs iege
Ġpr ide
Ġindepend ent
Ġst ar
Ġphil osophy
ĠI T
tend ing
peci es
Ġg ar
c are
Ġd rew
Ġdecl are
Ġcr ime
Ġprot est
Ġgl o
US T
p ore
ĠG er
Ġfif th
is to
Ġal arm
cl am
ol ics
Ġschool s
Ġcho ice
Ġaffect ed
c f
in ian
us hed
ole on
Ġaddition al
Ġe in
Ġpass ion
Ġvol umes
Ġfol io
F eb
ĠS anct
Ġre ck
ard ens
ment ioned
Ġshow ing
Ġas sembly
Ġheart s
Ġexpl ained
ic ations
ir i
Ġun able
Ġhon est
Ġdoctr ines
a U
e i
ro d
ustom ed
ac hers
Ġtri be
ĠTr ade
ĠS en
A CE
Ġh u
EN CE
Ġinter pret
Ġsqu are
th ur
Ġno b
ien ced
ex am
in ations
it us
ĠD utch
gr ound
Ġg overnor
Ġmod erate
Ġprof ess
ĠW all
Ġab road
Ġr ange
Ġarm ed
Ġ15 9
ra in
ĠC ong
ich t
ĠR ed
ĠMess rs
Ġanx ious
ĠS il
Ġn it
Ġtra ce
Ġbeg in
Ġexist ed
ĠG o
Ġthan ks
Th omas
J ames
Ġsitu ated
Ġo s
ĠF ore
Ġple ase
c us
M aj
ĠS E
Ġa il
ĠRe y
Ġread ily
Ï Ħ
ill y
Ġgrow th
is i
e per
ic ians
Ġintellig ence
Ġre jo
Ġg as
ow ards
ĠB ru
ur ther
S ch
ĠB i
p ool
Ġfl our
ĠN ic
f elf
ĠC amp
ond ay
Ġignor ant
Ġhe aring
Ġ8 9
Ġdirect ly
Ġprev ailed
ĠD em
Ġe lected
Ġsim ply
Ġname ly
Ġstre am
aval ry
he art
ra p
Ġ10 9
Ġe o
ĠS unday
qu al
ab l
Ġwat ers
is her
ol as
ak ed
Ġimper fect
ĠD ep
pers on
ĠVir gin
ib i
ustri ous
t ake
se en
Ġt an
ĠS ou
Ġto ler
ĠC ur
Ġadmin istration
ospit al
Ġspir its
ĠB ed
Ġcent uries
g n
Ġlad ies
i ant
appe ared
Ġsugg ested
per ial
w ed
he nt
Ġb en
Ġ9 0
ĠBar on
Ġfat al
Ġf ier
Ġpray ers
ĠV ict
ĠWh y
Ġadvant ages
ic ks
Ġsatisf ied
j f
Ġin cluded
Ġper man
Ġbo at
Ġconcern ed
Ġse ized
ter bury
ĠP ost
ĠB re
ag g
Ġliter ary
ri ved
it ie
ac ious
i pt
Ġat mos
ion e
ĠS ix
Ġinqu iry
ĠH ill
ĠH ence
ist ing
Ġearli est
Ġdes pat
Ġauthor ities
cri be
Ġcon j
Ġproceed ing
Ġcontro vers
Ġt ask
an cing
Ġdis position
f if
Ġan tic
Ġest a
Ġmag istr
ĠI L
th ird
oc ation
Ġact ions
Ġdra wing
to o
g est
Ġdis s
A nt
Ġt a
ĠC OM
Ġparticular s
Ġoccasion ally
ĠH aving
R IT
g ate
Ġse ldom
Ġtem pt
Ġgu ilty
Ġc y
ar atus
Ġd itto
ĠAd miral
v as
ĠD ie
ret urn
Ġb ul
ar ches
f el
Ġb ot
Ġcons cience
igh th
8 1
Ġmar ks
Ġ8 7
Ġappe al
Ġkeep ing
Ġfles h
Th us
Ġb are
Ġf el
Ġc ir
Ġr ing
Ã© n
ĠOff ice
Ġin sect
Ġexp ense
Ġst ands
AL S
Ġavo id
in ion
Ġexam ples
m aster
ĠC e
ra v
Ġadd s
Ġvis ible
Ġaw are
Ġapp ly
h ard
ĠTh ose
sm all
8 3
st ill
ĠP oly
Ġqu am
ĠLie ut
ig ious
J une
ĠP R
Ġtong ue
Ġform ation
Ġcour ts
Ġsy n
us ions
AN CE
Ġf ub
ic ism
ĠS l
Ġappro pri
Ġin g
Ġcap it
Ġch ance
ĠM ax
Ġlib er
ond e
Ġf ailed
se veral
Ġignor ance
e ight
Ġw ays
Ġc up
se a
Ġsent iments
d n
v est
Ġtra in
L i
Ġbro ke
Ġprec ise
ar th
Ġconsequ ently
Ġmid st
Ġ16 7
Ġfl u
un k
Ġno vel
t own
v in
Ġd as
Ġrevol ution
Ġg uns
b or
Ġen cl
Ġinter nal
Ġescap ed
ar ian
ĠF reder
Ġar ts
Ġla ke
Ġpo em
Ġam id
Ġincl ined
ĠW orks
Ġ3 00
us cript
Ġsk et
pr ing
acc ording
lli ant
alle l
ĠTem ple
Ġd inner
Ġwe eks
Ġup wards
M arch
Ġphys ical
U G
Ġ $
Ġcapt ain
Ġdisci pline
ig s
Ġdes ert
Ġcommer ce
m l
and a
str ong
wor ld
ĠO h
N ot
t is
and y
AN S
Ġcondem ned
c im
Ġw icked
ign s
Ġlim its
Ġhop ed
c ase
Ġcomple ted
Ġch amber
P H
ĠB ull
Ġ6 4
ail ing
Ġpr int
Ġele ments
al a
ĠH or
Ġ %
Ġrapid ly
ok ed
ian a
Ġsol ution
d ays
et ing
Ġt um
ĠB a
ĠE nt
art e
Ġsh ot
Ġo bey
ĠG all
Ġbur ied
ĠTest ament
C L
b orn
Ġg arden
Ġpre fer
Ġk ne
Ġstep s
S ome
i M
Ġe ager
Ġrec ol
EN S
Ġj ealous
av ed
Ġinst ruction
Ġaver age
Ġjud ges
Ġcent ral
K S
ĠO s
Ġarch itect
p hen
Ġf inal
âĢ ŀ
ie ved
Ġr ising
Ġnarr ative
L AND
ĠB ern
ig ne
erv ing
or gan
Ġti ie
Ġent rance
Ġh ol
Ġdel ay
Ġdepart ure
Ġerr ors
Ġfl owers
Ġp ont
Ġr ic
Ġprov isions
Ġendeav oured
I m
d l
Ġpre m
th o
i ir
Ġtw ice
Ġeng ine
O V
f ull
Ġb att
bl ing
is se
ĠAn other
' m
E m
Y ou
ac he
Ġinf inite
Ġclaim s
ĠENGL AND
18 0
u ce
Ġg arrison
ĠC rom
Ġp il
Ġobs er
Ġis lands
Ġintro duction
ill es
Ġse ver
Ġsche me
H ist
Ġp an
est ine
ild ren
Ġaff orded
Ġb anks
Ġm iss
Ġd ish
ĠM od
Å¿ Å¿
Ġad vent
Ġsp r
at em
Ġno bles
qu ar
s um
ig ence
I E
st ate
Ġp ill
Ġpros pect
Ġh ur
ĠP ur
ĠWh ile
Ġs oft
ag h
Ġf an
ĠL uther
on ic
ĠTh ough
em pl
Ġreport ed
ap ed
it ious
ut ing
ul i
pr ising
Ġg un
hing ton
Ġtreat ment
ĠPr ice
f le
ĠP el
Ġ ic
ci et
Ġres pons
Ġa rose
pass ed
Ġp up
c ause
d ent
ĠS cience
pl aced
ic ip
Ġthere in
Ġ15 0
Ġinstrum ents
Ġexpl ain
Ġf ome
ret ched
Ġte aching
t li
Ġf ulf
ĠPortug al
F R
Ġse arch
Ġ6 3
Ġhon ourable
Ġexplan ation
Ġwith dra
Ġslight ly
ay er
Ġch apel
Ã º
Ġh ills
ĠL i
Ġthere by
Ġsepar ated
a ii
ĠLet ters
k er
al is
me ans
Ġwhere as
Ġknight s
re p
Ġf ond
B ER
u ity
Ġv ice
rib ute
Ġcon nexion
Ġtrad ition
c ad
ĠP or
Ġjust ly
Ġoper ation
Ġcare ful
Ġeffect ed
peci al
ĠE ss
Ġ5 5
Ġra ise
Ġshort ly
are st
Ġsurr ounded
r ine
Ġs ins
ĠN ote
u en
Ġc i
it ur
t ered
per iod
Ġinstit ution
Ġle gend
ĠCom mon
Ġan cest
Ġbl ind
Ġc am
Ġcon greg
Ġfe atures
ĠU nder
w t
U AL
h igh
Ġpress ure
adel phia
P P
â Ħ
âĦ ¢
A rt
Ġs aint
Ġe a
P T
h alf
ĠG il
Ġcol ours
OP E
c ult
e ous
Ġen able
oc he
Ġ5 3
ĠBe g
en ance
Ġhapp iness
S y
ing er
b ation
erv ation
ĠB ible
Ġst ir
Ġa y
e ff
le ts
Ġrec ords
Ġp air
ar med
Ġre bell
Ġres istance
C o
ĠF er
ĠC ity
Ġo v
Ġd ans
Ġse ction
ĠJ acob
G en
Ġthin ks
ĠL o
Ġvar i
Ġfl ight
Ġa im
Ġ rom
Ġth ofe
Ġl in
ĠI C
Ġend s
g ht
Ġconvers ation
Ġrece iving
e ft
Ġw alk
ers on
Ġch ron
w est
Ġknow s
Ġconse cr
Ġqu ality
Ġpro sec
Ġground s
Ġele ment
appoint ed
s ays
Ġi o
Ġimp ression
Ġt rem
ect ed
Ġoff ices
Ġstand ard
ĠAcc ount
v als
Ġcompar ison
Ġbuild ings
ig er
ĠH ad
re ceived
Ġm es
ort e
Ġen v
B OOK
Ġg ate
Ġag ed
soci ation
ii ii
Ġacc ess
Ġf uch
ou te
ĠBo ard
ic ine
Ġtal ents
Ġrev iew
d est
Ġs ad
Ġan te
au ce
in v
in ated
ere r
ĠG overn
Ġport ions
Ġ ~
iz ing
Ġcontem por
u ine
ens ity
Ġdeg rees
Ġconstant ly
Ġhe s
Ġstre et
t it
Ġhe ir
w hether
ĠI h
cess ion
Ġte ach
p ired
Ġval ley
Ġprevent ed
Ġdeep ly
go ing
ĠMad ame
i il
ĠFran k
Ġamb ition
Ġf ashion
Ġh ung
ĠL ect
er ies
Ġcol ony
Ġed ge
Ġcont inent
Ġass igned
Ġdef ect
b al
Ġb itter
Par is
for th
Ġspe cul
Ġalt ar
we alth
ai red
ĠCh ap
u ced
w y
re present
ic ers
st ra
Ġen orm
ines e
Ġconc ert
Ġbra ve
Ġpro duction
Ġte eth
Ġqu o
A pril
ĠCount y
ĠP itt
ĠE D
me an
m und
Ġcons isted
Ġind ustry
m il
our ces
su per
Ġbring ing
c at
ou re
ĠS aint
amp s
ĠSax on
S ec
ch a
ig ation
ĠRE G
Ġa ug
Ġret ire
Ġmin or
o ot
Ġthe fe
ĠM ich
ceed ings
Ġcalcul ated
ĠL E
b ours
ĠC ro
ĠN av
ĠU pon
yr us
Se pt
ĠPr uss
ĠF ol
Ġx iii
eng al
O ct
ast ed
Ġn n
ĠM ass
se tt
ĠSam uel
ĠProv ince
s ing
Ġc er
ĠB ell
Ġund oubted
yn ge
Ġprivile ges
Ġa us
Ġar rest
Ġa ston
ĠD or
ici ency
Ġrespect s
Ġphil osop
Ġc ord
Ġenjoy ed
ĠA rist
ress es
Ġe jus
Ġph ot
ch n
Ġde bt
ap ers
w l
m ons
Ġh al
Ġpl ates
vers ion
Ġsett le
Christ ian
v ated
Ġsold ier
os ition
ud al
N ov
ab ove
Ġmar ched
Ġir regular
Ġcol le
Ġfa ult
gr at
Ġ6 1
flu ence
d ict
Ġst ars
Ġbecom ing
Ġperform ance
li er
Ġ6 5
clud es
C an
h at
ĠS and
Ġsym path
Ġcry st
g ive
il ton
Ġfor get
Ġt orn
en c
pro ve
ĠG ib
Ġche ck
ol f
Ġcl osed
Ġsou thern
n ature
Ġent ertained
e ither
ĠL anc
ĠAl b
Ġb orne
of ten
Ġatt ain
n othing
Ġcl ot
p ract
Ġinst ant
s ay
Ġto w
ol n
de cl
Ġarm ies
Ġty ran
ang es
s ac
if ts
Ġ9 9
k a
en cies
at hered
ĠP RO
Ġcan on
Ġprov ision
Brit ish
e le
ter y
Ġmethod s
ĠC ardinal
ĠD om
Ġr ot
Ġne ck
sh al
ĠF ab
Ġel oqu
ĠC L
Ġr t
Ġevery thing
itud es
l ation
Ġv ote
Ġbur nt
umber land
happ y
Ġsil ence
U t
Ġsp ite
1 00
f ig
Ġw estern
ul gar
ent i
C r
M AN
vent h
i ol
ed er
Ġquar ters
Ġdom estic
Ġsav ed
Ġconsist ing
ĠHerod otus
fe e
Ġcor ps
Ġattempt s
A ct
t us
Ġm ixed
Ġg ene
ĠHeb rew
ĠB oth
Ġr ays
Ġh it
Ġe con
Ġst ay
ĠGr ay
S i
Ġm and
sub ject
Ġn t
Ġwor se
Ġsk in
Ġp ardon
ĠA ber
Ġ ie
Ġu m
ĠO ther
ĠSt at
Ġchar ity
ĠA uthor
U i
Ġpr oud
with in
d irect
int s
ĠHist or
ĠB ro
Ġper f
ĠObserv ations
Ġb ones
Ġas pect
Ġcon fl
Ġrem edy
im er
Ġal leg
adv ant
Ġp ale
Ġl ose
in ence
Ġse lected
ĠCh ina
un to
Ġy o
man ner
omet er
ir ty
ĠH i
Ġ5 4
e cess
ar g
Ġc ro
Ġcon ject
ĠB OOK
l ated
Ġacknowled ged
ath olic
if er
Ġmo on
Ġhold ing
Ġdeb ate
Q U
Ġim age
Ġabsolute ly
V ol
ament al
Ġret ained
Ġcontem pl
ĠP sal
ag ues
Ġreg iment
ipp ed
ri er
Ġelse where
Ġhe ret
S ax
Ġdeterm ine
Ġconst ruction
7 3
S uch
Ġqual ities
Ġb ien
Ġim pl
ĠTh ree
Ġmore over
AT H
Ġcare er
medi ately
Ġden ied
M S
R IST
ĠF a
ci o
Ġimpr ison
es ley
w orks
ĠSt r
w it
Ġpro ble
IT Y
Ġa h
ĠScott ish
Ġm un
Ġacc ustomed
Ġimp art
cast le
of ed
plic ity
du ces
The n
ĠU pper
Ġstre ets
l ab
Ġme chan
iver pool
K E
ĠC le
Ġall ies
Ã¡ n
om ical
Ġsh ut
Ġt ears
Ġatt ained
ĠBab ylon
ar se
Ġcall ing
bec ause
ĠFox e
pt es
ag ger
Ġtli at
Ġs orrow
Ġsplend id
Ġse al
ph al
just ice
Ġmult itude
Ġsou ls
Ġpict ures
ĠH an
Ġin her
vol ution
Ġdep th
b able
Ġs itting
Ġl og
Ġbl ow
ploy ed
Ġaccompl ished
ere t
ĠL ake
Ġe i
Ġappoint ment
Ġtend ency
Ġchar ges
Ġdemon str
row s
Ġantic ip
Ġrem ove
Ġoff ence
Ġgl orious
ed ing
le ton
th ink
ĠWest minster
Ġinstit utions
Ġdich o
IF E
Ġf led
ur ious
ĠC ant
f ree
diff erent
ĠW in
Ġw anted
Ġmas ters
m m
w en
ed ed
Ġobserv es
iend o
Ġbl essed
N E
ĠB at
ar io
Ġdiff er
ĠD iss
Ġcommun ity
ut ies
Ġl of
ĠCan terbury
ĠRuss ia
Ġunfortun ate
Ġt ur
Ġpur sued
unt ing
ri ans
Ġdist urb
Ġcirc le
Ġ7 4
7 4
Ġsuccess or
j a
ĠO ri
m ans
ĠT im
ĠM ark
ci ation
ind e
Ġme as
act ed
Ġx vi
Ġconsequ ences
ic ans
ĠE lect
Ġco al
ĠLie utenant
M on
ver n
ĠÂ ©
Ġdemand ed
ar on
Ġm urd
ĠR og
Ġreg ions
ĠConstant inople
ur red
che ss
Ġf ab
ĠAnt iqu
J uly
Ġthe r
qu am
ĠX IV
H ere
ĠL inn
Ġp aint
Ġe re
ĠM onday
Ġpre ached
Ġsum mon
E t
sel ess
Ġwa it
Ġe ternal
Ġs cript
ĠS a
vel s
Ġthink ing
Ġbeg un
land ers
Ġdepri ved
k l
Ġcommun ion
ĠThe od
re al
Ġas ide
ĠÂ °
c ity
á ¼
qu are
Ġwind ow
Ġur ged
r l
ra id
Ġsur v
Ġh ay
r ad
Ġa uf
Ġg ent
Ġfriend ship
Ġdecl aration
Ġstud ents
ĠW ater
Ġwrit es
17 9
LI AM
Ġl ux
Ġi ps
Ġart illery
Ġdirect ions
ĠEgypt ian
ĠP ra
ĠAb out
Ġimprove ment
Ġland ed
w art
ĠC OL
Ġan ci
Ġpro hib
Ġal ive
ĠIs lands
E AR
a ign
at in
ĠSc ots
Ġjuris diction
s ince
Ġconf usion
L a
Ġb ond
Ġinstruct ions
U D
Ġremark ed
c ourt
Ġs aints
ĠW ed
Ġco ol
Ġdis pos
Ġver se
et ors
ind ing
atur day
r c
Ġb a
Ġf ill
Ġsh arp
ues e
Ġcontr ad
Ġple asant
ore m
Ġ5 2
Ġe astern
Ġbe e
Ġ7 5
Ġemploy ment
Î µ
Ġh oc
Ġal tern
Î ¹
Ġaff irm
Ġm ile
us ual
ĠHow ever
AP P
Ġneg lect
Ġl ament
Ġch a
ĠCh ief
i ate
id able
Ġcont ents
Ġc ert
ct ic
ĠCh ris
Ġcop ies
y a
Ġent hus
here nt
ĠZ o
Ġincre asing
ĠNap oleon
Ġ8 1
Ġsince re
g overnment
Ġconcl ude
m or
Ġl oud
Ġri val
ĠAcad emy
ĠS part
ĠD isc
on ial
Ġcont ributed
Ġbapt ism
j t
Ġv oyage
Ġen lar
l is
Ġsu cc
Ġcol lege
pro f
ĠWh o
ĠIs a
Ġmanufact ure
W est
ĠK ings
ang ers
Ġsl aves
Ġexper ienced
eng er
k t
Ġf ancy
Ġh orn
Ġpar allel
emb ered
ĠB Y
Ġtou ch
s ure
ro ke
Ġcoun ter
D u
Ġpres erve
g i
h ouses
Ġbe ars
Ġsign ed
Ġbeh alf
ak ers
Ġdispl ayed
Ġc avalry
Ġunder standing
osoph ical
ou fe
Ġin com
Ġl est
t le
Ġcharacter istic
b ius
Ġp ow
ĠT er
Ġvirt ues
H T
ĠA M
ĠD ur
Ġam end
d one
Ġsu itable
Ġfl ag
le ft
ĠOr ig
E s
Ġt f
IC LE
Ġce ased
Ġcomm ons
ĠP ublic
Ġout er
os o
Ġde emed
Ġw ars
Ġs ale
Ġmag net
Ġw ishes
ic er
Ġab ol
Ġex ha
Ġmark et
Ġhor iz
ĠCar th
Ġs ic
ĠM ON
Ġden y
om on
ĠB rown
ĠF ar
Ġfin ished
i ards
pend ix
hist ory
Ġcom ment
Ġconqu er
Ġconqu est
Ġfather s
Ġsatisf actory
Ġprivile ge
Ġantiqu ity
ĠWal ter
om ed
part icular
Ġnecess arily
Ġthorough ly
b ri
Ġinc ons
on n
or ing
Ġre jected
ened ict
I O
w ord
Ġre ct
Ġhere after
Ġdet ail
Ġparent s
Ġcon ve
Ġv ary
w ent
so ever
Ġn in
Ġoffic ial
Ġro ot
Ġt ii
Ġproc ure
S u
Ġf ri
Ġthan k
Ġutter ly
Ġp ag
ad ow
ĠL IFE
aw ay
sem ble
Ġstud ies
ul s
UR CH
XX X
os c
W E
Ġlo ved
Ġbri lliant
ĠH and
ĠE u
Ġleg s
Ġcal m
alys is
Ġhe red
Ġstra ight
P at
S m
arch y
ag on
ell a
ĠDe ath
Ġcommer cial
ock ed
ĠH al
Ġimp ress
Ġregard s
Ġproc ured
Ġpron ounced
h ab
ct ions
Ġsur prise
ĠTur k
Ġrequ ires
ann el
ĠJew ish
t ill
Ġb ay
ut or
Ġse x
Ġrespect ive
l ate
Ġas certain
Ġann ounced
ĠPap ers
st ud
ĠW at
Ġobject ion
p arent
d y
Ġl if
Ġappe nd
ĠPr inci
Ġw ing
ĠS av
Ġro of
Ġsec ured
Ġinter rupt
Ġche er
Ġgrow ing
Ġx l
Ġ185 1
ciet ies
7 2
ĠAN N
Ġrun ning
bu ild
Ġs or
ow e
ci pit
Ġ12 0
Ġtu be
Ġconven ient
Ġt ent
Ġg rew
Ġ6 8
Ġstrugg le
A v
al most
ĠG E
ĠD ay
Ġi p
g ans
av it
Ġabs urd
Ġdistrict s
clam ation
ĠB art
Ġ7 3
Ġbo ats
Ġprof it
ĠS P
ft ed
Ġdevelop ed
l c
ĠC as
Ġmar gin
Ġ184 7
tw enty
Ġcommence ment
Ġob vious
io ch
ve t
Ġwant ing
c rit
Ġwonder ful
z es
ist ence
icrosc op
Ġre li
ad er
ĠDe v
b ol
al ways
Ġan at
Ġrep ublic
ĠAr thur
Ġmer its
sp irit
Ġg ift
Ġart ific
ĠH ay
c ert
Ġth rew
ĠS ab
ra ge
de c
p ressed
Ġt ables
Ġ6 6
fe w
Ġinst antly
Ġexam ine
Ge orge
Ġdefe ated
ĠR oy
O ur
l ay
il is
ĠU r
Ġmist ake
k n
am ount
ĠG ar
ear ly
ft s
Ġspec ific
end us
Ġpun ish
ores aid
id em
ĠO per
augh ters
un ter
Ġcont ra
ĠMart in
Ġb ull
ag ne
Ġal ike
IC H
Ġav ail
DE X
Ġpr in
Ġres ist
Ġa ux
if ies
Ġest ates
Ġconvey ed
x i
Ġo c
Ġun certain
Ġrec over
7 5
y t
Ġc ried
spe are
Ġdescri bes
ĠS O
Ġadapt ed
m and
ĠS at
Ġdistinct ly
Ġ }
Ġu nex
Ġmin istry
ues day
Ġreven ue
f olk
ra it
Ġcol onies
Ġ185 2
Ġ185 8
Ġfe ver
Ġc t
ge on
Ġperiod s
th ings
Ġ8 5
inc oln
Ġsan ction
l an
Ġar ise
ĠX II
ĠA ra
ĠOr gan
ĠBes ides
ĠL is
ov al
Ġs li
Ġcon ceived
ĠB E
ci ences
t ive
Ġb urg
ĠP ont
Ġpay ment
am ph
Ġfair ly
A GE
il a
ict s
Ġconv inced
Ġo o
Ġcon form
qu est
Ġwe ar
Ġdev otion
im i
Ġlib eral
ĠPers ian
L Y
Ġf erv
ĠB engal
Ġdoubt less
Ġarg uments
M ENT
p u
ĠD irect
ĠV e
Ġp it
Ġth ither
Ġar bit
ĠE X
Ġafter noon
Ġsoon er
Ġrese arches
ou f
ol ation
Ġadv oc
part s
7 1
l ain
or ter
ĠM is
ul o
Ġint r
Ġhistor ian
Rob ert
Ġpart e
Ġdiam eter
H I
ri ages
Ġfl ower
ĠE M
ĠH ard
us a
ĠAust ral
u o
Ġtal k
h s
ath an
ĠU l
Ġgu ide
Ġrecomm ended
ul d
Ġwhere of
Ġcor por
Ġsto p
Ġpen et
ĠCH AP
B o
Ġf ought
Ġfor bid
amp ed
you ng
l ers
Ġf ert
od a
Ġed itor
Ġbre ast
IST ER
7 8
l ength
ĠL uc
S an
ot al
Ġg ospel
B ook
Ġapp aratus
mon ies
Ġa pt
ĠL ew
Ġsett lement
Ġextrem ity
ĠS yn
ak s
ĠK ent
Ġtrans port
Ġfall ing
Ġw il
art s
eng ers
ic ia
Ġas c
can not
Ġf ul
Ġ184 6
Ġdeterm ination
h undred
Ġex h
ĠRuss ian
Ġact ivity
medi ate
Ġph r
Ġperman ent
ĠC arl
ĠRe c
Ġaud ience
b ran
t ures
es c
Ġlib ert
Ġcap acity
Ġer a
Ġ184 9
Ġcand id
Ġaband oned
ĠH omer
Ġter rible
ĠGr and
Ġmaj or
h ill
Ġp iety
Ġd are
ĠM US
OR T
Ġeng ra
Ġeff ort
ig o
ac iÃ³n
com pl
Ġremain der
Ġimag ine
Ġr ude
as se
am ing
um m
ci us
Ġall iance
Ġpart ial
Ġfree ly
Ġ184 8
e o
ĠAr g
Ġbelong s
M an
Ġc attle
Ġ184 1
ĠR us
Ġout side
Ġimpro ved
nd ing
ION S
Ġmed ical
Ġcomb ined
A p
U l
ĠFran c
im ately
Ġinj ury
ĠAn ne
Ġw ings
Ġcommun icated
g s
Ġpre tended
Ġset ting
END IX
Ġphenomen a
Ġgrie v
Ġstud ied
Ġput ting
Ġsure ly
G ree
Ġend ed
Ġelect ric
C apt
ĠB our
Ġcomp ass
Ġmight y
Ġun cle
Ġ6 2
Ġd w
Ġ5 6
ĠCath olics
occ asion
Ġegg s
Ġpo ison
arm y
Ġdoubt ful
Ġaccom pany
Ġtre ason
ĠAlexand ria
E i
S te
Ġm entions
le arn
Ġdec ision
ĠEx cell
I r
h ol
Ġb on
Ġemb ra
e enth
ant es
Ġun s
ĠSu pp
Ġbe ll
ĠF lor
ĠTh om
Ġknow ing
t owards
per fect
Ġexerc ised
wr itten
R AT
b ene
nd ers
Ġh ang
il ian
Ġch rist
ĠCh inese
Ġsub mit
Ġbrother s
il ia
ĠH a
idel ity
m ere
ĠG race
ard in
Ġcont est
Ġsl ain
ĠInd eed
ĠC ab
id ity
Ġrep ent
com p
os ity
Ġadmir able
ol ution
Ġfollow ers
Ġ184 0
c overed
w ords
Ġl ot
e ast
ent es
Ġrem ote
fe ll
Ġshe ll
C al
Ġre le
ĠS k
ne ar
An other
A f
Ġag ricult
OR E
Ġdisp ute
c nt
s en
Ġdi oc
C ar
hen sion
Ġmet al
ĠMin ister
J o
j n
r ather
ird s
Ġlib rary
ol o
Ġliqu id
Ġe ase
ex per
Ġind iff
Ġcust oms
C HE
Ġf oss
Ġnot ion
Ġgener a
Ġcar bon
ĠOr d
h ope
Ġconsider ing
Ġsix th
Ġmount ed
r ors
Ġsubsequ ently
r us
Ġre in
com ing
Ġtre asure
Ġan alog
Ġdist ribution
Ġind is
Ġpred ecess
Ġact ing
Ġid ol
ĠSt ud
IC A
ĠJ OHN
Ġ8 4
ug g
ĠA ld
ĠL iverpool
pl an
Ġcont act
Ġburn ing
h ands
Ġt ract
Ġh id
ri ft
IC E
ĠS vo
OR GE
Ġprov ide
Ġpap al
Ġtreat ise
7 6
L ie
ob ject
Ġfo ol
V III
Ġy ards
pp ing
ĠM ethod
Ġsu nt
Ġmet e
Ġbas is
Ġcompan ions
Ġchem ical
Ġs ite
Ġth ro
ĠM ission
li o
Ġacc us
Ġfac ult
Ġeld est
A W
g al
Ġf et
ĠNot es
ĠAthen ians
E urope
d ing
Ġa fl
on ce
Ġdiv isions
olit ical
Ġa ch
ĠT ro
id ers
Ġd ial
Ġl an
ĠAs sociation
Ġhands ome
Ġf itted
ĠP ag
Ġyoung er
UN D
ĠXV I
Ġl b
Ġprob ability
Ġoccasion ed
ĠLib rary
H ouse
re ndered
ist ered
oll en
9 9
Y ork
Ġrep orts
ve lled
ĠJ un
Ġr ough
Ġ19 0
Ġreal ity
z ed
o bl
Ġa per
ĠT w
ĠAl f
Ġrequ is
appe ars
ĠFl ore
Ġf old
Ġshe ep
Ġinv ited
Ġdec ree
ĠNor man
W here
b est
ur ance
Ġcont ribut
ĠAng lo
Y our
r ament
Ġl oyal
ĠO d
Ġ5 00
Ġpo ems
arm s
l j
m el
Ġ7 1
Ġwhere by
Ġstud ent
Ġ Ã
Ġbar ons
iet ies
ĠD am
Ġreason able
F ran
Ġle v
od s
Ġret ain
Ġdesir ous
Ġenorm ous
r h
Ġc el
Ġe ars
Ġindepend ence
u ated
Ġp ainted
Ġd it
Ġas cribed
ĠE astern
Ġind ul
' ll
Ġper se
Ġinc or
Ġele ven
Ġconce ive
Ġdomin ions
de v
D ec
pos ing
Ġ183 9
Ġstat ute
Ġsu gar
Ġfe ast
Ġatt ract
az e
Ġinvestig ation
ĠE ccles
Ġhon or
ange l
Ġ ig
Ġhe res
Ġadmir ation
I l
Ġcross ed
ĠW AR
for ced
Ġdist ress
Ġ185 7
Ġboy s
dou bt
E p
ĠI b
ĠM oses
ul ating
Ġmy ster
Ġvent ure
g h
Ġf c
Ġn os
av a
Ġv it
Ġcl imate
ict ions
ĠAt t
Ġri vers
Ġmot ives
m atter
Ġd y
em an
Ġyear ly
st ri
Ġ11 1
ĠBer lin
Ġnob ility
re ement
Ġb le
Ġh ydro
al ready
Ġass ume
Ġ184 5
jo ined
ful ness
fe el
ĠT ower
Ġbr idge
ple x
i ac
Ġt ub
Ġo mitted
ist ics
Ġst ead
ĠN orm
OL OG
Ġtou ching
per ate
B B
Í ¤
ter a
so on
Ġchief s
ĠAp oll
Ġd ic
Ġcr imes
Ġtempor al
M ac
ad ers
ĠD ra
Ġall uded
Ġes se
Ġmagnific ent
i w
ĠL in
Ġf ib
Ġg ates
Ġsuff ering
Ġcrit ical
ĠT or
r ot
ĠHe aven
Ġaff air
after wards
Ġn ut
ĠH ind
Ġpo ets
as y
IV E
Ġt un
Ġg ather
ĠAg ain
Ġforg otten
Ġw in
Ġp ious
ĠH aw
Ġdel icate
icrosc ope
Ġd ying
um ing
Ġv ind
Ġmy st
h u
ur rection
a ffect
t m
ĠR ich
Ġcle an
Ġbur st
f ol
Ġal iqu
Ġdes igned
Ġ 00
UN T
ĠNap les
l en
ism s
Ġmer c
Ġobt aining
ol ars
Ġ13 0
P R
in is
it an
ne fs
pl ed
Ġinter val
ĠCar ol
in tend
ent er
ess es
Ġsur prised
Ġcoun sel
Ġcontrovers y
Ġ1 23
cond uct
m aking
Ġp ains
Ġreturn ing
Ġpurch ase
ĠT R
ĠB al
ra c
ĠW el
Ġus ur
Ġturn ing
R oyal
ic ul
ĠN ever
ot ic
ĠA e
ĠL an
all ow
st at
ous ands
Ġacc used
Ġprom pt
Ġmill ions
um er
ĠL ONDON
Ġsu it
Ġper ceive
Ġpos itive
Ġagree able
Ġprepar ation
Ġconsider ably
Ġatmos phere
Ġx ix
Ġam ple
pic uous
t ory
es se
ĠD ar
Ġcons pir
Ġatt ributed
follow ing
Ġkind ness
Ġdepart ed
ĠA L
ĠP an
Ġcont ract
Ġcomm end
ĠReg ent
A cc
Ġun just
Ġcount enance
Ġ185 6
Ġlead ers
Ġvo ices
Ġaf raid
ĠP ass
Ġsc attered
Ġbeh old
hend ed
Ġacquaint ance
Ġ4 00
Ġgrat itude
Ġdischar ge
d ie
Ġare a
Ġper mit
ep ing
pro ved
Ġsub mitted
r j
om a
ĠM as
cri p
Ġdet er
ĠAnt on
v ag
l ord
Ġf f
ĠC ond
Ġde ed
Ġi j
Ġcal am
Ġmove ments
Ġextend ing
Ġt ex
Ġan ge
ĠW y
Ġinde bted
per haps
ĠIn stitute
Ġabs or
t b
Ġo h
Ġp ars
Ġpre cious
erm ons
it is
Ġwork ed
LE T
Ġprim itive
ii h
Ġ8 3
Ġw ants
ĠS aturday
ĠSt an
ĠScript ures
Ġn aval
ĠF in
Ġet iam
Ġ7 6
ĠTr inity
ĠW m
Ġnever theless
ĠAb bey
Ġillustr ated
Ġcultiv ated
Ġo cean
Ġf ran
ĠM ex
od es
Ġsign al
Ġd ies
ark ed
Ġtra ced
Ġt lic
al ty
ĠS aviour
og ue
ĠIn n
Ġ183 8
Ġt res
b urn
on ian
Ġg athered
know ledge
ĠCH RIST
Ġdepart ment
Ġin duce
Ġsh ame
Ġbut ter
Ġdef in
Ġxv ii
m id
as ury
Ġinvol ved
ay lor
ob le
Ġinter course
Ġtran qu
ĠM SS
all s
Ġrest ra
V ER
Ġre ception
Ġfour teen
ĠBishop s
Ġdesign s
y ard
Ġmut ual
t ry
Ġ18 60
ĠK en
Ġbr ig
Ġproper ties
ĠW estern
Ġinc ident
Ġsevent y
Ġb orrow
ar is
Ġaf oresaid
Ġf ly
Ġr at
Ġne ces
jOOQ IC
ĠT om
Ġcountry men
OL D
Ġexert ions
i B
on ge
ect or
Ġ185 3
Ġneighbour ing
Ġprophe t
f ast
Ġf ie
Ġe ccles
t al
Å¿ s
Ġple a
pers ons
anch oly
D itto
p ast
ĠN ational
Ġplain ly
Ġorn ament
Ġent ering
Ġcomparative ly
om ic
ĠD a
Ġsp o
Ġcons cious
Ġgener ation
Ġann um
Ġundoubted ly
ic able
Ġ184 4
ot ted
ĠCl are
Ġvig our
ĠREG ISTER
i ie
v n
Ġto d
Ġrel ates
diff icult
Ġsupre me
Ġrep re
Ġib e
Ġad vers
be g
Ġsens ible
Ġt ale
Ġbest owed
urs day
ĠSte phen
y th
Ġpl ayed
Ġdiff erences
ĠE nd
Ġprincip ally
C or
g ave
Ġha ue
Ġwor st
Ġ9 5
Ġdistingu ish
Ġr am
Ġab ility
Ġpass es
ĠUn ion
Ġdoct or
Ġpurch ased
b b
Ġo ct
Ġs auce
al ing
st ition
Ġcirc ular
Ġaccur ate
se par
ĠL iter
ĠE use
cons ider
i ot
ĠCh urches
Ġcol um
ĠEp ist
Ã± or
Sc ot
Ġexceed ingly
Ġto wer
Ġpl ed
Ġgen uine
Am ong
Ï Ĥ
Ġsal vation
ped ition
Ġin vention
Ġ185 9
Wh ile
Ġmass es
ol ph
ĠB urn
Ġ184 2
OUS E
Ġb atter
ĠIll ustr
i ere
ĠF am
aw s
Ġopp on
Ġdescri be
f al
Ġin ner
ri v
ĠCom ptes
cont inued
ĠSic ily
Ġy s
m ill
ut t
ĠAd am
ĠMus ic
ĠBib l
u its
be ar
Ġ185 0
Ġenter prise
Ġarrang ements
AS S
Ġconst ructed
M in
l le
ĠGl ou
O IR
Ġsk ull
P e
Q ue
Ġa ft
ing e
is ons
ir ies
k h
ĠR OM
Ġp ound
ĠM u
ii a
Ġterm ed
Ġp n
ĠJ ah
Ġ185 4
Ġprof ound
in j
Ġex ists
ĠW ol
Ġ9 7
Ġfr ame
Ġcorrespond ing
ĠMich ael
M ad
Ġp od
ĠL incoln
m oney
en i
Ġrec overed
Ġappro ved
Ġexpress ly
Ġmus ical
p y
er it
Ġde gr
over ty
Ġperfect ion
5 00
ry s
Ġrese arch
rid ay
sy stem
Ġprosper ity
g re
ien na
Ġsk y
Ġfurn ish
pr ison
Ġsm o
Ġv est
Ġcop per
Ed ward
Ġb er
re ck
f ind
Ġnot ed
Ġqu a
Ġ12 9
Ġtom b
circ um
R oman
ĠAl so
Ġvers es
rol og
Ġc av
ur bed
Ġrebell ion
Ġfriend ly
az ine
Ġ183 7
Ġacknow ledge
Ġm ild
ic ating
Ġform idable
ATION S
em e
ĠG old
Ġmed ium
Ġf aint
Ġan no
ĠWh it
Ġwind ows
Ġc f
Ġre ar
nt y
Ġper mission
Ġrem embered
Ġ7 2
Ġcon ver
Ġcon verted
ous in
ex cept
Ġlaw ful
ur us
Ġsur render
ĠBe ing
publ ished
f y
m ers
n ut
t in
v iously
er k
Ar ch
Ġdefe at
f h
Ġli able
Ġaff l
Ġhuman ity
xx x
ĠTh ou
ĠIn stitution
Ġgener ous
Ġ10 3
Ġstr anger
Ġm ental
Ġd yn
Ġap ud
Ġsc enes
Ġev ils
ĠEp iscop
Ġstreng then
Ġang le
S am
ĠW hether
ĠCh al
ester day
pro bably
ae us
Ġins erted
Ġru ins
Ġstat ements
Ġtot ally
author ity
R ev
ĠT uesday
ap an
Ġsc ul
ĠAl though
Ġpor que
Ġ186 2
Ġalt ered
P age
Ġs ermon
Ġb ig
ĠB ank
N orth
P o
Ġof t
Ġshe w
ĠMem oirs
Ġsend ing
fa ith
Ġt yr
Ġto ward
b as
n ig
Ġe ee
ag en
ĠPl ant
ot le
Ġr ub
ĠTh ird
Ġ8 8
ten ance
Ġref lect
ĠBe fore
rop olis
Ġget ting
Ġconv iction
ĠIm perial
R ep
i J
ad ors
Ġall ied
B Y
at u
ĠSpan iards
Ġs ag
ĠA stron
Ġdark ness
ĠDo ctor
Ġc aught
ch ap
ĠV an
Ġcorrespond ence
b ts
al though
ĠS ing
Ġme at
Ġpersec ution
ĠG oth
A lex
Ġsh o
n it
un ning
ag ree
ĠYou ng
ĠPo et
te xt
Ġright eous
Ġconc ur
angu age
Ġeight een
Ġabund ant
Ġv ulgar
op inion
Ġw ore
ĠCh ancellor
Ġ185 5
Ġdispl ay
ut ive
ĠP a
Ġapost les
ĠG ene
ind eed
Ġass erted
Ġfru its
Ġsuspic ion
s k
Ġun ity
Ġper ceived
Ġ186 1
Ġhapp en
Ġsecret ary
ĠA h
ere rs
ex press
M rs
p ence
en z
The ir
Ġcl o
oun ter
Ġregard ing
Ġ183 1
Ġhar bour
Ġquick ly
ate ful
Ġ8 6
Ġill ustrious
reg ard
Ġbel oved
Ġpract ised
TER S
D uring
e es
Ġc ure
ĠIn f
ple asure
ĠX I
Ġmod em
i op
l r
t est
ut a
ĠS ong
Ġg rown
Ġlo ose
Ġadop t
hum an
D o
Ġt ons
ĠSe veral
ĠPro phe
Ġrail way
ĠH ome
Ġdis pers
ĠSu ff
Ġmerch ants
Ġass isted
Ġeleg ant
se ven
ant ur
Ġman uscript
serv ice
ĠPr incess
IS S
Ġrest ore
Ġcontinu ally
Ġb ands
pe are
Ġse ed
IT ION
Ġsil ent
2 00
G r
Ġsent iment
Ġfu pp
Ġwid ow
b ad
Ġm uy
Ġlar gest
Ġxv iii
olit an
ĠFR OM
F l
Ġor gans
Ġvar ied
Ġdescend ed
ĠA pr
ĠK t
Ġmon k
h ig
pl aces
v r
ĠH um
ach t
Ġref use
Ġdef inite
IT ER
Ġprel ates
ĠA re
Ġst y
inc re
Ġ7 8
Ġlarge ly
Ġaband on
S C
Ġc ow
us ively
Ġar ising
Ġpo ly
Ġ184 3
Ġgold en
n el
ĠO l
IN DEX
Ġmo ving
cut ta
M o
Ġg ross
ere m
AL E
Ġhat red
D on
p ow
u ft
Ġ9 3
Ġconf ession
Ġobsc ure
ĠMar g
ĠCrom well
y ne
Ï ģ
Ġa U
Ġpre ach
D i
Ġyour self
ĠPro c
ic li
Ġwar rant
suff icient
f en
ĠP AR
Ġsa ith
Ġpri ze
Ġprom ises
Ġsch olar
let ter
Ġsugg est
G erman
P I
Ġb om
P ER
id ad
Ġexhib it
u is
ĠB enedict
Ġ14 9
Ġsu ng
will ing
ou ch
Ġfall s
Â ©
ĠO li
Ġweak ness
sh ort
Ġrep res
nes day
ĠP L
Ġspeci ally
Ġp ert
om ach
ĠWas hington
l atter
r ayed
Ġm aid
le e
Ġrepresent ation
p ol
Ġqu ot
Ġsec ular
Ġopen ly
ab s
Ġan ch
pie ce
C am
ist ent
Ġse g
cl ass
AN N
Ġold er
ĠT en
qu ire
Ġpre cept
Ġcol oured
olog ists
Ġsummon ed
i in
st an
Ġli is
Ġdisci ples
Ġperpet ual
s us
and al
Ġrep air
iqu es
l on
Ġinv asion
sch ool
Ġg irl
Ġwhe never
Ġext ract
Ġlect ure
Ġne arer
Ġpr ices
b ig
p ole
ul is
Ġpro d
So ciety
Ġincon ven
Ġfor fe
Ġ9 1
Ġp ull
ab a
Ġam use
Ġalle ged
se ems
Ġcommand er
Ġinqu ire
C he
T t
i H
am pton
Ġha z
Ġdo ors
ĠSw ed
f ch
it self
Ġdis grace
Ġappro aching
jo ining
ĠJust ice
i ens
Ã± o
c b
Ġsl ave
ĠEm pire
ĠMan chester
Ġeste em
J e
r ons
s il
Ġs ession
Ġsour ces
ĠInt ro
Ġrecon cil
B er
Ġ urg
ret ion
gra ve
Ġfun ctions
Ġtex ts
u in
Ġdis miss
Ġel abor
Ġfield s
rane an
Ġhon ours
oph y
Ġacc um
Ġsmo oth
Ġn ig
Ġrare ly
Ġinte gr
h al
p ay
Ġc her
Ġdem ands
Ġimag ination
f at
s pecies
est e
Ġsc ru
ĠIN D
g il
Ġbeg ins
occ up
Ġmonaster y
ĠL ow
Ġcont rol
ĠB et
Ġind icated
Ġ11 0
Ġproof s
Ġn omin
o it
Tr ans
Ġsket ch
g ow
m acy
iz es
Ġpre aching
Ġcere mony
Ġeld er
e at
g iving
t ii
Ġt ie
ic acy
Ġu l
ne arly
ĠLe v
Ġsur vey
ĠAdd ress
Ġl ii
Ġwas te
ĠF re
Ġqu ad
Ġinc ap
Ġ183 6
n ant
Ġp ressed
ri us
Ġlim it
IG N
t ar
ĠC ra
Ġatt achment
n amed
ĠPhil adelphia
omer set
Ġsust ained
Ġa stron
ro ve
am mar
g ent
Ġrem on
Ġv n
Ġ8 2
Ġthreat ened
an cient
Ġd ust
Ġl ust
a um
ĠN othing
Ġ183 0
Ġaut hent
orks hire
Ġdomin ion
Ġrenew ed
Ġex claimed
Ġp t
ĠO p
Ġinter f
ĠWil son
Ġconfer red
v ity
ĠB ath
op en
Ġ á¼
ven ant
Ġfl ow
M art
Ġf ed
ĠC yrus
ĠB arn
Ġs ab
Ġp ack
Ġintellect ual
u u
er i
Ġc os
Ġdisc ourse
Ġfest ival
ĠL am
E B
ent a
ĠB RIT
ĠP O
ĠL ower
os ph
Ġgall ant
bec ame
M ed
p ra
Ġscul pt
ic um
ĠB ol
Ġoff ering
Ġlord ship
B ar
s ign
Ġd aughters
Ġ9 4
Ġtrou bles
es pecially
ol ved
Ġit a
ph y
Ġdesir able
im p
Ġuni versity
import ant
t ween
inci al
Ġtra ces
ot ions
nt e
Ġqu it
Ġwood s
Ġrecogn ised
Ġanci ents
are n
E r
nd on
it ution
st ru
it ute
Ġth i
ĠC lement
att empt
Ġcar riage
Ġexpress ions
M il
Ġ10 5
Ġprof essed
Ġan terior
ĠCat alogue
Ġcontr ast
ic io
Ġ1 17
Ġim posed
Ġref uge
Ġgu ilt
Ġn un
and e
Ġr anks
oc ity
Ġmar ry
Ġ186 3
G u
T I
l v
m ont
Ġman agement
ĠEd ited
ĠSim on
is a
Ġe ll
ĠInd ies
Ġmerch ant
Ġcrim inal
ĠAnt ioch
ie g
ĠD I
E gypt
U C
Ġs ulph
ĠL ight
th row
Ġamount ed
u art
Ġf on
Ġsupp lies
Ġbre aking
ĠLordship s
Ġasc ertained
the s
ipp ing
look ed
fav our
APP ENDIX
c as
p n
an es
ĠC our
ens ation
Ġout ward
ĠEs sex
Ġs ig
Ġf en
pe ace
Ġun anim
su ing
Ġ9 6
Ġsix teen
var ious
os om
Ġsol ic
gl ass
AM B
might y
pot hes
Ġg rief
ĠB uck
Ġeight y
Ġoccur rence
ĠM c
ĠR endus
Ġprepar ing
ĠF le
Ġpre tend
Ġpersu aded
advant age
Ġse as
ud es
Ġstrict ly
Sax on
he ard
Ġm ole
vel ation
ĠPl ato
det erm
l ad
v s
cl ose
ĠCH URCH
s ions
Ġp of
Ġe ft
ll en
Ġhe irs
LE Y
ĠCom ment
Ġpat ient
Ġpatri arch
fam ily
f il
Ġw ound
ĠB all
ĠL ud
ous ed
ĠDe i
Ġdef ended
ĠDes cription
T wo
Ġth a
ir on
og ra
ĠFR ANCE
Ġpropos al
Ġtyran ny
G reat
ĠAn im
Ġexc use
ias m
H ar
r in
ĠC ivil
ĠF air
port ions
ur i
ĠB ri
book s
Ġad vert
bet ter
ĠDan iel
R ichard
ost er
Ġrel ate
Ġnew sp
ĠSur vey
Ġinn ocent
ĠH art
Ġproceed s
ch anged
ian of
Ġreturn s
P res
ill ings
Ġlect ures
Aug ust
b els
Ġim ages
Ġg ame
ĠP H
olog ist
Ġoccup y
Ġbless ing
t il
Ġn ou
Ġind ignation
Ġwa iting
ĠShak speare
D AY
ĠS un
ĠC u
de en
Ġfrag ments
b n
Ġnot ices
uc le
Ġkind ly
Ġty me
op es
Ġne ce
Ġpre ferred
ingu ished
Ġneg lected
bel ong
Ġcomb ination
Ġambass ador
f ir
y o
is ure
Ġlead er
great er
m itting
Ġn s
serv ed
ĠNor folk
R ome
Ġrem ed
pur pose
Ġpl us
Ġent reat
C ont
i ents
the w
ath am
Ġ10 7
ĠN on
Ġten ant
Ġeduc ated
ĠCat hedral
Ġpursu it
M l
ĠL ab
Ġwor n
Ġres ources
Ġpres ident
Ġ14 0
Ġeng age
char ge
ĠLaw s
Ġprepar ations
ĠS ermon
am bers
Ġus ing
Ġlook s
Ġsus pected
Ġwind s
U s
und y
Ġter ror
Ġclaim ed
omb ay
f ed
m p
v id
Ġre ject
Ġu seless
od d
Ġra v
Ġfa id
th r
Ġle af
Ġcrit icism
ĠOper a
is le
Ġc au
Ġan ni
Ġi L
che quer
unt il
Ġcho ose
Ġcongreg ation
Ġw ond
ĠS S
ĠS us
am us
tr ue
Ġcur ios
ĠPers ia
Ġvers ion
Ġconfl ict
Ġp ity
ĠKing dom
phe w
Ġhar mony
Ġcrow d
Ġh ys
qu iry
ĠE xt
Ġag ent
Ġdes cent
Ġsto res
nect ed
Ġh ospit
ĠP le
ul um
ie u
ph ant
iss ue
Ġth ousands
qu ence
ĠG ent
ĠAnd rew
ĠGreen land
ur st
el a
M t
Ġl ips
Ġbes ide
Ġwitness es
Ġabund ance
Ġw ives
ĠM ir
ay ne
part y
Ġh arm
Ġheat hen
Ġwel come
Ġn ull
ĠS in
ul ent
Ġv ocal
av o
Ġind icate
Ġxx i
Ġdest ined
Ġappre ci
Ġmess age
A H
M em
Ġc ant
Ġd c
ĠM un
ĠW ITH
ien ces
Ġcompan ion
Ġth ys
Ġl ia
ond s
ĠNich olas
ĠC re
ĠG erm
Ġleg it
cent ury
Ġvill ages
Ġwide ly
ĠGil bert
ch ildren
ĠE z
Ġpre pare
ĠOr der
Ġcamp aign
ig r
ĠG ren
ĠJohn son
Ġtou ched
Ġmort al
D av
Ġm ould
ĠT ol
ĠF o
do es
Ġsympath y
B ishop
i E
y rs
Ġvis ion
T ENTS
Ġt ide
ne g
Ġag ents
Ġfind s
Ġexc ite
Ġoccup ation
quis ite
Ġh ind
ĠE g
H ab
ĠSy ria
Ġprecise ly
Ġreve rence
B t
ion es
ke l
J l
ĠM ost
Ġun happy
ĠChrist mas
ĠPres byter
ĠProv idence
ete or
P L
h abitants
ĠS ince
Ġg rey
ĠM E
Ġan nex
Ġsh ores
Ġcompl aint
Ġsevere ly
ĠExcell ency
B S
Ġg i
ge ance
be aut
Ġfe ature
Ġii ber
Ġsevent h
Ġanx iety
Ġpass ions
ĠAr tic
con tr
it um
ĠK a
vers ed
I AL
Ġto do
ent ire
Ġ11 9
Ġins cription
Ġbread th
Ġmix ture
d t
Ġn ay
ĠL ORD
Ġst ew
Ġsuccess ive
Ġphys i
Ġcreat ure
e ches
m aj
ĠP E
ĠR ail
ĠN um
ru c
Ġ9 8
An n
rel igion
i est
is che
to ire
un ities
Ġ10 8
ĠGr ant
ĠChe ster
Ġamid st
Ġgr ass
Ġmagistr ates
c over
y re
ĠE ach
Ġsub stant
Ġke y
ĠPl an
Ġslow ly
Ġinher it
Ġprejud ice
Ġb eds
Ġem pt
Ã© r
M AR
j l
Ġw b
ed a
Ġch oir
Ġele vation
Ġarri ve
al ia
ĠB apt
Ġident ical
Ï ĥ
Ġc otton
ĠL es
Ġaccom mod
ĠPe ace
Ġfir ft
ĠSol omon
ĠP ole
Ġr c
Ġres erved
orn ed
ĠCH AR
Ġcloud s
Ġo pt
Ġmis chief
v ith
ĠL omb
ym n
ĠAp pendix
ĠT al
ĠA ch
Ġex commun
elf th
f n
ĠD R
ens ed
Ġshe l
Ġcol umn
Ġsto pped
er ior
Ġs ine
Ġv oted
od ox
ĠD ick
form s
Ġlof ty
d ale
Ġmart yr
ig ent
Ġappro bation
ĠAust ria
ĠJ on
Ġneigh bours
Ġrun s
ĠXV II
ard e
ĠPortug uese
Ġb j
Ġde eds
fort une
ĠS um
ĠM ill
ort on
ĠScot ch
car ried
z er
Ġc ul
Ġpre rog
ĠU N
Ġgovern ed
Ġdiscuss ed
Ġcruel ty
R S
m other
Ġc x
Ġdecl aring
Ġa st
Ġn aked
ĠC ass
ĠD IS
Ġed it
port s
Ġhouse hold
ĠAct a
Ġfun ction
m ain
he t
ro es
ip h
de g
Ġsum s
Ġcat hedral
Ã¼ r
Ġtempor ary
Ġe u
ĠC ran
Ġjust ified
Ġaccur acy
Ġa ur
Ġv ous
ans ion
Ġresembl ance
Ġl over
ĠG entle
Ġmay or
pr ot
Ġs ter
ig nty
Ġar d
Ġwhere ver
Ġple asing
ĠVen ice
Ġflo or
U y
w ife
le tt
us hing
iv a
Ġrece ipt
f are
ĠP ot
Ġexp enses
Ġcultiv ation
turn ed
Ġenlar ged
Ġn r
Ġex change
Ġsa iled
O x
w at
ot ism
im ie
ĠI k
Ġse lect
Ġal ien
yr am
W as
g one
ĠW IL
ĠV ita
Ġrequis ite
ĠGlou cester
Ġt all
Ġt enth
Ġinh abit
Ġcommission ers
T em
ic on
Ġar gu
appear ance
t ts
Ġin tend
IN T
ices ter
ĠLe o
r ound
Ġa o
Ġr um
Ġqu art
Ġord ained
po ch
Ġp overty
un ce
Ġpl ans
Ġfl ame
Ġass ent
Ġinf ant
Ġlow est
ĠI he
du c
ĠJoh ann
Ġancest ors
b od
ĠE e
Ġsc arce
Ġnav y
Ġpro pose
Ġacc ession
cern ing
Ġo ri
ry st
Ġplac ing
bo ard
Ġpossess ions
ig ate
ĠP OL
ink ing
Ġimag ined
Ġtrib un
n c
ĠP s
ac ent
ne ll
Ġsus pended
y on
Ġp int
ot a
ĠF el
Ġinterest ed
ĠWilliam s
Ġinsect s
ine a
Ã¡ s
iction ary
Ġrem em
ĠRe formation
Ġrid ic
ra ham
cul es
Ġfail ure
J ud
y gen
ĠN ott
ĠTurk ish
P E
Ġb ent
ĠW H
Ġdes erved
Ġhost ile
ĠLew is
Ġphr ase
P art
ĠT u
id as
EM OIR
F E
ĠR od
Ġ18 1
ign or
fl ing
Ġabs ent
ĠSto ck
ĠFreder ick
Y et
ag ing
ĠEd mund
ock et
l ion
Ġa un
ot o
ĠC ross
ĠV ic
Ġassoci ated
ĠRus sell
L u
it ic
Ġrepresent ing
Ġsever ity
C ount
á ¿
Ġv ine
Ġinv est
Ġprom inent
Ġmel ancholy
in em
Ġ1 18
ear ch
Ġus es
Ġsuccess ors
Ġspeed ily
b ath
Ġd ar
Ġdoc ument
Ġdoc uments
m ist
ly n
Ġst ories
ĠN ile
Ġc iv
Ġaffect ions
ĠNove llo
he at
ĠR et
ĠJ ones
ĠSt ill
Ġ183 5
Ġmat hemat
ĠHug h
D U
n us
br other
Ġs ke
al ter
Ġwe ap
Ġass ault
Ġte a
Ġdecl ined
Ġcorn er
m r
Ġs hed
Ġb ills
il ies
con sequ
Ġins ult
Ġbene vol
Ġconce aled
ir o
ĠF riday
Ġj ury
ob ed
Ab out
Ġassert ion
Ġfh ould
wh ite
Ġjust ify
ING S
j ah
Ġc yl
ĠC x
ĠA G
ol ence
pt oms
Ġsp ots
v ill
Ġw and
Ġd ia
ut ton
ĠS ER
ĠPal estine
Ġzeal ous
ianof orte
Ġs orts
ĠF ig
inn ers
f urther
Ġc en
Ġd os
Ġha re
Ġr oute
Ġsatisf y
l ove
tr uth
Ġ183 3
Ġsing ing
Jan uary
J er
Ġo on
Ġm oft
ĠTh ursday
Ġbr ings
Ġir re
Ġsong s
Ġrepres ents
m orrow
Ġf ide
ic ates
Ġent r
Ġchar ter
v t
Ġsign s
Ġtax es
B i
d aughter
w ind
Ġen er
Ġdis order
ĠX III
H aving
ĠS ON
ĠE sp
ort al
Ġd rop
Ġv a
Ġrest oration
Ġcolum ns
ad ron
ĠS H
ĠD uc
Ġdes ires
Ġint imate
vers al
Ġest imate
Ġ10 4
ĠCol gan
Ġtal ent
Ġt ar
Ġfound er
pend iture
Ġinf antry
estab lish
â Ļ
Ġp ier
Ġm ourn
Ġst ations
iv eness
Ġsim plicity
Ġmis erable
Ġreven ge
âĻ ¦
ut i
ĠR O
ĠZ ool
Ġ nd
pl ain
Ġag reement
Ġwr ought
ĠAmer icans
Ġlie utenant
Ġprud ence
th y
ĠK nox
ĠY orkshire
M ag
ud ence
Ġ9 2
Ġcan al
ĠDer by
is chen
Ġeste emed
d ered
Ġse ll
all en
Ġ183 4
Ġh un
if ully
ie p
Ġst em
Ġr ay
ast y
per ors
ĠĠ ĠĠĠĊ
Ġrespect able
Ġfier ce
Ġaug ment
tro ops
b orne
d ition
Ġe pit
Ġg ifts
ne xt
ĠPl ut
Ġfee ble
l am
Ġt bo
en emy
ĠO t
Ġi J
Ġdo e
Ġconf ident
ad em
Ġlab or
Ġm ud
Ġcut ting
pir ation
Col onel
orig inal
ĠL im
ĠG host
ĠGre cian
ĠGE ORGE
ve red
Ġch lor
ĠCon stitution
ic ing
ĠH IS
ĠG ran
Ġem er
Ġform al
rist ol
Ġhold s
Ġcomm od
Ġra ising
Ġfl atter
Ġadd ing
Ġele vated
sim ilar
gener ally
ĠCommission ers
s atisf
ĠV o
Ġjealous y
is en
Ġf uc
Ġre duce
ĠE wer
ng th
Ġco in
Ġinf irm
Ġrequ ested
ix t
Ġdom ain
ĠÃ© l
Ġdre am
ĠA D
est a
ill ity
Ġdes criptions
ĠMil an
f requ
Ġo re
Ġ18 15
p un
ĠF itz
Ġpro ducing
Ġstr angers
Ġsum m
ĠPer haps
Ġidol at
r il
Ġo ra
ĠM iddle
ĠV ers
Ġfe ared
ex ec
Ġrest rict
Ġwit li
Ġdesp air
ĠProtest ants
v ice
Ġb ased
Ġsh adow
ĠV ienna
Ġlay ing
Ġid le
Ġaut em
Ġange ls
m u
t ur
ĠA y
ĠH ud
Ġnot ions
Ġst im
Ġch ain
Ġtravell er
ĠRog er
A ng
Ġ Ã³
Ġs well
ad op
Ġch ose
Ġinc ome
Ġex empt
Ġcons picuous
Ġinter vals
C u
e lect
ip es
Ġpri or
ĠLu ke
M ary
Ġex pe
ĠCal cutta
Ġd ull
ch ant
ri or
Ġmil k
estab lished
ar o
st ead
Ġacqu ire
U r
or ie
for ward
Ġvar ieties
off ice
Ġquant ities
Amer ican
Ġmete or
in ery
ĠI LL
ĠL ITER
ie h
Ġi k
be come
Ġbl ock
Ġadd itions
Ġ11 3
A i
l ines
Ġf y
Ġevery where
ruct ive
Ġpat ience
Ġappro ached
J oseph
Ġp f
gr am
Ġdread ful
Ġcontempor ary
ĠJ apan
Ġvig orous
Ġf he
im m
Ġfe udal
Ġsepar ation
B E
Ġcon vent
all owed
Ġcertain ty
is is
ĠA u
qu et
ĠL ittle
Ġk ill
Ġ14 3
ĠCl ar
Ġcreat ures
Ġgrou ps
ĠJu an
ce iving
Ġcomm ands
Ġmod el
Ġopp ose
ĠS omerset
Ġsh ield
Ġcl ay
ph il
Ġpresent ly
Ġ10 1
Ġproduct ions
s ons
nd s
Ġh urt
os is
un ion
Ġreg ulations
Ġess ent
ĠHam ilton
ĠApost le
d d
ĠL iv
Ġdi et
Ġce ase
ot y
Ġr r
Ġac res
ĠEx per
ĠConstant ine
Ġdiscover ies
UB L
Ġflu id
Ġcl im
Ġdece ased
ie ur
Ġ13 9
Ġtem p
Ġmil itia
Ġsect ions
ation e
s pring
Ġr y
li us
Ġf ug
Ġdisc ern
Ġsuper stition
Ind ia
Ġtrans mitted
Ġtit les
v it
Ġth read
ir r
if ice
ess ions
Ġdepos ited
v ous
Ġp y
Ġun like
ĠMar quis
Ġmult ip
Ġmist aken
ĠBot an
Ġthe atre
Ġf ing
as i
Ġtem ples
Ġpun ct
m ur
p oc
ĠS id
ard y
Ġdis cont
ob tained
Ġref ers
gr im
Ġcre ation
th a
Ġillustr ation
Ġded icated
Ġencoura ged
l antic
Ġw retched
Ġm ol
ĠS ed
Ġcon vention
ĠL ET
ĠE c
ĠE ur
ĠHigh ness
P et
er at
Ġf n
ri i
Ġu i
Ġv ap
ĠF ree
Ġqu is
Ġapp l
ep s
ĠDe an
Ġco at
Ġprom ote
Ġextra vag
Ġsle nder
ĠAthen ian
Ġt ed
on ym
Ġf m
ut ral
Ġper il
Ġ10 2
Ġel ong
IT E
M iss
Ġf ay
Ġn est
Ġro ots
Ġt ort
Ġpro long
Ġ12 7
Ġrepresent ative
Ġlead s
he aded
it he
Ġ183 2
Ġapost le
Ġ å
Ġen light
IAN S
Ġpont iff
J ust
Ġf idelity
Ġse lection
Ġle isure
ĠY es
ĠAn at
Ġcomp are
Ġwood en
Ġsucceed ing
t lie
ud a
ĠIn ter
Ġpol ice
Ġver o
Ġinh ab
rag on
Ġhim felf
ell y
ĠÂ ¢
ĠWed nesday
el ess
Ġte achers
Ġthick ness
i pe
Ġd aring
Ġexped ient
Ġunivers ally
l at
qu i
do ct
UL T
Ġstart ed
EMOIR S
17 0
aps ed
Ġz ur
law s
d rew
ord ered
Ġgener als
ĠBrit ann
Ġdepend s
look ing
Ï Ģ
Ġc n
Ġm ing
ac ific
Ġne go
Ġpre face
ian o
ove reign
ĠPh arm
Ġwa ited
ĠRev iew
Ġquar rel
Ġmot ive
Ġbal ance
l os
as much
ĠS el
Ġsub stances
Ġinst inct
Ġocc a
d ue
Ġt ant
Ġl un
ĠC uv
Ġmon ument
Ġbo x
Ġcontinu es
Ġjour nal
Ġdioc ese
oug las
ĠHe ad
Ġcor on
Ġprof essor
o ii
w d
Ġl iv
Ġappe ll
Ġ16 1
Ġdu ly
Ġ180 2
M a
am an
Ġj un
ater n
Ġprud ent
th ousand
Ġcount ies
pothes is
l b
l h
ĠT urn
Ġpro se
ear th
pos itions
Ġrem oval
Ġobject ions
Ġfr ight
Ġxx ii
Ġansw ers
Ġwal ked
ĠV ill
Ġ18 29
ĠBr ig
Ġmonarch y
k r
Ġse es
Ġbo il
Ġcomple x
Ġcomb at
Ġprocess es
es p
art ment
Ġatt acks
Ġlibert ies
f j
w el
ĠT aylor
ather ine
Ġass ure
ĠLe on
Ġ25 0
ĠPet ers
Ġclot hes
G RE
d ence
ic is
ĠA ur
cl usion
ĠAr ctic
Ġpolit ics
ĠP ed
ult an
in ently
Ġc li
ies e
ven ue
ER N
lic ation
Ġbeh aviour
E li
P ort
i K
Ġa ve
Ġf p
Ġm ap
ĠS ep
ĠH ung
ĠG rey
ine as
Ġagain ft
Ġ13 1
Ġheres y
ce re
9 4
ĠM ons
Ġve x
Ġprev ail
Ġep istle
ĠCorn wall
S outh
et or
Ġdes erve
ient o
Ġfat ig
Ġphot ograph
g raph
p ing
Ġc ited
Ġin ve
ol ent
mem bers
Ġt on
it io
Ġb one
em ployed
Ġoper a
Ġslight est
ĠTur ks
e as
g entle
Ġc rew
Ġd ressed
ĠC oun
Ġcan non
Ġadm ire
N ove
Ġha v
ac re
ĠIn s
Ġjud g
IV ES
Ġhistor ians
Ġre igned
ruct ions
Ġinj ured
G overnment
f ire
ĠAl bert
Ġpublic ly
point ed
um s
Ġmis ery
hib ition
Ġlangu ages
Ġsafe ly
c rown
in ch
it as
Ġwor sh
Ġcirc ulation
king dom
Ġendeav ours
Ġundert ake
pe ll
ĠF ield
bl ood
Ġest o
Ġpur ity
Ġcrow ded
ĠMur ray
ĠVirgin ia
s old
er on
ceed ing
Ġ189 3
Ġneed s
c ord
t be
le ast
ĠH EN
Ġne arest
Ġrespect ively
ĠLanc aster
ch al
ĠB oy
Ġsus pect
Ġric hes
Ġse ated
ant ine
h om
i atic
Ġ #
in l
Ġre ci
Ġr ud
ia i
Ġgrand e
Ġtrib ute
L ong
Ġf ount
att ention
ĠAugust ine
ĠD ion
Ġchap ters
Ġmir acles
Ġsurr ounding
Ġp all
Ġsc ore
Th ough
W il
f ii
Ġ ä
Ġo we
Ġwhe at
Ġpe c
stit uted
Ġ180 4
ĠTy nd
Ġeloqu ence
Ġauthent ic
H on
qu ently
Ġy esterday
ĠR u
Ġne e
Ġcol on
Ġobserv ing
Ġsum mit
Ġearnest ly
Ġw aves
Ġs ive
ide a
Ġpres ervation
Ġ19 22
r ity
ĠW esley
Ġint rig
Ġcollect ions
ĠENGL ISH
ĠGRE E
ter m
ĠL ove
UR OPE
Ġstrong er
Ġsil k
id y
Ġ18 27
ian us
Ġtre acher
ĠAss y
Ġfra ud
pop ular
ĠArist otle
en cia
ag us
ĠCh amber
Ġ15 3
Ġinter view
Ġpat ent
Ġreve aled
F OR
I ll
Ġyour s
ĠVen et
Ġgood ness
br ance
Ġcommand ing
Ġt il
ĠK night
Ġpur sue
Ġhum bly
Ġcompan ies
Ġbreat h
Ġb orough
Ġshe lls
ĠANN UAL
c all
t ree
Ġc reed
ĠL l
ĠW ork
Ġpro clamation
ins ula
Ġcapt ure
Ġthir teen
t old
ĠG es
ĠAn th
Ġbre ach
Ġmeet ings
s erve
z ar
ĠM AN
Ġex agger
Ġpre cipit
C t
J ourn
Ġl ime
Ġqu ia
ĠTh o
Ġ14 5
Ġbot an
ed o
pr inted
Ġmem oir
Ġeffect ive
Ġdang ers
Ġult imately
p ical
Ġt ab
Ġa ward
if ted
Ġun usual
Ġcouncil s
Ġsuffer ings
Ġcere monies
observ ed
a ire
ĠAn cient
ĠDe ut
o en
p f
r ice
Ġf ears
Ġsu bl
Ġun worthy
Ġdist ributed
eal and
c ouncil
h ind
Ġd ow
ĠA k
fel ves
h ould
Ġst omach
Ġne phew
Ġk yng
ĠMay or
Ġhered itary
Ġb ought
ĠP resent
Ġst aff
Ġpay ing
Ġsav age
re ls
ce m
ad t
ĠC irc
Ġ18 28
Ġdel ib
Ġconc ent
Ġspect rum
Ġdwell ing
Ġcler k
Ġb it
as ius
Ġhe e
ie e
ĠD ou
ci Ã³n
Ġinv ari
Ġconce al
P al
ĠT imes
ĠB ombay
Ġpl ays
yd ney
Ġpeculiar ly
O b
p aper
se em
Ġab bot
ric a
ul se
ĠNew castle
ĠAb raham
Ġinvent ed
u ii
Ġor th
Ġrem ind
com plete
Ġref lection
Ġcompl aints
N OT
f old
Ġc of
ĠA ff
comm and
Ġd ates
ĠGl as
Ġconqu ered
Ġdog s
Ġre formation
Ġfront ier
Ġpain ful
Ġinterpret ation
C y
Ġs es
ĠA st
ch i
ged y
hist or
O K
c ro
ĠH ope
ĠMad rid
n is
Ġb v
Ġh ollow
Ġex empl
Ġdef ined
Ġadv ised
bu ilt
w al
pe ls
ĠN ach
ĠV ar
Ġdecl ine
G l
M at
Ġw l
om ething
Ġbe i
Ġconf essed
Ġhon oured
gr and
Ġjud ged
Ġphilosop her
M us
v ant
le ys
com es
ex c
RAT ED
I i
P re
Ġc m
Ġf olly
ri al
Ġal g
com b
Ġext ension
ISH OP
c our
Ġw ave
ĠT ar
ry ing
Ġdec re
Ġdec ide
Ġneg ative
fo ot
Ġdis pat
int ro
Ġ13 3
ont al
Ġingen ious
ch in
Ġ12 5
Ġadm ission
ĠMo ore
Ġexha usted
ĠL L
ĠĠ ĠĠĊ
bl ack
end ar
Ġste ady
Ġproble m
b ass
c p
ut ure
ĠH ipp
Ġvar iation
Ġart ist
ĠAR CH
Ġqu ibus
Ġpr incess
Ġrel ics
Ġass ign
Ġz o
Wh o
Ġconsecr ated
ĠP ract
Ġdet ailed
E X
H l
Ġe on
Ġe poch
Ġv id
Ġreason ing
Ġfirm ly
Ġerr one
U ni
ĠAlf red
Ġo y
Ġc ardinal
Ġan alysis
Ġad equ
o ire
s ider
Ġl ively
ert on
h m
l aid
Ġb id
Ġl ap
Ġsh out
Ġwhat soever
Ġco inc
Ġdec or
li que
Ġbr ass
Ġ17 1
Ġundert aken
f aces
g ust
Ġc ook
Ġpl under
Ġcan ons
br ated
friend s
K e
m oment
to p
Ġro de
inc erity
ival ent
Ġlat itude
c ivil
st ruction
ce p
ch us
ĠPr ot
port ed
ĠBel g
Ġexcl usively
Ġencoura gement
H y
ĠS ad
Ġdro ve
c ii
Ġp au
ĠRe f
Ġopp ress
Ġpret ence
W ood
at on
ic u
ĠW ords
Ġpl ague
Ġmem orial
ĠJe h
Ġestim ated
Ġappropri ate
Ġcurios ity
9 6
W ar
g am
Ġg al
Ġ13 7
Ġfa ults
Ġkingdom s
Ġm m
am ple
ign ant
Ġcrown ed
n ine
our ce
Ġro oms
Ġbl ame
use tts
Ġsto re
Ġepiscop al
U pon
n f
u able
Ġw et
Ġv oc
ap arte
ace a
Ġres pond
Ġdra g
Ġneg oti
sent ed
Ġterrit ories
Ġvic inity
Ġsyn od
ĠFol io
Ġh ie
Ġab use
Ġbre f
ĠEgypt ians
Ġcorrupt ion
t aking
pe ar
Ġ18 25
ĠK al
Ġres ided
ier re
Ġmed icine
Ġpropri ety
c ated
Ġcl ause
ĠPers ians
hon our
I reland
p ine
ĠE h
ĠJ ob
Ġdou bted
Ġche ap
Ġ187 2
ĠPruss ia
re a
ĠM end
ag raph
cri bes
ĠNew ton
ĠQu ar
Ġexpect ation
Ġvent ured
ĠApost les
Ġartific ial
A CH
C a
d ied
ĠO wen
Ġfl ood
Ġinv ested
Ġxx iii
Ġprop ag
ĠCent ral
Ġelabor ate
ĠH ospital
ne ither
mer ce
the l
Ġtra vel
gu ard
or ph
Ġpre y
Ġ14 1
Ġdev il
Ġpost erior
Ġundert aking
t empt
ĠS up
op ed
itz er
Ġfor s
ĠD own
ors al
Ġland ing
ĠCount ry
Ġsupre macy
Ġper for
Ġposs ibility
Ġann ually
Ġneed ed
Ġ180 1
col oured
ĠTreat ise
Ġthe rm
Ġre duction
ĠI st
ci le
oc ke
Ġcompl ained
Ġmain ly
Ġtu ber
c reat
Ġf are
ut ors
Ġad just
Ġj ur
Ġpun ished
Ġfund amental
f ounded
Ġrep ubl
Ġrepe at
H t
in te
Ġint ent
Ġgra in
Ġfav oured
ĠCan on
Ġroad s
or is
art on
ph ys
Ġatt racted
Ġfin est
Ġincl ude
Ġsup ra
Ġexcl usive
i em
il de
ne igh
Ġ12 1
in and
Ġno ise
Ġpre val
mer cial
ĠNe ither
A E
S l
Ġh an
ĠH amp
Ġdec is
Ġpure ly
Ġsacrif ices
p ound
ĠV is
ĠIt em
Ġsub mission
ĠMon th
Ġpreced ed
ĠMat thew
Ġaccord ance
Ġfab ric
O l
in ions
ac com
Ġrender ing
ĠWin chester
A U
G H
l iness
ig an
ĠF ra
Ġwe igh
ed uc
ĠA th
ĠL ang
ĠO ut
Ġour s
pend ent
pri etors
Ġsac rament
Ġdri ve
ĠJud ah
ĠT un
ĠG os
Ġpro ves
Ġro w
Ġra ces
Ġtrans ferred
Ġ11 5
ĠSh ah
ĠMa ur
Ġ187 1
Ġn ose
Ġpl ot
cell aneous
Ġfortun ate
G R
Ġn ave
Ġra ge
ĠMarg aret
b ound
t able
Ġh am
ĠPe ople
f es
Ġc ogn
et ur
Ġconf erence
Ġris k
c apt
in ement
ĠK il
Ġ17 3
Ġrepresent atives
Ġdim ensions
r b
Ġb osom
Ġf ury
Ġpl ains
igh ter
ĠCont inent
j amin
p of
er r
on ne
Ġf ile
Ġe th
ĠB ad
Ġsubject ed
rem ark
Ġsw d
ĠBook s
Ġveget able
Ġabst ract
Ġconject ure
M ore
ĠL ike
ord an
ĠSt uart
ather s
Ã± a
ĠJ ane
Ġqu el
isc o
J t
c ill
ĠH unter
Ġle ar
ib r
Ġpl ane
Ġ10 6
Ġ13 5
Ġte chn
Ġlab oured
Ġalter ation
Ġgre te
u est
x im
Ġg ardens
ĠL ic
press ion
W ARD
to lem
ĠV jOOQ
ond uct
Ġinstruct ed
D es
O ff
or o
Ġin ev
Ġex ile
Ġres ent
Ġwy th
ĠNott ingham
v ir
Ġt ne
ĠW rit
Ġne at
Ġqu itted
Ġnew ly
Ġche st
roy al
Ġencl osed
Ġarbit rary
ĠEuse bius
r un
u h
Ġre bels
ĠNov a
hens ive
Ġp ension
Ġ15 5
Ġ14 7
Ġaut umn
Ġdefend ant
Ġchrist ian
Ġoppon ents
B ur
in fluence
Ġv ices
ĠNor thern
Î »
ass ed
Ġoff ers
Ġlast ed
Ġeng agement
ĠRom ish
Ġven geance
f air
ĠR ay
OUR N
ĠDur ham
m ethod
n an
ce t
ĠI li
ĠG R
ĠD al
av y
ours es
Ġconstit u
ĠFore ign
us c
du cation
Ġset s
Ġins ert
i q
al one
il iar
9 3
Ġe c
Ġe ve
if hed
ĠE ph
Ġint ense
Ġfac es
Sec ond
Ġw ard
ĠB ow
Ġpres byter
Ġ17 5
Ġmon uments
Ġste el
Ġmain tenance
Ġyield ed
Ġfulf il
ĠFlore nce
D S
es ar
Ġins pired
Ġsch ism
Ġmach ine
Ġw ages
Ġqu ae
Ġatt ribut
Ġfight ing
ĠMex ico
Que en
S al
y ers
Ġin justice
Ġd uc
ag in
ĠTh y
tion ed
ĠCol lection
AM ES
Ġloc ality
3 00
l anguage
v ari
ĠP ubl
ĠX IX
ĠAb bot
ST IT
Wh ite
Ġmechan ical
w ant
Ġc ousin
Ġn ucle
ĠF ri
ĠSuff olk
ĠE th
av ia
Ġoff end
Ġaff ords
alt a
s ometimes
ĠM AR
em en
ord inate
Ġsp here
Ġint entions
cept ible
Ġsch olars
ĠAfric an
orig in
d ress
l est
ay e
Ġar isto
Ġhum our
Ġattend ance
Hist ory
A X
en ough
Ġp sal
ĠO ver
br ing
Ġir rit
Ġoccasion al
AB LE
G AN
N S
g row
he im
Ġl aug
ĠT it
ĠT ime
Ġval our
ann ing
Ġdest itute
Ġexhib its
A CT
c ross
ĠT lie
ri ver
ĠLe icester
Ġmo ist
Ġcompl ain
bel ieve
Ġreven ues
mark ed
9 2
k o
n old
ĠOri ental
L ONDON
R es
m ation
Ġb order
ĠL ast
de acon
Ġ @
Ġh inder
ĠC ad
ĠO ly
Ġsh illings
Ġterm inated
Ġdischar ged
ulg ence
Ġcompet ent
v ile
Ġdes erves
ting u
Ġenc ourage
ĠArch iv
Ġwh is
ĠH es
ĠL ad
ĠD id
Feb ruary
h ome
s cience
Ġprim ary
Ġheret ics
Ġincap able
i D
Ġm ul
Ġdiff ers
ĠMar ia
Ġins isted
ĠAb b
oure rs
L l
em n
ĠE ll
Ġso bre
act or
de us
Ġext ant
gr ad
off icers
u ously
Ġst ating
Ġpro position
ke ep
cl osed
Ġpoet ical
AC K
Ġorn aments
C ouncil
Ġl ion
ĠB ristol
Ġ15 1
Ġed ited
iter ranean
ĠAnn als
Ġresembl ing
are rs
ĠAr m
ĠBr un
ART ICLE
T ur
o j
op eration
Ġwe lf
Ġ6 00
Ġ15 7
Ġcapt ured
Ġstri ke
Ġbra in
o om
t an
cond ition
Ġax is
quar ters
9 1
c red
ĠS cy
Ġcomp ound
ific ant
Ġbes ie
ĠA S
ĠA sh
ud den
ber y
fl ed
ĠMin or
9 8
og en
fe et
Ġcontinu ance
Ag ain
Sm ith
T y
t im
Ġs angu
ec d
Ġadv is
c amp
Ġb ree
ĠS U
Ġconf eder
umin ous
Ġvari ations
Ġs q
Ġc atholic
le ep
ĠA qu
ol de
ĠP ress
ĠE T
Ġal fo
Ġbet w
ae a
ĠMah omet
Ġsor ry
f te
ure r
De cember
n ance
Ġf ired
and i
Ġv iv
Ġres erve
F F
Ġs aving
th or
ĠB ret
Ġregular ly
ĠC ole
ol id
Ġ2 17
Ġsh orter
ai y
Ġcitiz en
ĠAnton io
D an
L at
w oman
ĠI M
ĠS AIN
am i
Ġpre ca
Ġla ud
ĠY ear
Ġadv ancing
ung s
itu ation
N at
Ġim me
Ġaccount ed
ĠS C
Ġsu is
ĠF landers
ord e
Ġ18 00
Ġinter ference
ĠCor inth
Re g
Ġambass adors
ĠCarol ina
i ou
ll l
ol ated
Ġco arse
Ġeffect ually
ĠIs le
alk er
Ġpossess es
Ġillustr ations
ir ls
ĠL on
Ġ18 26
Ġstrong est
Ġmult i
Ġcover ing
Ġaccompl ish
Ġecon omy
Ġtyr ant
Ġm ism
ht e
ni um
Ġhar mon
Ġwitness ed
ĠM att
CH AR
Ġinv al
ĠMag azine
Ġexcell ence
Ġfund s
Ġdram a
P RO
Ġth under
ĠJes uits
O t
Ġy on
ie a
ff ic
og s
erv yn
col our
ĠCam den
Pr ince
Ġtravell ing
n en
Ġm om
al ph
Ġre vere
Ġcon cil
Ġan gel
if ed
ute ly
Ġed itions
ĠServ ice
ĠAustral ia
M ont
r v
ĠWor ld
Ġwelf are
s n
s quare
on ians
ans wer
Ġdiv ide
cons idered
Ġcorrect ed
Ġdich a
Ġbrief ly
Ġt m
Ġr h
Ġpract ically
Ġdissol ved
j d
n ational
t ains
Ġw ed
Ġp amph
Ġan ger
so le
Ġtrans actions
Ġann ounce
Ġc ub
Ġf pe
Ġha cer
che m
ĠVict oria
Ġenthus iasm
F e
f ine
ĠC ic
ist a
Ġass ass
16 0
Ġsim pl
ĠBr ight
Ġintellig ent
ĠE cclesiastical
ĠR ad
Ġpo ore
me ll
ĠAr my
ĠZ ealand
Ġsecond ary
Ġsuper stit
ste in
appoint ment
Ġdw elt
f p
re fs
ut ter
th ood
ĠV ice
Ġsupp osition
Ġ12 8
pri an
Ġmed i
Ġvener able
G overnor
O X
V IL
Ġr ites
Ġen im
stit utions
Ġox ygen
Ġsole ly
d al
j an
Ġh ole
Ġfa ire
Ġport rait
sub jects
ĠPark er
ĠH om
Ġfl ames
Ġ15 8
rum ent
Ġrespons ible
p pe
ĠF if
ii y
Ġpl anted
Ġgu ards
ĠPl iny
Ġsk il
Ġoblig ation
Ġcat alogue
Ġpref ent
Ġfoss il
Ġle an
Ġim itation
Ġbr on
Ġ16 5
Ġes cri
Ġeffect ual
ĠBr itt
Ġred d
bre ak
S w
ant y
Ġper ished
AN C
Ġto me
ing en
ĠH E
Ġr ises
Ġk iss
ne e
Ġgreat ness
Ġes q
Ġ19 3
Ġfortun es
M al
Ġt id
Ġb ast
Ġh unting
Ġsh ade
per ature
Ġlat est
Ġdimin ished
Ġinherit ance
B es
X L
Ġp are
le ans
Ġe man
C OM
m orning
v il
ay n
ii p
Ġsp ared
Ġpres ume
Ġ20 5
C ap
im mediately
art a
ĠAber deen
Ġborrow ed
ro ck
Ġg erm
Ġsu nd
Ġun ite
Ġsp are
ĠU t
ĠMe eting
Ġsen ate
Ġarchitect ure
A ss
B en
i S
Ġrep ose
Ġro ll
Ġent re
Ġ12 6
Ġill ness
Ġphys ician
ĠLeg isl
P eter
t aining
Ġs ibi
isc ount
Ġlist en
Ġfun eral
Ġconvers ion
UST RATED
Ġindiff erent
j s
n am
us ually
ĠH orn
ast on
ach usetts
du ed
Ġrel ieved
not e
Ġes c
Ġ11 4
Ġdec ay
t ian
Ġh ier
Ġn erv
Ġcon ception
od ge
av our
Ġpart icles
Ġsc ales
15 0
Ġgra cious
pie ces
P ART
b um
Ġl U
Ġad herent
oun cing
ĠT able
ĠI x
ĠA me
Ġcon fe
ĠP RE
Ġrep aired
ell es
Ġ20 9
Ġmor ality
Ġinfl icted
ĠM id
ĠE ar
io a
Ġes pe
Ġturn s
Ġmat ch
ĠCop y
ĠM os
Ġ11 2
Ġil leg
Du ke
ĠHud son
STIT UT
F irst
er os
Ġr ounded
ear ing
pre ced
ĠEss ay
H o
i id
orm s
AM E
Ġtruth s
Ġattend ing
ĠBas il
Ġunex pected
m ater
Ġm ines
Ġd ice
Ġl or
ri um
Ġun necessary
Ġsym ptoms
Ġsuperior ity
ĠS oph
ĠM it
Ġpro claimed
ĠN OT
ĠEng ine
Ġent ry
Ġhy pothesis
obl ig
Â ¢
Ġp oll
ord on
Ġ18 10
Ġlight s
b ow
Ġre de
ĠF ive
Ġch ancellor
Ġad joining
io ii
pr ince
ĠPro ceedings
Ġintro duce
Ġconstit ute
kins on
FR OM
R om
i ated
Ġp ir
im in
ĠC um
ĠP age
ĠN a
ĠRe form
ier on
Ġimport ed
THE R
Ġclass ical
Ġow ne
Ġreck oned
cim ens
l iter
Ġl uc
ĠD ios
ib e
Ġte acher
Ġextend s
ĠCamp bell
Ġcon grat
ĠV iew
Ġsec und
Ġsix teenth
leg raph
Ġbarbar ous
M any
n ia
ir ch
Ġsu ited
du ke
OR K
Ġgl ac
inc ent
Ġfir om
Ġcompre hend
Maj esty
Ġempt y
Ġessent ially
i ug
ul ed
Ġme a
Ġ20 1
Ġxx v
Ġexc it
ĠSy stem
ĠBur ke
mount ed
Ġmagnet ic
Ġembra ced
y rolog
Ġb orders
Ġbe ings
Ġ16 3
ĠBe au
mag n
Ġmeas ured
m ove
in cl
Ġex cluded
ĠK n
Ġ14 4
rif ice
Ġdeal ing
Capt ain
ĠGlas gow
M E
R U
Ġe ighth
ĠP ower
Ġpro duces
Ġes p
ĠEd itor
Ġview ed
acc ur
ĠSci ences
Ġmission aries
Ġwal king
Ġbatt al
c ence
v ict
ĠB os
ul sion
Ġex penditure
Ġown er
Ġhero es
ĠS n
ch amber
ĠV ery
Ġrel uct
Ġsupp osing
Ġdi ver
Ġhor ror
Ġpret ensions
dra wn
ĠWel sh
O h
Ġg a
ĠCh apel
ĠU ie
OR N
Ġmar ine
ĠGe o
Ġxx iv
rd m
Ġdespat ch
Ġt el
ĠI j
Ġsu a
ĠD iod
oura bly
Ġfav or
ĠBurg undy
A I
m ot
Ġa ld
ro ll
id ia
ie ct
Ġr ational
ĠN ations
ag ers
ens er
Ġrefer ring
equ al
Ġexceed ing
Ġforest s
H AM
M or
Ġne utral
Ġch annel
Ġen umer
ER T
Ġsm ile
Ġfact ion
u et
ON E
ack ed
ĠMaj est
erd inand
Ġw er
ou e
ĠG ener
ĠG arden
ĠD um
ĠTh u
Ġbo iling
po on
Ġmanif ested
ĠEnt om
Ġf li
Ġh ospital
Ġd Ã©
Ġex pos
Ġr ash
Ġsh op
Ġab ode
bl er
Ġgl or
Ġ13 4
ĠMed ical
H Y
L y
g ins
ab e
ĠR ose
Ġr n
Ġdo zen
Ġcompos itions
Ġ âĤ¬
Ġe cclesiast
ĠT racts
Ġcon tend
ĠE S
Ġimp at
ĠBe ck
Ġ20 7
Ġsuper intend
des cribed
l ist
Ġe cc
ĠE aster
Ġim pe
Ġpr ime
app re
Ġanim ated
ĠMad ras
ĠGREE CE
A cad
B UR
f ac
w hel
Ġw are
Ġb ag
ĠE arth
ĠF ried
mon ths
Ġvolunt ary
Ġs atis
ĠT s
ĠS ym
Ġg ilt
Ġno on
ens ible
OO D
ĠRail way
Ġt J
Ġin ex
ig hed
ĠJ osh
Ġr out
Ġtrans verse
aff ord
Ġbus y
Ġconstit uted
div ision
M ess
g reen
ĠB od
Ġse l
ĠRe volution
Ġtra velled
Ġ180 9
princi pal
ĠLect ures
Ġimprison ment
f ence
n orth
Ġt amen
om m
ĠI ng
ĠG i
HE R
ĠCon cert
Ġprint ing
ar ra
Ġcol onel
let ters
Ġ22 5
Ġmission ary
follow ed
Ġprotect ed
Ġs tern
it atis
Ġm ent
Ġn ous
ri val
ĠH as
Ġsu f
Ġ18 14
Ġ13 2
Ġdecl ares
S ur
ĠR oss
ĠK Ã¶
Ġcont racted
Ġfar m
Ġport s
Ġfort ress
Ġconcl usions
hor se
9 5
C at
z ing
ar ii
ĠC ow
ĠF ellow
ĠCh imie
ĠFa ith
Ġf rank
Ġbe asts
ĠS ant
Ġun willing
Ġser iously
Ġexhib ition
Ġconsist ent
c ases
f d
k m
Ġplay ing
ĠSer ies
Ġtravell ers
Ġf ent
ar re
ĠH arr
Ġle ague
Ġoff ences
Ġdou bts
Ġcens ure
Ġdecis ive
a very
ĠS her
iz ens
Ġlo ving
Ġca ution
Ġsystem s
Ġbur den
ĠRem arks
E st
Ġw ool
Ġex quisite
Ġrem o
Ġpost erity
Ġsun k
Ġdise ases
Ġprejud ices
D ER
Ġp oured
Ġm n
ig ration
ri ll
est one
ac ies
ĠF ull
Ġrec ourse
Ġarrest ed
Ġpredecess ors
b ul
ĠM oh
op tera
Ġke en
Ġstat utes
Ġav owed
Ġimprove ments
Ġexh ort
Scot land
i Ã³
en ne
ii ig
pl om
Ġun common
ign ity
Ġtw elfth
Ġ19 7
Ġtranqu illity
Ġ18 20
Ġconsider ations
Ġfig ured
f ic
ĠIN T
ĠObserv atory
Ġdepos it
CON TENTS
Ġmagistr ate
Ġa ad
it atem
Ġd ried
Ã© is
Ġpop es
Ġpast or
Ġvict im
Ġrevol t
Ġobed ient
writ ing
ĠWor cester
Ġh uge
al ted
Ġre nders
Ġfl ock
bro ken
Ġcab inet
j ed
Ġc ual
ĠT E
ĠM ars
Ġins ide
Ġep ist
C ourt
b rane
id ences
um pt
ons o
ck ed
po et
Ġfem ales
Ġhom age
ĠG ard
iz en
pre ad
OM AS
Ġhast ened
ĠClar ke
Ġt am
Ġc ott
im an
ro gen
ĠV id
Ġdet ached
ior um
ET H
Ġvan ity
Ġchem istry
ke ley
Ġso cieties
Ġ16 4
Ġ20 3
istr ict
Be fore
Ġmagn itude
f ish
s ense
Ġw ounds
Ġf oll
se emed
ĠC ave
ud o
br and
Ġstew pan
M ER
t um
Ġo st
is po
ĠD ouglas
IC K
ĠCl ass
Ġhapp ily
Ġappre hension
t ation
z y
al o
Ġse q
ĠAng lic
h abit
t om
ĠB ou
Ġcons ented
Ġenjoy ment
ĠSal is
Ġsty led
de ep
Ġpresent ing
Ġver te
Ġsol o
lem agne
add ed
N EW
it ans
Ġdisc retion
ĠCl ive
Ġye a
success ful
J E
Ġh r
ight s
oy d
ĠAt lantic
Ġcommun icate
Ġcoast s
Ġomn ibus
w ild
ra ined
ĠD ictionary
iv ian
Ġr he
min istration
Pro v
Ġdescend ants
Ġinn oc
Amer ica
icip al
P O
Ġl ent
ot te
our ney
Ġab ilities
Å¿ h
Ġtra ining
CH RON
Ġtri fling
val ue
CT URE
I nt
at ical
Ġd ir
ĠS ig
og gend
mon th
Ġbe held
Ġg le
Ġcoun sell
L ady
u j
or f
Ġl ui
ad ise
Ġass urance
sp ir
m aint
ag ements
con form
Ġadop tion
Ġrepro ach
4 00
v hich
Ġof l
Ġp ace
ĠS ett
Ġal i
Ġcons iders
II L
Ġover come
Ġglo be
Ġs ciences
Ġreg iments
Ġsol itary
four th
learn ed
Ġh ide
and ing
Ġ2 23
ĠPal ace
Ġsugg estion
Ġami able
Ġmurd ered
f irm
t c
od o
ĠF al
Ġmar ble
af ed
do or
Ġlay er
ĠSu per
Ġgrad ual
Ġvolunt e
build ing
l oc
Ġs pl
it ively
il h
Ġde eper
Ġ2 15
ĠS ydney
ab el
Ġdes perate
end om
Ġ180 6
Ġorgan ic
Ġunfortun ately
U a
b ac
Ġa ven
Ġo a
re pe
Ġ18 24
Ġpar agraph
Ġxx vi
Ġcommun ications
Ġthe ology
ĠA PP
ol er
ract er
Ġrec overy
Ġfear ful
d ri
l ater
Ġd ata
Ġd ift
ĠC ec
qu ite
ĠO range
Ġall usion
Ġ19 9
Ġcontinu ous
er ness
and um
ill on
ĠG az
Ġper plex
Ġres ident
its ch
ĠStra bo
Ġs ounds
ĠHer bert
ĠNe ther
Ġqual ified
Ġp est
Ġn l
Ġse eds
ru it
ament e
Ġfore going
Ġinqu iries
Ġf ii
act s
Ġpe ers
cons iderable
Ġcivil ization
ĠMin isters
Ġquiet ly
ĠP P
ĠH ume
ĠR ic
de part
Dav id
b ered
s in
u ction
or as
Ġen acted
Ġoff ici
con v
Ġ12 2
Ġ14 2
S oc
Ġt urb
Ġre now
ĠA i
ĠR aj
les ia
Ġtli o
Ġhydro gen
b c
ce le
Ġ18 21
Ġsc andal
bour g
Ġheaven ly
Ġdur ation
Ġengra ved
Ġperse ver
Ġrighteous ness
L ib
g ain
Ġp itch
ro f
cc a
sh aped
pher d
S er
u pp
Ġun w
asure r
Ġpray ed
rel igious
num erous
Ġsqu adron
Ġinterrupt ed
u ate
Ġm ob
Ġl augh
ĠP as
if erous
ac ion
Ġar range
Ġdec rees
ĠHistor ical
Ġpaint ing
T R
u il
spe ak
Ġju ft
D R
Ġt ales
Ġn ur
em ies
all ic
ĠCh atham
ex pl
po or
Ġsw orn
Ġincl ination
Ġb ark
ĠT IM
ĠR ock
Ġi M
ĠDu chess
ĠGRE AT
Ġwithdra w
Ġrepent ance
er als
Ġs od
Ġf lying
Ġg ig
ĠM ack
Ġcon ft
op y
ĠMar l
ĠAl mighty
Ġban ished
Ġexcess ive
Ġadequ ate
Ġtechn ical
P aul
v irt
ou p
Ġl ac
ĠF riend
ok ing
Ġafter ward
ĠWh ich
Ġequ ivalent
Ġprom oted
Ġ24 1
Ġcra ft
ĠBern ard
Ġshel ter
deg ree
U nder
Ġn il
pe culiar
we et
Ġcont ented
Ġend ure
Ġ14 8
Ġp omp
ic et
Ġsh ock
Ġal armed
Ġ12 4
Ġprocess ion
n ations
Ġa pe
Ġb ath
Ġb ail
ang ular
me asure
AL TH
Ġmod es
Ġexpress ing
Ġcrit ic
supp ort
ĠRel igion
ĠSar ac
itzer land
or ce
Ġp atter
ĠT a
ĠM es
ĠH IST
Ġst ages
ĠW ind
Ġpre lim
Ġdet achment
Ġtry ing
Ġdram atic
Ġpup ils
C ast
o z
r ar
Ġsu o
Ġy a
ĠR ud
Ġdist urbed
Ġlater al
Ġconsult ed
ĠThom son
ĠH I
ĠL ar
ĠD itto
Ġsh r
ud ent
Ġqu id
ass o
Ġbo ast
nes se
Ġh unt
Ġbe f
Ġre a
Ġ1 000
ĠH ook
ac ons
Ġab uses
Ġext racts
Ġmet ropolis
ĠHow ard
among st
Ġmax imum
ĠHEN RY
S pan
e an
ĠC ertain
ra cy
of fer
ort es
ag n
Wh ich
Ġinj urious
Ġassoci ation
Ġspr ings
n ames
it ime
Ġin ft
Ġper ish
ĠY EAR
Ġremark ably
ĠLaw rence
CI ENT
Ġang ry
Maj or
Ġdish on
ĠSpart a
in um
Ġat e
of l
ure ly
Ġ18 18
ran ces
Ġwr ath
Ġfif teenth
Ġthrow ing
Ġlear nt
i he
id en
ĠB ul
Ġpl at
Ġdeb ts
Ġwid th
ĠNorm andy
ĠC amb
Ġat que
su c
Ġgener ations
Ġ13 8
ov ah
Ġut tered
Ġ180 5
Ġn od
Ġmem or
Ġbenef icial
Ed in
Ġmid night
A c
S O
d ad
m iles
w are
Ġc c
ĠC rit
ĠR ot
Ġco venant
Ġgu ar
ĠBr ad
ĠPh ot
Ġdep uties
Ġsal ut
Ġnu est
Ġmach inery
t rees
ĠM erc
ĠB an
Ġde alt
ĠR ow
ĠK now
Ġdes erted
Ġgr ants
Ġsay d
Ġ19 1
ĠHer r
Ġalleg iance
f urn
Ġ16 8
Ġdelight ed
Ġpup il
UBL IC
G Y
h our
Ġn inth
Ġj us
Ġno bis
ang ing
ĠDe cl
pro duced
Ġmod eration
ĠÅ¿ o
Ġblood y
Ġprophe ts
inds or
Ġkne es
ĠBurn et
en o
an th
Ġre aching
ĠS aints
Ġcont rived
Ġprerog ative
C K
it en
Ġd orsal
Ġn nd
ands on
pend ence
ĠRep ublic
Ġbound ary
Ġident ified
ĠVict or
Ġnin ete
Ġintegr ity
he alth
Ġin num
Ġe j
Ġre com
ĠB irds
be nd
ener y
Ġbr id
Ġmem orable
Ġver tical
ĠSh ort
Ġdest ro
Ġ22 1
Ġinform s
Ġtim ber
ĠCran mer
T a
Ġa j
ĠH ouses
Ġv io
ach ments
AT UR
ĠEp istle
Ġmot ions
ĠBed ford
Ġobser ver
ii j
Ġpubl ish
Ġcr isis
Ġdepend ent
Ġtrad itions
princi ples
Let ter
Ġadj ourn
ĠBRIT AIN
Ġ ith
Ġa Ã±o
in ous
Ġh aste
se us
ĠA U
ĠK h
ĠTh or
ph an
Ġshe riff
Ġmet als
ustr ated
ĠCong ress
Ġvary ing
Ġh t
Ġn ice
ad deus
ĠM eteor
ĠP om
Ġv otes
ĠD ist
ĠGe ol
I d
L aw
ĠB ec
ĠG aul
Ġmy th
Ġbar on
ling ton
Ġemb arked
Ġste ep
cra cy
Ġphilosop hers
Nove mber
A pp
F ACE
W ell
it chen
Ġb im
th rown
Ġv ie
Ġinc red
ĠFour th
a fe
z i
Ġd rown
Ġe pid
Ġu bi
Ġan a
pt e
Ġcl am
br id
par liament
Ġrest ing
Ġty pes
wer p
ĠChron icle
ĠAlb any
Ġdefin ition
J u
ol ate
oc o
Ġmost ly
ĠAs iatic
por ary
alog y
Ġpatron age
Ġenlight ened
T A
ig i
Ġpro portions
St ate
Ġpriv y
Ġlim bs
I K
Ġm ail
Ġfor ci
em er
ither to
Ġinf am
Ġ23 3
Ġh oufe
Ġsu pers
ĠAr men
Ġ14 6
reg arded
ĠPl ace
CI ET
Ġbeat en
m ine
Ġt ended
ĠM ic
ĠE in
ĠD et
ĠO pp
Ġch ast
Ġres umed
L t
Ġa le
Ġ2 20
Ġpe cc
Ġ15 4
Ġder ive
Ġrev ived
Ġinvestig ations
Act s
J es
N ap
c ure
or se
Ġd ent
Ġan ecd
Ġal c
Ġsur prising
Ġsl avery
Ġgrow s
Ġtli is
ĠOli ver
ac cept
Ġle agues
ag ram
Ġgr ateful
Ġint ere
Ġsmall est
Ġpos itions
Ġexcept ions
bishop s
rop olitan
Ġsecret ly
last ing
ĠDen mark
P ers
T l
f icial
ĠF rag
ne ed
Ġj ew
ru nd
Ġres ort
old s
ĠEx am
Ġfu it
S pe
Ġt our
ir n
Ġman u
Ġunder took
Ġdecl ar
Ġ25 7
Ġ22 9
Ġvirt uous
Ġpow der
ĠFlor a
Ġmyst ery
c ate
g us
er unt
ud s
Ġmet aph
A ust
S tr
s is
it ations
ĠS em
ch re
ĠCl ergy
az ar
ĠMil ton
Ġ ÏĦ
le ave
im d
ĠJ ordan
Ġdis gu
ft ion
Ġ17 4
Ġ17 6
Ġserv ing
Ġright ly
Ġconfirm ation
Gree k
E e
c ise
ou i
Ġm ac
Ġst ret
ag a
Ġres ign
Ġvo id
Ġneg ot
ĠMed iterranean
Ġconve x
Ġavail able
Ġs ang
Ġas ÃŃ
Ġad ult
ATION AL
Ġappl ause
ĠC ome
Ġ18 23
Ġrep et
pr udence
Ġed ges
irm ingham
Ġmist ress
ĠFore st
Ġconspir acy
ĠSwed en
Ġsund ry
r ise
r idge
u ing
Ġt v
Ġt ip
re v
Ġb ounds
ad as
Ġv ass
Ġj am
AL Y
ĠThere fore
ĠAv as
S f
d ire
ent ered
Ġwe e
be gan
Ġpe op
Ġold est
Ġprov incial
ĠCal vin
Ġcult ure
Ġhost ility
Ġanch or
Ġinc idents
Ġexam ining
x e
Ġse p
ud ing
de velop
Ġcomm em
Ġem perors
ĠEp hes
ĠSte wart
Ġforbid den
Ġg ay
Ġ2 10
Ġco ins
sw er
ĠM ann
Ġpl aint
Ġ18 19
int on
Ġres igned
io e
vers ary
Ġbo iled
omet ry
Ġrapid ity
ĠHan over
E very
Ġp ick
ĠP all
ĠP oint
op ped
Ġar ises
Ġar isen
Ġfe ed
Ġ16 6
Ġexp ired
Ġput s
Ġdispers ed
Ġorth odox
V e
h c
l eness
t v
in en
ĠT i
ĠS ection
Ġcon ced
Ġ18 2
ex p
me et
Ġinf all
af on
Ġstre ams
pens able
ĠClare ndon
f li
o or
in ue
Ġo ak
res ist
Ġwe ary
Ġab er
ON S
Ġple as
alt ies
Ġhapp ens
Ġappre hend
omp son
i ently
ĠL jOOQIC
ĠW he
ci ples
Ġj j
Ġfo res
ham ed
Ġpost s
Ġtre asures
ĠPat ri
through out
Ġhero ic
ĠChris to
I US
t icular
at en
Ġl ack
ot el
ur ation
Ġde lla
Ġillustr ate
Ġsovere ignty
interest ing
ĠMore over
Ġfert ile
Ġlegit imate
H am
g le
in tended
an to
ie i
EN ER
11 1
Ġom nes
present ed
Ġsens es
j un
u U
Ġm Ã¡
ĠCh air
Ġdis appeared
Ġdeath s
pre vent
Ġxx vii
Ġfort ified
Ġdespat ched
B a
k d
v on
Ġcon vert
ĠP un
Ġse asons
ect s
pl ay
ons hire
ĠY e
Th ose
ane ously
cle ar
Ġlist ened
it r
ou lt
Ġde ceived
Ġse qu
iff e
tr ade
Ġ24 0
Ġvo L
Ġallow ance
ogra pher
Ġannex ed
on er
id ious
ĠW ord
Ġr idge
ft en
Ġoff ended
Ġtum ult
Ġcontribut ions
Acc ording
Ġd ared
au fe
ĠHe ll
Ġcl os
Ġent ers
pro of
Ġpublic ations
Ġadm ired
Ġ187 3
Ġfool ish
m ity
in as
er xes
ĠT il
ĠThe ory
Ġmess enger
Ġvac ant
o at
Ġe um
ĠB or
Ġse ize
Ġ18 22
port ant
Ġsuccess fully
Ġcle ared
rupt ed
add ition
ĠLie big
Ġpossess ing
Ġang les
aus an
ĠTynd ale
V er
W N
d ic
ĠC atherine
ĠR y
ĠJ a
Ġch amp
fore ign
ĠSe al
Ġsym bol
Ġrig id
Ġcart a
return ed
m ac
Ġw m
Ġp ig
Ġhe d
Ġst ick
ĠV i
Ġaff irmed
Ġself ish
Ġlux ury
w omen
in ating
Ġthe ories
Ġw ont
ĠII L
mo ved
RO DU
V ENT
_ _
Ġp ere
ow l
12 0
Ġ24 7
Ġdescri bing
l ock
Ġs s
es thood
il o
ĠF L
ib et
ag u
Ġfound ations
ĠAr ts
men ced
Ġdel iber
Ġdev ised
ĠWith out
Ġpeculiar ities
ĠGl ad
ĠBib li
Ġexert ion
Bl ack
s ym
Ġw ire
Ġpl enty
Ġfalse hood
Ġtow ers
ĠIntro duction
d in
p c
s cribed
Ġt s
qu ake
Ġv ital
Ġout line
Ġpur ple
az ed
rent s
Al though
Ġcou ple
Ġadj acent
Ġdispos al
R ES
m art
Ġf ich
id ance
ĠM amm
ĠJ os
iz o
Ġspe eches
pri est
Ġcare less
Ġ27 0
Ġexpl os
Ġanticip ated
9 7
Ġr ings
Ġref usal
Ġrul ers
B oston
L o
M er
g t
p owers
w v
ic ke
ut us
im on
Ġar dent
Ġpe nd
poss ession
Ġwat ched
ĠAnn ual
ĠPri vy
Par liament
Ġmyster ious
I P
Ġw ax
Ġad mon
Ġbelie ving
cell s
Ġ23 1
ĠComm ander
lement ary
ĠAugust us
Ġh ate
ĠA li
il ation
Ġver t
Ġ27 1
great est
ĠEst ab
ĠDion ys
Ġde x
ab et
Ġ2 19
Ġtr uce
Ġrep r
ĠOn ly
Ġbu y
Ġamb itious
ĠAra bs
ĠC ard
Ġcont ribute
Ġgl ance
Ġdef er
Ġmem brane
olic y
M ur
p ation
Ġs cept
Ġse pt
pl ies
oc a
Ġem ph
eft y
Ġt k
Ġp otest
ĠS om
Ġv ow
ple ased
par ative
por ation
ĠPhil osophy
Ġ180 3
Ġda wn
Ġemb race
Ġphil osophical
Ġimm ortal
Ġdil igence
G reen
t ent
nd i
Ġp ocket
Ġn isi
ĠT ert
Ġy oke
Ġ18 8
Ġ27 9
Ġcop ied
roy ed
Ġaw ful
ĠGoth ic
f rey
m ad
Ġre velation
et a
ĠP il
Ġde com
ĠG ardens
Ġimp ressed
ĠAl ps
ĠHist oria
ĠEx eter
stant ly
Ġann oy
Ġvict orious
ĠWal pole
Ġvig il
acqu ainted
F our
d if
n ical
Ġl amp
ĠT art
ĠA ut
ure rs
Ġun con
Ġsc ar
Ġ19 8
Ġreck on
agree able
Ġinterf ere
ĠB alt
ra e
ĠN atur
Ġsol ar
Ġ24 9
Ġaccom pan
Ġru ined
Ġa ided
ĠL ane
Ġ2 11
Ġpl um
Ġ18 12
Ġcl ub
Ġconstitution al
Ġhol iness
Ġinfinite ly
en za
Ġf ron
ar rived
ĠL ist
ci ously
Ġar id
Ġ15 6
Ġut ility
Ġapplic able
Ġavo ided
Ġcurrent s
Ġaper ture
Â ¥
ĠC all
ĠC otton
pe ction
ĠG ulf
Ġvis its
Ġlod ged
ĠHor ace
ĠJ en
Ġqu es
sequ ently
ĠWar wick
proper ty
a que
f ur
g ro
ĠF erdinand
ip ot
Ġus age
ĠU s
Ġarm our
Ġdiv ines
Ġexc av
Ġheight s
Ġproduct s
d uty
ĠI R
Ġv ot
ĠE o
ĠG as
ace ous
HE N
Ġfa it
Ġless ons
Ġ19 5
Ġjud icial
S ub
es h
ĠS ket
ĠM M
Ġse ats
Ġ2 13
be yond
Ġend owed
ĠNorth umberland
ĠFreder ic
B ib
E ast
Ġthe ological
Ġd an
Ġne c
Ġqu ote
Ġj i
Ġj ug
bl est
Ġins urrection
ĠCl ub
Ġce o
Ġbold ly
Ġrepeated ly
ĠDiss ert
circum stances
Ġexcit ement
ĠH ert
ii u
Ġtreat ing
Ġ26 9
ĠCy prian
Ġenthus iast
b rown
Ġst out
Ġ13 6
Ġann als
Ġpopular ity
Ġmonaster ies
Ġhoriz on
Ġadherent s
in ks
Ġw c
as ia
ĠF lem
Ġint ensity
Ġrece ives
ĠBr idge
Ġenc ounter
ĠChem istry
ĠDick ens
ĠPlut arch
Ġo mit
Ġf ath
Ġd urch
om ination
ist ical
Ġse pul
Ġen forced
Ġpart icip
Ġnight s
Ġexec ute
Ġhar vest
Ġvel ocity
Ġtrou bled
ĠMUS ICAL
Ġinvari ably
l oss
Ġat ro
ak ened
oc us
Ġinc ur
Ġtro op
ĠAM ER
Ġhaz ard
Ġbetw ixt
ĠC od
Ġv os
ĠN os
ĠX en
ĠMar shal
ĠGe org
ĠBar b
Ġn ach
ĠT be
our ing
co ast
Ġsplend our
Ġwli ich
Ġto mo
ĠT erm
ĠC ou
li am
Ġ18 11
Ġper fon
sect s
Ġrecogn ition
Ġfrag ment
M ah
V L
b ott
f em
Ġb ount
ĠB em
ĠP i
ant on
li ance
de al
ple nd
pri vate
Ġcolour ing
Col lege
Ġdraw ings
ĠSanct orum
Ġo F
Ġs ore
an ia
an while
Ġor ator
Ġen force
Ġ18 16
Ġtrans parent
Ġexpress es
Ġstat ue
ĠVir gil
ĠSalis bury
0 8
B O
b attle
Ġth ine
ĠH OUSE
ĠR os
Ġsh alt
Ġ8 00
Ġ17 2
Ġ24 5
ĠCor respond
point s
gram me
b il
d re
t ary
al ian
ĠB eth
Ġpre acher
Ġ16 2
Ġsupp er
Ġrec alled
Ġ15 2
Ġstr ata
ĠNot ice
Ġhy t
ĠAg ricult
Ġvalu ed
Ġpref erence
ĠCap it
it ative
le v
if s
Ġr ide
ne ys
Ġlin en
Ġdismiss ed
Ġf isher
ic ity
Ġde posed
qu ant
Ġsu i
ex cell
Ġref lected
vel ope
Ġdet ected
Ġ24 3
Ġadmir al
n one
Ġl ob
ct ed
os us
ĠG a
un ge
ord in
Ġch im
Ġab bey
Ġdis sent
ĠEnglish men
sc arcely
Ġtrust ed
OLOG Y
it ent
Ġ11 6
count ries
Ġge ological
Ġ180 8
Ġvict ims
ĠNever theless
Ġcyl ind
L and
P RE
l ich
is ition
Ġd io
Ġca ut
Ġ28 9
cont inu
Ġfac ility
Ġpot ato
C ons
E C
b read
c ens
ad ier
Ġhe ll
ĠH erm
Ġan e
Ġ3 25
HE S
Ġgl ob
ĠChar acter
Ġ25 3
ĠBl ood
Ġmaint aining
Ġrecogn ized
dist inct
M el
g ot
w an
Ġm icroscope
ic n
ĠI g
ĠB ry
Ġman or
Ġab dom
ĠV incent
pl ant
Ġspe nd
Ġshould ers
Ġten ants
Ġ25 5
Ġsick ness
Ġdissol ution
W al
c ording
p aid
ĠP p
ĠL IB
ĠW ard
ight ed
Ġch allen
Ġopp ression
Ġrequ iring
Ġfing ers
z og
Ġm t
le a
im is
Ġcon cludes
res ult
ĠR ou
ĠN ay
entire ly
b ank
as is
Ġe is
Ġy f
ill o
ib ern
app arent
Ġprof its
Ġmill ion
ĠDep artment
ĠSou thern
Ġdyn asty
L ife
M OND
an ne
ĠA ir
ĠM icroscop
if ax
Ġse Ã±or
ex erc
ĠLe e
ĠPhil ipp
ĠB av
ĠE ducation
ĠR i
Ġr ates
Ġmin eral
ĠCon st
pend icular
Ġ28 1
Ġ28 7
Ġimpro bable
Ġhoriz ontal
ĠCarth age
it ating
Ġc in
an x
Ġd t
Ġas hes
ri que
not ice
pr ises
Ġrest ed
mar ried
Ġinstit uted
Phil ip
Ġphenomen on
ĠAntiqu ities
ardin als
Ġremon st
ĠSAIN TS
b d
b all
g old
Ġs incerity
Ġf us
ĠL ou
Ġ18 17
sh ow
Ġest Ã¡
US S
ĠJust inian
Ġlocal ities
ĠWell ington
ĠB ond
Ġv ague
Ġex alted
ĠR am
Ġwill ingly
iff s
Ġbet rayed
ĠDe o
ih i
Ġattend ants
F r
c ru
Ġl ift
Ġtheir s
ag le
Ġpres cribed
OR S
Ġdiv inity
uss ia
Ġ28 5
ĠUn iv
Ġbenef its
Ġforeign ers
Ġtub es
n oble
p age
Ã ¨
Ġw n
ent ious
ri ve
Ġy ard
ĠD arius
ug ar
ĠCom p
Ġ35 0
RI G
Ġlegisl ation
Ġm useum
Ġth irst
ĠW a
ĠW right
op on
Ġlib r
ĠEx pedition
Ġburn ed
Ġrul ed
ĠAccording ly
neigh bour
f ly
ĠH ast
qu ired
Ġ3 13
rum ents
Ġdoct ors
Ġhar sh
Ġ189 0
Ġeat en
ĠBra z
I ts
R o
V i
ust ion
Ġinter mediate
Ġsm oke
Ġins ign
Ġ19 2
Ġ23 5
Ġlove ly
cend ed
Ġtell ing
ĠJud ge
B ot
ĠG ro
Ġno body
ĠSt ar
Ġrel ieve
Ġdam age
adop ted
er um
Ġg ente
el son
Ġle ather
cl oud
int a
Ġlong itud
Ġnor mal
Ġrejo ice
Ġdefect s
W ill
l ost
ic r
ĠT ill
Ġg em
ol and
ra its
ud ad
ĠCh rys
ĠPet ition
Ġfulf illed
Ġcryst all
Ġerrone ous
C atholic
c v
ĠM ort
ĠH unt
Ġha irs
Ġj aw
Ġimp ost
ex istence
vel le
vell ous
fr ont
Un ited
ĠDar win
N um
Ġv ault
ess ing
ĠK r
ex hib
Ġra p
Ġ26 5
Ġattempt ing
mar ks
Ġdepend ed
Ġcru c
Ġcav ity
t un
Ġm ak
ĠR oche
end eav
ĠEnglish man
Ġ28 8
ĠXV III
ĠTur key
Ġsovereign s
ĠIllustr ations
g all
Ġh omin
ĠB L
ĠP rom
Ġde pl
ĠG ir
ĠR he
ĠO cean
ĠK ING
ier ra
requ ired
Ġcust ody
Ġveget ation
le ad
im ag
ĠB ac
ĠD iet
ade qu
Ġterm ination
Ġprel ate
Alex ander
ĠWIL LIAM
ic ut
id ian
ĠM ath
ĠE rdm
up iter
ĠPr im
ĠPr ayer
Ġtem pore
Ġelect ro
ĠSpe ech
Ġpursu its
ĠArtic les
L T
c ue
al ong
Ġ3 20
ĠV it
Ġob f
Ġac ute
Ġestablish ing
stre ngth
Ġentertain ment
Ġimpart ial
B el
is ible
es y
ĠM other
ĠM ervyn
ac ing
ru p
com fort
hil st
Th o
Ġagricult ural
Ġinhab ited
d iss
m ut
Ġt ion
or ius
ar ium
im t
Ġme al
cess es
pro portion
13 0
Ġge ographical
Ġfount ain
H a
i og
s outh
Ġthe ore
re ich
Ġre verse
ĠP ent
Ġsur rendered
Ġcar ries
Ġmod est
ĠInd e
ĠWh atever
ĠMem oir
Ġpet ty
Ġpref ixed
Ġrent s
Ġtod os
J osh
u z
Ġw ider
Ġse amen
ff ion
wh atever
ĠU m
Ġstr ing
Ġ25 9
Ġ33 7
Ġdecided ly
Ġprem ises
Ġgrande ur
r ounded
Ġf itting
Ġe cli
st ed
ĠB us
ĠB acon
Ġconf ounded
ĠAr nold
Ġwar ning
Ġappear ing
Ġten ure
Ġ22 7
ĠDo ct
Ġ189 1
ĠTrans actions
Ġkn ife
lim ited
CC LES
f est
u um
Ġfor ts
Ġpart ially
Ġtra ffic
Ġsac erd
Ġ35 6
P ri
ĠS overeign
ĠC umberland
Ġde vi
Ġab hor
au nd
Ġbr ide
ness es
ut s
ĠB ene
Ġend ing
Ġele venth
Ġexc urs
ĠPo or
Ġvisit ors
head s
Ġinn ov
ama ica
ĠSpe aker
w he
Ġrel ax
cy d
Ġmer ry
Ġhundred s
ey es
PI RE
b ate
b oy
f ied
i ors
Ġe orum
Ġl O
ch ild
Ġst amp
Ġ3 17
che ll
ĠZ ur
Ġgu ineas
arr ative
Ġ23 7
ĠAm ph
ĠTe ym
Ġsevent een
Ġwy ch
Ġn icht
ol ical
ĠD U
Ġman aged
ck er
Ġes pecial
Ġ38 3
Ox ford
w ig
Ġin iqu
le fs
Ġl ens
st ock
ĠC art
Ġr ushed
li qu
air d
IC LES
Ġcontinu ing
Ġexerc ises
Ġweap ons
j c
Ġ ion
Ġa ce
Ġwh ither
Ġr ust
Ġ3 21
Ġup right
orn s
Ġmod er
Ġ27 7
Ġden omin
CT S
n ent
z el
it ory
ĠS yl
ĠM aced
Ġex pelled
row ne
Ġtrans fer
Ġsus p
char ged
Ġcof fee
o il
t ie
Ġf tr
Ġh n
ĠT op
ĠI ce
ra ble
od on
Ġad orned
Ġpe asant
Ġpar as
Ġext inct
Ġsee king
Ġsol icit
ĠCH RON
div ided
Ġresembl es
poon ful
K i
k u
l ived
ĠH u
op ing
ok es
ug h
Ġco ach
d red
is ans
Ġc ree
op t
ĠN ice
Ġ29 1
ĠSur rey
supp osed
Ġcontin ual
Ġremem brance
g ence
m ult
Ġt issue
is hers
ĠT T
ld e
Ġ2 18
io i
ĠLe y
rem ained
Ġ26 3
Ġinflu enced
Ġ40 1
long er
ĠPri est
U m
f elt
s un
s ary
Ġl ing
st ers
ch ie
ol ia
per t
Ġ28 0
ĠSw iss
ĠBen jamin
uni ary
Ġclot hed
ĠOrig in
C e
c ry
d it
Ġc ot
em ic
pt ure
ble m
Ġjud icious
reason able
ĠTreat y
Ġconj unction
Ġming led
V E
al us
se cr
ĠP ad
ĠF est
ĠJ OURN
ian i
Ġcons umption
Ġimp ulse
Ġgra vity
B R
G oog
f erent
Ġa uct
Ġh yd
ur o
ĠS et
ĠH ave
Ġv s
ci pline
Ġdis gust
ven s
sh op
Ġreg ni
Ġfour teenth
Ġrespect ed
az ing
Ġ26 1
ĠPh oen
Ġcapt ivity
Ġrein force
ĠCHRIST IAN
ĠP tolem
ĠL ep
iv als
Ġi E
cl ergy
ph in
Ġind i
Ġcor re
Ġsl aughter
Ġ20 8
Ġresol utions
ĠAdmiral ty
Ġhid den
J OHN
s light
ĠE ight
ĠK or
Ġpe as
ĠRe e
Ġsur faces
Ġinv itation
xt a
oph on
Ġter rif
Ġ29 9
mean ing
Ġfacult ies
Ġinnum erable
j p
en cing
Ġf oul
ĠP ic
Ġsp ort
Ġchar m
ĠChrist endom
Ġpract ices
Ġ38 5
Ġcapt ains
ĠMus ical
l m
Ġg ently
ri o
ĠH ier
ĠL XX
ke pt
ust oms
Ġar ches
Ġtra gedy
Ġfo e
Ġ29 7
ĠJer sey
Ġaward ed
Î ¼
ro b
ĠL ot
ĠTh os
ĠChar lemagne
Ġess ay
ĠSw itzerland
Ġdepos its
ĠPra k
h man
l ane
r ust
on is
ĠT roy
Ġch ival
Ġart ists
St ates
Ġ30 5
Ġgovern ments
ĠSchool s
Ġliber ality
ĠGerm ans
Ġbron ze
G reg
Ġo val
Ġp yram
ent ive
Ġde pre
all ing
Ġ2 14
Ġill umin
ĠEx chequer
Ġ23 0
Ġfaith fully
Ġthir teenth
Ġpropri etors
Ġloyal ty
ro oms
Ġan f
ra ges
ject ion
Ġmon astic
Ġbishop ric
Ġpain ter
Ġpi pe
Ġbapt ized
ĠSen ate
Ġprosec ution
1 10
T ra
f et
is k
ĠE ly
ĠR en
act ive
Ġpres ided
Pr ice
Ġmart yrs
Ġbesie ged
ou ched
ĠC are
ĠPro prietors
Ġsend s
Ġascend ed
Ġimprison ed
Ġto il
Ġl av
Ġg irls
te nder
Ġperson ally
Ġ28 3
Ġbar ren
E arl
p olitical
s aw
ĠT W
pl ate
Ġcross ing
ĠPal mer
Ġopport unities
fortun es
Ġmir ac
st ated
if era
ia ge
Ġem inence
tr ou
pre pared
Ġobject ed
Ġ35 5
Ġcre ate
Ġdrink ing
Ġfacult y
p in
Ġin cludes
ĠM AL
Ġex ceeded
Ġdis appointed
Ġenc amped
Ġdisp utes
Ġult imate
ĠPol and
Ġn y
ĠH ie
ĠE UROPE
ru b
IN D
Ġind ulgence
cript ive
Ġdet ained
Ġworld ly
ĠPl ants
Ġ27 5
Ġ29 5
Ġorigin ated
Ġske leton
J J
o U
t ax
Ġf ishes
ans w
ind ividual
Ġen act
ren cy
hen es
Ġ24 8
Ġconcern s
Ġaffect ing
Ġdisp uted
d f
d ark
d istance
n in
Ġn ie
ol era
th irty
Ġex erted
Ġlast ly
ĠSec ret
Ġtal ked
Ġbas in
ĠLis bon
Ġattribut es
Goog k
f ran
z as
he ment
ab ilities
ĠO cc
Ġover throw
Ġpol ar
uss ion
Ġemb arr
Ġfac il
Ġnoble man
Ġoath s
Ġprofession al
Ġestim ation
Ġcompass ion
RODU CTION
at ro
ol t
ong s
be it
Ġ20 4
Ġ30 1
ĠPat ric
ĠAv ith
Ġconform ity
Ir ish
l ady
Ġin ward
the ns
ich te
qu iet
ĠD ow
ĠR id
Å¿ peare
net ic
Ġparliament ary
feel ing
H eb
I h
he res
Ġv oy
Ġse u
Ġus que
oth y
ĠQ ui
Ġrepresent ations
Ġfell ows
Ġ35 7
ĠPhys i
ĠNEW S
ĠCe ylon
ĠPsal ms
ĠEM PIRE
ĠS che
os ure
pl ayed
Ġcons ul
Ġmod ified
Ġprev ailing
B T
p red
Ġm ant
ĠL iving
ĠW it
ĠN i
Ġ3 19
Ġ18 13
Ġ30 7
Ġ28 6
ĠLa ure
Ġris en
Oct ober
ĠScy th
j or
Ġcon cluding
em po
od em
ĠF urther
ĠR a
ud i
au f
ĠTh ames
cri bers
Ġwar like
Ġquar to
Ind ian
cel ain
ĠChem ical
ĠMission ary
S to
n ii
re lie
Ġc ries
om o
ro v
ro it
ĠW ere
ĠW indsor
Ġun question
Ġro d
Ġwhere fore
rem ain
ev idence
Ġcast les
Ġvic ar
Ġanalog y
Fran cis
st ones
ut o
ĠC i
ri ors
ĠE arly
Ġall y
og ne
Ġatt en
ual s
uc id
Ġfam ine
Ġ25 1
Ġpen alty
sur face
Ġobey ed
Ġwithdra wn
ĠApoll o
A e
ĠS CI
Ġwas hed
uch ar
Ġdev out
Ġdelight ful
ĠMON TH
Ġsulph ur
C i
T s
Ġp ues
ĠP oggend
Ġ2 16
Ġim ple
ob ert
Ġcommon wealth
ext reme
Ġremed ies
Ġvap our
ĠJeh ovah
A tt
h ast
m itt
m otion
s and
Ġm icroscop
Ġso ber
Ġ3 15
by Googk
eng aged
Ġih c
Ġmal ice
Ġbul k
ĠMarl borough
g ives
ĠA V
Ġst ip
ĠW alker
iv o
av ian
Ġ4 50
ĠV IL
og rap
Ġord en
Ġover whel
Ġind irect
tion al
Ġ23 9
Ġ26 0
Ġmis fortune
ĠCal ais
ĠMo or
ĠSac red
Ġbatt les
ĠTIM ES
in tellig
is o
Ġf inger
ri ous
ra ised
be aring
ĠAn y
Ġrest s
Ġ30 3
Ġeff icient
ĠOx on
Ġ179 8
IG HT
Ġod ious
Ġextrem ities
A h
f les
s ides
Ġs ul
Ġe rection
ĠA ge
ac o
el ing
Ġfl owing
Ġcomp act
ĠFor bes
c orn
l ent
ĠS aul
ĠM uch
ra i
iv i
Ġearth ly
ĠHow e
Ġcat ch
Ġpersu ade
obed ience
E v
Ġe ating
ig able
ĠM ans
ĠD iff
Ġr it
Ġsuff ice
unt ur
Ġcur se
Ġeng ines
Ġexcept ing
bro ke
father s
Ġadvers aries
Ġentr usted
Ġresent ment
G ORY
S a
c un
ĠT l
ov a
gr anted
bo at
Ġoblig ations
Ġfuc ce
Ġin asmuch
Ġre semble
Ġpro cur
av oid
Ġpart i
Ġcons umed
Ġform ula
ai res
ann ed
jo in
Ġpal m
Ġaw a
pass ing
E ven
f and
l iving
u ation
Ġt une
Ġf iction
Ġd ense
Ġth s
Ġwh oles
ĠM O
ter ms
ĠL or
ĠE cc
ii o
ment e
Ġ3 60
per ty
ex pected
Ġwar fare
Ġprov iding
Ġless on
Ġ26 7
Ġheav ens
sembl ed
hand l
interest ed
Ġmu ft
Ġnin ety
P s
T er
Ġp ist
ou m
Ġfor b
ĠF ell
Ġr f
Ġla ft
Ġrel inqu
Ġread iness
Ġperiod ical
Ġ25 6
Ġ27 3
Ġ29 3
Ġdeterm ining
ĠNor wich
Ġ38 1
Ġll ie
ĠJourn als
ĠFather s
writ ers
ĠArab ian
Ġthro at
ar ie
ĠC os
Ġno v
Ġrec ur
19 0
ĠRob inson
Ġmater ially
ĠMess iah
ĠTre asury
exam ple
ĠCong reg
Ġt ap
ed ition
ad i
ĠC OR
ĠM IL
ĠG h
ci ans
Ġab b
Ġappro ve
Ġsepar ately
Ġplan et
Ġproble ms
Sam uel
D el
g on
Ġp ac
ĠB irmingham
Ġcomm iss
con ven
Ġten or
Ġcr us
Ġ44 3
IA ST
is dom
Ġl akes
ĠD und
ĠF ern
Ġall owing
end s
Ġ20 2
Ġpop ul
Ġlab orious
Ġneed le
Ġreign s
net t
Ġfurn iture
Ġguard ed
Ġproduct ive
ĠGene va
st s
il io
ĠB ent
Ġapp et
oun ces
Ġwork men
ĠChrist i
ĠSp en
let cher
Ġ180 7
34 8
acks on
' re
k al
s ible
Ġp ear
Ġwh iche
Ġan il
ĠD oc
ĠV ivian
Ġsp ark
cept ions
ier a
que en
Ġcar riages
Ġtreat ies
Ġdem oc
Ġ40 7
Ġ34 7
Ġident ity
Ġpul pit
ĠILL USTRATED
Uni versity
L ond
is he
as o
Ġl ists
st ates
ĠL ock
ĠL ives
Ġv or
ill i
Ch ief
Ġprof itable
Ġ26 2
utch inson
ĠZe us
ĠFam ily
O i
at ics
Ġc ove
Ġc ode
ĠP ast
ul og
Ġpres erving
Ġconf ine
ĠCan ad
Ġlegisl ative
CTION S
ĠCab inet
Ã ¹
Ġw u
ol en
ĠG ordon
IC AN
Ġcur ve
ĠBr us
ĠBar bar
ram ents
Ġtb at
Ġapart ment
ĠRh ine
import ance
ĠCic ero
g overn
t j
Ġw iU
ĠC ru
Ġas hamed
ĠL it
Ġcount ed
Ġill um
oura ged
ann a
Ġpress ing
Ġdro ps
H el
c in
ver b
ĠD O
not iced
RE ET
Ġbest ow
my self
Ġendeavour ing
Ġagricult ure
Ġsumm ary
b ands
ĠM R
Ġen vy
ĠU se
pend ing
Ġhor rible
Ġ37 3
Ġ33 3
Ġprophe cy
Brit ain
ĠIsa ac
ĠCour ts
h oly
Ġwh it
Ġst roke
ĠSt ry
ern on
ĠSo on
Ġlight ed
Ġconsequ ent
Ġred ress
Ġcompl iment
Ġappre hended
lib erty
S on
v oc
Ġch ambers
ĠV ocal
Ġtr ades
Ġ22 4
Ġdev ote
idd ing
ĠAnt werp
Ġevent ually
R em
Ġe fl
ol us
ter ly
Ġen sued
Ġvol can
ub b
Ġhere in
Ġsystem atic
r and
at ine
Ġh ij
ion i
ĠC ase
Ġpres umed
Ġpol ished
Ġaccompany ing
ĠPlant ations
Ġmism o
C onduct
c up
s hed
ri x
ĠP olitical
ate ch
Ġsh al
Ġk u
Ġthere to
Ġbl ank
pro gress
read ing
Ġq f
Ġmor als
Ġnav igation
unct ions
S ince
s ou
s cription
is ement
Ġe h
ĠC air
Ġher ald
so vere
ĠEng l
ĠBy z
Ġfu Ã©
certain ly
Ġhealth y
f m
p ag
Ġatt ach
pr im
AT ES
af s
Ġ20 6
ĠOr leans
Ġ30 9
ograph ic
y ll
ĠS ultan
ĠM ant
ĠN ev
ĠU ng
io v
Ġmod o
Ġgu idance
Ġve ter
Ġenc ro
Ġomn ia
Ġidolat ry
Ġappell ation
im ony
ig a
ĠP orts
Ġst uff
ĠR alph
ĠJ i
Ġad ul
ĠRe ign
empt ion
Ġsal ary
ĠIll us
Ãº n
Cam bridge
occup ied
Ġmom ents
Ġcon du
be ck
ass y
Ġres ide
Ġexp ort
Ġsupp oses
ĠPr inces
Ġdest ructive
ĠPo ems
Ad miral
ĠMod ern
Ġabol ished
Ġtribun al
Ġin cess
Ġfor bear
ĠH ob
Ġ3 11
oth s
Ġpubl ick
Ġtri als
Ġ19 4
Ġ0 1
Ġver b
arr ang
Ġamount ing
anc ery
Ġapost olic
Ġrecol lect
ĠZo ological
mere ly
ĠTurn er
Ġnerv ous
b old
Ġb ind
Ġm os
Ġl am
ĠT oul
Ġhe ated
ch urches
Ġv il
op port
Ġsub dued
ti ers
UR ING
Ġft ate
Ġobl ong
Ġdepart ments
Her od
vern ment
dire ction
T RE
U I
Ġt int
it at
Ġli im
Ġel apsed
Ġins pection
inn ed
ster dam
Ġot ro
pres ence
Ġprec ision
Ġant agon
Ġow ed
Ġincons istent
Ġattract ive
b ir
Ġt ear
at hed
ĠS pect
ĠA C
Ġcon gress
op ened
ci en
Ġdo ll
Ġtra ined
Ġmis er
Ġ34 9
Ġot ra
ĠMem oire
hold ers
bus iness
Ġnewsp apers
c H
j y
Ġf uf
Ġd n
ĠC er
ore n
ĠO m
Ġinc urred
Ġinqu ired
Ġamend ment
Ġach ieve
M O
an cial
Ġre ft
led ged
ĠCol umb
Ġ26 8
Wh y
Ġadmin istered
Ġaddress es
ĠBot any
WE ALTH
Ġremo ving
T re
p d
w m
Ġn our
ch ants
ĠH em
Ġnot orious
Ġha ught
Ġfl ank
Ġ22 2
Ġsacrif iced
Ġwealth y
Ġanalog ous
Ġstrengthen ed
Bes ides
f uture
p ap
Ġh ii
Ġbe ast
Ġre bel
ĠC ork
Ġex terior
ĠW i
ĠR est
are a
Ġgr andson
mod ern
mil itary
I k
L D
O ld
as per
Ġv r
end ous
ang led
ric us
Ġlo aded
Ġvis iting
Ġinflu ences
CO UNT
pract ice
ĠCOL ON
en us
ic b
Ġth or
ist ant
Ġen suing
ĠJer ome
pher ic
Ġassembl ies
O SS
m ate
Ġd f
ĠS cl
ĠA ud
ci ally
ost om
Ġag gra
wh ilst
ĠCo vent
jud gment
UM ENTS
Ġstra in
Ġsche mes
Ġskil ful
ĠKÃ¶ nig
M R
Ġn am
Ġg reet
Ġch ains
ia a
cri bing
vo ke
ific ate
tr as
Ġtreat s
ĠOther s
j ug
Ġs isters
Ġb ab
Ġh oney
Ġe tern
ĠM ach
ĠH ann
Ġpe er
Ġpo le
Ġunder go
con st
Ġbet ray
rest ed
Ġhast a
ĠEdin b
T n
b one
Ġt ut
is p
ĠA z
ang le
form ing
Ġev angel
IT ICAL
ĠChar ter
Ġ23 4
Ġ38 7
Ġ34 1
ĠMin istry
Ġhes itation
remark able
a fl
k new
v v
Ġp ond
ĠL AMB
ĠV oyage
ĠSt one
ple asant
io o
Ġimp et
Ġpri esthood
Ġcharacter istics
Ġ37 9
Ġlic ence
rav ings
represent ed
Ġaston ished
T w
d il
Ġs ermons
at y
le ges
li est
aster y
Ġequ ity
ĠCl ark
Ġsuccess ively
ĠSch we
Ġglad ly
inst ead
cim en
Ġted ious
Ġn m
ĠP owers
ĠE lli
un ciation
ĠSt ation
Ġshe wed
ĠCol onies
Ġ29 0
ris to
Ġeloqu ent
Ġaccommod ation
Ġmathemat ical
ĠHung ary
is er
Ġh int
ĠC n
ĠC ENT
ĠJ ack
Ġ3 10
Ġsp ont
Ġadm its
pass age
ĠRo ad
ĠVen us
Ġdro pped
Ġeager ly
ĠPruss ian
R el
et ta
Ġwith drew
ĠL ands
Ġex er
Ġequ ality
ĠOr ator
emb roke
IG H
Ġsurv ived
Ġpled ge
ĠROM E
ĠIR ISH
S igned
c x
u pt
Ġp ater
Ġd ip
Ġl ance
pl us
Ġsk ins
Ġhy poc
agg age
Ġrespons ibility
m ined
r iment
ĠC R
ĠC AT
Ġcon tended
ra pid
ĠL td
ĠThe ss
so ciety
Ġwar r
ĠCount ess
Ġpropos itions
oblig ed
S H
T en
em ploy
Ġpass engers
Ġmil i
ĠBr id
Ġ34 5
sy ch
Ġcompos er
ĠLiv y
1 14
L ouis
s idered
Ġm ans
pl ication
Ġshould er
ĠMon te
ĠRep resent
Ġsevent eenth
ĠSax ony
Ġrele ased
CCLES IAST
m ach
Ġt ert
Ġth c
Ġcon cess
ĠL og
ĠF ro
Ġen l
Ġag greg
ign y
me eting
Ġac ce
Ġ35 3
Ġ36 9
Ġclergy man
Ġ178 8
Ġdisci ple
Ġsanct uary
Ġconscious ness
n ne
s per
Ġl eng
ad ows
Ġas king
Ġsh ared
ru g
ĠSe ven
ever al
ĠY ears
Ġinter ven
af ion
bo ats
Ġ38 0
cor respond
even ing
Ġune qual
Ph ys
Ġobser vers
C ES
J j
M M
c ott
or ney
Ġth t
Ġres id
Ġro ws
ĠRe ed
IS E
Ġfew er
Ġinde x
comm ission
aun ce
OU TH
ĠArab ia
ĠLect ure
ĠCHAP TER
e nder
i Å¿
y es
Ġm ast
ĠC and
ĠM alta
Ġan i
ĠL ug
Ġsu e
ii L
Ġ2 12
Ġmar shal
Ġ19 6
ien cy
Ġfin ish
Ġ37 7
Ġ33 5
Ġpil grim
ĠBro ok
C RI
S cript
l us
Ġs ap
Ġh j
Ġl il
ĠS CH
est im
ind ar
ĠAn ge
Ġtrans action
Ġkind red
Ġeng agements
Ġ26 6
Ġ33 1
Ġfoot ing
Ġcord ial
Ġconquer or
Ġanat omy
H OLD
p ope
Ġt et
ĠB ah
Ġ3 16
Ġar re
su res
Ġinf ra
Ġinj uries
cor rect
Ġspect acle
OLOG ICAL
Ġbrig ade
Ġinnoc ence
ĠC AR
ĠE ve
Ġha c
Ġins cribed
Ġca us
ĠDan es
ĠDomin i
T f
T LE
f inite
Ġre formed
et en
Ġon t
Ġdef iance
Ġcirc uit
Ġ23 2
Ġmed ic
poss essed
Ġcivil ized
Ġrev ised
Ġbod ily
Ġsem i
ĠBuck ingham
Ġtreacher y
O ther
X V
c oun
Ġp ushed
Ġh oles
Ġha p
Ġ3 27
ĠK han
ĠU p
Ġli ad
hem ia
Ġsac ri
Ġter ra
idd les
Ġforth with
ĠCons ider
Ġflo ating
Ġnovel ty
Ġster ling
Ġt ones
Ġs way
Ġm uc
ĠS pecies
ĠF oot
Ġthem felves
Ġi w
av an
ĠTh rough
uch y
ves sels
Ġmir acle
Ġcollect ing
Ġmanufact ures
princi ple
Ġsubstant ial
Ġgig antic
j ourn
s ive
ter min
Ġse aled
ci ated
Ġown ers
Ġ30 4
Ġ28 4
Ġ38 4
Ġsugg ests
ustri al
ĠSad ler
K t
g ion
in habitants
Ġb ac
Ġd m
Ġn urs
se nd
Ġres ignation
ĠRe al
OR TH
Ġ36 5
Ġliter ally
ĠTheod ore
particular ly
B on
C amp
in ia
Ġe os
ot is
ro lled
qu ent
ment al
Ġthr ust
Ġhere by
ĠLe op
Ġsign ify
Ġforward ed
Sc ott
Ġtempt ed
H OUSE
re ceive
Ġr ans
ĠK NO
Ġrepe al
Ġhost ilities
Ġindis pensable
d ate
f id
Ġs igh
pl ess
Ġpre achers
de ad
Ġcl ock
Ġsc ope
Ġref using
ĠHis toire
Ġdu chess
app lied
14 0
gen cy
Ġsupport ing
Ġthy ng
ĠMem bers
di ately
ĠTra vels
Ġpag an
Ġimpress ions
re agh
ĠS ermons
ig t
am os
Ġthem e
ĠK ar
ĠCo ast
bour ne
Ġ34 3
Ġalter ations
mus ic
ĠZe it
Ġrecol lection
sett led
Edin burgh
M n
d ess
h ot
ĠH od
em pire
Ġst ruct
ĠD over
Ġr atio
Ġag ency
ĠEd it
Ġlo ad
Ġlo ves
Ġten ements
ĠEx hibition
Ġflour ished
f ion
ĠM IN
Ġ3 40
Ġem inently
ret t
Ġ22 8
ĠUni vers
ĠGreen wich
Ġordin ances
Ġexperiment al
p ofe
ĠB uch
Ġi pse
Ġapp la
und ered
Ġti ene
Ġprevent ing
Ġnucle us
b apt
f illed
h ours
in stance
ĠS anta
ĠM ai
ĠL IVES
li x
sh own
Ġmar itime
Ġgrace ful
claim s
Ġsolemn ly
Pres ident
beaut iful
D t
d le
s pecial
or ic
Ġch ie
Ġag rees
Ġgu ests
ĠSoc rates
ĠDan ish
ĠFle et
frequ ently
ĠPed ro
O p
l U
ĠI re
ay a
Ġch orus
Ġ3 18
ph i
RE D
Ġgu ided
Ġheart ily
Ġimpro per
ĠMart yrolog
AV E
Ġsect s
treat ed
v c
ch ance
ĠF und
op a
Ġ3 23
Ġ4 17
Ġcar go
Ġdisc ord
ator ies
Ġaccur ately
ĠHarr is
f an
Ġt anda
Ġl um
em peror
Ġse is
Ġpre text
ft t
cul a
Ġcle ver
Ġcoun sels
num bers
Ġretire ment
Ġadvoc ate
Ġpredecess or
g ia
Ġm ate
ĠS pring
ĠM ason
ĠB O
Ġ4 10
che l
fe ld
Ġ40 3
Ġtend ing
Ġswe pt
equ ally
Sept ember
Ġdisturb ance
Ġargu ed
m ass
he tic
en h
ĠT ab
ĠB ede
um an
ĠL ook
Ġgr asp
IC ES
Ġdef icient
Ġpoint ing
Ġill us
Ġca usa
Ġ27 4
Ġpen insula
mar riage
Ġbless ings
ĠHal ifax
determ ined
Ġridic ulous
Ġbenevol ence
g ies
g ings
i om
l ower
p li
Ġa we
ĠT t
Ġob lique
pos ite
Ġapp lying
uth ors
uss ian
Ġfr amed
Ġ24 4
decl ared
Ġrele ase
V ENS
s r
en joy
ol son
ĠE ug
ĠE AR
ĠN est
att a
gr ant
Ġph osph
count ered
Ġ33 9
Ġinfer red
Ġveget ables
Ġregret ted
S IR
f ia
l ive
n ic
s ition
s iderable
Ġp m
Ġd rum
ĠT ig
Ġst ren
ĠO st
Ġimp ed
Ġ30 6
Ġpray ing
Ġ179 9
Ġhom es
Ġcondem n
Ġsust ain
ĠSO CIET
Ġave c
1 18
b ast
i Ã©n
l il
q n
Ġw t
Ġb red
Ġb lend
Ġm orn
ĠA than
ith met
Ġqu otes
Ġdis pleasure
ue z
ĠHe at
Ġdist in
vol ved
rt ir
An nal
je ant
dra w
Ġtax ation
ĠPhys ical
Ġpamph let
M ENTS
s po
v ic
v ig
Ġw ur
ĠS d
ĠA str
Ġadv ise
Ġple ad
Ġemb ark
Ġaccept able
ara oh
Ġdeli very
ĠCent ury
c ost
Ġd ensity
Ġe ine
ĠT li
IC S
ĠÂ ®
lo o
Ġ26 4
Ġ29 6
ĠNot withstanding
ĠLa ud
ĠĠĠĠ ĠĠ
rec ogn
Ġstation ed
dist inguished
Ġcomfort able
ĠStr and
fell ow
Ġbatter y
mill an
Ġamuse ment
ĠBritt any
A y
J ew
Ġp in
Ġf ishing
ch anges
rom atic
Ġ3 12
Ġag itation
IS M
olog ne
LE CT
law ful
wor ship
tit le
ĠBapt ist
GY PT
O E
V al
d anger
f ear
u be
Ġf hall
Ġh ir
Ġpro jected
Ġman age
Ġcons olation
AT ER
Ġequ ip
Ġsw ear
ik h
Ġ37 0
ĠLy ons
ĠWell s
ĠDirect ors
Was hington
Ġprelim inary
J L
g as
on ius
ĠS aid
ĠN ab
te es
ft r
oll us
Ġref ined
Ġver dict
LE X
Ġlab ourers
ĠMe chan
Ġdep ths
ĠPri ory
van ia
ĠROM AN
ĠPresbyter ian
Ġard our
Y S
m oft
Ġa od
at tended
ĠS IR
Ġal ia
de ed
Ġshe et
Ġopp ressed
Th ree
Ġhand ed
Ġ27 2
Ġgovern ors
ĠProv inces
writ er
MON WEALTH
ĠCec il
p ain
Ġt ents
at ically
ĠB R
ug al
Ġdist ances
Ġsc anty
Ġpos itively
sec ret
chief ly
ĠCy pr
ĠSax ons
ORD S
Ġhur ried
beg inning
ĠTol edo
T is
v d
Ġt ied
ĠM acc
ĠL ind
ag as
ak a
Ġout rage
Ġsc orn
Ġfu ff
Ġ189 4
Ġwild erness
ĠCa esar
ĠTre asurer
hens ions
Ġlegisl ature
Ġlegend s
ĠSat an
Ġprolong ed
CCLESIAST ICAL
1 16
b eth
p to
Ġ Ã¼
re am
se ason
th al
ter ing
li an
Ġfe athers
Ġspe edy
und o
Ġke ys
Ġten ement
por ated
ash ire
cons cious
Ġ39 1
ĠAust rian
Ġprotest ant
C hem
S ect
Ġb t
ĠR OB
ĠN ext
Ġund e
iar um
ext ra
Ġfi res
ĠChe ap
ĠWol sey
H ad
r ally
Ġha w
ac us
un ces
ĠN am
Ġal s
Ġ3 24
iss a
pro duct
Ġjud ic
des cription
quer or
Sp ain
VII L
Ġingen uity
Ġcryst als
ĠAur ora
Ġrepet ition
C oll
Ġc off
Ġto ken
Ġd ance
ĠT rent
ig uous
ĠM A
ĠM EN
ill us
un n
Ġ4 31
ĠK ir
Ġ28 2
str ate
Ġspeak er
Ġstra w
Ġinstruct ive
Ġgrant ing
Ġprofess ors
Ġrom antic
Ġsettle ments
ĠIND IA
a an
Ġ urn
Ġf um
Ġd l
Ġre action
Ġde ck
ĠN umber
Ġadvantage ous
ĠIT ALY
Ġtempt ation
Ġfib res
Ġextravag ant
bac co
n icious
s ir
Ġa it
ĠC ord
Ġun o
Ġres isted
Ġimp lied
Ġear n
pro bable
Ġbeg ged
ĠPhil osophical
Ġ37 5
uck y
Ġgall ery
Ġordin ance
ĠJosh ua
m ember
m oral
Ġf als
ĠC ob
Ġde leg
ĠG ov
ĠBut ler
ĠDe um
Ġhope less
Ġdr unk
ĠOff icers
X I
b om
y an
Ġn p
Ġde er
res cent
ĠF il
Ġal iis
ĠV ide
are th
ĠRe ad
Ġyour selves
Ġval ues
ĠÅ¿ ome
Ġ187 4
ĠGlad stone
M et
b ore
f ie
t ru
¸ Ĺ
â ¸Ĺ
ch y
ĠE qu
ĠW ild
ack now
su bs
Ġreg ulated
Ġsc enery
Ġsubject ion
Ġ29 2
Ġpra c
Ġcrown s
ĠMed icine
Ġpot ent
cra ft
ĠBru ce
cult iv
M Y
p as
t inued
Ġh ip
ile e
Ġins inu
lic hen
Ġarri ving
ĠJul ius
E u
Ġof i
at ra
Ġf im
Ġm ales
Ġth ai
ĠP ER
ĠP acific
Ġde ll
to fore
ĠW are
Ġxx viii
Ġide al
Ġ39 7
ĠPri vate
Ġfirm ness
Ġobst in
Ġmagnific ence
Ġbatter ies
ĠNether lands
s an
s omething
t te
ĠI i
ĠA B
id is
li um
Ġim itate
ru its
Ġsecond ly
Ġprom ising
Ġbur ial
plic it
ĠInst ead
Ġpreval ent
1 12
H all
R ec
Y AL
ĠI ron
am el
ri ers
ĠH ymn
ant i
ci as
Ġqu in
Ġfl att
yl um
Ġemb ry
Ġdead ly
Ġpred ict
ĠMat hemat
Ġmel ody
Ġwarm th
Ġhang ing
Ġtid ings
id al
Ġan s
if ter
ĠJ upiter
Ġi S
Ġimp ly
Ġord ination
su es
IC T
yl us
Ġ27 8
OM E
ĠBer keley
Ġauth o
Ġcompet ition
doct rine
D iv
G S
L atin
c ion
u ble
Ġp ect
ĠP AP
ke eper
Ġ3 29
olog ia
10 4
af ure
Ġdra ught
Ġuni verse
Ġadmir ably
mag h
erem iah
Eli zabeth
A Z
Ġp el
se ction
ac a
Ġsh ar
ia ce
tr ad
jud ged
Ġunf av
Ġpropri etor
Ġmyster ies
l owing
m akes
q e
Ġh ire
ent ers
Ġi y
Ġob ispo
ric hed
Ġple asures
rem ains
co al
Ġih m
Ġmir ror
ĠElect ric
ĠSav oy
ĠAe gypt
W i
Ġt d
Ġthe at
we ight
ran o
25 0
Ġ35 1
Ġ36 1
Ġ186 4
Ġhym ns
care ous
ĠEu ph
ĠSyn od
Ã ¢
Ġt eng
or ical
Ġf ocus
Ġg ames
ĠD OC
Ġjust ification
par ing
mat ters
Ġrul er
Ġsail ors
mind ed
fif th
Ġelement ary
Ġcalam ity
Ġprecept s
accom panied
W H
e ye
Ġp ane
ist on
Ġpro gramme
Ġ4 13
Ġap ology
Ġsec uring
Ġass umption
Ġcor pus
Ġpred omin
Ġrich ly
tw elve
Ġdepri ve
direct ed
B u
at tend
le aves
Ġn ue
ĠM osc
Ġcom et
ĠN ine
ment ed
Ġmar vellous
ĠEurope ans
Ġtrad ing
R h
p ict
t erest
w yn
Ġo om
ert a
Ġacqu ies
ĠXX II
ĠEss ays
ĠProphe t
w estern
ic d
ĠS igned
Ġg el
ĠA ri
il er
ĠH op
un ch
ĠN ou
Ġpar ishes
Ġass ail
Ġind ications
Ġtra itor
vol ume
Ġbott le
C ur
P AR
g inal
Ġs mell
ment ion
Ġ3 30
ber ry
Ġatt ribute
ex act
Ġve hement
Ġ36 6
Ġgrand father
ĠGaz ette
H igh
n j
n ative
Ġb ury
so hn
att ack
Ġ24 6
person al
stud y
g ers
n ge
it f
Ġh ue
Ġin e
ĠM ol
Ġex pended
Ġpro ced
Ġpl ent
Ġdes erving
sh ot
ob jects
AN G
Ġtra ck
Ġcomple tion
ET S
ĠNav y
Ġinev itable
g rown
j ou
s cript
re ached
Ġm isc
Ġe pic
Ġis olated
Ġqu ien
Å¿ on
Ġind isc
val uable
Ġfore head
Ġ39 5
rupt ion
occ ur
ĠSpen cer
D d
I EL
c ou
c ities
Ġm s
Ġl ink
Ġg y
Ġu fe
Ġi U
ath olics
Ġev i
Ġri ot
Ġmus cles
Ġ35 9
ĠVII L
ĠMUS IC
Ġcos as
Ġsubl ime
M is
M en
P S
f T
f ixed
g od
h men
Ġt racts
Ġd ined
st eps
ĠP ausan
Ġall otted
con nected
Ġed ict
Ġstead ily
B ra
et i
ĠD ub
ence ment
Ġpar lia
ĠCol onial
ext ent
Ġpill ars
prove ment
ĠGentle men
ad mir
Ġu pp
ant ee
ĠCol on
Ġca using
Ġprom otion
Ġprom oting
off ered
Ġti empo
Ġexhib iting
bel ief
Ġchang ing
Ġconqu ests
Ġlod ging
LET TERS
ĠHum an
pow ered
I e
m arch
is land
Ġc ri
ĠI J
ra re
Ġ25 4
yr ight
Ġ27 6
Ġann os
des ign
bre cht
Ġdesp ised
Ġcontempor aries
ĠHand el
Ġpec uniary
t ice
Ġw reck
Ġs often
Ġc ave
Ġp ard
Ġsh aft
ru le
end ing
Ġcan als
Ġmon op
ung i
ĠSh all
Ġdep uty
get ic
Ġfine ly
Ġess ence
Ġassert s
Ġgran ite
esc ope
m atic
Ġd au
Ġe cho
Ġj ourn
man ces
Ġ25 8
Ġ44 7
Ġsens ation
Ġcost ly
Ġgriev ances
G al
Ġm aps
ĠT our
Ġthere upon
AL OG
ĠPro gress
ET ER
Ġneg l
ĠPort e
add le
Ġvir gin
Ġgather ing
n il
o ven
Ġt c
Ġto oth
ĠW inter
Ġcl a
io h
Ġind icates
10 8
ĠSh aw
Ġcop ious
Ġ33 6
Ġ186 5
ID D
Ġod d
ĠAnim al
ĠSid ney
p able
it l
Ġre ly
ĠA SS
Ġde an
ii k
Ġpro jects
Ġr ug
Ġli ken
Ġrec all
ĠCl a
Ġpet itions
Ġstates man
ser ies
Ġnewsp aper
C OL
T ri
s or
Ġt ire
ĠH ab
ie ves
ĠW ien
ci um
ark er
Ġvar ies
ĠMor gan
Ġcler ks
prov ided
t ance
in formed
Ġw ra
Ġd ix
Ġwh ofe
ĠP ly
ĠL ess
ast ro
Ġli ked
Ġever lasting
Ġve il
Ġexpl ains
Ġdegr aded
uchar ist
ut er
Ġas h
ĠB ald
ĠW r
Ġinter pre
ĠCon vention
It aly
Ġ23 6
Ġ24 2
ĠÅ¿ t
min ister
cit izens
Ġuniform ly
Ġnit rogen
Ġtoler ably
Ġexpos ure
u L
or ters
Ġp airs
am orph
ĠG ould
com pany
Ġra w
cul um
Ġins ist
des ire
Ġbeaut ifully
Ġlos ing
amb iÃ©n
Ġ36 8
Ġ39 3
Ġsic ut
Ġaccus ation
Ġaun que
Ġenumer ated
ĠSCI ENCE
id ency
ig u
Ġcomp aring
ĠAnd rews
ĠBr and
Ġsw im
Ġsw ords
under stood
Ġpast oral
ĠBer ry
Ġantiqu ities
nox ious
Ï ħ
Ġs cri
ĠSt ory
Ġshall ow
Ġtra vels
Ġdi plom
ĠCol ony
ĠSh ould
Ġq il
Ġ40 5
Ġ36 3
Ġtl w
Ġapart ments
Ġrail ways
Ġinconven ience
F am
F ore
i if
i ary
t ant
t inu
Ġw an
Ġs urn
Ġh ated
ĠM orning
ĠJ amaica
Ġpl en
Ġoff ensive
iss ues
not es
Ġbl ows
Ġref pe
Ġincre ases
Ġchap lain
fortun ately
Ġwarm ly
Ġrom ance
Ġdex ter
y ards
ĠS r
Ġg est
ĠThe bes
ĠF ALL
Ġmuch o
Ġdel icacy
ĠAl g
Ġih r
umb ent
def ence
en emies
Ġc ardinals
Ġp on
as ters
ĠS quare
pe ared
ĠL aced
Ġsh ining
ile y
Ġsupp ressed
br is
Th ou
ĠNor way
Ġav ar
Ġelect ions
Ġ179 3
ĠZe itsch
Ġcalam ities
contr ary
ĠPE ACE
g ard
m ort
m its
n ie
Ġin it
ĠB oul
Ġnot able
ĠV L
itt y
ob acht
Ġchar ac
ell ed
Ġcomp rom
Ġpen al
Ġpen ance
Ġ38 9
Ġdri ving
Ġwest ward
happ ily
ĠWhere fore
consequ ence
Ġnegot iation
6 00
F ab
l Ã©
ro sc
id ium
ĠR oll
Ġgr ammar
IC RO
Ġtal king
Ġcontrad ict
enz ie
ĠPract ical
J on
P A
c U
n p
er idge
ou che
ĠT ext
ĠS ometimes
ab ad
Ġwe ighed
Ġpl ough
ĠTh ompson
Ġdes iring
Ġbr ick
Ġ44 9
Ġcondem nation
Ġspecul ation
agin ians
Ġsuperstit ious
ĠSarac ens
ĠStry pe
r Ã¡
Ġin land
ĠS ul
ĠS crip
ĠV es
ft i
mon ia
10 6
ĠGe ological
Ġ29 8
Ġpen cil
ĠAll en
Ġ40 9
IR ST
Ġhym n
Ġpron ounce
mun ition
Ġglo omy
Ġaston ishment
K T
V ir
c ir
Ġl en
Ġre placed
ĠP ow
ĠP AT
Ġde em
Ġr uf
ap ost
Ġcomp ly
yn s
ĠSm all
Ġdri ft
Ġcu jus
Ġassoci ations
B ISHOP
C OND
R AP
h it
w id
Ġp ile
ĠA le
Ġthey r
ib al
Ġsupp ress
ĠEd wards
ym ph
Ġ186 8
Ġwat ching
Ġdil ig
ĠPrinci ples
ĠCarl isle
ĠAnth ony
adequ ate
Ġt out
nd ish
Ġm ock
as m
ĠS ay
ol erable
Ġob viously
ĠU i
Ġlast ing
Ġtra versed
Ġins pect
Ġval leys
ĠÅ¿ he
Ġ36 7
Ġ39 9
Ġsle pt
wr ote
sing le
Ġcandid ates
difficult y
Ġplaint iff
in formation
Ġh ook
ĠC el
ĠM ap
Ġcor rection
Ġder iv
Ġtre asury
Ġspec ified
Ġot ros
Ġadvance ment
ĠArab ic
Ġsincere ly
hol m
Lie ut
S k
T otal
w arm
ĠH ibern
ust er
Å¿ ed
Ġ30 2
Ġconst able
vell ing
ĠTH OMAS
Ġabund antly
Ġspr ung
Ġrestra ined
onym ous
P OL
Ġp us
Ġf id
Ġre bu
Ġst amps
AN E
Ġdet ect
Ġfo on
ĠPh ill
ash a
like ly
Ġestablish ments
e h
l ords
m iddle
r ating
Ġhe m
ch lor
Ġ3 14
Ġem otion
Ġfl or
ah l
Ġ45 5
Ġreward ed
Ġappropri ated
Ġg ale
ĠL yd
ge bra
ast es
Ġar rog
ĠTh ur
Ġatt itude
Ġnum er
Ġbu ff
Ġdirect ing
Ġ22 6
Ġfort night
Ġenc amp
ĠAng l
pow der
opon nes
o L
r als
s ize
z ig
Ġbe ard
ĠC HE
ĠA ve
ĠH AR
Ġr oused
Ġsh ake
Ġthere on
Ġ7 00
Ġref erences
Ġadv ances
ĠPl at
str ous
Ġpeculiar ity
Ġconven ience
Ġmax im
Ġcolle agues
ĠSab bath
ĠLiter ary
ĠRet urn
Ġdestro ying
M att
d ens
d ise
h op
Ġm icro
Ġl oft
ĠR ES
Ġ4 27
Ġcont ribution
Ġref lections
Ġconf used
Ġins criptions
Ġclass ification
Ġsign ifies
ĠWest m
ĠRep orts
Ġsugg estions
sm ith
Ġtop ics
Ġaffection ate
Ġvener ation
S il
l od
p io
re pid
Ġsu um
un ken
og ues
ft on
ĠDe ity
Ġpri zes
ĠLe eds
10 2
Ġ30 8
Com pany
Ġtender ness
Ġprohib ited
ICH ARD
Ġelectric ity
Ġworsh ipped
C orn
P en
f us
Î º
Ġd ol
ent ia
Ġg n
ch ard
ĠB aker
Ġha unt
Ġ3 22
ĠK ew
Ġdef iciency
ĠInd ex
Ġpeace ful
Ġviol ation
Ġ44 5
right s
Ġmach ines
Ġdiss atisf
Ġmun icipal
ENER AL
b ill
ab b
ĠR uf
ard o
Ġcons umm
und e
tr ation
Ġsum mons
Ġleg ate
ĠReg ister
Ġgod ly
Ġlev ied
ĠPoet ry
Ġreconcil ed
igr ants
Ġrepubl ican
s che
Ġw her
Ġp ine
ĠA men
ab sol
Ġha il
Ġen um
com posed
Ġsec re
ĠCom pare
Ã© d
Ġmet allic
Ġ37 4
Ġ37 8
Ġ44 1
Ġlic ense
ĠGRE GORY
disc overed
ĠES Q
Ġincred ible
I j
f re
o os
s igned
v ations
w ide
in am
Ġs ink
ĠT am
Ġu d
ĠB lo
Ġ2 000
Ġserv es
Ġprov oked
Ġca res
ĠEx ec
ĠQu art
Ġsin o
Ġcorrect ly
ĠTH B
Ġindiff erence
ĠCOLON IAL
F ather
g ne
p ure
Ġg ases
Ġde j
Ġex e
Ġst eal
Ġk not
Ġ3 26
Ġar ray
oh ol
ĠOr mond
Ġheart y
Pr otest
Ġeast ward
Ġox en
ĠVic ar
ĠNach r
Ġd ome
ĠP ear
Ġv ivid
Ġend ow
els sohn
Ġpictures que
d ig
re port
Ġb aggage
Ġf asc
Ġe llo
st ructure
qu in
Ġor b
ĠG riff
Ġpro ving
Ġle fs
Ġcont ag
Ġatt raction
Ġinf ancy
ĠÂ ¥
Ġsim ult
pre v
Ġpen alties
ĠAss oc
establish ment
Ġc ui
Ġl leg
ĠS cientific
Ġg aining
Ġv om
ert ion
Ġfar mer
Ġbes ee
ĠPer cy
Ġsal ts
Ġjoint s
ĠSus sex
Ġmartyr dom
l ace
p ill
á ¾
Ġe ther
Ġl ays
ir ling
ĠC red
ĠM l
ĠB less
ld er
li aments
Ġpart ed
cl ude
Ġra z
Ġext racted
Ġread s
Ã¡ nd
arr ant
Ġeight eenth
ĠPart s
Ġmeas uring
ĠBour bon
affect ion
udden ly
Conduct ed
S ix
Ġd ere
Ġl ip
the ory
ĠO B
Ġab rupt
Ġ4 15
Ġper o
ĠSt and
Ġcl osing
ĠPar ish
Ġinv aded
ien ne
ĠItal ians
Ġge ography
Ġ36 4
Ġ187 5
ĠParliament ary
Ġhast ily
fall en
Ġappend ix
Ġunanim ously
Ġaristo cracy
T Y
j oint
v ision
in m
Ġf ch
Ġhe ap
ig on
ĠP ars
ĠK irk
ON G
ild a
Ġinst ru
Ġcomp iled
sequ ent
Ġter re
gu age
see ing
Ġforg ive
super ior
ĠHes iod
H h
t k
x v
Î ·
ĠM aid
ĠE i
Ġpre st
ĠK ill
Ġfe veral
Ġform a
ĠAr gy
tr ust
ann on
ĠST REET
T B
x l
Ġt ars
Ġd onde
ĠW o
el se
Ġadm itting
Ġforg ot
observ ations
heart ed
ĠBrus sels
k irk
le igh
Ġre e
ĠC reat
Ġde position
ib ald
Ġ4 23
Ġper v
Ġcons cient
ors ed
Ġchar ming
Ġdiff i
ĠCl oud
Ġpat ients
Ġoccur ring
Ġvict ories
del ivered
mark et
Ġcalcul ation
sa fe
Ġpersu asion
advant ages
Ġfatig ue
M c
n atur
Ġo be
re ve
ed es
Ġh l
ĠP RI
Ġv ide
Ġla ity
Ġcl othing
Ġoff spring
Ġexp res
ca uses
Ġlim b
Ġmaj est
ante es
Ġrecogn ise
Ġfro st
ĠOrd ers
Ġcoron ation
b ia
v ocation
Ġt j
re ll
ĠT an
ĠM ED
Ġor ange
ĠR an
Ġper pendicular
Ġfe c
by ters
unt e
ĠTr ue
ĠPh araoh
some what
sim ple
ĠED WARD
D er
S j
p ounds
x ii
Î Ń
Ġw ilt
st ory
Ġcomm encing
Ġfr ig
ĠDav is
Ġtom bs
Ġunf it
Ġeleg ance
F ort
c ong
t z
Ġs op
Ġb f
Ġm d
Ġm rs
ic ula
as ked
th ou
Ġwhe el
Ġpr ism
pr ice
Ġref resh
Ġmar sh
Ġperson a
isc us
Ġ25 2
Ġda ÃŁ
ĠHere ford
Ġgre ate
Ġperf ons
I UM
h urst
ĠS ound
ĠM icroscope
ĠH ER
pe c
res ults
ĠF oss
Ġab ide
Ġ4 21
Ġref ract
part ite
Ġsingular ly
ĠGib bon
Ġcheer ful
Ġabsor bed
ĠmÃ¡ rtir
ĠDOC UMENTS
P a
a illes
m ixed
Î ¯
in it
re ally
Ġl ud
ĠA j
ĠM EMOIRS
ĠL ion
ab at
Ġst iff
ii b
Ġcom pel
ĠJ uris
un less
Ġ4 37
Ġsub tle
Ġchar ms
Ġappear ances
Ġhum ility
Ġ40 2
Ġih n
Ġdece ase
Ġaccident al
cern ed
c os
n ob
v or
Ġd amp
se ver
ĠN one
Ġj unction
Ġam using
Ġsp ake
ph a
Ġsub stituted
Ġve ins
Ġpost ed
rest rial
Ġdre ams
How ever
Ġimpl ies
Ġnegoti ations
S r
v re
Ġc unning
Ġf j
ĠS ie
Ġhe n
ĠF letcher
Ġr ice
Ġ4 19
for ces
Ġag itated
Ġreg ulation
vent ure
Ġev ac
Ġ38 2
Ġcompl icated
Ġorgan ization
Ġlabour ing
Ġadmin ister
ĠCOM M
Lie utenant
Ġpull ed
Ġfath oms
ĠHast ings
Ġt ick
Ġc og
ou st
ĠS old
th ick
um pet
op hil
op inions
man ufact
com pan
Ġhum ili
Ġmed io
ÃŃ an
Ġq n
Ġintro ducing
Ġmel ted
SE CT
ĠShak Å¿peare
Ġfri ars
FOR M
D ie
G ood
O rd
p apers
v l
x y
Ġw ander
Ġh s
Ġbe que
ot hes
Ġas semble
ĠB UR
if li
ĠW ould
Ġab ound
ens ington
Ġinv isible
ST ER
Ġexper i
Ġdeg ener
Ġsett lers
Ġ45 1
sold iers
A re
S ol
Ġbe lls
ĠA LEX
Ġse als
ĠW EST
ci ed
iz a
ren ces
Ġmin ority
Ġ179 7
ĠJoseph us
asp hem
Ġcontempl ated
Ġlament ed
LET TER
E xt
n ity
Ġh anged
ra ged
Ġqu idem
Ġrep ug
ex pect
und a
ner al
Ġcour te
ĠSo cieties
Ġ37 1
Ġ179 2
ĠOR GAN
ĠRich mond
it ably
ĠT ac
ud ley
Ġen mity
Ġam ply
Ġappe als
AN TS
Ġop ens
Ġass uming
part ies
sw ick
ann is
Ġlay men
Ġ39 0
Ġdesign ated
Ġmouth s
Prof essor
BER T
Pat rick
ĠTR ANS
Ġornament ed
Ġw ishing
Ġm ature
et ic
ay ers
ĠE ras
nt on
Ġk itchen
ath y
Ġty pical
Ġcapt ive
Ġrot ation
ĠJah rb
ĠSup reme
CHAR LES
Mess rs
e pe
g ran
k illed
l ings
p lied
s ugg
it ius
or ously
ĠB ET
Ġan ten
Ġst up
un ited
ost henes
ag oras
Ġad hered
other wise
Ġev olution
ĠEd w
az z
flu ous
Ġ23 8
por al
Ġappro aches
Ġge ology
Ġ37 6
Ġid em
ĠRE IGN
ĠPers ons
fu cius
Ġdiscont ent
S s
in cluding
at om
Ġp ianoforte
ĠA us
Ġan aly
ĠF i
Ġme nd
fe c
Ġir resist
12 8
ĠGr ammar
Ġpen ny
pass ion
ĠPap er
Ġrecon cile
Em peror
ĠAnat omy
Ġlongitud inal
F ar
J I
o its
r atic
Ġb row
Ġc ard
st ands
se vere
ĠThe e
ie ving
ĠR EL
ĠN E
Ġj n
ens i
Ġres orted
Ġgener osity
Ġgra ces
14 4
gu ished
cut s
Ġsurr ound
Ġobst inate
Ġdemonstr ation
Ġadvoc ates
Ġaffl icted
Ġdispat ched
N ic
c ock
Ġw ret
ou le
ĠB ud
ĠP ART
ber n
UR S
Ġresult ing
pi res
field s
actor ily
J n
W IL
Ġp ause
Ġbe er
ĠP ut
ment ary
Ġen e
Ġdis pose
Ġdis like
Ġwar n
Ġlight ly
Ġexec utive
AND ER
cap ital
Ġni hil
mas ters
Ġwise ly
Ġcolon ists
M A
M IN
Ġt ired
Ġst retched
Ġle nd
ne a
Ġdis d
Ġdis appro
Ġexp ensive
ann es
Con stant
Ġcir cles
Ġaccess ible
ĠBet ween
T u
Z e
Ġt ies
Ġw old
ing ing
st ro
em a
ĠF ee
Ġadv an
Ġ19 21
Ġbelie ves
Ġmag is
Ġtlie ir
Ġproc uring
Ġrock y
ĠHeb rews
Ġabol ition
Ġig lesia
ANN UAL
ĠConcert s
Ġpest il
Ġa fore
Ġd ancing
Ġbe ach
se arch
ĠN aval
Ġal ms
Ġpl a
Ġ47 9
Ġgrat ify
Ġwicked ness
M EMOIRS
N ote
N ature
f ent
l k
y i
Ġt utor
Ġre ducing
ĠP ict
Ġnot with
ĠD ial
ĠJ E
Ġr iding
sh ine
Ġdet est
It em
ĠCl ay
oi res
go ons
Ġsign ified
quis ition
Ġmeant ime
ĠEle ments
lab our
ICRO SC
Ġf illing
Ġre ctor
Ġis t
ich o
Ġall ude
Ġimp uted
Ġexp ose
EN E
IT ARY
Ġtri but
duct ory
13 6
Ġsto ps
Ġemploy ing
ĠBl an
ĠRE P
Ġdeliver ance
German y
t el
ĠI c
ĠI p
ĠA ph
ĠB ag
ĠB ert
ĠH at
ĠW ool
Ġr d
Ġqu os
Ġi H
Ġ4 11
con cerning
adv anced
ĠWall ace
E z
x a
Ġh art
om uch
Ġhe arers
Ġas pir
ii it
ff i
ĠV iscount
me asures
Ġvill a
AD Y
Ġlic entious
Ġassist ant
Ġaqu ÃŃ
Ġcompre hensive
ĠThu cyd
B oth
E le
c ers
Î ¸
Ġsu g
ĠO tho
Ġrel atives
vers y
Ġser pent
Ġweek ly
power ful
r ut
ĠS earch
ĠP au
ra h
pe al
Ġ4 33
pl ants
Ġext en
ca used
Ġil i
Ġlay ers
ev ents
Ġconst ruct
Ġcover s
RA CT
ĠLITER ARY
m ess
ir ts
ĠP t
ĠP embroke
ab und
Ġcar ved
Ġwar riors
ĠNew s
yl vania
Ġstat ues
Ġ35 4
Ġ34 8
Ã± os
wall s
ĠEpist les
Ġmanuscript s
Ġnomin ated
ĠIli ad
Ġd ye
Ġbe nd
pe y
ĠL A
Ġv ile
Ġ4 14
urch ased
fl ow
att on
min ent
str ict
Ġnatural ist
Ġaw akened
ĠIsrael ites
Ġspecul ations
ĠPH IL
ĠEphes us
Ġchallen ge
H ence
as a
ion ers
Ġn c
ĠT yr
ĠS M
th ol
Ġr im
Ġch al
cul us
urg ents
Ġ29 4
Ġ38 8
Ġ37 2
Ġ33 4
Ġ33 8
Ġattend ant
Ġfast ened
ĠPsal m
E nt
b ach
p ered
Ġb or
Ġh b
Ġto bacco
Ġwh icli
ĠC uth
et c
Ġas leep
ĠG on
of i
oy ne
als am
Ġmar qu
sec ution
ĠMan ual
Ġrev ival
LIAM ENT
ĠInn ocent
ĠMons ieur
Ġpreca ution
H oly
O OL
h ath
u B
he ro
ar ck
Ġto e
ĠM iller
Ġor bit
ĠF ound
cy cl
Ġconf inement
aw are
Ġprov idence
Ġbeaut ies
ĠChe l
Ġhast y
Ġdil igent
AST ER
Ġspo il
ĠFried rich
f und
g om
il ated
qu a
Ġex cel
ens ively
io D
IN S
Ġwar ned
less ly
Ġval iant
ĠAm sterdam
Ġfeel s
ĠIN STITUT
Ġoblig e
Ġfront iers
Ġapplic ations
Ġfub je
thr one
ĠLegisl ature
A F
Ġa z
Ġo at
is ch
Ġbe ef
ĠA rian
ĠG L
Ġr ush
Ġk ins
Ġ4 25
rit ory
sh ore
Ġsy ll
Ġbu ck
Ġsw ift
then ed
Ġlie u
ĠScot ia
OS E
anim al
view s
affect ed
Ġilleg al
IDD LE
he ar
id an
ĠL t
ĠN elson
Ġcomm ences
Ġpe o
Ġli as
Ġdiff ering
Ġrest rain
Ġlim estone
Ġunivers ities
Ġyouth ful
Ġconvey ance
mans hip
Ġlust re
ĠLITER ATURE
Ġs ar
Ġc od
ou rer
Ġh ou
ĠC arr
ess ors
Ġen riched
Ġam munition
Ġple aded
Ġpract icable
Ġ39 2
Ġdeep est
col lection
Ġaccept ance
Ġdoll ars
B ay
y x
ow ne
ĠP yth
ĠW ille
ap a
ĠK er
Ġgra ins
Ġ40 4
Ġbenef ices
Ġgrat ification
Ġancest or
Ġhorn s
educ ation
N ES
f ri
Ġn omen
ĠT ake
per ior
we ek
Ġsub stitute
Ġinter cept
ific ent
Ġ35 2
Ġemb od
Ġrecommend ation
Ġdrown ed
m ic
ĠC her
ĠF ord
Ġar row
ĠCh a
Ġbr ut
Ġcomp ounds
Ġinf erence
ĠGe ology
ĠOr igen
Ġresult ed
ĠPe el
ĠAng lia
Ġpursu ing
á½ ¶
Ġprosper ous
ĠOrig inal
Ġcow ard
ĠME ET
Ġremind ed
e vent
i im
l owed
re comm
Ġb ars
ad j
and in
Ġ3 28
Ġsub ordinate
lish ment
Ġsent ences
Ġtrans ition
ĠMan ufact
Ġelect rical
Ġ187 0
Ġloss es
Ġcorrespond ent
Ġbold ness
ĠPtolem y
S n
ut eness
Ġas ks
Ġcon n
ĠB t
Ġde be
Ġ4 40
fl ies
Ġlaw yers
17 4
Ġte le
Ġcur ved
12 6
Ġneg roes
Ġdif i
Ġju ice
Ġconcur rence
Ġdelib erate
ĠAMER ICA
U p
W m
g ian
h orn
Ġt p
Ġo ar
id us
am med
Ġv ested
ĠE cclesiast
Ġcom prised
Ġform ally
Ġem end
Ġexp re
13 4
akes peare
Ġ38 6
cu le
supp orted
ĠFranc isco
Ġintrig ues
um en
ĠF isher
ap es
Ġper nicious
con omy
pro duce
Ġcour ses
Ġfur ious
13 8
Ġmus cular
Ġcrit ics
Ġpropos als
ĠBon aparte
ĠJul ian
Ġengine er
Ġtrem endous
ĠIsa iah
Ġjourn als
c ant
Ġs inners
Ġth u
ĠS ons
ĠC ook
id os
ge ons
ne um
be hind
Ġacc idents
con ce
oss es
Ġinc ul
ĠMar ie
12 4
Ġmed al
Ġcelebr ation
diff erence
och ial
ĠJust in
ĠSol on
a Ã±a
ou a
ĠE CCLESIASTICAL
ĠW ick
ĠJ ackson
ne es
ble ms
Ġmo ves
Ġ40 6
Ġelect or
Ġ178 9
Ġassoci ates
Ġcheck ed
Ġlaug hed
D is
s pread
ul ity
Ġar rows
Ġi V
ĠCh am
Ġappe aled
Ġshe wn
Ġke eper
fer ior
Ġdep ression
Ġhu jus
Ġhung er
Ġcontempl ation
Ġwand ering
Ġpotato es
A ULT
G ra
Ġa is
Ġthe i
Ġv estig
of s
Ġ4 12
Ġed ifice
Ġaff ording
tt a
ĠHer zog
Ġoccup ies
Ġfil aments
ĠJe an
div ine
hig hest
ĠDIS CO
P i
c ision
v ance
Î ´
Ġe g
Ġg host
Ġit i
Ġu x
ĠH undred
ff ed
ĠCh ildren
vers es
18 41
Ġconc ord
Ġexcept ed
bes ides
Ġkeep s
Ġspir al
Ġsanct ity
Ġhes itate
bod ies
W at
v m
Ġ æ
Ġw ip
Ġn g
ce ls
ge ant
Ġsh oes
Ġen countered
rit e
oy le
Ġdec reed
Ġoccup ying
Ġded uced
Ġol ive
Ġobsc urity
ĠFrank lin
ĠMass achusetts
G re
S P
i ard
p m
r ast
re z
Ġb n
Ġf as
ĠL X
em inent
Ġst i
ĠO e
Ġ4 20
ph us
Ġend ured
att ached
19 2
ring ton
great ly
ĠPre face
Ġdimin ish
Ġci udad
Ġmultip lied
I OD
K a
L ike
O I
c ot
l ations
r Ã©
Ġw d
Ġre wards
se pt
ĠP ERS
Ġdis appointment
ath s
olog na
str ated
Ġ36 2
Ġhab er
Ġjo ining
Ġpreced ent
rews bury
ĠBraz il
P oly
V en
h orses
m ens
p od
Ġde vo
ĠG em
Ġfe a
18 4
Ġge gen
poss ibility
Ġfir ing
rim ony
Ġconsecr ation
hig her
Ġd um
un o
Ġal as
ĠK o
ign on
wh y
ĠAl ban
Ġdisc rim
less ness
Ġdi Å¿
Ġsign ific
ĠMor al
Ġxxx iii
Ġpu ede
Ġpatri otism
Î¿ Î½
ĠBu ild
spirit ual
Ġhospit ality
Ġcommem or
P p
k c
Ġp icked
ĠH ull
Ġle ase
Ġqu asi
Ġ4 16
ĠSt afford
Ġmar ching
Ġpriv ately
Ġcommand ers
Ġ34 4
Ġsubs istence
ĠJud ges
ĠLiter ature
ĠPatri arch
K l
U f
g ation
is set
Ġex changed
Ġk in
ost ed
Ġi od
Ġsur geon
Ġdel ine
iment ary
Ġquestion ed
tern ational
Ġ40 8
Ġhorse men
Ġxxx i
Ġpenet rated
Ġfran cs
Ġpatter n
Ġpopul ace
at am
Ġc ada
ar ians
ĠS ent
Ġcon tending
if chen
Ġes crit
olog ie
nect ion
anim als
Ġprod igious
Ġtemp est
c od
Ġt ener
Ġs am
Ġp ipes
Ġf able
an ed
ĠA ction
em per
ast rous
Ġqu em
ĠCh oral
ons on
ER V
ral tar
Ġhab ia
Ġorgan ist
Ġ46 3
Ġtan to
ĠBav aria
P ope
Ġb und
Ġbe am
um mer
Ġst ayed
ĠF en
all ied
Ġen s
Ġdiff ered
Ġpar cel
14 8
ĠPl ates
Ġden ounced
EE VENS
ĠHook er
Ġbount y
ĠKNO X
B re
B et
nd a
Ġb c
Ġn ar
ĠT ract
if ace
rom e
ab an
Ġex ult
ĠN ight
Ġsp ines
Ġ17 19
ĠRe yn
Ġfl int
ys s
af i
ann els
ev il
aff airs
Ġexpect ations
rest on
Ġeff icacy
Ġconv ince
Ġspread ing
former ly
F ORD
L ER
v ain
Ġo unces
st en
il us
Ġper usal
Ġret aining
Ġer at
16 6
12 2
Ġmo at
Ġyoung est
cont ent
Ġbond s
ĠLl oyd
Ġfare well
Ġunfav ourable
A then
S AW
n ion
r ays
y ellow
in ers
on ent
Ġc rop
Ġl one
ĠB rab
ĠP y
Ġde ux
ĠH os
ac compl
Ġle a
Ġman er
Ġ4 30
Ġfl ocks
Ġind ication
Ġopp o
lic he
Ġsitu ations
Ġ46 1
eas ily
2 20
F U
ï ¼
Ġt ile
Ġb ounded
le aving
Ġl ur
ad mitted
im al
th reat
che t
Ġapp lies
IN A
port ance
Ġdown wards
Ġreal me
Ġexcl ude
ĠJohann es
ilde brand
Ġepist les
Ġmetaph ys
T or
c am
t res
or ian
ĠS Y
ĠC ologne
ĠL em
ab ar
ĠF ul
Å¿ elf
ob i
ick en
Ġexp ence
Ġreason ably
Ġsett ling
Ġ44 4
ĠGu y
ĠMa it
ĠXX V
log ical
ĠPR IN
fle et
Ġvari able
Ġtreasure r
rac use
0 4
s ight
w ine
at as
ĠI v
ĠS ign
Ġhe ed
os i
ĠO tt
Ġreg is
stit u
ĠNe ap
Ġamount s
spe aking
exam ination
Ġdial ect
ï¼ Į
c row
m anded
w ounded
Ġin sufficient
Ġd ub
Ġe iner
ĠT ell
Ġpro claim
ci ations
Ġk illing
Ġres iding
ph ants
vers ation
reed om
ĠMil itary
Ġmess engers
Ġbree ze
b ility
Ġc ock
ĠC ost
ig ram
il ib
ĠB ills
ong ue
Ġdra in
gen us
Ġ39 4
Ġ39 8
Ġguard ian
ĠRuss ians
ĠAmong st
Ġtong ues
Ġsteam er
Ġrestra int
c j
re ce
Ġin iti
Ġre aches
ĠB om
ĠD ry
ĠJ AMES
Ġr ural
li p
Ġsa iling
Ġwar rior
RE E
Ġsuff i
Ġxx ix
Ġconduct ing
Ġfi om
AY MOND
Ġperform ing
Ġbreak fast
Let ters
respect ing
Ġach ieved
Ġdrag ged
f ight
h d
t ail
ar ine
ĠC yr
ĠM IDDLE
Ġv ag
og er
ĠTh addeus
Ġsp oon
pro posed
Ġbre ed
ĠOr dn
ĠSh ip
ĠAnt i
Ġdiscuss ions
ĠDep uty
Ġben ch
Ġlif ted
Ġforci bly
G ATIONAL
H od
J a
W or
v ia
Ġh os
Ġch olera
ai k
Ġgl im
Ġlight ning
cont aining
Ġ34 2
Ġsubs cription
ouf ly
Ġindul ged
iddles ex
F ox
st ation
Ġre lied
ĠE ns
Ġres cue
Ġover looked
Ġser Ã¡
min isters
Ġ186 6
ĠCy cl
Ġcler ical
ĠLanc ashire
Ġcorpor ation
Ob serv
ĠAnglic an
N T
it ates
ro pe
est ial
Ġ4 29
Ġro lled
15 8
appe ll
ref erence
Ġsolemn ity
ĠPrinci pal
ĠAG ES
Ġexagger ated
J acob
b ant
c and
d uties
n ost
t ot
x it
he aven
Ġf ere
Ġh ich
Ġm l
ĠS ignor
Ġal oud
pr inces
Ġev ap
ub a
Ġhere tofore
17 8
IT S
stant ial
nect icut
ingu ish
Ġ34 6
Ġsubs cribed
necess ity
Ġflour ishing
Ġurg ent
ĠKa ifer
Ġimpat ient
M ount
T ue
r ti
v ary
Ġo j
Ġin k
Ġn unc
ir p
ir is
il ius
ĠB ALL
ul ata
ac i
Ġpart es
Ġpres umption
OR I
ric es
Ġinde finite
Ġdiv orce
15 4
omet rical
Ġphil osoph
RI D
ĠLib ri
Ġdesp otism
Ġsanction ed
H ol
b f
in oc
Ġm ig
Ġd icit
ce ased
Ġwh idi
ĠL odge
ĠJ n
ard i
Ġman ly
Ġab o
Ġab rid
Ġper ceiving
iss on
sp ot
Ġ39 6
Ġemb assy
Ġinfl ict
Ġstart ing
B rown
F er
G o
K ET
S im
k ings
q ne
u fe
Ġe z
Ġl ou
st yle
ĠThe oph
ac cess
Ġi il
ĠK l
les se
br ight
Ġ35 8
Ġ33 2
Ġdistinct ions
hard ly
Ġuncertain ty
ĠPly mouth
N othing
P or
p ices
v iz
Ġb ust
Ġb ade
Ġp ry
ĠM n
ĠB AR
ĠB arr
ĠL ine
ĠD y
un ged
Ġsh ipping
Ġ4 35
ĠV ari
ell o
ĠAr magh
St ill
Ġtend s
Ġ189 5
Ġcustom ary
bur ne
Ġdimin ution
Ġcolle ges
ĠStan ley
s at
Ġc es
Ġl id
ĠS ect
ĠF all
Ġen joined
und ert
Ġte legraph
Ġdu kes
ops is
ape ls
Ġexc used
ĠDi oc
ĠJe ff
tre cht
Ġreform ers
ĠMax well
Ġadvent ures
ĠDor set
Ġrhe tor
p air
Ġ âĦ¢
Ġwas ted
ĠB ex
ĠE L
ie y
Ġcomp ressed
AL ES
ĠAl ice
ĠCl erk
ĠÅ¿ uch
Ġattack ing
Ġ48 7
exper ience
Ġexcommun ication
Ġdecor ated
ĠSC OT
Ġjew els
E lect
Ġc ad
ĠC ock
ain es
Ġcons i
man if
ĠCl er
Ġpop ish
Ġbar ony
Ġlad en
Ġprotect or
Ġcorrupt ed
aunt ed
treat y
excell ent
b os
c hers
v at
Ġex position
ull ed
Ġsc our
ific a
Ġtrans gress
17 6
Ġcr ust
Ġdev ice
24 0
Ġpor celain
Ġye are
Ġ45 7
Ġgrat ified
Ġdread ed
Ġstorm s
pent er
ĠPel oponnes
Christian ity
Ġaugment ed
r ue
st i
ĠC ut
ĠM ain
Ġv ia
ill ary
Ġno ct
ĠK y
fl ion
con stitution
Ġdel ayed
Ġlo an
IT IES
Ġ19 23
Ġhead ed
cr s
Ġprof ane
under stand
Ġtrad ers
Phil adelphia
incre ased
m ol
o ce
Ġn im
ĠW OR
ff ield
Ġ4 39
erv ative
Ġque i
ĠPro bably
Ġbelie vers
Ġconver ts
Ġfm all
Ġtherm ometer
Ġpersever ance
N ich
U d
a L
e u
t ons
t ude
v u
Ġf og
ar ched
ĠC reed
ĠL ex
ĠE ust
Ġare as
au b
for me
Ġres cu
pro ceed
Ġmin imum
ĠCol um
Ġhist ories
rem oved
Ġsac raments
Ġbound aries
bell ion
Ġur ge
tor ney
asc us
commun ication
high ly
Ġcontinent al
Ġreconcil iation
gentle man
ĠPorts mouth
L ev
f ro
j ii
t ine
Ġt ame
Ġw oe
Ġs inking
Ġe b
ĠB AT
ĠP oll
ĠF ir
ĠO bs
Ġch or
Ġal to
Ġ4 22
erv a
ach us
urn al
ĠRe cher
Ġchar itable
ĠAn na
vo ice
par a
ĠBy ron
ĠChar l
ili ary
ĠChap ter
Span ish
M it
S everal
V EN
e g
Ġw if
Ġd un
ĠB RO
Ġv in
Ġi ht
Ġtr at
Ġcomp ensation
Ġterm in
20 4
ĠSch ol
Ġ186 7
ĠGen oa
Ġyield ing
Ġadvent ure
Ġelong ated
Ġape x
D a
J f
i C
k k
s ound
is que
Ġl ame
ig ated
ĠM aps
Ġy es
ĠG ab
art icles
Ġme e
og r
Ġag gress
de p
Ġreg ister
par ison
Ġca fe
omet ric
Ġdem ol
Ġmean while
Ġche ek
ĠSouth ampton
hold ing
Ġpa res
AD DE
Ġprop ter
Ġcro ps
Ġgent ry
Ġforfe ited
rund el
r ines
Ġa et
Ġb ud
Ġb inding
ur gy
ĠS s
ĠH alf
ĠH yd
ĠW es
ĠK em
Ã© e
Ġev inced
ĠAd ams
Ġsupply ing
ĠMas ters
ĠBelg ium
L in
b ols
m ix
t age
or p
ct s
Ġv ale
ĠD ig
Ġr hy
ĠV oy
ici um
cul ated
ĠFor m
Ġcond es
ĠGe off
13 2
19 8
ĠCan al
Ġpra ises
ĠInt ell
fav ourable
FR ICA
Ġconquer ors
M aster
P TS
ĠC arm
ill ustr
ĠF ur
ĠCh o
oc rates
Ġfe eding
Ġpo en
ĠDe us
Ġnum bered
Ġind ustrious
Ġdi agram
Ġpract ise
Ġ45 3
Ġ48 0
ĠPers on
Ġproject ing
Ġsket ches
S en
f ix
it j
Ġd d
ĠM Y
ĠL ater
em os
ate ur
Ġcom r
ue go
ced ed
ced ing
ph ic
att en
pro ceeded
Ġobserv ance
Ġcur rency
ĠBr as
ĠĠĠĠ Ġ
Ġphys icians
ĠLib er
Ġdescend ing
ĠFab ric
Ġliken ess
Ġs ate
Ġd in
ic ide
im ore
ĠS L
con cil
Ġsur passed
Ġinv ite
16 4
Ġden omination
Ġfort ifications
Ġfin ancial
ta ire
Ġnoble men
road s
Ġimag in
Ġdeb ates
Ġexcl usion
Ġquot ations
C le
M ax
O s
V ar
he ight
Ġd rank
ĠI w
Ġg ang
ĠH au
ĠL ac
Ġno blest
Ġim posing
Ġshe ets
vent ed
Ġbar ley
Ġmor row
Ġ48 1
Ġintellig ible
ESS ION
ĠDisc ourse
Ġsucc our
Ġjudg ments
ATUR AL
ĠMIL ITARY
M useum
f k
Ï ī
Ġw ii
Ġw ai
Ġl itter
ĠT iber
Ġas cent
Ġv ib
op posite
all a
ire n
ĠK le
Ġfe es
ex pressed
ann ers
cont ained
Ġearth quake
Ġlabor atory
ĠRee ves
H or
M ISS
k night
p olicy
Ġc ess
Ġh od
ĠB rowne
ĠH av
ab and
ff l
ĠV ind
Ġam pl
Ġint repid
mon ial
pri vile
fort y
St at
comm itted
Ġmis fortunes
Ġ177 4
ĠRichard son
ĠIllustr ated
opport unity
A rab
F a
b h
d hy
n orm
p il
t akes
Ġb ru
Ġi in
Ġpl aus
ear ches
ĠCl aud
ĠMan uscript
Ġstri fe
Ġ177 5
Ġaim ed
Ġbenevol ent
C ENT
U o
u Ã©s
Ġt act
ĠT ax
id ae
ĠL ay
os se
ĠF u
ĠN ar
ĠN eb
ced e
oun s
Ġfl ows
Th ird
Ġjud ging
oi u
Ġdep utation
pet ition
Ġpra e
Ġdif l
Ġ179 5
Ġ46 5
Ġinstrum ental
Ġfle ets
ĠXX IV
rep lied
sac red
ĠRog ers
ĠOrgan ist
CHE S
tingu ished
B ab
I Z
N A
y ield
Ġd itch
ur ia
ĠI be
ĠS ill
ĠB est
Ġv ibr
ĠJ eremiah
ĠV a
Ġapp rent
18 6
br on
ĠAd rian
Ġ179 1
Ġbra very
Ġ178 4
cur ious
ĠHon ourable
Is land
OG RAP
qual ified
Ġlog ic
Ġora cle
Ġninete en
RES P
P ost
a em
f is
f ll
ĠR ector
ord ination
ĠN un
ile m
Ġro pe
ene e
Ġstud ying
rel ation
Ġhorse back
wit ness
stru ck
Ġell os
Ġener getic
ĠFif th
ĠPatric ii
ĠFell ows
F reder
at he
Ġc us
ĠH ood
ĠL ap
ĠJ t
int ing
18 8
Ġfo es
Ġcontinu ation
Ġprev ails
Ġpast e
ĠPort land
supp ly
ĠCOL LE
Ġgriev ous
iep iscop
ĠElli ot
H r
T U
g ine
t p
w ald
im et
ĠF ine
Ġconf ider
Ġext inguished
Ġgu er
pri ests
14 2
count y
pres erved
vis ible
Ġfer ment
Ġperpet ually
Ġhence forth
Ġrig our
ĠSix th
WE EN
Ġintr usted
quant ity
Ġcaut ious
b road
Ġb ib
Ġp ark
ar ound
Ġn ic
el and
Ġun c
Ġconf isc
ĠAl brecht
15 2
14 6
get able
bel ieved
jud ge
ĠJes uit
Ġscript ure
ĠÃ ĸ
ĠSOCIET Y
M d
T est
g un
m b
Ġe ulog
Ġhe cho
ĠP indar
ab ella
iv an
ff e
Ġ4 24
Ġmar riages
Ġgu est
ĠHen ri
Ġdev ast
Ġexc iting
ĠLy on
ĠMount ains
ĠDev on
Ġanni hil
lÃ© ans
C rown
S L
a ic
j ury
l if
Ġf ain
ar ise
Ġe lla
Ġbe re
ri el
ĠL en
og ene
cl usive
Ġpur se
Ġfr igate
po x
ned y
Ġfi ir
ĠKe ith
six th
Ġbot any
Ġopt ical
b ib
Ġt es
Ġl bs
ad en
ĠA by
ĠB anks
ĠH il
qu od
Ġch ase
ag i
Ġen quiry
ĠIn v
Ġli er
com mercial
Ġass ailed
17 2
Ġmod ifications
16 8
AM ENT
Ġtrust ees
ĠTrans lated
Ġtoler ation
Ġridic ule
Ġepid emic
ĠCair o
t aught
ĠM t
cl oth
Ġown ed
Ġevery body
ĠCol eridge
der ived
AP T
Ġansw ering
Ġcommun i
ator i
lex ible
ĠRobert son
ĠWil kes
ĠDE ATH
Ġthreat s
Ġloud ly
ĠWat son
Ġcandid ate
sole te
Ġembarr ass
D em
d as
t one
t ors
w li
Ï Į
Ġh in
ic at
ĠM iles
ii il
rit es
Ġro bes
form ance
Ġbo xes
UR N
Ġfu el
hus band
Ġalarm ing
Ġatmos pheric
Ġkne e
Ġpill ar
Ġful ness
intro duced
ĠBret on
Ġcott age
oult ry
Ġhaught y
ĠLeop old
A post
d ers
Ġm ont
ot er
ab ilis
op us
ĠK i
Ġcont ing
ĠGod frey
mon ium
aw l
Ġel astic
Ġstr at
ĠPl ate
Ġsatisf actorily
Ġav ailed
ĠGu ide
ĠJo an
ĠDomin us
third s
quar ter
ĠLuther an
Ġsecund um
cele brated
Ġcylind rical
c old
f hip
Ġm ens
ĠT ou
ĠD ise
ĠR ain
Ġab used
Ġtr im
ft y
Ġatt orney
Ġfl ies
Ġbl oss
eng ine
ĠCo oper
Ġ45 9
Ġ47 1
Ġgod dess
Ġsen ior
Ġmart ial
Ġtriumph ant
Ġscript ures
Ġmerc ury
Ġrestrict ions
Ġreci pro
ĠHamp shire
Ġsalut ary
Ġwholes ome
Ġa unt
ar Ã¡
ĠC ot
Ġab ly
Ġ4 36
ĠV on
Ġpr or
Ġres ume
ĠSe Ã±or
Ġra b
Ġpubl ishing
IT T
Ġmem oirs
ĠMon k
ĠWith in
Ġ47 5
Ġdisp ens
Ġfle e
Ġhabit ual
disc over
GR ESS
Ġplat form
r p
t ire
Ġw agg
st range
id it
ĠD ue
ĠJ am
ĠK ensington
ph abet
Ġfore most
Ġmort ality
ĠJon athan
Tem ple
answ ered
s it
Ġp ic
Ġp ud
om i
Ġn erves
Ġse xes
li ar
Ġres urrection
me at
Ġthr ong
Ġcour tiers
Ġdec isions
Ġcourt esy
Ġtit hes
Ġsem per
Ġban ner
town s
grat itude
Ġaltern ately
ĠAustral ian
Ġperil ous
ĠAff airs
Ġbattal ions
Ġenthusiast ic
ĠMosc ow
S AL
h re
o ons
Ġp ave
ch air
ĠG rod
ĠW ent
Ġall udes
Ġfe cond
we ak
ĠHe llen
Ġbl asphem
18 2
CH T
Ġdec ent
do ing
car ry
Ġcry ing
name ly
Ġrejo iced
Ġdefect ive
Sec retary
ĠPAR LIAMENT
Ġclos er
2 10
8 00
D EN
J X
X II
g ical
k ets
m ax
u an
Ġf ow
ĠA ne
il ium
ĠL ent
Ġst u
ib id
ull a
su it
Ġreg ulate
stit utes
Ġperson ages
19 6
lic ations
vere nd
ĠFran ces
Ġconv icted
ĠVol s
Ġ179 4
Ġassured ly
Ġpaint ings
Ġscar let
f ail
v p
w onder
Ġd ug
Ġd irty
le ading
ĠS alt
ĠE ffect
Ġor ation
Ġst airs
ci ple
el ius
ph is
Ġmon strous
ĠAt torney
Th y
Ġri pe
Ġten ets
ĠGe ographical
uf ed
arr anged
lor ious
Ġaccum ulated
ĠCHAR LES
Ġrevere nd
B L
P op
s d
en l
Ġc ement
Ġd ii
Ġn em
ab ul
Ġst ro
ĠN O
Ġimpro ving
Ġ46 9
ĠHar vey
Ind ians
Ġnom inal
ĠDev onshire
incre ase
M ason
m aid
n re
in fl
es is
Ġm ansion
Ġm ihi
ol or
Ġwas h
ĠB ass
ĠB oe
ĠB udd
ab o
ĠN athan
ĠV iol
ĠIn c
ple ted
Ġexp orted
Ġbo ards
ĠTr uth
tern ally
Ġneed less
Ġtemper atures
Ġ47 3
ĠVal er
ĠMax im
Ġunanim ous
1 23
S ar
Ġa er
Ġin a
al together
Ġre vel
Ġg arr
ĠC elt
Ġar du
Ġi it
Ġro v
Ġcomp liance
Ġear ls
vent y
pro phe
ten ant
ric ate
Ġcur ves
Ġcal careous
Ġneed ful
Ġfu er
Ġmass acre
Ġ179 0
work ing
aun a
Ġmax ims
ĠÎ º
Ġstir red
Ġsho oting
x elles
y nt
ĠT n
ĠB attle
Ġpro fe
Ġatt entive
ĠAn them
18 64
Ġdi as
Ġchild hood
Ġcit adel
Ġ178 3
cur rent
Ġsav ages
Ġoffer ings
arc ity
Su pp
suc ceeded
chie vous
C op
b ie
b irth
j ur
k il
o ct
s ession
Ġt arn
he rence
le i
Ġbe et
se at
ĠS au
id n
Ġv ou
ĠG OD
Ġad duced
HE D
Ġimp ract
Ġchar ters
Ġcor pore
Ġfav ours
ĠMart yr
Ġimperfect ly
ĠLET TER
Ġphotograph s
ĠEngine ers
Jes us
ĠChristo pher
Greg ory
Ġmirac ulous
ALOG UE
H IST
b irds
f action
Ġs per
ent ing
Ġre nd
ow ard
ra ch
if ters
ind ers
act ing
iss ime
Ġhand le
Ġut il
gg s
comm od
des ired
ĠQue bec
Ġresol ve
bel ow
Ġexped itions
Ġ178 7
Ġmusic ians
Ġju xta
Ġthreat ening
Ġtrem bling
ĠCarth aginians
Ġä ¸
Nat ural
Ġtel escope
ĠP yr
Ġde ft
Ġcom prising
Ġr s
Ġwho ever
Ġres ource
Ġsp rang
ĠAn aly
ĠAl ber
Ġmod esty
Ġil le
off icer
fortun ate
Ġcab in
ĠCastle reagh
ĠBern ers
Ġprospect s
Ġabsor ption
ĠStan hope
Ġinfam ous
D en
M ich
e z
ĠT ob
ĠB ran
ĠThe atre
ab ling
ci pal
av ens
ĠAn gel
Ġmod els
Ġless er
Ġgra v
iment al
Ġ44 6
ĠMem or
spe c
Ġgrat ifying
Ġtb c
Ġspect ators
Ġfro zen
abor atory
inv estig
Ġprod ig
ĠOrdn ance
H S
s pr
t ia
t ract
w f
Ġc osa
Ġf ant
ve h
qu it
to re
Ġ4 28
land er
gr ims
Ġport raits
Ġve in
Ġcop yright
Ġ47 0
Ġ177 3
Ġhast en
Ġsuspic ions
school s
repe ated
ĠCreat or
J ournal
m aker
ĠS ene
ul sed
ab as
ĠR ig
Ġen ables
de fe
com ed
ier i
ĠMar ine
15 6
oura gement
Ġtlie y
pat ri
ĠGu ards
Ġdepend ence
Ġdefend ing
Ġobst acles
ĠHor se
Ġappreci ate
ĠGren ville
Ġtheore tical
h ort
h itherto
Ġh m
ent itled
Ġl ined
ĠC b
ch ron
ĠP ie
ome w
Ġad verse
ĠSt rat
Ġgu ides
Ġpap ists
ĠTr in
Ġpop ery
co very
Ġhel ped
Or lÃ©ans
Ġweight s
Ġmur m
Ġmathemat ics
p is
w right
Ġp ens
ou x
ĠC AN
ra im
est o
Ġal ias
av n
Ġme ek
Ġdis orders
Ġdef ault
oe a
Ġdistingu ishing
cap able
Ġ49 1
Ġsli p
Ġindul ge
Ġanecd ote
Ġabdom en
ĠAthan asius
M ED
Ġc b
Ġm if
Ġre i
qu ered
Ġsh ops
ap ing
Ġen vi
ĠCh annel
ĠCh ancery
de a
ĠAn swer
23 0
ific es
Ġpol ite
ĠAN CIENT
19 4
Ġsol utions
la us
De ath
Ġfellow ship
Ġobst acle
Ġfashion able
Ġincor rect
Ġsag acity
ĠGentle man
pear ance
ĠMartyrolog y
ĠÃ¼ ber
F rank
M ir
v our
w ish
le c
ad ia
ĠT RE
ĠC ott
ĠM ul
ĠM ade
ĠH ig
ĠH OL
Ġst ake
ast ing
Ġme ets
Ġrep uted
Ġent it
Ġfl owed
Ġvar iance
28 0
ĠSu ccess
Ġconv ocation
Ġbarbar ians
enti eth
Ġcontrad iction
ĠOly m
ĠEll is
Ġeman cip
Ġrepr inted
Ġecli pse
M ost
Z o
w inter
ĠC E
ĠC au
el ed
Ġtr unk
Ġob noxious
Ġunder gone
Ġ17 15
ER M
Ã© nd
Ġins piration
Ġhigh ness
Ar thur
ĠGra ham
fact s
ĠCOM MONWEALTH
ĠTw enty
ADDE US
E c
F in
b age
i ating
o in
is y
ot ive
Ġre afon
ro e
ĠS urg
Ġg orge
et us
so lemn
Ġif t
ied er
pr on
Ġcomp ose
Ġmem bran
Ġer ud
sc ene
ĠPer u
ĠCL IVE
ĠANN ALS
Ġcher ished
Ġquel ques
T lie
U c
z on
Ġ 000
en able
ĠM ines
ter ies
Ġsh ook
Ġwhe els
erm en
IS C
Ġexp ansion
Ġrest oring
sp oken
ĠQu od
Ġnorth ward
ĠPri or
sell ers
Ġthrow s
inf all
Ġsolic ited
Ġ ÏĢ
Ġb ol
Ġp ad
Ġf ince
ĠA ges
Ġsh aken
Ġdiff used
ĠCon fucius
yl er
cap ed
Ġ177 8
Ġglo om
Ġpartial ity
ĠEpiscop al
Ġanni versary
Ġpier ced
ĠCave ndish
u ir
ed ge
Ġf ines
ar le
Ġh f
Ġm are
Ġl s
ol in
ri p
ĠB p
ĠB ISHOP
Ġr ation
el er
ther ly
ag reed
Ġimp ose
Ġsc rew
Ġtri angular
Ġfr at
Ġconduct or
Ġ47 7
Ġ178 0
Ġ177 0
Ġappre hensions
Ġcand le
Ġinfl amm
Ġsculpt ure
Ġmant le
agas car
J ul
T own
W ater
m ud
Ġa ust
at ian
Ġb in
Ġf idel
Ġn ad
ĠT ech
Ġcon ical
ĠL ear
ne ath
Ġone ly
ĠK ai
Ġhimself e
Ġind emn
16 2
20 8
Ġom ission
car ious
Ġol ig
Ġcolle ague
ĠDirect or
ĠBec ause
ĠXen ophon
b ons
d ro
f resh
s ort
z oa
ĠM ember
Ġde ceive
ĠH umph
ra cks
ĠL ing
ĠF ish
Ġch alk
Ġ4 60
Ġpl undered
Ġus ages
Ġret iring
Ġsc reen
ĠDr um
Ġmag ic
Ġclass ed
ĠArch itect
Ġ45 4
Se a
mod e
ĠAust in
adv ance
Ġaddress ing
Ġpas se
Ġminute ly
Ġtransport ed
exec ution
A a
B ru
st able
Ġg an
ch ise
ĠB road
ĠP on
ĠG y
ĠD istrict
Ġad here
Ġcont riv
ĠGod s
Ġauthor ized
Ġmod ification
Ġobserv a
Ġhor rid
Ġair s
Ġav ow
ĠPe ers
Ġmult itudes
UM E
Ġascend ing
Ġgar ments
Ġprohib ition
Ġexha ust
Ġseg ments
Ġcounsell ors
C as
U ng
w ings
Ġp uer
Ġin du
ĠS und
id st
Ġcom edy
ĠJ ac
Ġsh ower
Ġimp ious
Ġac adem
ti eth
Ġri b
sp ace
Ġarri ves
ator ial
Ġhor rors
oo Q
Ġreign ing
Ġ179 6
Ġhol id
Ġric hest
Ġquo que
Ġnece ff
Ġappreci ated
ĠLET TERS
H ay
U K
c ustom
c ourage
u ys
he ir
en burg
ĠC k
Ġon ions
ĠP ianoforte
Ġde acon
Ġtr u
Ġint olerable
Ġcirc ulated
Ġcircum ference
Ġstates men
Christ ians
Ġcultiv ate
ĠÎ ´
unct ure
pop ulation
fig ure
Ġvass als
Ġappet ite
J d
M ark
S unday
j v
n ary
r ul
u ber
im possible
ĠS ard
Ġan al
ĠD au
Ġr v
Ġim itated
ĠK in
Ġcol onial
ĠX erxes
Ġass id
ĠPro per
par ation
Ġart istic
gr ounds
20 2
read er
my th
AY S
Ġfir Å¿t
Ġcost ume
ĠBen ch
Ġtoler able
ĠEsp aÃ±a
GRE GATIONAL
NOT ES
G il
N otes
j m
w ark
Ġc ough
an ing
ing o
Ġg ild
to res
ĠJ l
Ġwe b
Ġk ynge
Ġ4 32
Ġdest iny
ĠLat imer
Ġfle w
ĠMat th
ĠSim p
phal us
hab its
Ġetern ity
W ales
e astern
t ran
en os
Ġb ass
Ġre x
ĠC f
et o
ĠP rel
qu ished
Ġst ress
ĠF IRST
ER MAN
IN ENT
Ġend less
Ġfar mers
app ing
Ġtreat ises
Ġdirect or
ĠÅ¿ hould
AM ER
rel ative
Ġliter al
Ġspir ited
Ġcas ual
Mad ame
ĠET C
Ġexplos ion
ĠRecher ches
re cent
Ġbe ams
ur as
if ion
ĠE f
ap se
Ġreg al
Ġsur ve
ĠQ U
Ġcommun ities
Ġom ni
Ġ46 7
ĠHar old
ĠXX I
Ġencoura ging
Ġmad ness
Ġdiss ip
Ġtant um
ĠHert ford
0 1
E P
J oh
L am
c urs
d well
u pper
Ġf ails
Ġm amm
ad apt
Ġwas hing
th orough
ĠH az
pe ars
Ġv ul
est ing
Ġst an
Ġch opped
Ġ4 38
ĠSe bast
ull er
ĠAr isto
Ġfa una
Ġfact ions
pri ze
ym our
ĠAv hich
AB ETH
IF IC
Ġban ishment
Ġuniform ity
ĠEv angel
plan ation
Ġconfeder acy
Herod otus
B ri
H osted
S ac
n os
Ġp om
Ġre pt
ĠI TS
est on
ĠV ernon
Ġacc use
Ġind ignant
part ly
Ġdecl ining
Ġexpl aining
Ġconnect ing
spe cimens
Ġtim id
ĠPop ular
ĠCoun cill
ĠGard iner
natur ally
I c
Ġc rest
Ġl ighter
ĠS ession
od us
ĠR ede
Ġr ar
ĠN ord
27 0
Ġeas ier
Ġje jun
Ġnost ri
Ġsand y
Ġforfe it
Ġborough s
ĠCypr us
2 14
c ured
i A
j ourney
v ius
Ġf ract
ĠS ter
Ġsu am
ĠG un
Ġwe aring
Ġun ter
ft l
Ġpe pper
Ġ17 60
oss a
aj a
ĠAr ms
ĠAnd erson
10 3
ĠCan aan
Ġmel od
Sch ool
Ġtow ne
sovere ign
ĠBET WEEN
1 17
2 18
N D
s cientific
Ġm ou
Ġis suing
Ġst ag
Ġst olen
ant ing
Ġun successful
pro cess
ĠCon ference
cr t
Ġz um
Ġprom ulg
ĠDu que
Ġdep ressed
Ġuni ver
Ġroyal ty
Ġdepend ing
ĠMart ii
Ġbreak s
Ġarchitect ural
Ġfp irit
ĠVenet ian
ograp hers
b ounded
f ib
i X
p ere
Ġl le
ĠB ologna
ĠR io
all ies
Ġso e
ĠCh ild
cl asses
int ention
ĠHe alth
ER Y
Ġes per
ĠPar adise
Ġinf ring
ann y
arm ing
arl ing
Ġil ia
ĠVol ume
ros se
Ġur ine
Ġded ication
Ġded uct
Ġhal ted
Ġaltern ative
ĠSong s
ĠBrun swick
D ublin
R et
T it
V ict
g ained
h yd
t rem
Ġt rom
ĠP olit
ill ation
ĠO pt
Ġwe ep
Ġi re
Ġapp are
EN CH
ern al
Ġcor pse
Ġjust ices
Ġmin i
Ġacqu isition
iu a
26 0
Ġcapt ives
ĠRE V
Ġtemper ate
Ġdisp ensation
LI G
ĠTri partite
ĠSar ah
ĠWAR SAW
ĠEz ek
ĠMaur ice
Ġstruct ures
1 13
B ed
B ro
W y
W all
g ue
j ec
Ġt ir
Ġo tras
on str
at ia
Ġm oun
le vel
ir ation
ĠM ot
Ġy t
ĠD one
Ġ4 18
ĠCh art
Ġsp or
Ġagain e
Ġro lling
Å¿ ch
men cy
pre vious
isc her
Ġz one
Ġthou fand
Ġaut om
pic ion
Ġdesp uÃ©s
pres ents
requ ire
Ġvic ious
Ġfruit ful
Ġax e
fal se
Ġener gies
Ġchlor ide
ĠPeters burg
Ġpeas ants
Ġchival ry
Ġavar ice
R ed
d m
i ots
Ġa ro
an an
Ġu e
ĠO ss
Ġr ite
ĠV ie
oc ene
Ġli ver
Ġdist rust
Ġcomp ens
ric an
ici Ã³n
bo x
inter rupted
ĠPer th
Ġred emption
Ġ44 8
ĠST R
Or ig
osa ic
Ġwli o
ĠGib raltar
ĠLinn aeus
bran ches
Mart in
ĠBless ed
W hether
d im
h ur
i ic
ct i
Ġg ets
am is
ĠD udley
iv ities
Ġle e
iss ima
Ġfav ourably
Ġnatural ists
Ġpra ised
Ġrepe aled
Ġadmin istr
sl ow
prom ise
Ġquot ation
Ġlover s
A IR
D un
I J
es es
Ġe or
Ġg ains
and ria
ĠH oufe
ĠW ald
Ġcomm e
ub ert
10 9
20 6
Ġeng aging
add ress
Ġcelebr ate
ĠST EEVENS
ĠInst ructions
D ra
b ability
e ly
Ġn erve
ĠT ir
ith s
ĠB ody
ĠH un
Ġqu as
ex isting
Ġseem ing
Ġsecond ed
ĠÅ¿ e
sp aper
ĠComm and
pers ed
when ce
Ġviol ated
Ġincl osed
ĠCOM P
CL INE
Ġadvers ary
ĠBenedict ine
Ġwond ers
Ġsel fe
Ġvolunte ers
Ġrenow ned
D ep
i pel
an ity
Ġin i
ll ian
Ġv t
art icle
Ġdo ings
pos al
che st
Ġapp li
hen ce
ĠIs is
omet ers
Ġ49 7
Ġconstit utes
ĠCON GREGATIONAL
Ġune qu
Ġstir ring
E K
X IV
c w
v ie
Ġl ig
Ġbe au
il iter
ĠP it
ĠP ius
ĠP olar
ĠW als
ĠW olf
Ġpro poses
Ġcomm ended
Ġ17 69
ob tain
Ġinv ade
10 5
af ures
US CRI
ĠPh ry
Ġmount ing
ĠGu ild
Ġ178 2
Ġguard ians
cre ase
dou ble
Ġhay e
Ġdispos itions
learn ing
Ġincor porated
Ġcau fe
ĠGent iles
ĠJapan ese
Ġsangu ine
Ġdisgu ise
Ġchie ft
A pr
C ent
d ressed
n ets
p est
Ġa ii
Ġe ly
ch rist
ĠM iddlesex
ĠB h
ĠB ir
to k
ci ently
ai u
ĠEd gar
ĠEx change
Ġsuper ficial
Ġ48 9
conf idence
Ġstrange ly
Ġmerch and
Ġfortun ately
Ġinterpret ed
ĠDI ARY
ĠCHRISTIAN ITY
Ġirresist ible
g ery
t io
y outh
Ġw ines
Ġd or
ad le
ĠI xx
am er
th ro
Ġcon e
ĠP A
Ġpro pit
pl o
Ġtr am
Ġref res
Ġend e
Ġdisc ourses
Ġsecond s
Ġsol itude
vey ed
Ġdr unken
Ġdich os
Ġinvol ve
ĠMi iller
ĠFranc isc
Ġweap on
ĠYEAR S
1 19
B d
B al
F i
H O
L U
d an
Ġt ambiÃ©n
Ġg ird
am o
et ers
et rius
ĠH ydro
ne c
ass istance
ĠK rie
Ġcont raction
ang s
Ġev idences
Ġequ ations
ĠAb be
Ġpen it
Ġviol in
Ġviol ently
Ġfac ilities
Ġhel pless
Ġsouth ward
ĠSil ver
consider ation
Ġlia ve
Ġrestrict ed
arrang ement
B s
U ed
l our
z u
Ġg es
ĠB olland
ĠH us
ĠH utchinson
Ġan om
ul ence
rom eter
ag re
Ġ4 26
au cer
Ġfl as
ik es
col lect
vis it
ĠUr ban
ĠRec ords
ĠSER IES
Ġcommod ities
Ġmoist ure
Ġbattal ion
ĠEuph rates
1 15
D O
Ġt issues
Ġc ran
ad ox
ĠH oll
Ġan onymous
Ġst able
ac it
ĠW O
ĠW yn
ĠN ob
Ġrel a
co at
ĠRoman ists
char acters
Ġoccup ations
Ġadop ting
Ġmass ive
Ġcomb ine
Ġthreat en
Ġengine ers
atu or
Ġperfor mances
m end
s ence
t inct
Ġt ing
Ġo pe
Ġm ib
ĠC ryst
ĠB ron
ĠL ama
be e
Ġag ony
Ġsp orts
ove m
Ġcount ess
Ġbl own
Ġpur g
Ġinv aders
Ġz inc
ui y
hem atic
Ġsuper natural
Ġappro val
Ġdesign ation
ĠSpart ans
Europe an
bass ador
Ġlibr aries
g rie
Ġ ich
Ġt unc
ĠO E
Ġne uer
Ġal ii
Ġ3 000
Ġim pos
bl ue
Ġcomm is
ĠSt re
ĠAn sel
ĠDe f
ĠDe fence
Ġass umes
ribut ions
ĠApost olic
Ġintim ately
ĠEur ip
A k
P ur
l um
v ine
v ae
re ferred
Ġs own
Ġf ief
ut is
id ation
ĠP ul
em inence
ĠE GYPT
te x
ĠCh oir
ĠU TRE
iss us
Ġins olence
Ġlib ro
Ġappro xim
ient es
ĠGr ot
cont ro
col onel
Ġfurn ace
Ġdescri p
Ġpu zz
Ġretreat ed
cum stances
ĠBeg is
Ġinterrupt ion
Ġburg esses
ĠCuv ier
Ġremonst rance
ĠÃĸ ft
ooQ le
C ro
D omin
N ever
d or
Ġh izo
Ġd ys
Ġre y
ĠT on
ĠM og
il k
Ġis sues
ĠB uff
ĠN arrative
te br
Ġad ver
Ġ4 34
Ġtr umpet
ought on
Ġdiv iding
Ġele phant
ĠSh rewsbury
inc ing
itu ated
Ġbeh aved
ĠArch deacon
Ġoppos ing
pass es
cond itions
Ġhat te
tem per
ĠRes earch
Ġow es
Ġfan atic
Ġdemonstr ated
Ġoppon ent
belong ing
Ġlap se
S ic
T im
Ġp ollen
Ġg arn
ĠC it
ĠC anning
ĠM ater
ĠM eth
Ġas cribe
ĠP ere
if c
ĠL och
ĠD ed
ant iqu
ĠN em
ĠHe w
ick ly
Ġlong est
Ġthr ice
Ġsl ide
Ġhon esty
ĠOr n
az a
Ġback wards
Ġiv ory
ĠMem orial
ĠSte p
Ġpot tery
Ġpersec uted
effect s
acqu ired
ĠAtt ica
ĠUTRE CHT
b in
d os
g ular
i un
Ġb ord
Ġl h
ĠE SS
Ġun reasonable
end o
iss ions
serv ices
ae e
ĠWe b
Ġtrans mit
RE LAND
Ġdi em
Ġnecess ities
Ġhum ane
Ġcal um
dis p
Ġmist akes
Ġprofess ions
ĠMAN USCRI
S and
f ra
Ġw ol
her ical
Ġj ure
out s
Ġii ii
Ġlong itude
18 45
18 46
Ġind ict
aint ing
ĠBe aut
tt t
Ġbel t
rie z
Ġcast ing
Ġclear ness
Ġdark er
ĠReg iment
ĠMo z
Ġpatri otic
stat ement
Ġali ud
Ġsusp ension
ĠPAP ERS
Ġardu ous
O d
U h
V ERS
Ġs nd
it ives
Ġn as
ĠP am
ĠP asha
pt a
ph on
Ġnow here
ex pedition
Ġwhere upon
Ġsupp ression
Ġind ign
Ġcar n
app lication
25 6
ĠSy racuse
Be ing
ĠChe shire
Ġhot el
Ġfest ivals
stre am
Ġpunish ments
ĠStud y
Ġpars on
ĠMend elssohn
mater ial
ithmet ic
g arden
Ġin herent
Ġbe lly
Ġcon cession
iv able
ĠO il
ci ate
ĠN ie
Ġman era
vers ing
Ġest os
AN Y
ĠBe e
sequ ence
la ud
ĠBar thol
Ġom nium
Ġfear ing
Ġdign ified
Ġang ular
tem perature
Ġloc om
Ġtor rent
henomen a
Ġnom ine
Ġrul ing
ĠSand wich
Ġabsurd ity
ĠUl ster
ĠExper iments
virt ue
Ġvigil ance
' ve
L ast
r ou
Ġf ou
ĠT ables
Ġde als
if ix
if orn
Ġv ix
ist e
red uced
Ġrem ission
Ġdire c
10 1
Ġcirc a
duct ions
IL Y
Ġsk irm
ĠEn ter
Ġ49 2
Ġalt ars
Ġacknowled gment
appro pri
f ession
Î ³
Ġf itt
ar rival
Ġto pic
Ġd iction
se venth
am y
ĠP oss
ist es
Ġse lling
ĠF ant
ib n
ĠK arl
Ġcons olid
ite at
ĠMar sh
alt ered
Ġappro x
IV ERS
gu ish
Ġfu erit
pat ible
ĠSy rian
anim ity
div isions
Ġsleep ing
Ġfier y
Ġdegr ad
ĠGos pels
grad ually
ĠBem erk
ĠRoche ster
B at
P ED
b oys
c oll
o bey
Ġs ont
en ius
ist an
Ġall ows
Ġim plicit
erv ations
Ġserv itude
ov an
ĠZ ach
Ġrelig ions
Ġheav ily
ĠMor ris
Ġbroad er
ĠDiv ision
ĠHy de
Ġeft abl
Ġadjourn ed
ĠAgricult ure
3 50
m c
Ġthe olog
nd um
Ġin ven
ur bs
ĠT el
ĠT odd
ĠH old
ra ine
Ġv isc
pt ic
Ġ18 86
ĠSt a
Ġspe ar
ĠCom pan
10 7
Ġcr ushed
Ġquar rels
Ġemb ro
col lected
hel m
Ġregular ity
Ġpatri ot
ĠTy re
ĠHel en
Cu ap
G ib
b j
b ird
ĠC arn
ĠA ragon
am ine
ĠH ills
op ot
op position
Ġsh ine
Ġi K
Ġi T
Ġdis appear
ĠU rs
Ġread ings
IV ER
Ġ44 2
Ġimag inary
Ġinvestig ated
ĠDam ascus
Ġprompt ed
ĠBRIT ISH
h ole
r ative
Ġo ven
le af
st art
im en
ĠS urely
ĠM ace
Ġde i
res p
te chn
ber gen
de pend
Ġent end
ell s
mer ly
Ã© t
af ety
Ġcr ue
35 6
ĠCouncil s
ĠPat ent
Ġ49 3
thought s
prov ince
Ġtyr ants
ĠSing h
Ġastron omy
Ġalc ohol
3 36
C R
W estern
a er
f ing
f ood
Ġs arc
Ġh ic
Ġd ot
Ġl ute
Ġbe ating
id els
ĠW ay
Ġen sure
Ġro be
Ġfl ora
ĠMar shall
Ġperson age
ym ns
19 23
Ġsuper fluous
ĠST ATE
EM P
Ġsym met
Ġrevol utions
Ġren ounce
dest royed
Ġappend ed
Ġpenet rate
ĠPag et
ĠProphe ts
Acad emy
A thens
a ia
e cclesiastical
f ax
x iv
Ġ ï¼Į
Ġt ight
Ġa version
ĠS ib
ĠB id
od ore
ab us
ist ency
ĠD og
ud er
Ġun avoid
Ġpart isans
no ch
sp ond
Ġdem Ã¡s
Ġexpl icit
Ġbad ly
Ġtransl ations
Ġphys ics
Ã¼ d
Ġintim ated
ĠNich olson
Es q
Ġdelib eration
extra ordinary
ĠMANUSCRI PTS
A A
C ape
f ert
l p
Ġthe Å¿e
Ġc ob
Ġl on
ot hed
ĠS OUTH
ĠF ire
ĠR at
Ġpro verb
Ġpart ition
ĠSo cial
ĠAb ove
Ġexpl oits
ĠQu int
ĠPer iod
uten ants
Ġmanifest ly
ĠTw elve
Ġpled ged
Rep ort
ĠEc g
Ġtort ure
Ġbotan ical
Ġincess ant
ĠCuth bert
c ie
m inds
u id
Ġto ols
Ġn an
ĠA rundel
Ġas i
Ġat omic
ac ross
ĠJ r
red e
Ġpr inter
Ġdis agreeable
bl ance
ĠAn son
Ġins urgents
Ġcap s
ĠPhil adel
bo a
ĠShe riff
Ġfrequ ency
Ġcomb inations
ĠLib eral
Ġdesp ise
ĠBon iface
effect ual
Ġspr ink
Ġcryst al
Ġinher ited
dec ided
bran ch
ĠAstron omical
Ġá¼ Ĳ
beaut y
Ġdecre ase
ĠDionys ius
L inn
d oc
n ae
t ailed
Ġw yl
Ġe ae
Ġl uck
ĠP enn
ĠE tr
ĠD od
ĠD ru
ii is
Ġsh rine
ast i
Ġun natural
br ic
Ġdel le
ĠSo ci
Ġval id
Ġacqu iring
cont ains
ĠComm union
ror iep
De ut
Mar cu
Ã¶ hmen
elect ric
ĠPresent ed
ĠPRE FACE
Ġchamp ion
u w
ent ric
Ġu g
ĠB and
if le
ĠG ive
ci ve
ĠV el
Ġdis advantage
Ġ5 13
ĠU trecht
18 39
Ġexp anded
ah s
any thing
there of
cent re
Ġeff iciency
Ġpal aces
ĠHon or
Ġcust od
ĠDel hi
Ġpan ic
Ġastron omical
Ġthread s
astro phe
A lf
M s
P ap
d ly
d ang
l L
l ir
nd o
Ġb ie
Ġb alsam
Ġm ood
if ting
iv ion
Ġpro fl
ib ilities
ag an
ĠK el
18 31
Th rough
Ġvis itor
ĠPhil ist
Ġche eks
Ġorgan isms
Ġ177 1
ĠMo on
cond em
pher ds
Ġdam ages
ĠGold en
Ġesc ort
Ġconcess ions
3 20
M ass
b m
d ia
r k
at os
Ġb owed
Ġl is
ve x
us hes
ĠP ep
Ġsh ades
Ġdis interested
act ivity
ang a
Ġacqu itted
ari is
nor thern
Ġinvent ions
Ġconve ying
Ġphr ases
Ġphysi ology
ĠIce land
ĠJOURN AL
ophil us
ĠEras mus
A rist
D g
P ass
c art
l ity
n as
n st
w reck
Ġb ds
st orm
ĠM ab
Ġcon gen
ĠL ich
Ġv ita
Ġst a
ĠF un
ĠW hilst
ke it
Ġso ever
Ġen velop
pro ach
Ġlaw yer
ĠPar i
ĠBe obacht
fer ring
Ġden ote
Ġmus ket
28 8
ĠMe anwhile
press ure
Ġhop ing
Ġimm ers
ĠSanct i
UG H
Ġdisturb ances
perfect ly
feel ings
Ġclo ak
Ġsupers eded
Ġimple ments
Ġpater nal
C f
C IL
t ized
Ġl aughter
Ġcon verse
Ġat oms
ĠE y
ĠW E
Ġman ual
ft em
pr ayer
Ġmar ches
ier y
tr ary
ĠAl k
Th om
30 4
ĠGl en
ĠCr ime
bi Ã³
Ġcross es
Ġ46 4
Ed ited
Ġ177 2
ĠVal ley
ĠHim self
ĠAld erman
Ġsepul ch
apparent ly
Ġdilig ently
Ġbesee ch
S cience
l ately
n arrow
Ġt ips
Ġs ci
at ious
ĠC AST
ĠM orton
ation es
ra k
Ġdis astrous
Ġ17 68
Ġfl uct
orn is
Ġact ors
Ġinf ected
Ġmil it
ĠÅ¿ hall
Ġprot ested
Ġinflu ential
ipp i
iast ical
pat ch
Ġsecret s
Ġaw aken
Ġess ays
trans lation
ĠAR T
pract ical
Ġpit ched
Ġflatter ing
ĠArmen ia
3 10
3 60
S I
c av
o ed
v ard
Ġh ub
Ġth ia
ĠS od
ĠH ort
ĠE ver
ĠF ew
Ġch ur
ong es
Ġpart ake
Ġform e
RE T
ĠWh arton
22 8
gl ory
ĠMeteor ological
Ġrans om
ĠCla ude
P el
T ill
e lected
g overnor
g otten
n ally
Ġw en
Ġre ver
ĠS ob
ĠH t
Ġch art
oc ry
Ġshe ws
Ġnat ures
Ġrec re
Ġpur pofe
ament o
ĠPr inted
Ġcent res
12 7
Ġemploy ments
Ġexpress ive
iy e
ĠNot izen
Ġconst rained
pic ious
Ġresembl ed
tri umph
Ġdece it
Ġcord ially
dev oted
ĠToul ouse
ĠUnivers ities
t aste
Ġs age
Ġin aug
Ġd ine
ll es
Ġwh an
ĠH r
ii er
ke eping
Ġr m
ost o
Ġun lawful
end e
Ġord i
ĠY ORK
23 6
Ġinter cession
Ġel ig
ae an
Ġtra ins
ĠEx pl
Ġstri pped
Al so
ĠUni versal
Ġmonarch s
Ġarc hers
Ġnost r
ĠNatural ist
mount ain
mount ains
fif ty
ĠPR ES
Ġhur ry
Ġfan cied
stru gg
Ġpreca utions
USS IA
ĠChrys ostom
Ġexcurs ion
ĠUng ern
Ġcomprom ise
Ġembod ied
B p
E ach
d c
in ities
Ġs of
ut ant
ĠA LL
Ġon r
res olved
nt il
cl ay
ft ances
Ġsome where
Ġreg ener
Ġserv icio
Ġmin ist
ĠÂ ¿
Ġequ ation
ns ylvania
elf ast
writ ings
suff ered
ĠCond uct
mid t
Ġmourn ing
b k
Ġto es
Ġd eth
Ġl itt
Ġl uminous
ĠT I
the il
Ġhe i
ĠH arl
ĠH arrison
if ie
ĠG rove
Ġst air
Ġun l
Ġob solete
we i
ip zig
pect ing
ĠAn jou
18 40
ĠCom te
Ġel ucid
cul ation
ĠFrench men
Ġcommand ment
ING TON
Ġred ou
Ġphil o
sub stance
Ġdraw s
mos phere
Ġpath s
Af rica
Ġdisgrace ful
2 16
d ated
Ġt and
it ous
or ibus
Ġc uy
st ar
ur ities
ĠC ors
ĠH ildebrand
ĠD aw
Ġfe at
Ġcons ciences
Ġ17 50
com position
Ġra ins
Ġop i
ric i
Ġrest less
ĠBe it
fect ion
Ġve nd
22 2
UN E
Ġorgan isation
Ġindepend ently
pur poses
Ġassoci ate
ĠLond ini
Ġcompre hended
ĠIND IES
Ġtroubles ome
Ġlaug hing
ĠMait land
T ro
n ated
Ġs ow
Ġp c
ur ances
ĠB uc
ĠB irch
ĠF ry
ĠN ation
Ġqu est
pl aint
Ġim position
cl a
oy nt
over s
fe it
Ġcomp a
Ġve t
let in
Ġsw ore
ĠShe ffield
27 4
ĠBl ake
Ġtl u
Ġprim o
dem and
Ġcrim in
ĠEM INENT
Rom ans
Ġreluct ance
Protest ant
B as
G er
M f
S ou
n ate
v oy
Ġc un
Ġl ir
ig ger
ĠB ast
ĠL ys
Ġst ately
ĠR ap
ĠHe ath
OR AL
23 4
ric s
ax ter
IT ED
Ġte aches
Ġmet res
Ġcivil isation
Ġ48 3
DE M
Ġant ip
Ġcand our
itur gy
Ġecc le
neighbour hood
L uc
o op
r ings
y ce
Ġre ino
ĠH unting
if ical
ĠL od
ant ile
ĠR uff
op erate
Ġcl ar
erm o
Ġdisc re
It alian
12 5
29 0
Ġmeasure ments
mission ers
ĠDan ube
erem pt
ĠEth iop
ĠCertain ly
ĠDU KE
Ġmicroscop ic
Ġrit ual
J U
h j
n om
v ial
Ġo sc
Ġp is
Ġd uchy
ic her
Ġre plies
ĠT b
Ġfor wards
th i
th in
Ġv pon
ĠG U
ess a
ĠR oland
Ġsh ares
Ġsh oot
Ġi ir
18 47
par able
ĠCon n
Ġobserv able
AM P
24 8
ĠSam n
ĠJer om
Ġhom o
Ġcoll ision
ĠSpart an
Ġinfirm ities
Ġalg un
Ġweigh ing
ĠBright on
ĠSket ch
D om
e lection
s ity
Ġp ays
Ġd art
Ġl amps
ĠM are
ri ac
est re
Ġst ig
ap it
Ġi ke
be coming
ult ed
iz ance
23 2
Ġcor ro
pre jud
min ute
Ġsin ner
Ġ50 5
Ġ48 5
ĠReg is
ĠRobert s
occ urred
Ġ177 7
Ġunf requ
da ily
Ġrob bed
log ue
ĠBOOK S
ĠMajest ie
Ġfrig ates
B ell
ĠS UR
ĠC ustoms
ĠA K
ĠJ j
ĠCh amp
Ġany where
Ġsupp orters
Ġgl oss
Ġmin er
cul is
pri ety
Ġpay ments
CI AL
ĠHon our
ĠWar ren
Ġtom us
ĠTs ze
0 2
2 12
H n
H al
n av
ou riez
Ġre cess
Ġwh oso
ĠB ird
Ġse gment
el i
sh am
Ġreg ulating
mer it
ĠPar lia
ĠWe ek
ĠCo oke
ev ident
mod i
ref used
Ġcorrespond ents
Ġrequire ments
Ġbright ness
ID A
Ġnom ination
ĠFo ix
Ġplent iful
C B
J S
f ome
r ations
s ic
ĠP is
Ġsu che
ĠF ont
ci ble
ĠJ ur
Ġsh one
Ġne que
Ġal io
Ġk i
ern acle
Ġinf ants
ĠIs les
bo o
Ġplan ets
Ġ50 9
Ġ177 6
rec ently
Ne h
Ġrob bery
Ġaston ishing
Ġreflect ing
ĠAssy rian
ĠDecl aration
L amb
Y e
a et
g ments
s plend
Ġt ene
Ġp ou
Ġh ints
Ġth igh
Ġe te
im mediate
ĠS iber
ĠL oc
Ġsu fl
Ġex alt
Ġgr ounded
Ġem otions
ner y
Ġauthor ised
ĠOn ce
ĠAd el
Ġru ff
ĠBl ue
dis posed
ĠAg ric
Ġ47 4
Ġ46 2
mod erate
pen ny
Ġprophe cies
Ġlic et
strong ly
Ġbitter ly
Ġlog ical
ĠPag an
ĠDa ily
separ ate
ĠAnim als
Ġhier archy
ĠMAL ONE
ĠRid ley
H an
H olland
T reat
f ame
h ut
l ains
Ġs ce
Ġf ict
Ġl onge
ĠP OPE
Ġde arest
ĠL AT
iff ord
com be
Ġext inction
Ġext ensively
AR E
Ġterm inate
âĸ ¼
sec ure
Ġexpl ore
29 6
27 6
27 8
28 6
26 4
Ġmark ings
Ġste ward
Ġfurn ishes
vell er
supp ose
cher y
ĠJust ices
Ġmerc iful
Ġreceipt s
Ġecclesiast ics
D I
D ev
a S
d ignity
n ounced
t ou
re rs
en ith
Ġex or
op ter
ag em
Ġpart ner
Ġcont ention
oth or
Ġ17 59
Ġwhere with
Ġbl ast
Ġexp iration
oint ed
Ġsy non
unt ary
ott ing
ient os
ĠNe g
ĠBer wick
Sp irit
abl eness
ĠNav arre
Ġcanon ical
ĠFin ally
faith ful
fat igable
Ġimpat ience
ĠCAT ALOGUE
C Y
R ich
b ic
d ome
h alt
m ates
p ont
Ġs ut
Ġin adequate
Ġd igit
Ġn ing
st age
ĠB ere
res se
ff en
pl ates
ear nest
Ġ17 63
Ġint est
Ġimp reg
Ġchar iot
Ġexp orts
inci ble
ĠMar se
Ġver d
ĠCo x
Ġpos i
24 6
29 4
Ġprogress ive
Ġgovern ing
Ġfail ing
bur ton
Ġprosec uted
build ings
Ġguar antee
r ont
s burg
s aying
he y
er us
on io
Ġc ured
Ġp inn
ll um
ĠS ut
ĠP reston
Ġst al
ĠF ay
ĠJ V
Ġne b
pl ained
we ed
Å¿ ter
ves sel
Ġ16 58
ĠCon rad
Ġri vals
ĠSh akespeare
ĠÅ¿ ich
Ġbro ok
Ġsign ificant
like wise
Ġhar p
Ġqual ifications
fam ous
fam ilies
ĠLamb ert
Ġcontrovers ies
Ġenv oy
Ġvine gar
ĠARCH BISHOP
ĠTil lem
Ġappla uded
Ġimpract icable
O ri
j it
Ġo th
Ġn ap
Ġe om
ĠS now
the nce
ii M
Ġwe eping
Ġj unt
Ġint oler
me as
pro ceedings
Ġopp or
Ġins olent
Ġpol es
UR ES
Ġbar rier
Ġcommun icating
22 4
Ġtransl ator
Ġ178 6
inst rument
Ġdur st
ker chief
ĠOd ys
gentle men
ĠDiod orus
c T
e ighth
p ents
Ġa fi
Ġw re
ĠS le
ĠM s
if m
ff ord
Ġcomm u
18 33
mon ed
ub es
Ġed itors
ae i
ĠCon queror
Ġdi versity
ĠSc andin
use ful
Ġca udal
duct ive
ane a
rem arks
Ġye ares
ĠCr us
Ġ46 6
UL AR
dra wing
Ġspect ra
Ġliqu or
Ġein en
Ġscru ple
histor ical
ĠPhill ips
ĠBrab ant
RESP OND
3 40
E h
M AC
S av
e on
g ift
l ice
v ices
Ġs omet
at ri
or b
Ġin accur
ĠC urt
ĠC jOOQIC
ere cted
Ġwe pt
ort ality
Ġen large
Ġpart ing
ĠHe y
Ġind icating
Ġinter red
Ch ron
Ġrest itution
ÃŃ s
ĠMa ud
Ġ46 8
follow s
Ġbreat he
ĠRec ord
h air
t ians
Ġa ims
Ġb nt
Ġin und
ĠT ru
ĠC up
ra il
Ġsu ite
ĠG ask
ke ys
Ġman i
Ġdis se
Ġapp ar
iss im
com menced
Ġshe pherd
oh l
ĠPar ry
Ġmer ced
des cend
CE ED
lar ly
ĠCor poration
ĠRE FORM
Com mittee
Ġ178 5
Ġsqu ires
OS OP
Ġdescend ant
mem ory
You ng
sac rifice
Ġmaid en
ĠArtic le
ĠLad ies
addition al
ĠCorrespond ence
Ġaggreg ate
llian cy
O Y
W ELL
Ġt ib
Ġc rist
Ġn igh
im iento
ĠP ier
qu o
ap art
be comes
de pos
ĠSt range
18 43
Ġconf es
ĠFrench man
Ġimport s
Ġdev ise
22 6
cont ents
Ġmonth ly
26 2
Ġid ols
Ġhelp ing
suff er
ĠVal ent
exam ined
Ġdespat ches
ĠDiss enters
Ġincons iderable
ĠEuse b
Ġaffl iction
Ġrenow n
Nap oleon
ĠFrag m
Ġacce ler
IEL D
N i
w ii
re i
Ġof the
ic c
st ract
Ġre versed
ol ite
ĠB erm
qu akes
pe e
ĠE thel
Ġen com
oll a
fl t
ĠRe ason
ĠRe venue
ĠAn no
Ġsc arcity
Ġpresent e
hes ion
Ġmention ing
26 8
Ġpast ors
Ġsun set
Ġillustr ative
ĠDomin o
179 8
ĠBrig adier
ĠLey den
ĠZeitsch r
Ġdegrad ation
F ER
L im
V IS
Ġa ie
en en
le uc
Ġbe es
ul os
Ġse izing
ĠR ut
Ġdis k
Ġthere unto
Ġra g
Ġ15 00
ĠWh ig
Ġph ase
ĠAm az
Ġft ill
24 4
rel ations
Ġinqu is
Ġ47 8
OT T
Not withstanding
Ġdial ogue
Ġphysi ological
Ġconcent rated
Ġadvis able
ĠPausan ias
O ut
T EST
r ir
s le
it n
ar f
Ġm am
al ion
th rop
ĠL I
Ġch annels
Ġsp aces
Ġexp ulsion
ĠGe ography
Ġpap acy
ĠMaj efty
Ġtho Å¿e
Ġ50 3
ĠCr ust
Com mons
Ġcu ando
Ġxxx iv
suff iciently
OC K
ĠSE A
ĠNic ol
Ġmole cules
Ġbrid ges
develop ment
Ġpyram id
E G
w orn
Ġs ie
ĠT in
Ġg ew
Ġwith al
ĠH UG
Ġpl unged
Ġpart icu
ĠSe ver
Ġocc u
ĠDe ad
Ġsl ope
Ġins pire
Ġmer idian
Ġtro pical
ĠCast ile
cur ity
Ġcost s
ĠCO UNT
mat ical
ĠCop enh
ĠEv ans
ĠFrank fort
Gree ce
ĠAssy ria
Ġbeque athed
Ġrescu ed
0 6
S us
g io
m ander
v ast
er is
Ġm ic
Ġhe mis
ĠM au
ĠM AG
ĠN ear
ud ge
Ġi is
we ather
ĠCom merce
Ġposs es
Ġcor al
par ations
ĠAt tic
Ġtrans mission
17 1
Ġpap a
Ġwant on
Ġav is
Ġtest ify
cle arly
Ġenjoy ing
EM S
Ġstra it
Ġweak ened
pret ation
ĠHam pton
Ġball s
ĠSub s
Ġmiss ing
ĠOri ent
vari ety
ĠCanad ian
0 3
C ong
W r
c ab
g is
k ward
p olit
Ġa Ã±os
on ium
is ance
Ġc ash
ĠS op
ĠL ocke
Ġun um
Ġpre ten
ĠK ur
pect ive
Ġfound ers
Ġbl ocks
mon arch
Ġaff inity
Ġsuccess es
13 3
ĠMon mouth
Ġmaint ains
Ġrev ive
ĠSw an
Ġcloud y
Ġintim ation
Lu ke
I b
I bid
g lo
Î ¬
on o
ĠT itus
Ġy ere
ĠF E
ĠTh irty
Ġcont i
Ġam used
Ġsp ores
ĠCon necticut
Ġfo U
ĠCl inton
ee e
Ġsol os
Ġwit b
Ġdep ress
lar ger
velop ment
Ġorgan ism
Ġpurch as
Ġminister ial
bro se
bro ok
Ġstrugg les
Ġaus pices
d og
n ies
y te
in r
an ni
Ġh ired
Ġin tending
ĠA ure
Ġhe al
et l
ĠM d
ĠL oth
her self
ĠIn sects
che stra
Å¿ es
ob a
Ġreg ent
ail le
18 82
Ġorder ing
Ġval ve
27 2
ĠEli jah
she nd
ĠXX III
ĠBur ton
Ġsat ire
Ġreve al
Ġeld ers
Ġnom bre
ĠNorm ans
Ġdenomin ated
ĠDund as
S ci
n im
n ished
Ġs ere
Ġm ason
Ġl ock
th am
Ġde af
ĠL ah
Ġv ouch
to f
ĠN oble
Ġdes de
Ġcomp lied
18 49
Ġsc aff
ĠCon quest
ĠWh ale
Ġbeg g
vi ate
24 2
ĠAll ies
Ġdistinct ive
GE ORGE
Ġ49 5
Ġfix ing
Ġing red
aum ont
Ġoffend ers
Ġredd ish
Ġrede em
maint ained
ilib rium
ĠÎº Î±
ĠBemerk ungen
L ords
t ury
Ġt ins
re sembl
st ep
ad m
ĠH app
ĠL oud
op ening
Ġk il
Ġdis aster
ft ing
ern s
Ġbo on
13 7
fer ing
ĠQu ad
AS H
Ġillustr ating
Ġsubs cribe
sell er
iae val
Ġwrong s
Ġcapit ulation
ĠPOL ITICAL
ĠMonth ly
he avy
or io
ic l
as ped
as sembled
ĠW ars
ate au
ĠIn to
Ġreg i
ev idently
ĠAg nes
Ġ189 2
ifi able
Ġstorm y
Ġlod gings
Ġrenew al
Ġbitter ness
Ġskull s
Ġurg ing
Ġpsal m
bott om
P ot
e ve
g han
m ale
s qu
s ituation
Ġa ri
Ġo unce
re med
Ġb ia
Ġg os
ĠB ack
ĠF ac
ĠN u
Ġad orn
li ver
iss ued
Ġsupp lement
serv ants
Ġmet ropolitan
fi il
Ġpop ulous
St ra
Ġter restrial
Ġoffic ials
30 8
ĠRom a
Is a
ĠBen nett
Ġdiscover ing
ĠLy c
Ġsuspic ious
sil ver
Ġinsign ificant
norm al
B RIT
S W
j g
le ian
ĠM m
Ġpro gen
ĠV ene
ĠIn ternational
Ġ17 48
Ġint en
ex tended
ob o
ob st
Ġwork ers
Ġmin erals
part ial
St reet
25 4
ĠShe l
With out
Ġsens itive
Ġbi ographer
Ġsweet ness
Ġdict ated
Per haps
Ġtranqu il
Ġharm less
Ġrevere nt
ĠIntell igence
N ext
d ar
ot ry
ĠT V
et erm
ĠM oney
ine fs
Ġcons ol
sh owed
con c
18 3
Ġref raction
23 8
ĠCol lect
12 1
13 1
ĠEm press
ĠInt erest
ĠWell esley
ĠMah r
Ġruin ous
ĠHug hes
Ġascertain ing
Ġtod as
Ġrav ages
creat ed
ĠHIST OR
ĠWille l
ĠSill iman
ogene ous
ĠCelt ic
M AS
d ram
g em
m akers
r ude
s op
t ir
t ives
he it
Ġb ened
Ġwh ale
ĠI RELAND
ĠM am
ĠB ig
res ham
ist inct
Ġr l
ort ion
Ġj et
ĠV ere
Ġpre carious
Ġpres umpt
ex ist
Ġ16 88
18 30
18 38
iter ated
UR Y
igit ur
Ġlands cape
Ġvolunt arily
ĠDem osthenes
Ġchron ic
fol io
ĠFull er
Ġnur se
ĠBrad ford
Ġiniqu ity
ĠFest ival
J y
b ay
d imin
k f
w ers
Ġt read
in stances
Ġo g
ent ibus
im mer
ĠB il
ĠP he
ul as
ĠL ut
ist i
Ġle ur
Ġtr ick
Ġres pon
Ġpe cu
me ant
ĠAr d
ins ic
Ġsl ices
ĠBrit ons
Ġbre eding
Ġdifferent ly
Ġtre a
Ġinflu enza
ĠCan ons
ĠMag dal
Ġcomfort s
ĠBurg h
3 28
G old
t reme
at l
ing le
Ġl amb
Ġre cept
ro ot
ĠG io
ii re
ther s
ag s
Ġsub ter
ĠSe ymour
ĠMar cell
Ġimport ation
tt le
Ġsch ol
comm anded
ĠPh i
Ġbur dens
ado res
ĠNot ices
right eous
Ġuseful ness
tu be
Ġheret ic
Ġaltern ate
Ġpir ates
Ġspont aneous
Ġobstin acy
f ered
s q
ut ations
ĠS ans
Ġit e
ter re
ĠB ob
Ġex asper
Ġdis par
ĠPar r
Ġtra itors
Ġval ves
Ġgra ciously
ij e
Ġ50 7
Ad d
Ġxxx ii
Ste phen
ĠPag i
MAR CH
Ġdow ne
ĠCHRON ICLE
Ġillumin ated
B I
S U
l ot
l au
m ained
in her
nd ed
Ġm eth
ĠT us
ch op
Ġfor d
ĠL yn
ure au
Ġpre cip
Ġob je
Ġbl owing
18 42
ĠAl t
Ġaff ixed
oi y
des ir
under standing
28 2
Ġroyal ists
Or gan
Ġsand stone
ĠBotan ical
Ġcove t
Ġsynon ym
D A
d w
Ġc ared
ĠB n
ĠH og
ĠL as
od ed
un es
ap le
ff er
li is
ne as
Ġab d
ĠV ig
ult ure
Ġrep ay
30 6
29 2
Ġ186 9
ĠGu inea
spe ech
Ġorgan ized
Ġmel ting
ĠAcad em
Ġprophe tic
Ġassert ions
ĠRes earches
Ġdwell ings
Ġchron ology
imer ick
atin um
ĠKen nedy
Ġeu ery
ĠVar ious
grow th
ĠReyn olds
B ern
C rom
j h
r ase
x vi
in ii
Ġs cient
it v
Ġc ite
an is
ent z
Ġl ungs
ĠB rom
ĠB Ã¶hmen
Ġex iles
Ġal phabet
Ġqu ed
Ġun iting
Ġpr ote
itt i
Ġdo om
Ġsa ils
man ent
Ġ17 67
ĠSe lect
ĠBut e
Ġ16 60
Ġbec aufe
Ġmet re
Ġib i
Ġter ri
under land
28 4
ek iah
Ġ45 8
Ġ50 1
ras er
hold s
Ġhabit ation
ĠAss istant
Ġmanufact ured
iche ster
fam iliar
cre ased
Ġyellow ish
Nor man
Ġvener ated
pun ishment
Ġpreval ence
keep ers
ĠALEX ANDER
WIL LIAM
J r
c ke
g ic
p unct
Ġf om
Ġl enses
ĠT et
ĠS HE
ĠS yr
ĠM ICROSC
ĠB ear
be i
Ġdo omed
Ġthan ked
Ġsub t
con stant
Ġbl oom
Ġconf i
Ġend ea
Ġinter vention
acter ia
ield s
Ġexam inations
ient e
Ġexper t
Ġappoint ments
Ġ47 2
ĠLib erty
Com mon
Ġban quet
Ġearnest ness
UE EN
according ly
Ġcomment ary
Ġuns atisf
Ġusur pation
ĠFel ix
Ġlaud able
ĠCopenh agen
B aron
L IN
T om
d ur
q i
s oul
on to
Ġb acks
ce a
ĠP RACT
ĠJ ude
Ġqu en
ĠCh and
de ck
Ġ17 00
Ġ17 18
ack et
ves ter
AT A
ĠFor ster
ik a
Ġvirt ually
ĠBo hemia
Ġcorrespond s
ĠMal mes
Ġprem ature
Ġferv ice
Ġembra cing
Ġrat ified
ĠBibli othe
H ill
L ow
M m
Ġt ibi
he w
Ġc ilia
st adt
ĠH ut
nt s
ost ris
Ġqu er
be h
ip pe
ex ception
ĠRe id
Ġrec ording
Ġmon ster
Ġgl ow
25 2
Ġbes et
Ġ45 2
Ġ45 6
ĠEli za
Ġ178 1
Ad dress
Ġtext ure
ĠLan igan
abs ence
ĠRud olf
ĠCyr il
dang erous
nd en
Ġm ai
Ġwh ieh
Ġg ulf
ch osen
ĠP ay
ĠH ague
qu oted
ĠL ux
ab ol
Ġpro w
ci os
ag ogue
ĠCh orus
Ġ5 27
ĠSt irling
Ġear ned
Ġmon ach
Ġdisc red
16 1
ĠCo al
ĠIN VENT
Ġ48 8
alle ys
Ġsubs ist
Ġgall antry
Ġwal ks
Ġaqu a
ĠPop ery
Ġsearch ing
orde aux
Ġvolcan ic
Ġgarr isons
A uthor
M od
P ERS
R IC
V ery
j er
w u
Ġc est
Ġf ren
Ġm aker
ĠS or
ĠH otel
Ġqu aint
li en
sh are
und i
ertain ing
ĠMar qu
Ġhon orable
29 8
ĠEp ip
Ġelect ors
ĠMad agascar
Ġvisit ation
Ġmusic ian
Ġcas a
sing ular
Ġepit het
ĠSett lement
Ġunquestion ably
Ġrug ged
L S
d ies
e ld
g ious
Ġt ests
ic ii
Ġg aze
ol at
Ġu a
ĠB orne
ĠH ur
Ġse pa
Ġsh illing
Ġch apels
ime on
Ġinto x
ren ched
ob sc
oss ip
Ġii j
18 48
ĠCon vocation
Ġinde fatigable
Ġill ud
Ġbre v
ĠSee k
Ġz enith
ĠFran ks
bar bar
Ġpoet ic
Ġhel m
ĠCount ries
ĠSw ift
Ġident ify
Ġmanufact uring
Gree ks
Ġcel estial
Ġcommend ation
Ġsty les
Ġdecom position
3 34
B urg
S ection
T be
a uthors
b v
d ry
d iam
q a
in aries
Ġw ou
Ġe agle
il ii
th m
ĠP se
Ġde w
qu id
ĠE a
ab ody
Ġres on
Ġsp acious
Ġ17 58
Ġprov inci
uss ul
Ġele c
where in
Ġappoint ing
Ġfin er
Ġsun shine
Ġtli em
fin ally
cult y
Ġconspir ators
express ion
Ġfright ful
Ġconstitu ents
Ġsequ el
ĠHUG HES
D or
H ave
T V
b ere
or l
am ia
et ime
ĠH ern
ul er
ac iones
Ġab omin
Ġrep ulsed
Ġ17 10
ĠSe als
Ġem igrants
Ġconf idently
ai id
Ġgl owing
Ġins ur
augh an
ograph s
Ġ48 4
Ġpot ential
gra ced
dist ant
QU EST
Ġimpart ed
Ġhed ge
ĠBolland ists
E y
R EN
m um
n ab
p ofed
Ġf Ã¼r
Ġin ad
ic em
ir f
Ġhe ating
Ġy i
ĠW ight
Ġi if
ak i
Ġun it
ip i
Ġ17 66
ah r
Ġcor ona
sw ord
gen ius
Ġmis eries
poss ess
cons ent
Ġsimilar ly
Ġaw ait
nat ives
Ġsubs isted
Ġaccompl ishment
happ ened
tain ly
ĠEven ing
ĠConf ession
Ġaccum ulation
Ġcyl inder
Ġoppress ive
liter ature
Ġinfall ible
Ham ilton
Ġblend ed
Ġindisc rim
3 30
H ie
k ill
l ence
w arn
Ġl ances
ut um
the e
the us
ĠM ind
th rew
ĠD ES
ĠR oth
te i
Ġman uf
Ġme jor
act ually
Ġdes olate
Ġ17 65
su pre
Ġind ivid
Ġwrit s
af es
yn am
app ed
ÃŃ as
Pro c
tri al
ester ly
Ġexception al
Ġintim acy
Ġconject ures
ĠSupp lement
ĠLomb ard
Ġconfident ial
ĠLaure nce
C n
m ii
s ick
t ab
t ti
u Å¿
en ic
Ġf ti
st y
ĠB og
ĠH alle
Ġv y
Ġex claim
ĠG el
Ġst amped
ĠR ams
reat h
te ad
per formed
man ners
form ers
Ġpp a
Ġac re
ĠWh igs
TH OR
Ġcomb ustion
Ġhistor ic
Ġunf old
Ġinvent or
Ġrig orous
Ġaccident ally
Ġcheer fully
ĠBart on
mur der
Cast le
Ġstret ch
Ġillum ination
ĠByz antine
Ġlone ly
h ung
h ips
v h
Ġs ounded
Ġc d
Ġc oc
Ġh ud
Ġh alt
ct h
ĠT all
ĠA H
Ġhe ars
ĠP IAN
ĠP UBLIC
ist les
Ġen velope
Ġ5 33
iss ent
Ġass ise
Ġmer cen
Ġz e
Ġbar gain
Ġfort resses
urs ed
ext ensive
pers u
34 4
ĠSy ra
Ġphys ic
Ġloc o
ĠJu ven
udd y
organ ic
Ġcam els
Ġconfeder ates
Ġauct or
gom ery
J os
L r
L ab
M B
T W
s ought
t ial
v ided
Ġa uch
Ġre comp
ĠS I
ĠM EM
Ġis le
ĠE b
Ġun limited
ert ions
Ġpre gn
Ġ5 40
ix on
ob ald
not withstanding
Ġfl avour
eth oven
ĠAn alysis
ĠAt las
ĠTr ust
Ġsch al
ĠCar ter
pet ent
ĠCal endar
UN G
Ġconcl usive
ĠVol taire
Ġ49 0
occ o
ĠDo es
found ation
rec orded
ANT ED
Ġnost ra
cop y
Ġbare ly
Ġoct avo
riv alled
Ġinterf ered
3 18
B ill
K n
L ew
M u
T urn
Y es
t ig
w c
w w
Ġl t
ĠI van
ĠM all
ich rist
os ius
ĠF are
cl ature
Ġcont racts
tr ine
17 5
Ġfo x
Ġleg is
ED S
ÃŃ n
ij i
As sembly
Ġconst ancy
Ġstri kes
Ġclergy men
Ġsym bols
Is rael
Ind eed
Ġox ide
ĠArt illery
Ġrid ges
Ġexcess es
Ġbreat hing
Ġbond age
Ġtun nel
ĠLomb ardy
Ġadjust ment
ĠLar ge
ĠZur ich
Ġcoff in
dise ase
Ġpestil ence
Ġscaff old
l ocal
re ys
at im
Ġin im
ĠT ours
ĠS A
ĠS f
ĠC ourse
Ġis s
ra ved
ĠD as
ĠW ag
Ġab ounds
Ġpl uck
Ġ5 35
18 44
Ġdu o
13 5
ĠAm b
Ġline ar
ĠNorth ampton
Ġrev ision
Ġfil ament
iend a
udd ing
Ġdiss ert
Ġdispers ion
Ġannounce ment
Ġnuest ro
Ġteng o
b ones
b anks
s ister
ĠC iv
ĠA a
ch apel
ĠP and
ĠH ors
ld en
ĠN az
og any
Ġsp in
Ġlar va
15 5
Ġnecess aries
Ġund ist
Ġcharacter ized
uss ed
vi ene
ĠBr other
IV IL
26 6
Ġappre ciation
alle led
Ġmot to
Ġsed ition
Ġglass es
Pl ate
ĠProtestant ism
ENS IS
Ġtables poonful
Acc ount
Ġentreat ed
ĠEz ra
ĠFel ipe
Jer usalem
Ġturb ulent
Ġscept re
Ã¢ ve
E nd
h in
k b
t ious
v ac
ĠC OO
ĠF ow
ĠR aven
Ġ5 16
Ġem ol
com pelled
Ġcur tain
Ġpop u
Ġsing ers
cont inue
ash ioned
Ġexpect ing
Ġprince ly
ĠMo ors
Ġcens ures
ĠRight s
ĠPur itans
Gen us
Ġanticip ate
ĠFlore nt
ĠSwed ish
Ġinnov ation
ĠPhysi ology
ĠMONTH AULT
Ġencamp ment
C ra
Y R
Ġcon ceptions
ul ates
em us
ĠE lementary
Ġdes criptive
ener gy
iss imo
own ers
18 36
ĠGod win
IC ATION
ĠEd win
ĠSc ar
Ġvis ions
sec urity
Ġ49 9
ĠPap a
ĠBur lington
Ġfast ing
Ġfruit less
Ġmu Å¿t
ĠBru xelles
Ġcup s
Ġreview ed
Ġmanufacture rs
Ġinhabit ant
ĠMaur itius
Mur ray
T ii
d read
d istrict
j et
x s
Ġt ke
Ġb d
es cape
le ch
ĠI H
ĠC A
Ġas ylum
Ġen h
Ġcont ri
Ġgr ay
Ġint el
con clusion
Ġret ains
18 35
Ġins ensible
ium s
Ġri bs
ym es
Ġmis chievous
Ġsw a
ĠSecond ly
PT ION
ĠStock holm
atern oster
Ġintrig ue
ĠQuar terly
Dan iel
move ment
Ġsod ium
secr ation
Ġveter an
Ġplaus ible
C uv
H ard
M id
e j
j esty
Ġ á½
re ne
is in
Ġb aff
Ġb omb
Ġp aff
us sell
ere a
ĠP ig
ĠH ot
ul le
um ps
ĠG hent
Ġun cles
Ġthere with
ru bs
Ġ5 25
Ġap olog
ep iscop
Ġrec og
Ġsee ks
ĠNew port
Ġval idity
Ġinv iol
gr ateful
Ġkind led
ĠMon astery
ĠIm per
ĠIm mediately
hel p
Ġyouth s
sum mer
ĠMis cell
ĠSoph ia
Ġvio let
ĠThucyd ides
0 9
3 38
P t
T j
n un
p b
r one
t at
Ġm j
Ġd ife
Ġd ock
qu ences
ĠL ocal
ĠIn quiry
ĠBut ter
Ġstr ings
Ġins omuch
Ġmet amorph
12 9
Ġdest ination
Ġprot racted
Ġsus pend
Ġaw ake
ĠMary land
Ġagree ably
omb res
pres ident
Ġspect rosc
Ġdig est
Ġhes itated
Ġejus dem
Ġchrist ians
prison ers
complete ly
preced ing
ĠBeck et
Ġindirect ly
C A
c ounter
k ii
r w
v f
es a
al ien
ĠS ame
ul ae
to e
ĠG ros
ĠV V
Ġob ra
Ġ5 000
ĠSt ras
ual ity
ĠY or
18 68
Ġpresent ation
ipp er
Ġrepe ating
Ġsle w
uer it
Ġapost olical
Ġdress es
interest s
path y
observ ation
Ġmiss ed
Ġble w
Ġunjust ly
ĠGR AY
ĠINT RODUCTION
anth rop
ĠKor an
extreme ly
0 7
d um
f rid
l id
Ġt ang
Ġp ence
Ġh U
Ġm oll
ĠS ah
ĠM ollus
Ġde ity
li hood
av is
Ġ5 15
ater al
Ġel ic
Ġsent enced
Ġsol um
gen ces
min utes
ext rem
Ġmark ets
Ġcelebr ity
LI FE
Me anwhile
prot ection
ĠSket ches
Ġresid ue
Ġmonop oly
W AR
X VI
l ant
t ution
w ort
Ġo nd
Ġm c
Ġe lli
ent ation
Ġl ire
Ġbe headed
ig os
Ġde mean
ab er
ac res
Ġch il
Ġun usually
Ġwor m
atter ns
Ġass igns
Ġsm iling
Ġserv ir
14 1
Ġfull est
Ġstat istics
Ġwind ing
Ġarg ue
ĠBur m
Ġassist ing
ĠHel ena
Ġexplan ations
ĠJul ia
Ġfel ony
Ġmes me
ĠHann ibal
D ur
M U
M IT
T al
b ent
b ree
g age
o ves
Ġs au
Ġp se
Ġd us
Ġd azz
as iness
ay an
ĠB elfast
ĠL jOOQ
ĠG ERMAN
Ġwe aken
per pet
ne an
Ġdes olation
ult y
Ġ17 61
ck h
ĠY ea
Ġpar ch
EN N
Ġtri ple
Ġcap ite
16 3
Ġwa ist
ÃŃ sim
rang ed
Ġuni que
rid ges
Ġvel vet
ĠPap al
William s
Ġenv oys
Mac millan
prison er
Ġninete enth
ĠDoct rine
A u
B ull
W alter
c ited
e asy
n able
Ġs one
Ġb ard
Ġb ases
Ġd agger
Ġl ace
res pons
nt i
Ġman o
Ġpart ie
Ġher man
ren s
Ġ17 14
ĠRe formed
18 7
Ġgl itter
par ish
St an
Ġmort ification
ĠEr nest
Ġcart as
Ġprefer able
Ġaspect s
Ġconject ured
Ġinev itably
Ġlean ing
Ġscandal ous
ĠOpp osition
E UROPE
F air
S erv
d ish
m ination
in flu
re ach
Ġs ack
il ie
ol le
ĠG ate
ĠG ott
Ġst ab
iv ocal
op las
Ġj aws
ĠSe v
In st
Ġobject ive
Ġcond i
Ġfore fathers
ĠAd ministration
25 8
Ġpeace able
ĠBer icht
Ġaccept ing
Ġep is
Ġexerc ising
Ġxxx v
ĠPhilip pe
aver n
ĠDie go
Ġreli ance
ĠHind oo
ĠSum mer
Ġelong ate
Ġcomplex ion
ĠBarthol omew
D igi
L A
j L
k ir
t os
v us
Ġa isle
Ġc em
Ġc erv
Ġf aw
Ġto ils
ĠS pecial
ol ica
ĠP ick
ĠN ATURAL
ia u
Ġar sen
Ġwill s
Ġher ds
Ġac ids
Ġpur port
Ġlaw fully
Ġgo e
CH URCH
let ons
elt a
Ġsepar ating
UN ION
Ġcontr asted
Ġven ial
Ġcere monial
Ġcrow ds
ĠCommon wealth
maj ority
Ġpsal ms
3 16
C U
E astern
Ġs nat
it imate
Ġp s
Ġf ables
an or
ch os
ter ate
ĠG or
Ġso it
pl ined
ĠK on
Ġfe ine
Ġem press
ec a
Ġdef erence
Ġmin us
pre viously
19 9
Ġobl ivion
rib us
Ġtou ches
Ġthin ke
det ails
Ġdiam ond
ĠCant on
agon al
Ġfert ility
ophy tes
INT RODUCTION
ĠPubl ished
Ġinval id
cru el
Ġabb ots
access ible
s ong
Ġs ot
am ation
Ġan o
ĠF roriep
ĠR t
Ġpl ur
lie ve
mon ic
aint ance
ĠCol leges
Ġdiv ides
inct s
Ġsign ification
ipp ers
Ġfol iage
Ġexcell ency
found land
Ġforg iveness
Ġcollect or
ĠCons ul
igen ous
Ġrob bers
eff icient
Ġsurv ive
Ġcarbon ic
Ġfet ch
Ġreckon ing
ĠBalt imore
I ER
K ING
c ss
g ium
t ention
Ġt at
Ġt ides
Ġs itt
Ġs oph
ic os
Ġl uego
Ġre built
ĠP ORT
Ġde ci
ĠL iturgy
ĠE oman
nt en
ĠD io
op posed
ous se
Ġr anged
pl en
Ġim der
Ġper ception
ĠHe nd
Ġap ice
Ġ17 20
18 37
Ġsc ra
Ġinf idels
Ġdou bled
ĠÅ¿ pe
Ġeng ross
oo ke
anct hon
Ġmeasure ment
adv ice
Ġxxx vi
Ġexceed s
Ġult ra
ĠHomer ic
Ġengra ving
ĠEccles ia
stri king
ĠRaj a
Ġatro cious
Ġfucce fs
HOUSE HOLD
J T
R i
b ft
c iv
Ġ vere
re ft
Ġp hen
Ġm oche
Ġbe ft
ĠC ree
ĠC ens
the st
Ġhe o
ci er
Ġres p
Ġcour fe
Ġtra cing
30 2
char ges
ipp us
38 0
Ġ50 4
ĠPo em
sol ution
ĠCON T
def end
ĠDem etrius
Ġfib re
Egypt ian
Ġori ental
vill age
PRE FACE
cultiv ated
ĠPARLIAMENT ARY
ĠAne cd
V o
s ite
w on
w and
Ġt ierra
Ġw s
Ġc ards
Ġc rews
ĠS ik
Ġhe x
Ġat on
Ġsu its
Ġqu itting
ass ured
Ġla ure
io res
Ġ17 55
Ġem bell
Ġfl ax
ĠAr cad
tr ated
ĠPar ma
Ġdu que
Ġhand led
Ġsk illed
ĠMag n
Ġeduc ational
necess arily
writ e
Ġcompos ing
dou bted
ĠHug o
ĠRou en
ĠCovent ry
ĠRede emer
4 10
F if
N on
n ish
he ars
Ġm ound
Ġn ought
ot on
ro cks
am ble
qu estions
Ġy n
ci ents
un que
ag ara
ice ous
wh olly
ĠIn fluence
Ġpe e
su itable
ern o
Ġact uated
Ġinter posed
Ġfo i
Ġib r
Ġden ying
ET T
Ġdev ices
Ġsign ature
Ġarch ae
Ġoriginal ity
ĠTrans lation
Ġbott les
Ġly ke
Ġassert ing
bur ied
appro ach
ĠStra it
Ġcongreg ations
Ġgene alogy
Ġcontempl ate
Ġbay on
ardin ia
NOT E
Ġfors ake
educ ated
Ġrede emed
rast us
ĠFant asia
3 26
C ivil
a J
f w
f ruit
j am
o be
u ities
Ġb ou
an ter
Ġto ss
Ġto ps
Ġl n
st al
Ġg reed
ĠC ul
id on
ĠM otion
ĠB ox
ĠP ry
ĠP isa
Ġan ew
em pre
ab y
res idence
ĠG ul
Ġse Ã±
un er
Ġab j
Ġem bar
ĠRe ich
Ġdet ach
Ġgu ess
ann ual
Ġve h
ET RY
Ġmat urity
Ġhold en
ĠJud as
Ġdispl ays
VI EW
Ġbow els
prof ession
ĠOli phant
attempt ed
Ġvex ed
Ġpau per
Off ice
Ġdexter ity
iforn ia
L uther
c rom
h yn
i atory
Ġw ie
Ġw olde
Ġf ins
Ġm oy
ve au
ĠM ith
Ġy ap
ĠO ates
ci pe
Ġr anges
ĠV end
Ġcl iffs
ang en
Ġro lls
ck ing
Ġdiff usion
18 1
Ġadd i
Ġer go
Ġtro d
elt ies
ĠComm un
ĠAfter wards
ĠPo ets
Ġcat astrophe
ĠCast ille
Ġcorrect ness
Ġcre am
Ġkn ock
common ly
Ġren ounced
Ġeager ness
Can ada
prove ments
Ġeccles ia
Ġseq q
Ġvass al
Ġflatt ened
ĠBoul ogne
A ber
h aw
n ian
o D
w il
Ġt if
Ġs ands
Ġb if
Ġu j
ĠP u
Ġno bly
Ġme ane
Ġdis hes
og a
Ġag ora
man uel
18 34
vent ures
Ġdef ray
bed ded
ĠÅ¿ ame
Digit i
Ġhard y
ĠCor pus
ari os
Ġsimilar ity
car rying
add ressed
Ġsqu ire
Ġconsist ency
Ġmagn ified
emb ra
Ġwis est
good s
Ġbi ography
Ġai id
Ġyield s
Ġinfl amed
Ġwond ered
Ġpoore r
ĠMoh ammed
Ġforb ade
ĠSCH OOL
ĠStrat ford
ĠSebast ian
H aw
c B
k ers
he e
Ġs ne
Ġto da
Ġm ules
ĠB res
ht y
ĠF cp
ib ns
Ġper ceptible
ĠTh ought
Ġ5 20
ward ed
Ġord nance
Ġconf ided
Ġsur plus
cr im
Ġund es
az ines
ĠCo ke
Ġsch old
Ġreal ised
Ġfort itude
ris y
ĠMad am
uv res
Ġrelations hip
ĠMis cellaneous
Ġfoss ils
ĠStud ents
Ġmole cular
exec uted
ĠBritann ic
vant age
Ġanecd otes
Ġfacil itate
Hod der
ĠSimp son
a ure
c ote
f ere
h ia
w ished
Ġt ested
Ġc ows
le ments
Ġre ed
ĠM ail
ĠL anguage
ĠG ies
ĠW omen
ĠR ex
ĠN ero
Ġall usions
Ġun pleasant
ian ces
ced ent
Ġcons on
Ġ17 62
ful s
Ġimp utation
Ġpers isted
ĠCom et
serv ant
Ġind ic
ĠBe y
Ġjud gement
ĠOr th
net ism
Ġ48 2
Ġtend encies
wr ong
Ġef iect
Ġcontempt ible
Ġpil grims
Ġdispat ch
ĠMonth ault
origin ally
C lar
b are
k an
l ution
n cy
o of
s ail
t as
Ġf b
Ġh ors
Ġl ite
ĠI K
Ġg au
ĠM use
il ine
ĠL AND
od erm
ac id
ĠJ ub
ĠN y
Ġam monia
Ġ5 30
ĠSt ructure
Ġapp a
Ġocc afion
AL EM
br ay
ĠAl as
Ġcertain e
15 1
ĠAm mon
Ġq ne
Ġign omin
ĠHar ry
Ġcalcul ations
Ġfel icity
Ġrevolution ary
cred it
Ġsuperintend ence
Ġlob es
Ġpilgrim age
ĠEAR L
P AGE
h ie
n em
p ia
s anct
t ural
u ar
x iii
Ġa verse
is an
Ġc atech
Ġp he
Ġm ov
ut able
Ġg own
ĠH ear
qu ier
ĠR and
Ġne ue
ass us
Ġ5 29
com pre
18 51
atter ing
LE D
Ġdirect ors
He ad
Ġpast ure
ato res
Ġlow ered
Ġincl ine
Ġax es
Ġabst ain
Ġpassion ate
ĠTim othy
Ġsucc es
bene fit
Ġpars ley
Ber lin
satisf action
L es
O y
W in
W el
i V
Ġw rest
Ġb ub
Ġp sych
Ġe uer
ĠP rem
ĠH it
ĠE P
ĠR ory
Ġpro xim
ĠJ as
ust re
ust ra
ĠV ener
ition al
ĠU S
Ġlet ting
ĠLe vel
Ġph y
Ġback ward
bre thren
37 0
Al b
ĠRep ubl
UL L
ĠMont real
Ġerect ing
Ġinvestig ate
vis ited
Sh ak
ĠInst ruction
ĠBra h
treat ment
Ġflour ish
HI RE
Ġtransport s
Ġconft itution
furn ished
Ġwur de
A CTIONS
C arth
H s
l ag
v ince
re ven
is it
Ġs izes
an z
Ġd red
om ers
Ġwith stand
ĠB att
ĠE up
ac er
pp s
Ġso ap
Ġdis regard
ip hon
Ġ5 17
ĠRe ading
Ġpar ochial
br ig
Ġco ats
ĠAl pine
17 7
ior ibus
val ier
14 3
14 9
Ġpat rons
lt ered
pond er
istr ate
ĠFran co
Ġorgan ised
ĠSte am
Ġ177 9
So on
ĠCON TENTS
Ġkn ocked
ĠMel ville
Ġprotest ants
dest ruction
Ġsimpl est
ĠChair man
exhib ited
ĠPHIL OSOP
G ar
Y N
r ison
t J
Ġthe j
Ġd ul
ĠC ir
ĠA THE
ĠP urchased
ĠH ir
ĠL ough
Ġst or
ĠD URING
ĠF oster
ĠR ound
Ġad judged
ind uced
Ġen abling
Ġpart ners
Ġ5 31
EN GL
IN SON
olog ic
Ġterm inal
Ġil ie
Wh it
oo o
ĠRob in
Ġ49 4
Ġutter ance
Ġunf air
Ġtestim onies
Ġaffirm s
Ġincom plete
Ġtii at
ĠProt ector
Ġterrif ied
Ġnie ce
Ġaggra vated
G g
T c
f ice
l ives
s alt
t ate
Ġs addle
it re
al ous
ĠP aternoster
ĠE LI
Ġse ide
of ition
Ġpro du
ish ments
Ġdis appoint
18 58
ĠCon cil
IST S
vell ers
prom ised
Ġbreat hed
Ġlux ur
chap ter
ĠTal bot
ĠConstitution al
Ġphotograph ic
ĠExam ination
Ġarre ars
Ġnegl igence
ĠGrot ius
H f
N I
O A
h ii
j ar
n nd
s ided
u us
w es
ed ia
le th
Ġhe en
ld on
Ġv if
res den
ĠD ew
ĠF auna
Ġch rom
li y
Ġsub se
ĠRe cent
Ġreg istered
ick et
18 52
Ġdef ensive
Ġprof usion
Ġmis cellaneous
leg al
istr ates
Ġsal ute
37 4
ĠLat ins
Ġplant ations
ĠCO UR
ĠApp ly
Ġpub li
clam ations
ĠSou they
Ġspecul ative
fig ures
inte gr
usc any
Ġdefer red
Ġplum age
BRIT ISH
K o
P ORT
k ens
l of
t ric
Ġo ve
at ists
or ations
Ġp erempt
Ġf w
ĠT ry
ĠC ould
il r
ĠW AL
Ġcom eth
ĠJ oy
Ġper ils
de pri
Ġest re
ĠAn ast
Ġsupp orts
Ġday light
Ġco als
Ġgl aze
Ġbo oke
orth y
16 9
ĠÅ¿ upp
vell es
Ġlist ening
kind s
Ġsubs cribers
Ġips um
conduct ed
Ġhospit als
ĠDet erm
Ġtenement z
C ross
H im
U k
b am
f essor
l ake
n ay
Ġb p
ar us
Ġh inted
Ġin separ
Ġit felf
Ġan archy
ĠG ill
ĠW orms
pl anted
ĠTh anks
ach a
ull ian
ale igh
ĠSp itz
15 3
16 7
14 7
Ġil s
ĠSch w
Ġdeterm in
Ġconst i
Ġbri lliancy
def ined
Ġarchbishop s
ĠFr ont
Ġheret ical
Ġanci ently
Ġexcommun icated
ĠBeau fort
Ġspl it
ĠCongreg ational
Ġconscient ious
Mich ael
B U
F lor
W t
b ase
h ills
i ore
t ect
v ot
re as
is so
es us
Ġf ont
ic hen
st own
ĠS ire
ĠC en
ĠC ay
ĠH ans
pe es
ĠL AW
Ġv ows
ĠG ore
ĠW ake
Ġqu atuor
te a
Ġup ward
ĠV atic
for cing
Ġ5 19
ens ibly
Ġcomm itting
Ġsp ine
sh owing
Ġsc re
Ġref rain
Ġind ustrial
cil aso
Ġland lord
vi olence
Ġche ese
ille ts
Ġagree ing
Ġterrit orial
ĠSci pio
Ġpatri ots
Ġliqu ids
Ġhut s
Ġestim ates
ĠCant ab
ĠZo ology
Ġaccus ations
ĠDO CT
ĠOrmond e
Ġraz Ã³n
ĠINVENT IONS
d us
n w
ic ent
ĠS utton
ĠA FRICA
ĠM ile
Ġst ained
ĠTh race
ced on
ular ia
Ġsent i
ĠAl leg
Ġgra ves
Ġver bal
az ione
Ġfull er
phe mer
Ġwit ch
rif ied
ĠGu ad
spe ed
ĠCa es
OW ER
Ġpul se
Ġmurd erer
difficult ies
belong ed
exerc ise
Ġbrut al
ĠAby ss
A ir
L XX
f reedom
l op
s ource
t inent
u all
z eal
in ches
ri ly
ĠB ub
ĠB IR
ĠL oren
ĠE ome
est ro
res ol
ĠG O
Ġch in
Ġun happily
ĠU ss
Ġcount en
18 9
mer cy
Ġrec ount
Ġmar quis
ĠJohn ston
ĠKing ston
Ġcharacter ised
Ġpat ric
20 7
read ers
ĠPhil osoph
ox ide
Ġmus cle
Ġhab et
alog ues
Ġdesp otic
Ġthank ful
exper ienced
ĠLep id
F f
b rief
p our
u ie
Ġa vert
Ġp cr
Ġp ensions
Ġm oss
Ġm irth
ad ministration
il ion
ĠO v
un iform
ĠN au
Ġar ti
Ġj ung
Ġun broken
itt ance
Ġdes er
Ġrem nant
18 28
Ġref ped
ern ation
Ġass im
ĠAt ti
Ġconc ave
Ġleg ally
iment o
ator um
Ġfig s
iy a
amb ass
ĠSu pper
Ġ48 6
pon ed
press ions
trans lated
Ġsucceed s
Ġprosec ute
Ġcool ing
Ġble eding
Ġspo ils
wat ch
Ġpropag ated
ĠLast ly
D ar
K en
M EN
Ġt br
Ġs d
Ġh Ã¢ve
Ġl E
ce fs
ad ne
ay o
th ority
ĠD ear
ant ia
ci Ã³
her ing
fl f
Ġatt ested
ex posed
Ġra infall
aw a
tr t
Ġconc ise
Ġmo Å¿t
ĠPl ay
Ġib c
Ġmed iation
35 2
36 4
ĠGu ard
pi pe
Ġforeign er
Com ptes
hand ed
Ġlat itudes
Ġgall eries
Ġtor ment
Ġescap ing
mun ication
chem ical
arra gan
ĠKnow ledge
ĠCharl otte
N a
S at
a vers
h art
w isdom
ĠP rag
ĠF at
ĠF em
un ks
Ġen rich
hed rals
cl er
ĠK at
oll s
ti ie
Ġeffect ing
Ġsuper iors
pal ace
Ġexec utors
Ġoccur rences
ĠSam ar
Pr inci
Ġrecogn ize
ĠDiv inity
Ġorn amental
oper ations
fin ished
á½ ¸
eff orts
Ġchron ological
think ing
Ġlecture r
Ġunlike ly
adapt ed
B all
b ull
Ġo der
on aparte
it on
ig ue
ĠB ott
Ġst ature
ac io
ĠN OV
ud y
Ġen sue
ĠK hed
Ġ5 11
Ġres erv
Ġsub due
Ġrel ic
Ġbl ade
Ġact ively
Ġpri fon
ley n
Ġconc urred
ĠChar ge
ĠSh aft
hem a
Ġvarious ly
ĠEm per
rel ated
ĠDes criptions
Ġmut iny
Ġmal ady
uni versal
ĠHerod ot
ĠHel m
Ġcens ured
ĠConf essor
igne ur
Ġimpress ive
Ġshield s
offer ing
ĠScl ater
Ġcrimin als
ĠREFORM ATION
4 50
C opy
H and
R oy
r ard
t ongue
in p
le hem
im l
ĠS ale
ĠC lem
Ġat om
ĠG ale
Ġst ub
ĠN ep
Ġsh adows
Ġact or
Ġinc umbent
Ġtrans it
15 9
16 5
Ġdra goons
19 3
Ġru pture
ĠBar cel
33 2
Ġball ad
ĠDun can
proper ly
Ġprofess ing
Ġcy cl
Ġsorrow s
dri ven
Ġstup id
H as
S un
S ep
f b
u as
Ġa se
in z
Ġp acific
Ġd ief
al tern
ĠS oto
Ġg iant
ch amp
th ank
ĠL ope
un cle
Ġsp aring
Ġsp herical
ĠSe fs
ob is
ov i
Ġpos se
Ġlab ourer
ux ley
Ġfrequ ented
Ġresol ute
Ġfair y
ĠPal at
Ġconstit utions
Ġvain ly
tri bes
Ġgar ment
ĠSou lt
Ġlif etime
Ġferv ent
ĠArg os
Don ovan
Jud g
ĠRO UND
cour ts
Ġdeliber ately
ishe ries
Scott ish
Ġassail ants
N ER
n k
p urch
s age
s isted
Ġw f
Ġf ett
Ġto re
ad mit
ĠC ortes
ĠH Y
Ġim minent
Ġap res
oy ed
Ġrep ress
ene y
Ġrec ited
inal d
Ġri v
ĠFor ce
Ġder ives
36 8
Ġtable t
Ġrepro duction
ĠMet ropolitan
Ġperman ently
Ġfert il
ĠLud wig
Count y
Ġinsult ed
ĠOt to
Ġinval uable
relie f
Ġawa ited
0 5
D ay
c L
g os
m ith
p ii
s ave
Ġa es
Ġm r
ĠT owards
ĠA E
ĠA vere
th ly
ĠH elve
qu ests
ra z
Ġnot or
ĠD emy
ĠD uty
ac ia
Ġpro l
ĠN ATION
Ġle vy
ear l
ĠK u
ide as
Ġsp ur
ove l
ret reat
Ġev ange
Ġsm art
ĠZ er
unt ed
Ġdec oration
20 1
âĸ ¡
ĠShe pherd
Ġtbe y
Ġthy self
38 4
ĠCast illa
Ġwhy che
author ities
Ġtriumph s
Î± Î¹
fig ured
ĠBritann ia
Ġinterven ing
Ġembry o
Ġpard oned
A ra
P OS
f un
l ions
p ulous
Ġt astes
Ġs ank
Ġc ed
Ġf ure
Ġf ero
an as
Ġh k
Ġbe arer
ad rons
ĠC ry
ĠM aine
th ofe
ul it
ĠL il
ĠO o
ĠJ O
ib s
ib les
Ġk id
ough s
ear lier
ĠRe velation
Ġest ado
Ġear then
ier to
hib ited
Ġinform ing
Ġsus ceptible
istr icts
Ġaw kward
Ġsou p
nat ius
Ġnarrow er
Ġvan ished
ĠXXX V
ĠRh ode
AK E
olph in
Ġjun ior
ĠWords worth
ĠNOT ES
ĠMack enzie
3 12
M as
R ight
a qu
c ally
v anced
Ġt L
Ġa the
re asons
on ation
Ġf ad
ll is
ĠM AC
Ġde Å¿
Ġde acons
ra ck
ĠO pen
Ġk o
Ġun conscious
Ġmy s
Ġres isting
iss imus
erm ost
Ġreg u
Ġconf erences
fect ly
Ġbeg ging
ĠHer cules
where as
leg isl
lar ged
Ġoblig ing
Ġvers ions
Ġcommission ed
Ġant es
ĠTown shend
prov inces
Ġcrim son
Ġflag s
ĠRO YAL
Ġfug itive
Ġinve ct
Ġjug ement
ĠCOR RESPOND
Ġpave ment
ĠMoz art
E U
F OUR
M ii
h f
k ine
s yn
Ġs its
Ġp am
Ġf ituation
Ġl ang
ur able
th old
ĠP AL
Ġan alys
ĠL un
Ġdis pleased
ĠK ee
Ġtw entieth
man ia
ase ous
ĠAn a
Ġ16 41
cy l
Ġinc arn
ock ets
Ġill is
OL L
Ġequ ipped
ĠMe cca
39 0
ĠGen us
happ iness
bur nt
ĠMount ain
ĠPop ish
Ġextravag ance
phys ical
Ġshar ply
Ġtheat res
Vir gin
Ġenum eration
3 22
B our
C all
C AME
J ii
f as
s mo
t ol
w icke
Â ±
en abled
Ġh h
Ġn ons
ll us
Ġg am
ch r
ab ras
ess ential
Ġpro por
Ġ5 41
Ġ5 43
Ġsp urious
ĠOF F
Ġbl amed
IS ON
18 5
ĠAr c
Ġmar vel
Ġbo ots
Ġdec ir
Ġcast e
Ġinh uman
Ġdear ly
tem ple
Ġwel comed
rich t
stre ng
Ġchair man
Ġgene alog
Ġcav ities
Ġpack ed
Ġinsert ion
ĠDios cor
ĠEstab lished
Ġinterpre ter
Ġtars i
Ġpror og
Ġgorge ous
M ex
T p
W ed
t unity
in ferior
Ġo z
er as
Ġe ines
se arches
ir ons
ĠC ases
ab lo
res olution
ĠG ates
ĠW att
Ġpro x
op ic
ĠO w
Ġ4 000
Ġim possibility
ass umed
ved a
Ġdist ressed
Ġpass ive
Ġinter rog
Ġes set
ific ence
ĠCon vent
Ġdi u
Ġill i
Ġtem pus
Ġbo asted
arch s
bour hood
Ġoper ate
ĠPe abody
Ġcred ulity
ĠXX VI
ĠPri ests
Ġheres ies
Ġblock ade
Ġtreacher ous
ĠEstab lishment
Ġcrystall ine
W ere
f end
i and
p j
r ising
t enth
Ġt ti
in ster
it d
Ġp ae
Ġf its
ent is
ĠC li
id u
ch aft
[...]
