{"<s>":0,"<pad>":1,"</s>":2,"<unk>":3,"<mask>":4,"!":5,"\"":6,"#":7,"$":8,"%":9,"&":10,"'":11,"(":12,")":13,"*":14,"+":15,",":16,"-":17,".":18,"/":19,"0":20,"1":21,"2":22,"3":23,"4":24,"5":25,"6":26,"7":27,"8":28,"9":29,":":30,";":31,"<":32,"=":33,">":34,"?":35,"@":36,"A":37,"B":38,"C":39,"D":40,"E":41,"F":42,"G":43,"H":44,"I":45,"J":46,"K":47,"L":48,"M":49,"N":50,"O":51,"P":52,"Q":53,"R":54,"S":55,"T":56,"U":57,"V":58,"W":59,"X":60,"Y":61,"Z":62,"[":63,"\\":64,"]":65,"^":66,"_":67,"`":68,"a":69,"b":70,"c":71,"d":72,"e":73,"f":74,"g":75,"h":76,"i":77,"j":78,"k":79,"l":80,"m":81,"n":82,"o":83,"p":84,"q":85,"r":86,"s":87,"t":88,"u":89,"v":90,"w":91,"x":92,"y":93,"z":94,"{":95,"|":96,"}":97,"~":98,"¡":99,"¢":100,"£":101,"¤":102,"¥":103,"¦":104,"§":105,"¨":106,"©":107,"ª":108,"«":109,"¬":110,"®":111,"¯":112,"°":113,"±":114,"²":115,"³":116,"´":117,"µ":118,"¶":119,"·":120,"¸":121,"¹":122,"º":123,"»":124,"¼":125,"½":126,"¾":127,"¿":128,"À":129,"Á":130,"Â":131,"Ã":132,"Ä":133,"Å":134,"Æ":135,"Ç":136,"È":137,"É":138,"Ê":139,"Ë":140,"Ì":141,"Í":142,"Î":143,"Ï":144,"Ð":145,"Ñ":146,"Ò":147,"Ó":148,"Ô":149,"Õ":150,"Ö":151,"×":152,"Ø":153,"Ù":154,"Ú":155,"Û":156,"Ü":157,"Ý":158,"Þ":159,"ß":160,"à":161,"á":162,"â":163,"ã":164,"ä":165,"å":166,"æ":167,"ç":168,"è":169,"é":170,"ê":171,"ë":172,"ì":173,"í":174,"î":175,"ï":176,"ð":177,"ñ":178,"ò":179,"ó":180,"ô":181,"õ":182,"ö":183,"÷":184,"ø":185,"ù":186,"ú":187,"û":188,"ü":189,"ý":190,"þ":191,"ÿ":192,"Ā":193,"ā":194,"Ă":195,"ă":196,"Ą":197,"ą":198,"Ć":199,"ć":200,"Ĉ":201,"ĉ":202,"Ċ":203,"ċ":204,"Č":205,"č":206,"Ď":207,"ď":208,"Đ":209,"đ":210,"Ē":211,"ē":212,"Ĕ":213,"ĕ":214,"Ė":215,"ė":216,"Ę":217,"ę":218,"Ě":219,"ě":220,"Ĝ":221,"ĝ":222,"Ğ":223,"ğ":224,"Ġ":225,"ġ":226,"Ģ":227,"ģ":228,"Ĥ":229,"ĥ":230,"Ħ":231,"ħ":232,"Ĩ":233,"ĩ":234,"Ī":235,"ī":236,"Ĭ":237,"ĭ":238,"Į":239,"į":240,"İ":241,"ı":242,"Ĳ":243,"ĳ":244,"Ĵ":245,"ĵ":246,"Ķ":247,"ķ":248,"ĸ":249,"Ĺ":250,"ĺ":251,"Ļ":252,"ļ":253,"Ľ":254,"ľ":255,"Ŀ":256,"ŀ":257,"Ł":258,"ł":259,"Ń":260,"Ġt":261,"ĠĊ":262,"he":263,"Ġa":264,"in":265,"Ġthe":266,"Ġo":267,"re":268,"er":269,"on":270,"Ġof":271,"Ġw":272,"nd":273,"is":274,"Ġs":275,"en":276,"at":277,"it":278,"ed":279,"Ġb":280,"es":281,"or":282,"Ġc":283,"Ġp":284,"Ġf":285,"ar":286,"ou":287,"an":288,"Ġh":289,"Ġin":290,"Ġand":291,"Ġto":292,"Ġm":293,"Ġd":294,"al":295,"ic":296,"as":297,"ing":298,"Ġth":299,"ion":300,"le":301,"om":302,"Ġn":303,"Ġe":304,"ent":305,"ll":306,"Ġl":307,"Ġbe":308,"st":309,"ce":310,"ly":311,"ot":312,"Ġre":313,"se":314,"ir":315,"ve":316,"ut":317,"ad":318,"im":319,"ct":320,"ur":321,"ĠT":322,"Ġwh":323,"ro":324,"ĠI":325,"ĠS":326,"Ġg":327,"ĠC":328,"the":329,"ĠA":330,"id":331,"Ġhe":332,"ch":333,"Ġthat":334,"ig":335,"am":336,"ver":337,"âĢ":338,"ith":339,"et":340,"us":341,"Ġ1":342,"Ġon":343,"ow":344,"ĠM":345,"il":346,"Ġfor":347,"and":348,"ol":349,"Ġit":350,"Ġis":351,"ich":352,"Ġas":353,"Ġby":354,"Ġwas":355,"ay":356,"ere":357,"Ġhis":358,"th":359,"Ġwith":360,"ter":361,"ri":362,"Ġu":363,"Ġcon":364,"ĠB":365,"ĠP":366,"Ġ;":367,"Ġde":368,"ĠH":369,"Ġan":370,"ation":371,"qu":372,"ra":373,"pe":374,"if":375,"ul":376,"Ġat":377,"Ġwhich":378,"ld":379,"ain":380,"um":381,"ĠL":382,"Ġv":383,"em":384,"ĠE":385,"rom":386,"od":387,"ĠThe":388,"os":389,"Ġor":390,"ab":391,"Ġsu":392,"Ġy":393,"est":394,"Ġnot":395,"res":396,"ge":397,"ĠâĢ":398,"ill":399,"our":400,"to":401,"Ġha":402,"Ġex":403,"ie":404,"ĠG":405,"ess":406,"ht":407,"ore":408,"ist":409,"nt":410,"Ġst":411,"Ġse":412,"ĠD":413,"ers":414,"ac":415,"ant":416,"Ġfrom":417,"ĠF":418,"ĠW":419,"of":420,"iv":421,"ate":422,"ĠR":423,"ii":424,"Ġpro":425,"op":426,"ould":427,"Ġthis":428,"ous":429,"Ġcom":430,"ĠO":431,"ci":432,"ke":433,"Ġhad":434,"all":435,"Ġ2":436,"ĠJ":437,"Ġhave":438,"her":439,"pp":440,"ard":441,"Ġtheir":442,"art":443,"un":444,"Ġwe":445,"ity":446,"Ġr":447,"Ġ(":448,"red":449,"ĠĠĊ":450,"ord":451,"el":452,"ĠN":453,"pt":454,"Ġsh":455,"Ġwere":456,"Ġare":457,"ight":458,"ies":459,"ĠâĢĶ":460,"Ġne":461,"ther":462,"cc":463,"Ġbut":464,"Ġch":465,"Ġall":466,"ort":467,"Ġal":468,"Ġwho":469,"Ġthey":470,"ast":471,"ive":472,"Ġle":473,"ish":474,"ib":475,"ment":476,"oug":477,"Ġhim":478,"ect":479,"Ġso":480,"Ġk":481,"ost":482,"ome":483,"ud":484,"ust":485,"ure":486,"ag":487,"ap":488,"reat":489,"ia":490,"ong":491,"Ġ3":492,"Ġbeen":493,"ame":494,"Ġqu":495,"Ġthem":496,"ence":497,"te":498,"ions":499,"ff":500,"Ġwhe":501,"'s":502,"ance":503,"ry":504,"per":505,"Ġad":506,"ans":507,"very":508,"ound":509,"li":510,"Ġman":511,"ine":512,"ne":513,"Ġar":514,"Ġi":515,"av":516,"ose":517,"Ġj":518,"Ġab":519,"Ġ4":520,"ary":521,"Ġup":522,"Ġno":523,"ĠĠ":524,"ak":525,"ount":526,"ind":527,"Ġme":528,"be":529,"The":530,"able":531,"Ġen":532,"ĠV":533,"ĠCh":534,"out":535,"pl":536,"Ġim":537,"Ġun":538,"Ġone":539,"Ġpl":540,"ated":541,"sel":542,"ng":543,"Ġ18":544,"ice":545,"ond":546,"ert":547,"Ġother":548,"Ġpr":549,"Ġdis":550,"ass":551,"ire":552,"are":553,"Ġper":554,"Ġ\"":555,"ue":556,"ough":557,"ear":558,"Ġ:":559,"og":560,"bl":561,"hed":562,"Ġpre":563,"Ġthere":564,"Ġ.":565,"Ġhas":566,"Ġpart":567,"cl":568,"ĠK":569,"one":570,"ical":571,"wn":572,"au":573,"ĠTh":574,"itt":575,"ace":576,"âĢĻ":577,"ood":578,"ime":579,"for":580,"ree":581,"Ġag":582,"oc":583,"Ġtr":584,"Ġmore":585,"ok":586,"act":587,"ade":588,"ally":589,"Ġfe":590,"ian":591,"erv":592,"nder":593,"ign":594,"Ġob":595,"wh":596,"Ġits":597,"land":598,"fore":599,"Ġwill":600,"Ġany":601,"ft":602,"Ġtw":603,"ĠIn":604,"Ġyou":605,"ces":606,"fter":607,"Ġher":608,"Ġgreat":609,"we":610,"ons":611,"ber":612,"age":613,"ious":614,"int":615,"Ġwor":616,"Ġcont":617,"ven":618,"Ġdes":619,"Ġla":620,"Ġwould":621,"ition":622,"Ġsome":623,"Ġdo":624,"Ġam":625,"ip":626,"ru":627,"ĠIt":628,"ations":629,"Ġ5":630,"ress":631,"Ġ6":632,"so":633,"de":634,"Ġsa":635,"ory":636,"ens":637,"Ġour":638,"Ġmy":639,"ach":640,"Ġmay":641,"Ġ8":642,"ĠHe":643,"Ġcomm":644,"Ġthan":645,"uch":646,"ĠSt":647,"ath":648,"now":649,"rit":650,"Ġus":651,"Â¬":652,"Ġacc":653,"ks":654,"Ġinto":655,"ĠMr":656,"ide":657,"Ġres":658,"ings":659,"du":660,"Ġsp":661,"ered":662,"Ġupon":663,"Ġwhen":664,"00":665,"pos":666,"ove":667,"ult":668,"Ġtime":669,"ener":670,"ced":671,"Ġap":672,"Ġpe":673,"les":674,"self":675,"Ġcl":676,"Ġif":677,"oy":678,"Ġvery":679,"Ġthese":680,"ward":681,"ays":682,"end":683,"ang":684,"ake":685,"irst":686,"ject":687,"Ġcan":688,"Ġcons":689,"ction":690,"over":691,"Ġyear":692,"oll":693,"Ġonly":694,"ite":695,"ph":696,"sh":697,"man":698,"âĢĶ":699,"ise":700,"Ġsub":701,"old":702,"Ġtwo":703,"Ġform":704,"Ġafter":705,"che":706,"ents":707,"Ġpres":708,"Ġrem":709,"iz":710,"ied":711,"ict":712,"Ġout":713,"other":714,"ĠU":715,"Ġspe":716,"ile":717,"Ġpo":718,"Ġsuch":719,"urn":720,"ren":721,"Ġbr":722,"Ġmade":723,"Ġmost":724,"Ġapp":725,"ple":726,"HE":727,"ors":728,"Ġunder":729,"oth":730,"ave":731,"iff":732,"Ġli":733,"Ġfirst":734,"Ġbeing":735,"cri":736,"Ġet":737,"Ġ7":738,"ep":739,"ook":740,"Ġoff":741,"Ġthose":742,"Ġgr":743,"uth":744,"Ġagain":745,"ial":746,"Ġshould":747,"ON":748,"ty":749,"io":750,"ved":751,"iss":752,"ix":753,"Ġrep":754,"Ġ17":755,"ĠSe":756,"urch":757,"ubl":758,"Ġint":759,"ĠEng":760,"Ġem":761,"II":762,"Ġsame":763,"by":764,"ished":765,"Ġro":766,"Ġ'":767,"ular":768,"ull":769,"fl":770,"Ġx":771,"with":772,"ought":773,"ug":774,"ful":775,"Ġ^":776,"Ġimp":777,"ife":778,"Ġatt":779,"fe":780,"ness":781,"Ġnow":782,"that":783,"con":784,"ase":785,"com":786,"Ġhow":787,"ates":788,"ark":789,"Ġthen":790,"Ġent":791,"ex":792,"ER":793,"pect":794,"ained":795,"Ġbefore":796,"me":797,"ck":798,"Å¿":799,"Ġwhat":800,"Ġsaid":801,"ob":802,"Ġknow":803,"Ġfound":804,"ower":805,"Ġmuch":806,"ather":807,"Ġrel":808,"Ġappe":809,"form":810,"Ġcount":811,"Ġwhere":812,"Ġshe":813,"led":814,"Ġalso":815,"Ġbet":816,"Ġcould":817,"vers":818,"ack":819,"Ġord":820,"oss":821,"oh":822,"Ġii":823,"rist":824,"ater":825,"ever":826,"igh":827,"ves":828,"ual":829,"cess":830,"ĠRe":831,"not":832,"hen":833,"und":834,"oun":835,"Ġdist":836,"Ġra":837,"Ġmen":838,"ving":839,"ew":840,"ince":841,"ily":842,"Ġmany":843,"own":844,"pr":845,"Ġchar":846,"erm":847,"su":848,"which":849,"Ġwell":850,"ran":851,"ters":852,"ĠOF":853,"ble":854,"Ġfl":855,"Ġreg":856,"ĠY":857,"Ġgener":858,"Ġ-":859,"his":860,"Ġover":861,"Ġpp":862,"ell":863,"ars":864,"Ġown":865,"ild":866,"eth":867,"ited":868,"Ġac":869,"ick":870,"Ġest":871,"Ġking":872,"ĠBut":873,"ĠLord":874,"lect":875,"Ġevery":876,"Ġ&":877,"Ġnat":878,"Ġlong":879,"ail":880,"orn":881,"Ġinst":882,"ĠAn":883,"AN":884,"ret":885,"Â«":886,"Ġdiff":887,"Ġbl":888,"ĠâĢľ":889,"Ġabout":890,"ollow":891,"Ġyour":892,"its":893,"Ġocc":894,"OR":895,"Ġpers":896,"up":897,"lie":898,"ract":899,"Ġret":900,"tend":901,"ople":902,"Ġop":903,"Ġcol":904,"ution":905,"ived":906,"ĠX":907,"overn":908,"IS":909,"ius":910,"Ġmust":911,"ither":912,"Ġque":913,"Ġcomp":914,"ts":915,"Ġ,":916,"ady":917,"Ġ16":918,"Ġsec":919,"ined":920,"18":921,"Ġ9":922,"Ġthr":923,"Ġcall":924,"Ġgiv":925,"Ġpass":926,"ope":927,"Ġmight":928,"ĠThis":929,"cy":930,"Ġear":931,"air":932,"Ġgood":933,"Ġsc":934,"Ġpubl":935,"ES":936,"ouse":937,"ted":938,"als":939,"ible":940,"Ġpresent":941,"was":942,"Ġwithout":943,"Ġeven":944,"vent":945,"ene":946,"Ġexp":947,"ys":948,"Ġsupp":949,"ont":950,"ants":951,"ween":952,"Ġagainst":953,"Ġpar":954,"aj":955,"Ġbec":956,"Ġlike":957,"mer":958,"Ġrec":959,"ĠDe":960,"Ġref":961,"Ġconf":962,"lish":963,"ause":964,"row":965,"ared":966,"ittle":967,"ĠAr":968,"ians":969,"ĠGod":970,"ĠCom":971,"AL":972,"Ġext":973,"EN":974,"IN":975,"Ġday":976,"Ġlet":977,"atter":978,"uthor":979,"Ġfollow":980,"Ġnum":981,"ertain":982,"ety":983,"ohn":984,"Ġtak":985,"ffect":986,"serv":987,"ins":988,"wards":989,"ĠTHE":990,"ceed":991,"Ġplace":992,"Ġhimself":993,"ities":994,"Ġend":995,"br":996,"Ġ15":997,"Ġshall":998,"ern":999,"Ġwork":1000,"Ġyears":1001,"Ġact":1002,"Ġass":1003,"cept":1004,"ures":1005,"ands":1006,"Ã©":1007,"Ġdid":1008,"23":1009,"men":1010,"AR":1011,"att":1012,"ently":1013,"Ġmar":1014,"vo":1015,"ss":1016,"ier":1017,"Ġnew":1018,"que":1019,"ĠPro":1020,"ider":1021,"ĠChrist":1022,"Ġsur":1023,"ute":1024,"Ġ[":1025,"ishop":1026,"ton":1027,"ner":1028,"ments":1029,"Ġ10":1030,"Ġind":1031,"AT":1032,"ale":1033,"Ġco":1034,"ury":1035,"Ġarm":1036,"Ġmon":1037,"Ġinter":1038,"Ġvol":1039,"Ġlast":1040,"pro":1041,"uring":1042,"Ġhaving":1043,"Ġadd":1044,"Ġ|":1045,"mon":1046,"Ġpur":1047,"aw":1048,"Ġes":1049,"Ġnor":1050,"Ġthrough":1051,"Ġel":1052,"Ġcour":1053,"Ġpeople":1054,"ah":1055,"Ġcar":1056,"Ġlittle":1057,"Ġlaw":1058,"Ġcountry":1059,"inci":1060,"Ġbetween":1061,"imes":1062,"Ġthree":1063,"Ġ*":1064,"Ġwar":1065,"ised":1066,"ĠAnd":1067,"ĠâĢĺ":1068,"Ġev":1069,"Ġsee":1070,"any":1071,"ub":1072,"Ġrece":1073,"ten":1074,"ament":1075,"Ġpri":1076,"ai":1077,"Ġposs":1078,"olog":1079,"ific":1080,"Â»":1081,"In":1082,"Ġfar":1083,"ric":1084,"Ġed":1085,"ae":1086,"iam":1087,"Ġlar":1088,"Ġsm":1089,"Ġboth":1090,"ged":1091,"Ġ12":1092,"ĠQ":1093,"Ġcor":1094,"Ġauthor":1095,"ĠPr":1096,"but":1097,"Ġseem":1098,"ention":1099,"Ġname":1100,"ink":1101,"med":1102,"ines":1103,"ches":1104,"Ġinc":1105,"selves":1106,"apt":1107,"ec":1108,"Ġpower":1109,"ief":1110,"Ġlife":1111,"Ġwhole":1112,"ax":1113,"Ġdel":1114,"vel":1115,"Ġhowever":1116,"IC":1117,"Ġsent":1118,"ĠMar":1119,"Ġyet":1120,"ason":1121,"here":1122,"ating":1123,"tion":1124,"ords":1125,"ĠJohn":1126,"Ġgl":1127,"cript":1128,"ired":1129,"ĠSir":1130,"tr":1131,"Ġamong":1132,"hil":1133,"Ġdef":1134,"Ġread":1135,"Ġnever":1136,"Ġsubject":1137,"ĠPar":1138,"Ġadv":1139,"Ġhere":1140,"ains":1141,"ĠAl":1142,"Ġnear":1143,"Ġjust":1144,"ably":1145,"ĠWe":1146,"Ġcalled":1147,"most":1148,"ately":1149,"Ġserv":1150,"uc":1151,"Ġdisc":1152,"ages":1153,"less":1154,"Ġset":1155,"Ġdet":1156,"ti":1157,"irc":1158,"Ġeach":1159,"ni":1160,"ondon":1161,"gy":1162,"ĠAs":1163,"ĠDr":1164,"ĠEd":1165,"iii":1166,"Ġmake":1167,"aster":1168,"Ġmin":1169,"par":1170,"from":1171,"Ġthough":1172,"eng":1173,"ĠOn":1174,"Ġgiven":1175,"Ġwhom":1176,"ances":1177,"ody":1178,"ĠEngland":1179,"ici":1180,"ĠĠĠĊ":1181,"Ch":1182,"ried":1183,"ĠAt":1184,"Ġsay":1185,"rown":1186,"ĠCon":1187,"Ġ13":1188,"Ġwrit":1189,"Ġtra":1190,"ov":1191,"Ġ?":1192,"cil":1193,"oint":1194,"ices":1195,"rench":1196,"Ġtrans":1197,"iew":1198,"part":1199,"Ã¡":1200,"Ġvar":1201,"ism":1202,"ative":1203,"outh":1204,"Ġgeneral":1205,"Ġstill":1206,"ized":1207,"Ġart":1208,"nce":1209,"Ġright":1210,"Ġold":1211,"17":1212,"ĠKing":1213,"Ġfa":1214,"erest":1215,"Ġstr":1216,"gan":1217,"pend":1218,"riend":1219,"Ġmod":1220,"Ġpublic":1221,"Ġgo":1222,"Ġsl":1223,"ours":1224,"ird":1225,"Ġadm":1226,"hes":1227,"ames":1228,"Ġ14":1229,"Ġcertain":1230,"Ġlo":1231,"ude":1232,"ened":1233,"acter":1234,"ley":1235,"RE":1236,"ĠInd":1237,"cul":1238,"itted":1239,"inal":1240,"ĠThey":1241,"aint":1242,"Ġtaken":1243,"ĠWh":1244,"ĠLe":1245,"Ġdi":1246,"Ġopp":1247,"Ġpoint":1248,"CH":1249,"ĠNew":1250,"Ġaccount":1251,"Ġ!":1252,"ĠHis":1253,"aug":1254,"Ġfour":1255,"ior":1256,"posed":1257,"veral":1258,"Ġfew":1259,"ement":1260,"Ġrest":1261,"Ġcent":1262,"way":1263,"ĠEnglish":1264,"bt":1265,"amp":1266,"ĠSo":1267,"Ġorder":1268,"ote":1269,"cient":1270,"Ġtoo":1271,"ĠCol":1272,"Ġ11":1273,"ording":1274,"iod":1275,"Ġins":1276,"ship":1277,"Ġwr":1278,"rance":1279,"ock":1280,"IT":1281,"Ġmem":1282,"ives":1283,"hing":1284,"erent":1285,"Ġprinci":1286,"Ġfo":1287,"ident":1288,"Ġinf":1289,"Ġsuff":1290,"son":1291,"no":1292,"ison":1293,"Ġway":1294,"Ġsy":1295,"ron":1296,"port":1297,"duced":1298,"ccess":1299,"inu":1300,"ĠBrit":1301,"Ġinde":1302,"arn":1303,"ium":1304,"ural":1305,"Ġtri":1306,"Ġconsider":1307,"aid":1308,"Ġill":1309,"ĠSc":1310,"Ġke":1311,"ists":1312,"Ġobserv":1313,"ides":1314,"Ġtem":1315,"Ġlarge":1316,"Ġanother":1317,"Ġhist":1318,"stit":1319,"Ġdeath":1320,"Ġdire":1321,"Ġval":1322,"bed":1323,"Ġprov":1324,"ĠÂ":1325,"Ġdiv":1326,"overnment":1327,"ĠSp":1328,"Ġinv":1329,"Ġfind":1330,"ield":1331,"Ġwhile":1332,"Ġser":1333,"Ġuse":1334,"Ġless":1335,"Th":1336,"ided":1337,"Ġput":1338,"ĠChurch":1339,"Ġtake":1340,"Ġ19":1341,"Ġlib":1342,"Ġsmall":1343,"ĠLondon":1344,"ission":1345,"Ġte":1346,"Ġaff":1347,"Ġri":1348,"ung":1349,"Ġfact":1350,"resent":1351,"Ġreturn":1352,"Ġfam":1353,"10":1354,"use":1355,"ĠBe":1356,"Ġspeci":1357,"Ġhon":1358,"irit":1359,"Ġdou":1360,"Ġsim":1361,"ĠZ":1362,"Ġgive":1363,"Ġple":1364,"Ġbo":1365,"Ġcap":1366,"âĢľ":1367,"It":1368,"Ġthus":1369,"Ġplac":1370,"Ġcirc":1371,"Ġstate":1372,"ork":1373,"pre":1374,"Ġever":1375,"Ġnet":1376,"aking":1377,"Ġeffect":1378,"ature":1379,"oman":1380,"Ġrespect":1381,"Ġdown":1382,"ĠFrench":1383,"ĠâĢĻ":1384,"Ġnumber":1385,"000":1386,"ool":1387,"were":1388,"Ġperson":1389,"OL":1390,"gr":1391,"nal":1392,"icular":1393,"xt":1394,"Ġhigh":1395,"alf":1396,"orth":1397,"Ġdu":1398,"Ġfriend":1399,"urg":1400,"ics":1401,"Ġkind":1402,"unt":1403,"arch":1404,"Ġothers":1405,"une":1406,"bers":1407,"Ġchurch":1408,"their":1409,"Ġhand":1410,"Ġrequ":1411,"isc":1412,"Ġson":1413,"Ġduring":1414,"15":1415,"Ġer":1416,"Ġhead":1417,"Ġdec":1418,"af":1419,"sem":1420,"Ġnecess":1421,"Ġinterest":1422,"Ġbook":1423,"atis":1424,"dom":1425,"ility":1426,"aps":1427,"Ġequ":1428,"Ġappear":1429,"Ġobject":1430,"Ġgu":1431,"ciety":1432,"oly":1433,"ica":1434,"have":1435,"Ġleft":1436,"Ġvi":1437,"Ġmil":1438,"asion":1439,"ased":1440,"Ġbre":1441,"empt":1442,"16":1443,"Ġtherefore":1444,"Ġthemselves":1445,"cr":1446,"had":1447,"Ġhum":1448,"Ġund":1449,"yn":1450,"Ġthought":1451,"Ġcharacter":1452,"gether":1453,"reg":1454,"Ġten":1455,"ĠCl":1456,"Ġca":1457,"den":1458,"tended":1459,"Ġwhose":1460,"Ġ20":1461,"ges":1462,"ĠFor":1463,"Ġgra":1464,"ination":1465,"ery":1466,"IST":1467,"sequ":1468,"pri":1469,"app":1470,"Ġsecond":1471,"ĠSee":1472,"ĠIs":1473,"Ġorig":1474,"ee":1475,"Ġseveral":1476,"Ġimport":1477,"sw":1478,"der":1479,"Ġpol":1480,"Ġsuccess":1481,"Ġexam":1482,"duct":1483,"ways":1484,"uss":1485,"ĠAN":1486,"inn":1487,"Ġmind":1488,"ĠHen":1489,"ully":1490,"Ġfr":1491,"Ġbelie":1492,"Ġmer":1493,"rew":1494,"Ġcond":1495,"Ġz":1496,"tt":1497,"Ġcur":1498,"oura":1499,"ouncil":1500,"Ġreceived":1501,"Ġcome":1502,"ps":1503,"ĠII":1504,"owed":1505,"fect":1506,"Ġmeans":1507,"ien":1508,"Ġworld":1509,"Ġrelig":1510,"Ġir":1511,"ĠIf":1512,"rs":1513,"ues":1514,"ole":1515,"Ġprob":1516,"ually":1517,"val":1518,"ham":1519,"ane":1520,"Ġcame":1521,"Ġbu":1522,"ott":1523,"lied":1524,"ann":1525,"Ġele":1526,"Ġjud":1527,"Ġmet":1528,"ĠGe":1529,"Ġbel":1530,"ĠOr":1531,"idence":1532,"Ġ0":1533,"iter":1534,"ange":1535,"Ġver":1536,"ured":1537,"ION":1538,"uf":1539,"they":1540,"Ġabove":1541,"Ġut":1542,"Ġbody":1543,"Ġcommon":1544,"12":1545,"Ġthink":1546,"Ġfav":1547,"iar":1548,"Ġobt":1549,"Ġtook":1550,"Ġdecl":1551,"Ġconc":1552,"though":1553,"AP":1554,"Ġfore":1555,"Ġbrought":1556,"erence":1557,"Ġproper":1558,"this":1559,"ns":1560,"ster":1561,"Ġlight":1562,"Ġfur":1563,"Ġ184":1564,"Ġprom":1565,"LE":1566,"ĠThere":1567,"ca":1568,"Ġland":1569,"ruct":1570,"Ġcase":1571,"pose":1572,"asure":1573,"illiam":1574,"ploy":1575,"them":1576,"Ġdra":1577,"Ġ185":1578,"Ġperiod":1579,"well":1580,"ĠBy":1581,"Ġsays":1582,"itions":1583,"Ġknown":1584,"14":1585,"Ġder":1586,"Â°":1587,"ets":1588,"ĠAd":1589,"ense":1590,"Ġcannot":1591,"Ġsix":1592,"ui":1593,"rem":1594,"arr":1595,"Ġeither":1596,"Ġdays":1597,"Ġvis":1598,"estion":1599,"ressed":1600,"used":1601,"Ġbest":1602,"omet":1603,"Ġport":1604,"US":1605,"ession":1606,"Ġbeg":1607,"Ġpap":1608,"Ġsoon":1609,"13":1610,"orm":1611,"Ġsince":1612,"eneral":1613,"Ġfollowing":1614,"Ġseen":1615,"sc":1616,"ĠHist":1617,"Ġprof":1618,"Ġtreat":1619,"Ġtown":1620,"az":1621,"Ġwater":1622,"Ġview":1623,"Ġopin":1624,"ford":1625,"THE":1626,"Ġside":1627,"ĠFrance":1628,"Ġformer":1629,"Ġpat":1630,"ym":1631,"UR":1632,"eb":1633,"ĠEx":1634,"Ġhouse":1635,"him":1636,"aut":1637,"Ġregard":1638,"Ġdifferent":1639,"ina":1640,"ples":1641,"Ġsto":1642,"Ġnature":1643,"ĠChar":1644,"Ġterm":1645,"aim":1646,"Ġdone":1647,"ank":1648,"vi":1649,"ready":1650,"ls":1651,"19":1652,"Ġsol":1653,"Ġsum":1654,"ibus":1655,"ĠTo":1656,"day":1657,"ral":1658,"And":1659,"Ġdie":1660,"ĠSh":1661,"Ġnothing":1662,"Ġey":1663,"lic":1664,"ister":1665,"cell":1666,"Ġce":1667,"Ġlook":1668,"Ġ25":1669,"Ġcare":1670,"osed":1671,"Ġparticular":1672,"Ġcle":1673,"20":1674,"flu":1675,"po":1676,"Ġonce":1677,"Ġreason":1678,"Ġcontinu":1679,"ting":1680,"irm":1681,"hem":1682,"Ġfre":1683,"rum":1684,"Ġ23":1685,"Ġmo":1686,"peci":1687,"ross":1688,"medi":1689,"Ġproceed":1690,"Ġchief":1691,"ĠPl":1692,"igit":1693,"liament":1694,"Ġmanner":1695,"ached":1696,"yl":1697,"Ġ24":1698,"ĠHer":1699,"ases":1700,"Ġcourse":1701,"IL":1702,"Ġtrue":1703,"undred":1704,"vere":1705,"Ġdirect":1706,"icult":1707,"yr":1708,"rie":1709,"iness":1710,"Mr":1711,"haps":1712,"gg":1713,"stand":1714,"aining":1715,"Ġgave":1716,"Ġchild":1717,"Ġaccording":1718,"vol":1719,"Ġxx":1720,"Ġthings":1721,"ĠNo":1722,"ĠTr":1723,"Ã³":1724,"por":1725,"Ġwithin":1726,"Ġyoung":1727,"fi":1728,"oph":1729,"Ġstre":1730,"ĠÅ¿":1731,"ledge":1732,"Ġtill":1733,"cribed":1734,"Ġsac":1735,"ĠCo":1736,"abit":1737,"arm":1738,"Ġ183":1739,"ĠHenry":1740,"stant":1741,"Ġpos":1742,"Ġph":1743,"Ġpop":1744,"ched":1745,"ĠBr":1746,"ength":1747,"oe":1748,"fort":1749,"Ġshort":1750,"He":1751,"Ġletter":1752,"stem":1753,"Ġrather":1754,"Ġsing":1755,"Ġ27":1756,"ume":1757,"clud":1758,"Ġhistory":1759,"ified":1760,"mit":1761,"Ġbecause":1762,"Ġsuper":1763,"Ġenem":1764,"aving":1765,"Ġspirit":1766,"ience":1767,"Ġve":1768,"Ġbishop":1769,"Ġcr":1770,"Ġalways":1771,"Ġstud":1772,"raph":1773,"Ġsch":1774,"Ġmag":1775,"alt":1776,"Ġeng":1777,"Ġalmost":1778,"ata":1779,"wo":1780,"Ġtimes":1781,"Ġib":1782,"St":1783,"Ġwords":1784,"Ġdoubt":1785,"Ġsk":1786,"ĠMaj":1787,"Ġdest":1788,"Ġ30":1789,"Ġann":1790,"been":1791,"Ġpriv":1792,"sp":1793,"Ġoccasion":1794,"Ġ28":1795,"Ġbar":1796,"lo":1797,"Ġappro":1798,"ops":1799,"Ġfather":1800,"Ġarmy":1801,"Ġunt":1802,"Ġage":1803,"ĠAm":1804,"enty":1805,"Ġcity":1806,"irt":1807,"Ġused":1808,"Ġmention":1809,"Ġleg":1810,"ows":1811,"Digit":1812,"ient":1813,"Ġpersons":1814,"who":1815,"inary":1816,"esty":1817,"Ġturn":1818,"Ġreal":1819,"Ġemploy":1820,"Ġ26":1821,"let":1822,"Ġter":1823,"Ġpract":1824,"Ġhalf":1825,"Ġcomple":1826,"fer":1827,"OM":1828,"Ġlatter":1829,"Ġabs":1830,"iving":1831,"rt":1832,"gen":1833,"na":1834,"comm":1835,"co":1836,"Ġden":1837,"overed":1838,"Ġlab":1839,"Ġdoes":1840,"augh":1841,"Ġstrong":1842,"Ġheart":1843,"Ġ22":1844,"ĠPh":1845,"read":1846,"ards":1847,"Ġcause":1848,"Ġoffic":1849,"Digitized":1850,"ĠAb":1851,"ying":1852,"11":1853,"Ġcommand":1854,"eter":1855,"king":1856,"Ġopen":1857,"Ġfeel":1858,"angu":1859,"aring":1860,"omin":1861,"ST":1862,"Ġestab":1863,"Ġnext":1864,"ounded":1865,"Ġacqu":1866,"Ġcircum":1867,"arl":1868,"Ġitself":1869,"Ġhapp":1870,"ĠBritish":1871,"ĠâĢ¢":1872,"ENT":1873,"ision":1874,"erous":1875,"ony":1876,"Ġdem":1877,"Ġiii":1878,"Ġarri":1879,"inc":1880,"Ġaccom":1881,"âĢĺ":1882,"âĸ":1883,"Ġansw":1884,"Ġhands":1885,"Ġfaith":1886,"AM":1887,"new":1888,"Ġspecies":1889,"Ġmeet":1890,"ET":1891,"ĠAmer":1892,"lt":1893,"Ġwhether":1894,"Ġfort":1895,"ĠWilliam":1896,"This":1897,"Ġparts":1898,"OO":1899,"Ġdut":1900,"Ġmis":1901,"uly":1902,"Ġexist":1903,"Ġsw":1904,"inct":1905,"Ġfull":1906,"ĠPhil":1907,"Ġseems":1908,"itten":1909,"ĠGr":1910,"ĠDu":1911,"Ġalready":1912,"Ġlate":1913,"Ġfall":1914,"ĠAND":1915,"iment":1916,"hib":1917,"oi":1918,"Ġresult":1919,"arent":1920,"Ġhundred":1921,"Ġ29":1922,"alth":1923,"Ġil":1924,"Ġlearn":1925,"Ġoften":1926,"min":1927,"rect":1928,"Ġcal":1929,"Ġback":1930,"Ġword":1931,"entle":1932,"Ġcommun":1933,"Ġanim":1934,"Ġexper":1935,"sec":1936,"Ġground":1937,"Ġexpl":1938,"do":1939,"ales":1940,"bo":1941,"pan":1942,"ator":1943,"cience":1944,"ĠProf":1945,"ED":1946,"then":1947,"ape":1948,"ĠÃ¡":1949,"urope":1950,"lected":1951,"Ġexcept":1952,"ences":1953,"position":1954,"go":1955,"ries":1956,"Ġdifficult":1957,"Ġmatter":1958,"ilt":1959,"Ġdev":1960,"But":1961,"lem":1962,"Ġfree":1963,"oney":1964,"22":1965,"ency":1966,"Ġmean":1967,"Ġwent":1968,"Ġleast":1969,"Ġindeed":1970,"Ġtowards":1971,"erman":1972,"Ġaway":1973,"ĠChristian":1974,"Ġbro":1975,"illed":1976,"Ġtro":1977,"Ġru":1978,"Ġprev":1979,"Ġlove":1980,"mo":1981,"Ġancient":1982,"ORY":1983,"ourn":1984,"ots":1985,"Ġbetter":1986,"Ġrepresent":1987,"where":1988,"aries":1989,"âĸł":1990,"Ġhor":1991,"Ġquestion":1992,"la":1993,"Ġlength":1994,"ising":1995,"Ġtogether":1996,"ality":1997,"atisf":1998,"acy":1999,"there":2000,"ĠGree":2001,"IV":2002,"Ġremark":2003,"ring":2004,"ling":2005,"Ġvarious":2006,"know":2007,"EL":2008,"Ġclass":2009,"ger":2010,"Ġnation":2011,"Ġinform":2012,"omas":2013,"ĠUn":2014,"oured":2015,"Ġnight":2016,"Ġpost":2017,"Ġsign":2018,"III":2019,"uted":2020,"Ġthing":2021,"Ġappoint":2022,"count":2023,"Ġtre":2024,"more":2025,"Ġline":2026,"Ġheld":2027,"Ġappears":2028,"An":2029,"Ġft":2030,"Ġopinion":2031,"Ġlead":2032,"Ġbene":2033,"âĢ¢":2034,"itude":2035,"30":2036,"eal":2037,"ĠParis":2038,"pal":2039,"ering":2040,"Ġiv":2041,"Ġincre":2042,"urs":2043,"ney":2044,"Ġwa":2045,"Ġmed":2046,"des":2047,"ĠMay":2048,"Ġforce":2049,"25":2050,"oud":2051,"Ġpeace":2052,"ĠSch":2053,"ÃŃ":2054,"Ġnecessary":2055,"idd":2056,"elt":2057,"cont":2058,"Ġlay":2059,"bly":2060,"lf":2061,"Ġexpress":2062,"Ġuntil":2063,"Ġmonth":2064,"aul":2065,"itu":2066,"cription":2067,"24":2068,"under":2069,"ĠWhen":2070,"str":2071,"tern":2072,"Ġtho":2073,"Ġpurpose":2074,"Ġlord":2075,"ught":2076,"bes":2077,"ĠÂ£":2078,"omen":2079,"Ġpor":2080,"Ġauthority":2081,"Ġtruth":2082,"ology":2083,"ĠThat":2084,"fully":2085,"Ġgovernment":2086,"ĠShe":2087,"nect":2088,"Ġprot":2089,"anted":2090,"Ġsystem":2091,"Ġfive":2092,"ivil":2093,"ats":2094,"Ġimmedi":2095,"Ġconduct":2096,"ĠEs":2097,"ites":2098,"Ġmere":2099,"Ġche":2100,"erc":2101,"ĠSociety":2102,"oyal":2103,"ox":2104,"oog":2105,"29":2106,"Ġinflu":2107,"Ġfell":2108,"pit":2109,"Ġbecame":2110,"atic":2111,"Ġafterwards":2112,"Ġpassed":2113,"stances":2114,"Ġsus":2115,"Ġfeet":2116,"Ġattempt":2117,"Ġworks":2118,"Ġmus":2119,"peror":2120,"iu":2121,"ĠHouse":2122,"Ġdeg":2123,"ones":2124,"Ġtbe":2125,"usion":2126,"wise":2127,"oted":2128,"ĠCan":2129,"ĠIN":2130,"ilar":2131,"bs":2132,"27":2133,"owers":2134,"Ġtlie":2135,"CT":2136,"28":2137,"Ġdeterm":2138,"Ġdoct":2139,"idered":2140,"Ġperhaps":2141,"ĠAct":2142,"Ġparty":2143,"Ġobl":2144,"ĠRev":2145,"Ġmat":2146,"Ġsea":2147,"off":2148,"idge":2149,"ergy":2150,"akes":2151,"Ġq":2152,"what":2153,"ked":2154,"Ġnatural":2155,"ift":2156,"Ġfurther":2157,"icient":2158,"Ġhard":2159,"ms":2160,"Ġfin":2161,"Ġearly":2162,"CE":2163,"Ġcourt":2164,"Ġgen":2165,"leg":2166,"ead":2167,"'d":2168,"ĠRome":2169,"Ġspec":2170,"Ġsil":2171,"ingu":2172,"ĠAp":2173,"ises":2174,"ĠRoman":2175,"ĠIII":2176,"olic":2177,"ING":2178,"Ġfif":2179,"26":2180,"Ġnearly":2181,"Ġgreater":2182,"ext":2183,"phe":2184,"otion":2185,"Ġstat":2186,"gress":2187,"Ġpen":2188,"ik":2189,"rary":2190,"reet":2191,"To":2192,"ize":2193,"Ġprobably":2194,"Ġexc":2195,"lection":2196,"erve":2197,"ĠEurope":2198,"yd":2199,"Ġfavour":2200,"bour":2201,"iet":2202,"gypt":2203,"gu":2204,"Ġperfect":2205,"iers":2206,"Ġconsequ":2207,"Ġpublished":2208,"ler":2209,"Ġfamily":2210,"Ġcop":2211,"ĠThese":2212,"XX":2213,"ev":2214,"ested":2215,"Ġable":2216,"oul":2217,"ips":2218,"Ġbelong":2219,"Ġbeh":2220,"Ġcarried":2221,"nes":2222,"Ġwit":2223,"cend":2224,"Ġentire":2225,"lex":2226,"ĠAnt":2227,"ek":2228,"amed":2229,"oment":2230,"ĠAll":2231,"char":2232,"ĠItal":2233,"attle":2234,"fs":2235,"iction":2236,"Ġdied":2237,"Ġ35":2238,"ĠAug":2239,"ISTORY":2240,"my":2241,"Ġtit":2242,"ĠMe":2243,"aves":2244,"orum":2245,"rif":2246,"On":2247,"orge":2248,"would":2249,"Ġtwenty":2250,"Ġide":2251,"pecially":2252,"Ġlie":2253,"Ġmor":2254,"cing":2255,"Ġye":2256,"Ġhope":2257,"ethod":2258,"ograph":2259,"At":2260,"Ġpay":2261,"els":2262,"ccles":2263,"Wh":2264,"ris":2265,"Ġ40":2266,"ille":2267,"Ġstand":2268,"ĠCH":2269,"upon":2270,"ounds":2271,"ĠScot":2272,"Ġhuman":2273,"pond":2274,"oo":2275,"lled":2276,"Ġplaced":2277,"Ġservice":2278,"essed":2279,"âĢĿ":2280,"Ġshow":2281,"oms":2282,"rent":2283,"TH":2284,"40":2285,"can":2286,"Ġbrother":2287,"duce":2288,"We":2289,"ourt":2290,"after":2291,"Ġintro":2292,"Ġge":2293,"igned":2294,"Ġnon":2295,"orts":2296,"Ġreligion":2297,"Ġformed":2298,"Ġearth":2299,"mitted":2300,"ĠEm":2301,"Ġwritten":2302,"face":2303,"ash":2304,"iously":2305,"poss":2306,"Ġlim":2307,"ij":2308,"reen":2309,"aff":2310,"thing":2311,"Ġvo":2312,"60":2313,"Ġspeak":2314,"Ġpray":2315,"oogle":2316,"Ġcast":2317,"Ġgentle":2318,"Ġclose":2319,"ĠQu":2320,"Ġexpect":2321,"Ġbeaut":2322,"itary":2323,"Ġobtained":2324,"inter":2325,"istr":2326,"Ġheav":2327,"ĠComm":2328,"ĠFran":2329,"Ġneed":2330,"cent":2331,"ustr":2332,"Ġbecome":2333,"ux":2334,"aughter":2335,"Ġmark":2336,"ĠCar":2337,"ining":2338,"lege":2339,"Ġhold":2340,"burg":2341,"ĠNor":2342,"ils":2343,"ulation":2344,"orning":2345,"Ġbelieve":2346,"ĠBar":2347,"Ġhig":2348,"ias":2349,"rang":2350,"TER":2351,"Ġfig":2352,"ĠQue":2353,"Ġclear":2354,"rd":2355,"night":2356,"ican":2357,"ests":2358,"Ġpie":2359,"Ġeas":2360,"No":2361,"ĠJames":2362,"will":2363,"Ġworth":2364,"Ġknowledge":2365,"like":2366,"ĠBl":2367,"ousand":2368,"Ġfire":2369,"ĠCharles":2370,"Ġdang":2371,"Ġlangu":2372,"ometimes":2373,"ald":2374,"Ġsuc":2375,"ĠÂ«":2376,"Ġlos":2377,"Ġgenerally":2378,"mber":2379,"Ġarch":2380,"Ġ38":2381,"Ġ180":2382,"rel":2383,"Ġkeep":2384,"inces":2385,"Ġ37":2386,"Ġexec":2387,"reland":2388,"ipp":2389,"sembl":2390,"Ġbes":2391,"ĠIV":2392,"rest":2393,"Ġ33":2394,"CHAP":2395,"inent":2396,"Ġsupport":2397,"Ġheard":2398,"Ġimportant":2399,"ĠLet":2400,"Ġbur":2401,"Ġcentury":2402,"Ġquar":2403,"ken":2404,"ze":2405,"iy":2406,"Ġeff":2407,"ribut":2408,"roy":2409,"ological":2410,"Ġty":2411,"great":2412,"Ġlaws":2413,"Ġmaj":2414,"enth":2415,"ĠPer":2416,"ĠMon":2417,"ixed":2418,"atus":2419,"Ġhonour":2420,"Ġinh":2421,"ively":2422,"pid":2423,"Ġsold":2424,"ĠRob":2425,"Ġtold":2426,"ria":2427,"Ġappeared":2428,"Ġred":2429,"Ġwind":2430,"tic":2431,"Ġhar":2432,"Ġoccup":2433,"pers":2434,"Ġthird":2435,"Ġeight":2436,"inted":2437,"Â£":2438,"Ġair":2439,"Ġsatisf":2440,"ĠGerman":2441,"ĠBishop":2442,"ailed":2443,"iments":2444,"Ġmoney":2445,"Ġdep":2446,"Ġpast":2447,"Ġ34":2448,"ĠYork":2449,"ih":2450,"some":2451,"Ġconcern":2452,"bar":2453,"stance":2454,"ember":2455,"ĠThomas":2456,"RO":2457,"Ġfrequ":2458,"Ġaf":2459,"Ġid":2460,"Ġought":2461,"ĠHistory":2462,"when":2463,"Ġchildren":2464,"ram":2465,"ication":2466,"Ġbring":2467,"than":2468,"ruction":2469,"Ġfu":2470,"Ġenemy":2471,"mar":2472,"Ġenc":2473,"rag":2474,"get":2475,"Ġpolit":2476,"stitution":2477,"ĠMan":2478,"ĠWest":2479,"Ġalone":2480,"erved":2481,"ĠNorth":2482,"lar":2483,"Ġaffect":2484,"Ġmentioned":2485,"vey":2486,"overnor":2487,"Ġwant":2488,"pire":2489,"airs":2490,"ĠNe":2491,"Ġalthough":2492,"Ġmount":2493,"Ġmoment":2494,"Ġoblig":2495,"ivid":2496,"uses":2497,"Ġhome":2498,"ĠCor":2499,"Ġsaw":2500,"Ġtroops":2501,"Ġquite":2502,"ander":2503,"Ġ\\":2504,"AND":2505,"culiar":2506,"appe":2507,"ĠSec":2508,"amb":2509,"cons":2510,"ado":2511,"ĠWith":2512,"Ġneg":2513,"Ġtell":2514,"Ġwife":2515,"Ġuni":2516,"iast":2517,"Ġorigin":2518,"jo":2519,"Ġunto":2520,"lished":2521,"Ġ36":2522,"Ġbus":2523,"Ġpossible":2524,"Ġcontinued":2525,"ari":2526,"ously":2527,"Ġda":2528,"ears":2529,"ĠHow":2530,"ini":2531,"Ġoriginal":2532,"has":2533,"Ġreign":2534,"ĠNot":2535,"50":2536,"net":2537,"Ġartic":2538,"ĠEp":2539,"arce":2540,"Ġcomplete":2541,"Ġot":2542,"formed":2543,"Ġviol":2544,"pat":2545,"Ġmaking":2546,"As":2547,"Ġround":2548,"Ġih":2549,"ĠOf":2550,"Ġthy":2551,"Ġsal":2552,"Ġ39":2553,"Ġblood":2554,"Ġletters":2555,"Ġleave":2556,"isted":2557,"Ġcut":2558,"Ġ{":2559,"Ġconnect":2560,"Ġemb":2561,"Ġplaces":2562,"aken":2563,"Ġhab":2564,"reme":2565,"ned":2566,"Ġav":2567,"Ġpaper":2568,"bishop":2569,"pper":2570,"pany":2571,"Ġimpro":2572,"Ġresol":2573,"aged":2574,"Ġamount":2575,"ta":2576,"Ġll":2577,"Ġsett":2578,"Ġfriends":2579,"lor":2580,"bid":2581,"Ġoccur":2582,"Ġmiles":2583,"Ġdeep":2584,"Ġthou":2585,"34":2586,"Ġcivil":2587,"rop":2588,"bre":2589,"Ġfine":2590,"Ġemployed":2591,"col":2592,"ror":2593,"Ġpoor":2594,"Ġpun":2595,"ĠJan":2596,"duction":2597,"ĠArch":2598,"Ġespecially":2599,"Ġ186":2600,"ceived":2601,"Ġsepar":2602,"Ġattention":2603,"Ġobserved":2604,"ĠIreland":2605,"Ġsimilar":2606,"Ġconsidered":2607,"ato":2608,"Ġinfluence":2609,"iqu":2610,"37":2611,"ped":2612,"oir":2613,"Ġthousand":2614,"imate":2615,"ĠEgypt":2616,"pel":2617,"21":2618,"Ġdoctr":2619,"Ġneither":2620,"Ġcouncil":2621,"AS":2622,"ĠFrom":2623,"set":2624,"Ġtal":2625,"utes":2626,"Ġkingdom":2627,"Ġadop":2628,"Ġadvant":2629,"Ġcapt":2630,"ĠAfter":2631,"Ġduty":2632,"Ġarms":2633,"pet":2634,"into":2635,"Ġti":2636,"38":2637,"rupt":2638,"ĠGreat":2639,"Ġaut":2640,"icated":2641,"teen":2642,"aded":2643,"yond":2644,"Ġwall":2645,"bury":2646,"ayed":2647,"Ġoper":2648,"Ġmembers":2649,"Ġlost":2650,"Ġanswer":2651,"ati":2652,"ories":2653,"Ġtest":2654,"Ġconsiderable":2655,"Ġhy":2656,"iful":2657,"Ġconst":2658,"pril":2659,"tee":2660,"Ġsun":2661,"Ġoppos":2662,"race":2663,"rid":2664,"Ġvalue":2665,"Ġ44":2666,"Ġbuild":2667,"Ġposition":2668,"ublic":2669,"standing":2670,"ocal":2671,"pic":2672,"rib":2673,"35":2674,"Ġfi":2675,"ĠAc":2676,"ĠQueen":2677,"Ġvirt":2678,"ny":2679,"ourse":2680,"ĠCouncil":2681,"ada":2682,"Ġdepart":2683,"aching":2684,"Ġriver":2685,"Ġste":2686,"Ġpoet":2687,"iety":2688,"ĠMem":2689,"ĠIr":2690,"ĠEdward":2691,"atur":2692,"Ġattack":2693,"Ġforth":2694,"ĠLat":2695,"Ġpra":2696,"lands":2697,"36":2698,"Ġlanguage":2699,"Ġappointed":2700,"Ġom":2701,"Ġmorning":2702,"Ġdistingu":2703,"ĠPe":2704,"tions":2705,"known":2706,"Ġvii":2707,"Ġdegree":2708,"Ġnorth":2709,"Ġthir":2710,"reed":2711,"ning":2712,"ĠGu":2713,"Ġget":2714,"erty":2715,"ĠSu":2716,"ĠMajesty":2717,"velop":2718,"Ġeyes":2719,"iting":2720,"Ġlaid":2721,"gment":2722,"Ġchap":2723,"Ġpeculiar":2724,"Ġsend":2725,"range":2726,"riage":2727,"ouses":2728,"Ġnote":2729,"Ġstri":2730,"Ġfut":2731,"Ġles":2732,"thern":2733,"Ġcrown":2734,"ĠCal":2735,"Ġrefer":2736,"wing":2737,"ĠOne":2738,"Ġimmediately":2739,"di":2740,"time":2741,"Ġjo":2742,"Ġschool":2743,"Ġexhib":2744,"ha":2745,"Ġsense":2746,"inning":2747,"may":2748,"Ġaction":2749,"Ġcoun":2750,"ĠPat":2751,"utions":2752,"Ġconv":2753,"Ġprincipal":2754,"Ġdescribed":2755,"Ġdif":2756,"anc":2757,"Ġsin":2758,"Ġneigh":2759,"ĠCapt":2760,"Ġbegan":2761,"Ġwhite":2762,"Ġnotice":2763,"ĠDuke":2764,"Ġfac":2765,"cial":2766,"Eng":2767,"dis":2768,"Ġ21":2769,"Ġreport":2770,"Ġproduced":2771,"pi":2772,"ĠMed":2773,"ification":2774,"gin":2775,"Ġgold":2776,"ĠMarch":2777,"Ġkept":2778,"Ġfollowed":2779,"Ġsubjects":2780,"atever":2781,"ĠCath":2782,"respond":2783,"ĠOct":2784,"ĠGl":2785,"Ġwood":2786,"Ġcompl":2787,"Ġhath":2788,"ua":2789,"Ġcele":2790,"orough":2791,"ceeded":2792,"ital":2793,"ula":2794,"ores":2795,"Ar":2796,"Ġfear":2797,"ĠGeneral":2798,"Ġremain":2799,"ĠGovernment":2800,"ĠJune":2801,"ills":2802,"Ġenter":2803,"ĠIndia":2804,"Ġbad":2805,"uct":2806,"ĠPort":2807,"just":2808,"ma":2809,"Ġmater":2810,"ĠTO":2811,"Ġprince":2812,"iddle":2813,"Ġreturned":2814,"Ġled":2815,"Ġroy":2816,"joy":2817,"Ġdue":2818,"Ġsi":2819,"Ġdistinct":2820,"ĠJuly":2821,"Ġsometimes":2822,"Ġoffice":2823,"Ġportion":2824,"sion":2825,"Ġfol":2826,"Ġhel":2827,"Ġxv":2828,"Ġprison":2829,"Ġcondition":2830,"again":2831,"UN":2832,"ĠIm":2833,"istance":2834,"ĠSept":2835,"ĠWhat":2836,"ividual":2837,"itting":2838,"ify":2839,"ĠGeorge":2840,"itor":2841,"ĠMag":2842,"iver":2843,"ogn":2844,"ĠYou":2845,"hood":2846,"Ġclaim":2847,"ĠLa":2848,"Al":2849,"Ġfield":2850,"num":2851,"ĠRE":2852,"Ġforms":2853,"atory":2854,"cluded":2855,"rey":2856,"anced":2857,"ĠMin":2858,"39":2859,"Ġtl":2860,"Ġprevent":2861,"ourable":2862,"Ġmethod":2863,"Ġenough":2864,"Ġplan":2865,"Ġphil":2866,"Ġfoot":2867,"ĠHISTORY":2868,"Ġ45":2869,"Ġsecret":2870,"Ġmass":2871,"Ġvict":2872,"Ġcases":2873,"ech":2874,"bet":2875,"Ġ50":2876,"ichard":2877,"Ġsitu":2878,"IR":2879,"Ġduke":2880,"Ġ48":2881,"ishing":2882,"44":2883,"oft":2884,"oke":2885,"acc":2886,"gar":2887,"Ġpal":2888,"two":2889,"Ġconcl":2890,"Ġliter":2891,"Ġdark":2892,"Ġves":2893,"action":2894,"oved":2895,"ĠBer":2896,"Ġcarry":2897,"alog":2898,"iled":2899,"era":2900,"Pro":2901,"you":2902,"ended":2903,"'t":2904,"Ġaw":2905,"Ġofficers":2906,"sent":2907,"ĠCr":2908,"Ġspecim":2909,"Ġgrow":2910,"Ġexcell":2911,"Ġprivate":2912,"alled":2913,"abitants":2914,"tell":2915,"ustom":2916,"Ġtemper":2917,"versity":2918,"ĠAlex":2919,"Ġdesign":2920,"bon":2921,"Ġlater":2922,"ĠCount":2923,"Ġmaster":2924,"OP":2925,"ument":2926,"ĠEsq":2927,"Ġwat":2928,"Ġinqu":2929,"Ġnoble":2930,"should":2931,"ĠRep":2932,"Ġarrang":2933,"Ġmother":2934,"ĠRom":2935,"lement":2936,"ĠReg":2937,"Ġtli":2938,"bert":2939,"Ġamb":2940,"ging":2941,"Ġbis":2942,"cd":2943,"Ġroyal":2944,"Ġhi":2945,"spe":2946,"eav":2947,"Ġmove":2948,"Ġlow":2949,"Ġcharge":2950,"Ġreligious":2951,"ili":2952,"Ġchange":2953,"isters":2954,"ĠAugust":2955,"worth":2956,"Ġelect":2957,"Ġimper":2958,"elve":2959,"ĠRoyal":2960,"ndered":2961,"ainted":2962,"hers":2963,"ĠBo":2964,"car":2965,"Ġtransl":2966,"Ġaud":2967,"ĠVol":2968,"Ġparliament":2969,"wer":2970,"eds":2971,"iles":2972,"ĠAg":2973,"Ġtitle":2974,"There":2975,"Ġnumerous":2976,"cap":2977,"Ġmaint":2978,"pass":2979,"Ġ47":2980,"ĠCam":2981,"DE":2982,"Ġbooks":2983,"OT":2984,"Ġrev":2985,"Ġorgan":2986,"pon":2987,"ĠSam":2988,"aught":2989,"Ġfair":2990,"Ġsupposed":2991,"cious":2992,"urd":2993,"Ġseemed":2994,"Ġrepe":2995,"urches":2996,"48":2997,"made":2998,"bel":2999,"Ġaccept":3000,"Ġcomb":3001,"Ġrequired":3002,"portion":3003,"Å¿t":3004,"Ġmain":3005,"ĠMa":3006,"Ġdead":3007,"Ġhistor":3008,"cle":3009,"Ġready":3010,"Ġblack":3011,"ios":3012,"Ġalong":3013,"Ġincl":3014,"Ġequal":3015,"pared":3016,"Ġstreng":3017,"ATION":3018,"Ġbenef":3019,"anct":3020,"Ġvill":3021,"ĠFeb":3022,"ĠRobert":3023,"De":3024,"certain":3025,"Ġforeign":3026,"uit":3027,"iced":3028,"Ġholy":3029,"RI":3030,"arcely":3031,"aste":3032,"Ġfurn":3033,"Ġappearance":3034,"ĠEn":3035,"va":3036,"osoph":3037,"Ġdaughter":3038,"being":3039,"soci":3040,"Ġbeyond":3041,"ĠAng":3042,"Ġgives":3043,"come":3044,"jud":3045,"Ġep":3046,"ĠOx":3047,"add":3048,"Ġviii":3049,"For":3050,"Ġplain":3051,"ĠCourt":3052,"Ġlonger":3053,"ĠSoc":3054,"Ġ179":3055,"ements":3056,"ras":3057,"rence":3058,"Ġtu":3059,"sub":3060,"Ġbattle":3061,"uous":3062,"Ġexerc":3063,"Ã±":3064,"Ġnone":3065,"ora":3066,"Ġsufficient":3067,"Ġign":3068,"Ġtaking":3069,"otest":3070,"place":3071,"Ġextra":3072,"John":3073,"resh":3074,"bi":3075,"asures":3076,"these":3077,"ĠMy":3078,"ishes":3079,"cclesiast":3080,"Ġadded":3081,"uary":3082,"Ġclergy":3083,"ino":3084,"Ġgrand":3085,"ems":3086,"Ġbound":3087,"ĠJourn":3088,"SS":3089,"Ġrun":3090,"Ġgreatest":3091,"ĠMrs":3092,"Ġcircumstances":3093,"fa":3094,"cn":3095,"Ġcelebr":3096,"vell":3097,"je":3098,"cer":3099,"mi":3100,"Ġfront":3101,"long":3102,"Ġcross":3103,"ita":3104,"only":3105,"Ġarrived":3106,"bu":3107,"unity":3108,"Ġho":3109,"ĠSm":3110,"rough":3111,"GE":3112,"ored":3113,"Ġsingle":3114,"gl":3115,"Ġprinciples":3116,"ĠMad":3117,"essor":3118,"Ġsouth":3119,"Ġexped":3120,"elf":3121,"ĠSy":3122,"Ġ46":3123,"Ġnames":3124,"Ġsure":3125,"Ġchang":3126,"ĠMary":3127,"Ġentirely":3128,"ĠNat":3129,"Ġdri":3130,"URE":3131,"ĠPo":3132,"ĠĠĠĠ":3133,"ĠPaul":3134,"ĠJer":3135,"present":3136,"Ġfelt":3137,"nex":3138,"arks":3139,"47":3140,"yle":3141,"Ġpassage":3142,"Ġpolitical":3143,"xx":3144,"33":3145,"Ġreceive":3146,"band":3147,"ĠLife":3148,"road":3149,"Ġentered":3150,"UL":3151,"rict":3152,"ables":3153,"Ġ187":3154,"eral":3155,"ĠSouth":3156,"ĠMiss":3157,"ĠSte":3158,"Ġimag":3159,"ection":3160,"Ġestablish":3161,"Ġprogress":3162,"right":3163,"Ġsom":3164,"much":3165,"Ġindividual":3166,"ĠAnn":3167,"Ġpet":3168,"cu":3169,"alk":3170,"press":3171,"possible":3172,"ĠAcc":3173,"Ġhear":3174,"ails":3175,"Ġqui":3176,"Se":3177,"Ġcoast":3178,"ĠScotland":3179,"Ġeduc":3180,"ĠJes":3181,"ĠSome":3182,"Ġface":3183,"Ġgrace":3184,"ĠST":3185,"ĠEli":3186,"hold":3187,"sembly":3188,"itable":3189,"Ġremarkable":3190,"ades":3191,"uck":3192,"how":3193,"Ġ49":3194,"Ġbra":3195,"ational":3196,"Ġphys":3197,"ros":3198,"onel":3199,"icate":3200,"Ġdesire":3201,"hest":3202,"ĠDav":3203,"Ġproperty":3204,"Ġidea":3205,"Ġtot":3206,"aa":3207,"ically":3208,"Ġhorse":3209,"nn":3210,"ĠFl":3211,"Ġeye":3212,"Ġattend":3213,"ye":3214,"Ġprocess":3215,"umed":3216,"ĠLib":3217,"Ġjustice":3218,"lin":3219,"rees":3220,"IX":3221,"45":3222,"Ġgod":3223,"ething":3224,"she":3225,"sued":3226,"Ġcolour":3227,"ĠLaw":3228,"Ġmyself":3229,"Ġextreme":3230,"Ġcum":3231,"ara":3232,"erted":3233,"Ġfal":3234,"house":3235,"orded":3236,"Ġsurface":3237,"AY":3238,"Ġdepend":3239,"ĠXV":3240,"Ġterms":3241,"ĠPeter":3242,"orks":3243,"Ġvessel":3244,"ĠEarl":3245,"Ġprim":3246,"Ġdisp":3247,"Ġdistance":3248,"Ġpaid":3249,"ĠGreek":3250,"Ġmonths":3251,"Ġstated":3252,"Ġcit":3253,"Ġpresented":3254,"Ġmeasure":3255,"Ġobs":3256,"Ġlist":3257,"together":3258,"Ġcell":3259,"Ġorders":3260,"Ġinj":3261,"eness":3262,"Be":3263,"aled":3264,"Ġknew":3265,"Ġhour":3266,"Ġlines":3267,"ials":3268,"Ġaddition":3269,"ĠVI":3270,"ĠLie":3271,"Ġliberty":3272,"Ġscience":3273,"Ġevidence":3274,"Ġpoints":3275,"ĠHar":3276,"ĠBook":3277,"Ġexample":3278,"Com":3279,"Ġvisit":3280,"Ġtrust":3281,"ĠPrince":3282,"Ġess":3283,"Ġendeav":3284,"ires":3285,"Ġseven":3286,"Ġcat":3287,"claim":3288,"ĠPal":3289,"Ġelse":3290,"Ġmult":3291,"ĠSw":3292,"Ġpope":3293,"Ġdate":3294,"mir":3295,"Ġremained":3296,"mod":3297,"ĠAf":3298,"Ġhop":3299,"Ġslight":3300,"work":3301,"Ġlady":3302,"46":3303,"sol":3304,"Ġpossess":3305,"ules":3306,"iis":3307,"Ġnative":3308,"Ġcertainly":3309,"Ġarg":3310,"ĠIrish":3311,"ese":3312,"Ġbran":3313,"Ġfuture":3314,"Ġpreced":3315,"onder":3316,"ĠApril":3317,"ett":3318,"ids":3319,"By":3320,"ĠSur":3321,"Ġallowed":3322,"IA":3323,"ĠThus":3324,"Ġprinted":3325,"ana":3326,"Ġsugg":3327,"Ġcred":3328,"Ġquant":3329,"light":3330,"occ":3331,"such":3332,"Ġdeb":3333,"pir":3334,"Ġenjoy":3335,"ĠNov":3336,"Ġliving":3337,"Ġinstrum":3338,"EM":3339,"Ġma":3340,"Ġfle":3341,"pa":3342,"ture":3343,"Ġlas":3344,"ĠParliament":3345,"iah":3346,"law":3347,"ref":3348,"Ġestablished":3349,"Ã³n":3350,"mission":3351,"ĠXX":3352,"Ġstru":3353,"Ġseries":3354,"isions":3355,"Ġâĸł":3356,"Pr":3357,"Ġcreat":3358,"bell":3359,"kind":3360,"oa":3361,"Ġexact":3362,"cs":3363,"ĠSal":3364,"Ġillustr":3365,"eren":3366,"omy":3367,"those":3368,"Ġdim":3369,"bles":3370,"Ġintended":3371,"ERS":3372,"Ġjour":3373,"Ġinteresting":3374,"Ġfir":3375,"might":3376,"Ġdemand":3377,"iding":3378,"ĠPres":3379,"field":3380,"ĠDo":3381,"Ġtou":3382,"found":3383,"ĠPers":3384,"anks":3385,"rr":3386,"ilst":3387,"ĠUni":3388,"verse":3389,"Ġdeclared":3390,"Ġconqu":3391,"Ġpossession":3392,"Ġvel":3393,"Ġdevelop":3394,"ĠAv":3395,"ba":3396,"Ġinhabitants":3397,"Ġadvantage":3398,"CI":3399,"Ġsym":3400,"Ġmeeting":3401,"Ġlower":3402,"Ġusual":3403,"If":3404,"Ġ178":3405,"Ġmusic":3406,"ĠJew":3407,"Ġ=":3408,"ival":3409,"Ġproof":3410,"itive":3411,"before":3412,"ching":3413,"iti":3414,"ĠSpan":3415,"emed":3416,"fo":3417,"Ġpresence":3418,"Ġmas":3419,"Ed":3420,"owing":3421,"bey":3422,"Ġ<":3423,"Ġnamed":3424,"ĠCast":3425,"Ġgiving":3426,"Ġgovern":3427,"Ġalt":3428,"ishment":3429,"Ġ177":3430,"Ġdescription":3431,"Ġsqu":3432,"ĠState":3433,"Ġtrou":3434,"49":3435,"Ġroad":3436,"Ġevening":3437,"Ġlive":3438,"Ġproved":3439,"Ġnations":3440,"Ġwhatever":3441,"ĠAmerican":3442,"Ġfamil":3443,"Ġstates":3444,"Ġconsequence":3445,"Ġinstance":3446,"Ġedition":3447,"Ġsou":3448,"Re":3449,"Ġforward":3450,"Ġpred":3451,"ĠHere":3452,"cis":3453,"Ġpa":3454,"lli":3455,"Ġsort":3456,"ofe":3457,"ĠCollege":3458,"ĠNove":3459,"Ġbod":3460,"ĠChe":3461,"Ġbeginning":3462,"Ġbishops":3463,"Ġappre":3464,"Ġdirection":3465,"ensive":3466,"Ġwrote":3467,"Ġconce":3468,"ĠAmerica":3469,"alle":3470,"street":3471,"estig":3472,"Ġthirty":3473,"ounced":3474,"Ġtend":3475,"Ġlearned":3476,"LI":3477,"Le":3478,"ancy":3479,"ĠProv":3480,"Ġvolume":3481,"order":3482,"Ġbusiness":3483,"Ġgoing":3484,"Ġpress":3485,"bted":3486,"uments":3487,"Ġapparent":3488,"With":3489,"Ġloss":3490,"Ġshown":3491,"ĠMo":3492,"istry":3493,"Ġvalu":3494,"rian":3495,"ivered":3496,"Ġpractice":3497,"Ġ_":3498,"itation":3499,"aces":3500,"rief":3501,"UM":3502,"ented":3503,"Ġgot":3504,"nat":3505,"Ġfounded":3506,"Sir":3507,"Or":3508,"aval":3509,"utation":3510,"ete":3511,"Ġcru":3512,"Ġpret":3513,"Ġmerely":3514,"Ġadmir":3515,"Ġrapid":3516,"ĠĠĠ":3517,"Ġsociety":3518,"Ġscarcely":3519,"Ġmodern":3520,"Ġordinary":3521,"Ġemperor":3522,"Ġconsist":3523,"cur":3524,"Ġcorrespond":3525,"Ġsle":3526,"Ġpros":3527,"Ġfat":3528,"Con":3529,"Ġpowers":3530,"Ġdistinguished":3531,"ĠMart":3532,"Ġspecial":3533,"Ġcorrect":3534,"Ġqueen":3535,"Ġdanger":3536,"Ġheat":3537,"Ġanti":3538,"Ġstudy":3539,"Ġetc":3540,"Ġ189":3541,"Of":3542,"Ġbird":3543,"ĠCat":3544,"Ġtrade":3545,"Ġack":3546,"Ġlands":3547,"Ġinstit":3548,"uer":3549,"Ġimportance":3550,"Ġextent":3551,"ators":3552,"Ġmid":3553,"shire":3554,"Ġmilitary":3555,"Ġbear":3556,"ĠâĢĿ":3557,"ĠÂ»":3558,"Ġsens":3559,"Ġpopular":3560,"irth":3561,"ĠTur":3562,"rab":3563,"about":3564,"abeth":3565,"When":3566,"Ġbas":3567,"antly":3568,"could":3569,"fr":3570,"Ġmagn":3571,"head":3572,"Ġfru":3573,"ĠRichard":3574,"ributed":3575,"Ġbecom":3576,"ode":3577,"Ġraised":3578,"ĠMil":3579,"asing":3580,"Ġsir":3581,"Ġremains":3582,"bridge":3583,"Ġdoctrine":3584,"His":3585,"aced":3586,"ĠWal":3587,"poses":3588,"ston":3589,"vert":3590,"Ġgranted":3591,"orrow":3592,"bit":3593,"Ġprove":3594,"Ġsubs":3595,"Ġdetermined":3596,"Ġthin":3597,"Ġcult":3598,"Ġdrawn":3599,"Ġearli":3600,"Ġjudgment":3601,"Ġobservations":3602,"Ġrich":3603,"Ġacknow":3604,"Ġamongst":3605,"ĠPri":3606,"58":3607,"Ġabsol":3608,"Ġhost":3609,"Ġcontrary":3610,"uv":3611,"Ġisland":3612,"AD":3613,"ibly":3614,"rog":3615,"UT":3616,"Ġdom":3617,"ternal":3618,"cor":3619,"Ġplay":3620,"Ġdiscuss":3621,"ague":3622,"inity":3623,"Ġwild":3624,"EW":3625,"Dr":3626,"Ġvers":3627,"dra":3628,"Ġneighbour":3629,"ĠSpain":3630,"ĠItaly":3631,"ede":3632,"ĠTe":3633,"lly":3634,"Ġagree":3635,"Ġdr":3636,"Ġmot":3637,"ico":3638,"ĠEl":3639,"uy":3640,"many":3641,"za":3642,"Ġcost":3643,"cia":3644,"ĠPet":3645,"31":3646,"Ġaid":3647,"wr":3648,"ĠHon":3649,"Ġfit":3650,"first":3651,"iel":3652,"Ġtwelve":3653,"ension":3654,"Ġmort":3655,"ĠVer":3656,"Ġhours":3657,"iry":3658,"Ġpure":3659,"ams":3660,"Ã¼":3661,"Ġinstead":3662,"ĠWil":3663,"Ġprinciple":3664,"pelled":3665,"panied":3666,"Ġsud":3667,"Ġcamp":3668,"Ġinformation":3669,"iscop":3670,"Ġroom":3671,"ICAL":3672,"Ġdon":3673,"Ġwish":3674,"Ġrendered":3675,"emb":3676,"Ġgrat":3677,"amm":3678,"itto":3679,"Ġship":3680,"They":3681,"Ġpot":3682,"So":3683,"ĠOb":3684,"cies":3685,"nr":3686,"That":3687,"Ġfrequently":3688,"Ġconstant":3689,"OND":3690,"Ġpleasure":3691,"Ġobliged":3692,"Ġopport":3693,"Ġstep":3694,"Ġfully":3695,"Ġempire":3696,"gra":3697,"ability":3698,"Lord":3699,"Ġsuperior":3700,"ji":3701,"ufact":3702,"zabeth":3703,"AB":3704,"isl":3705,"Ġmiddle":3706,"ĠGovernor":3707,"Ġresults":3708,"ingly":3709,"tellig":3710,"Ġmotion":3711,"Ġ60":3712,"Ġcrit":3713,"Ġself":3714,"same":3715,"Ġstrength":3716,"cks":3717,"ĠLady":3718,"against":3719,"hi":3720,"ordinary":3721,"Ġtrad":3722,"without":3723,"cond":3724,"stood":3725,"nl":3726,"ISH":3727,"irs":3728,"Ġlived":3729,"Ġsovere":3730,"ĠVIII":3731,"Ġlabour":3732,"Ġthee":3733,"ĠStates":3734,"Ġapplied":3735,"ĠJud":3736,"Ġwhy":3737,"enced":3738,"Ġdesp":3739,"usal":3740,"Ġstra":3741,"formation":3742,"Ġsimple":3743,"Ġunivers":3744,"55":3745,"Ġoffered":3746,"ura":3747,"Ġsacrif":3748,"ĠDes":3749,"Christ":3750,"Ġsed":3751,"four":3752,"Ġcompar":3753,"omb":3754,"Ġadopted":3755,"Ġswe":3756,"Ġgrad":3757,"Ġparticularly":3758,"omer":3759,"ĠPap":3760,"sal":3761,"Ġmist":3762,"chen":3763,"Ad":3764,"uel":3765,"Ġdign":3766,"ena":3767,"ĠTheir":3768,"Ġperform":3769,"ĠMor":3770,"Ġ31":3771,"iU":3772,"ĠMus":3773,"kes":3774,"Col":3775,"ĠDan":3776,"Ġbeautiful":3777,"66":3778,"Ġguard":3779,"ĠCa":3780,"Ġpain":3781,"inite":3782,"quis":3783,"Ġzeal":3784,"ority":3785,"Ġfun":3786,"ĠLatin":3787,"never":3788,"Ġsomething":3789,"ĠGoogle":3790,"Ġapplic":3791,"rol":3792,"Ġturned":3793,"ds":3794,"hel":3795,"ĠScript":3796,"Ġdisci":3797,"arrow":3798,"Ġships":3799,"Ġqual":3800,"Ġdestroy":3801,"Ġhast":3802,"olit":3803,"ante":3804,"London":3805,"Ġur":3806,"ray":3807,"Ġheight":3808,"Ġmakes":3809,"Ġrank":3810,"othing":3811,"Ġwhilst":3812,"Ġrevol":3813,"ington":3814,"ĠWar":3815,"ĠVII":3816,"tra":3817,"Ġproposed":3818,"sell":3819,"Ġequally":3820,"Ġstood":3821,"uns":3822,"uff":3823,"Ġdivine":3824,"Ġmoral":3825,"Google":3826,"Ġenemies":3827,"Ġcold":3828,"Ġdeal":3829,"Ġpict":3830,"ero":3831,"oseph":3832,"met":3833,"Ġweak":3834,"Ġprepar":3835,"wood":3836,"Ġprepared":3837,"Ġhus":3838,"Ġvon":3839,"Ġdifficulty":3840,"ĠCatholic":3841,"itz":3842,"asons":3843,"irect":3844,"cclesiastical":3845,"equ":3846,"Ġmi":3847,"Ġweek":3848,"Ġignor":3849,"Ġtable":3850,"ĠBritain":3851,"Ġthick":3852,"amber":3853,"80":3854,"Ġparties":3855,"ĠHoly":3856,"Ġwriters":3857,"Ġded":3858,"Ġmatters":3859,"ĠNow":3860,"hy":3861,"ĠEast":3862,"diff":3863,"Ġregular":3864,"Ġia":3865,"Ġadmin":3866,"Ġfacts":3867,"Ġol":3868,"Ġfem":3869,"Ġcoming":3870,"Ġdistrict":3871,"From":3872,"rick":3873,"32":3874,"iation":3875,"Ġee":3876,"Ġpersonal":3877,"Ġstyle":3878,"through":3879,"cientific":3880,"dem":3881,"Ġdescri":3882,"Ġindepend":3883,"IG":3884,"IAN":3885,"hand":3886,"Ġobjects":3887,"ĠFather":3888,"Ġfil":3889,"uten":3890,"Ġanimal":3891,"ĠUnited":3892,"ask":3893,"aints":3894,"TS":3895,"ober":3896,"Ġcho":3897,"Ġwriter":3898,"Ġexpected":3899,"sect":3900,"Ġapost":3901,"New":3902,"tl":3903,"vention":3904,"Ġthroughout":3905,"Ġang":3906,"burgh":3907,"tw":3908,"cluding":3909,"sue":3910,"Ġsoul":3911,"Ġinstruct":3912,"inus":3913,"Ġreally":3914,"Ġproportion":3915,"Ġpieces":3916,"erate":3917,"orne":3918,"Ġprice":3919,"see":3920,"ospel":3921,"Ġsize":3922,"ception":3923,"ĠTrans":3924,"ply":3925,"Ġvent":3926,"59":3927,"itled":3928,"ibility":3929,"side":3930,"Ġasked":3931,"enn":3932,"Ġfirm":3933,"Ġengaged":3934,"Ġinfer":3935,"Ġexcellent":3936,"iance":3937,"icy":3938,"och":3939,"ike":3940,"Ġtb":3941,"Mar":3942,"Ġlooked":3943,"fortun":3944,"Ġ57":3945,"Ġix":3946,"nest":3947,"Ġlat":3948,"every":3949,"Ġsudden":3950,"Sc":3951,"Ġcontem":3952,"Ġpref":3953,"Ġevil":3954,"Ġwoman":3955,"Ġwomen":3956,"icro":3957,"Ġcontr":3958,"ĠAust":3959,"Ġdraw":3960,"56":3961,"Ġallow":3962,"ĠSon":3963,"Ġordered":3964,"57":3965,"Ġfalse":3966,"ourage":3967,"oses":3968,"Ġago":3969,"Ġhither":3970,"useum":3971,"Ġhelp":3972,"GL":3973,"Ġwide":3974,"Ġproduce":3975,"Ġpara":3976,"ares":3977,"Ġtext":3978,"ulf":3979,"ĠOxford":3980,"adv":3981,"Ġdiscovered":3982,"cut":3983,"Ġaddress":3984,"orious":3985,"don":3986,"Ġmouth":3987,"Ġstory":3988,"supp":3989,"Ġsomewhat":3990,"Am":3991,"Ġsight":3992,"emy":3993,"Ġserve":3994,"Ġcontin":3995,"lla":3996,"Ġnumbers":3997,"Ġhouses":3998,"AC":3999,"estern":4000,"Ġplant":4001,"cher":4002,"Ġrule":4003,"Ġtom":4004,"Ġhigher":4005,"rig":4006,"ĠIndian":4007,"iit":4008,"Ġbehind":4009,"rec":4010,"Ġbed":4011,"Ġexistence":4012,"Ġfixed":4013,"Ġcovered":4014,"Ġaffairs":4015,"Ġcompany":4016,"lemn":4017,"Ġvoice":4018,"stone":4019,"Ġfeeling":4020,"Ġheaven":4021,"general":4022,"Ġrender":4023,"ential":4024,"Ġbuilt":4025,"mittee":4026,"Ġcu":4027,"ouis":4028,"country":4029,"racted":4030,"Ġworthy":4031,"ĠMat":4032,"Ġeasily":4033,"Ġmode":4034,"Ġrecogn":4035,"Ġhighly":4036,"Ġevent":4037,"ially":4038,"Ġcry":4039,"Ġobtain":4040,"Ġconcerning":4041,"Ġdise":4042,"book":4043,"otes":4044,"OS":4045,"Ġsav":4046,"Ġconnected":4047,"Ġimpossible":4048,"Ġgreatly":4049,"Ġcelebrated":4050,"Ġdomin":4051,"Ġworship":4052,"ellow":4053,"Ġni":4054,"ĠJust":4055,"Ġsucceeded":4056,"Ġweight":4057,"Ġdescend":4058,"eration":4059,"Ġforty":4060,"Ġgall":4061,"arden":4062,"Ġdelivered":4063,"Ġhabit":4064,"Ġdirected":4065,"cles":4066,"Ġmarriage":4067,"Par":4068,"ho":4069,"Ġsound":4070,"Ġfail":4071,"ĠEN":4072,"Ġadvanced":4073,"ĠTH":4074,"Ġhealth":4075,"iform":4076,"ĠCaptain":4077,"Ġquod":4078,"urb":4079,"ager":4080,"ĠProtest":4081,"while":4082,"Ġhighest":4083,"prise":4084,"Ġvig":4085,"OOK":4086,"Ġreached":4087,"overy":4088,"Ġprop":4089,"ners":4090,"cal":4091,"umes":4092,"Ġsevere":4093,"Ġcapital":4094,"ea":4095,"Ġstone":4096,"Ġchiefly":4097,"bra":4098,"ructure":4099,"Ġiron":4100,"Ġwalls":4101,"uries":4102,"Ġkilled":4103,"Ġconstit":4104,"ulated":4105,"Ġadmitted":4106,"Ġproc":4107,"Ġeste":4108,"Ġboy":4109,"Ġwitness":4110,"Ġincrease":4111,"uris":4112,"Ġbesides":4113,"ption":4114,"Ġextend":4115,"oned":4116,"pped":4117,"Ġnational":4118,"teenth":4119,"Ġ/":4120,"atio":4121,"ression":4122,"ĠCO":4123,"acity":4124,"withstanding":4125,"icted":4126,"Ġsacred":4127,"Ġspot":4128,"ruary":4129,"Ġgone":4130,"chief":4131,"Ġglass":4132,"hip":4133,"Ġcaused":4134,"Ġintroduced":4135,"Ġ>":4136,"Ġevents":4137,"point":4138,"68":4139,"Ġfifty":4140,"Ġ+":4141,"Ġwest":4142,"rim":4143,"Ġmel":4144,"Ġrecomm":4145,"Ġconvers":4146,"Ġsupply":4147,"urity":4148,"hend":4149,"cember":4150,"ando":4151,"acters":4152,"Ġhom":4153,"ental":4154,"Ġtheory":4155,"Ġdivided":4156,"oration":4157,"ĠThen":4158,"Ġchurches":4159,"Ġcountries":4160,"hall":4161,"Ġinn":4162,"aud":4163,"ivity":4164,"Ġnecessity":4165,"Ġsevent":4166,"ĠOff":4167,"astern":4168,"umph":4169,"Ġreference":4170,"vation":4171,"Ġborn":4172,"ĠDavid":4173,"Ġcomposed":4174,"ARY":4175,"Ġdefence":4176,"ĠLand":4177,"said":4178,"Ġfresh":4179,"ĠSuch":4180,"pher":4181,"ido":4182,"ĠMont":4183,"Ġhat":4184,"ĠCompany":4185,"ĠTem":4186,"ĠDE":4187,"ĠRuss":4188,"ĠSmith":4189,"ingham":4190,"sm":4191,"OF":4192,"ĠElizabeth":4193,"Ġwonder":4194,"Ġgentleman":4195,"oral":4196,"Ġmur":4197,"Ġiu":4198,"aker":4199,"atives":4200,"Ġdoor":4201,"Ġmut":4202,"Ġhardly":4203,"ims":4204,"istic":4205,"Ġotherwise":4206,"ĠÃ©":4207,"Ġmir":4208,"Ġuseful":4209,"Ġseason":4210,"88":4211,"ĠBur":4212,"ĠNap":4213,"Ġrace":4214,"41":4215,"Ġmanif":4216,"arily":4217,"Ġregarded":4218,"Ġmill":4219,"bec":4220,"cape":4221,"ĠDi":4222,"Ġoccupied":4223,"Ġxxx":4224,"ĠIbid":4225,"ĠAss":4226,"umb":4227,"ĠJe":4228,"IES":4229,"Ġimm":4230,"Ġdispl":4231,"ush":4232,"Ġcurious":4233,"Å¿e":4234,"ville":4235,"Ġerect":4236,"Ġanimals":4237,"Ġven":4238,"Ġdefend":4239,"ĠMac":4240,"three":4241,"Ġvaluable":4242,"43":4243,"Ġcontains":4244,"Ġabsolute":4245,"Is":4246,"Ġreplied":4247,"AV":4248,"pen":4249,"Ġreven":4250,"Ġrights":4251,"Ġ80":4252,"mos":4253,"Ġupper":4254,"ART":4255,"lend":4256,"NO":4257,"Ġunless":4258,"Ġexpressed":4259,"Ġbelow":4260,"ona":4261,"Ind":4262,"Ġcentre":4263,"Ġsoldiers":4264,"Ġrise":4265,"Ġbodies":4266,"Ġwis":4267,"ĠAfric":4268,"Ġcompan":4269,"jus":4270,"Ġmal":4271,"estions":4272,"Ġprivile":4273,"Ġalter":4274,"oria":4275,"Ġcauses":4276,"Ġrepresented":4277,"Ġsides":4278,"Ġthrone":4279,"ĠCont":4280,"body":4281,"Ġdil":4282,"Ge":4283,"ĠFR":4284,"ĠLords":4285,"Ġtakes":4286,"Ġattended":4287,"aft":4288,"Ġanx":4289,"Ex":4290,"pres":4291,"Ġcontaining":4292,"Ġdear":4293,"Ġsubsequ":4294,"ATURE":4295,"gend":4296,"pected":4297,"aph":4298,"Ġerr":4299,"ey":4300,"LES":4301,"Ġcre":4302,"even":4303,"Ġbroad":4304,"Ġreader":4305,"Ġintellig":4306,"TO":4307,"Ġsour":4308,"Ġincreased":4309,"Tr":4310,"ĠHigh":4311,"Ġterrit":4312,"orses":4313,"Ġglory":4314,"tf":4315,"Ġcommission":4316,"Ġgrant":4317,"Ġdifference":4318,"Ġpiece":4319,"Ġkings":4320,"Ġcover":4321,"aria":4322,"70":4323,"Ġ100":4324,"Ġopinions":4325,"Ġoffer":4326,"del":4327,"Ġsect":4328,"Ġremoved":4329,"requ":4330,"yng":4331,"ĠFox":4332,"aven":4333,"ĠPart":4334,"Ġyouth":4335,"Ġsat":4336,"hon":4337,"ospit":4338,"Ġtreaty":4339,"Ġxiv":4340,"Ġrespecting":4341,"Ġcontained":4342,"ĠAcad":4343,"Ġpurch":4344,"ĠMess":4345,"Ġwriting":4346,"Ġsovereign":4347,"Ġmarked":4348,"Ġae":4349,"Ġprophe":4350,"Ġcommer":4351,"Ġforg":4352,"ĠConstant":4353,"power":4354,"Ġlad":4355,"Ġjoy":4356,"Ġopened":4357,"Cl":4358,"mus":4359,"Ġinches":4360,"Ġtop":4361,"Ġcollection":4362,"Ġviews":4363,"Ġconstitution":4364,"ĠMal":4365,"Ġ59":4366,"General":4367,"pur":4368,"ĠCy":4369,"Ġvain":4370,"Ġstation":4371,"sch":4372,"Ġfilled":4373,"Ġduties":4374,"eed":4375,"Ġdefe":4376,"CO":4377,"ĠOP":4378,"Ġeast":4379,"ĠLordship":4380,"hether":4381,"ĠSax":4382,"Ġauth":4383,"ĠJesus":4384,"called":4385,"course":4386,"Ġspace":4387,"people":4388,"Ġvirtue":4389,"Ġexceed":4390,"tem":4391,"Ġavo":4392,"avi":4393,"AIN":4394,"Ġbill":4395,"Ġspect":4396,"icial":4397,"lls":4398,"Ġrecent":4399,"ĠDiv":4400,"Ġcitiz":4401,"ĠHall":4402,"ĠSol":4403,"Ġprobable":4404,"62":4405,"himself":4406,"Ġproceeded":4407,"ĠTra":4408,"Ġsuppose":4409,"Ġknight":4410,"utenant":4411,"Ġrare":4412,"ĠBel":4413,"Ġcollect":4414,"sur":4415,"Ġsurr":4416,"Ġeducation":4417,"pret":4418,"apel":4419,"ule":4420,"ferred":4421,"Ġremarks":4422,"iciently":4423,"Ġeasy":4424,"Ġjudge":4425,"Ġlikely":4426,"mark":4427,"ties":4428,"Ġages":4429,"Ġexperience":4430,"iring":4431,"ĠDec":4432,"Ġutter":4433,"Ġident":4434,"Ġau":4435,"Ġpreserved":4436,"Ġnotes":4437,"Ġcondem":4438,"irmed":4439,"ĠBay":4440,"having":4441,"Ġlic":4442,"anim":4443,"Ġunf":4444,"Ġminister":4445,"Ġju":4446,"osa":4447,"Ġfellow":4448,"ĠGen":4449,"Ġtax":4450,"Ġpapers":4451,"conf":4452,"also":4453,"Ġderived":4454,"iend":4455,"Ġunderstand":4456,"war":4457,"Ġarticle":4458,"Ġpolicy":4459,"among":4460,"ĠPre":4461,"ertained":4462,"ida":4463,"Ġpriest":4464,"itate":4465,"IM":4466,"Ġspiritual":4467,"good":4468,"ration":4469,"nor":4470,"Ġdesired":4471,"Ġarticles":4472,"rat":4473,"racts":4474,"Ġvast":4475,"Ġcopy":4476,"Char":4477,"ste":4478,"Ġassembl":4479,"sy":4480,"ĠVir":4481,"Ġinvestig":4482,"64":4483,"Ġopportunity":4484,"Ġpi":4485,"acon":4486,"must":4487,"Ġult":4488,"Ġmeasures":4489,"Ġentitled":4490,"osen":4491,"acher":4492,"VOL":4493,"Ġquarter":4494,"Ġconven":4495,"ĠON":4496,"jected":4497,"Ġlikewise":4498,"ĠInt":4499,"These":4500,"ĠUe":4501,"Ġassoci":4502,"ĠIndians":4503,"Ġfund":4504,"Ġpu":4505,"Ġwarm":4506,"sim":4507,"ĠSci":4508,"umber":4509,"Ġspecimens":4510,"urt":4511,"Ġgrou":4512,"mas":4513,"plic":4514,"OOQ":4515,"Ġfast":4516,"Ġusually":4517,"ĠJanuary":4518,"Ġsons":4519,"Ġbread":4520,"ault":4521,"dist":4522,"Ġsen":4523,"Ġnarrow":4524,"Ġplants":4525,"ĠEmperor":4526,"inction":4527,"Ġprovided":4528,"Ġquantity":4529,"author":4530,"ĠSer":4531,"Ġaccompl":4532,"Ġaccompanied":4533,"Ġfourth":4534,"Ġimprove":4535,"between":4536,"EST":4537,"las":4538,"wor":4539,"mt":4540,"Ġbold":4541,"utch":4542,"Ġmarried":4543,"Ġsup":4544,"iner":4545,"Ġdelight":4546,"Ġanything":4547,"Ġcultiv":4548,"Ġmonarch":4549,"SE":4550,"Ġexcl":4551,"Ġsuffer":4552,"Ġdoing":4553,"Ġhusband":4554,"Ġloc":4555,"LL":4556,"bus":4557,"ef":4558,"ĠBen":4559,"Ġeffects":4560,"ĠGermany":4561,"ique":4562,"Ġprinces":4563,"Ġcorn":4564,"lu":4565,"edy":4566,"mony":4567,"Ġdaily":4568,"Ġpas":4569,"ĠEdin":4570,"Ġbuilding":4571,"Ġdoc":4572,"Ġformerly":4573,"Ġprevious":4574,"ki":4575,"Ġhero":4576,"Ġdiscover":4577,"Ġhappy":4578,"mes":4579,"Ġ)":4580,"Ġreading":4581,"ĠCON":4582,"Ġacts":4583,"Ġexecution":4584,"itud":4585,"retary":4586,"Ġarrival":4587,"aly":4588,"ĠUniversity":4589,"ĠMS":4590,"Ġtor":4591,"42":4592,"Ġbirth":4593,"Ġforces":4594,"Ab":4595,"cho":4596,"Ġwealth":4597,"iny":4598,"Ġspir":4599,"jr":4600,"ĠPope":4601,"Ġvan":4602,"jects":4603,"onies":4604,"osophy":4605,"Ġdeli":4606,"Ġconsideration":4607,"ĠOur":4608,"ais":4609,"Ġsolemn":4610,"Ġreferred":4611,"61":4612,"Ġbi":4613,"Ġrepro":4614,"Ġdivision":4615,"Ġwid":4616,"Ġreve":4617,"oken":4618,"ARD":4619,"bro":4620,"water":4621,"ĠLu":4622,"Ġprovince":4623,"Ġcustom":4624,"Ġvic":4625,"ĠLy":4626,"acks":4627,"iven":4628,"fc":4629,"Ġtempor":4630,"Ġbott":4631,"tor":4632,"ĠIll":4633,"Ġreduced":4634,"Ġpassing":4635,"Ġglad":4636,"fu":4637,"itter":4638,"ols":4639,"Ġundert":4640,"happ":4641,"oston":4642,"Ġrelation":4643,"Ġcalcul":4644,"Ġmanufact":4645,"look":4646,"Ġlarger":4647,"olk":4648,"ĠRo":4649,"Ġlocal":4650,"Ġfame":4651,"Ġobed":4652,"Ġboard":4653,"Ġly":4654,"Ġpowerful":4655,"ador":4656,"OH":4657,"Ġmission":4658,"antic":4659,"67":4660,"nm":4661,"OG":4662,"Ġbroken":4663,"Ġsilver":4664,"Ġhitherto":4665,"Ġcommit":4666,"Ġleaves":4667,"Ġcou":4668,"Ġfood":4669,"Ġtowns":4670,"tain":4671,"van":4672,"ĠGreen":4673,"uni":4674,"ĠLouis":4675,"Ġstrange":4676,"ensis":4677,"Ġcere":4678,"hire":4679,"years":4680,"asant":4681,"Ġassert":4682,"inate":4683,"Ġsit":4684,"Ġearl":4685,"pes":4686,"ĠOld":4687,"Ġcommitted":4688,"Ġai":4689,"Ġattached":4690,"Ġuf":4691,"ĠAnnal":4692,"Ġscene":4693,"verted":4694,"Ġprec":4695,"My":4696,"atures":4697,"Ġdich":4698,"Ġkn":4699,"ĠJoseph":4700,"Ġlately":4701,"Ġpossessed":4702,"orus":4703,"Ġrequire":4704,"Ġjourney":4705,"Pl":4706,"VI":4707,"Ġcounty":4708,"ĠPhilip":4709,"Ġant":4710,"aus":4711,"follow":4712,"win":4713,"sey":4714,"Ġmarch":4715,"ĠGra":4716,"appoint":4717,"pot":4718,"ama":4719,"Ġfollows":4720,"69":4721,"ente":4722,"Ġleaving":4723,"ĠYet":4724,"necess":4725,"Ġminute":4726,"Ġantiqu":4727,"idently":4728,"Ġaltogether":4729,"ded":4730,"oon":4731,"writ":4732,"Ġbreak":4733,"chester":4734,"ĠOctober":4735,"lia":4736,"ceive":4737,"ĠVen":4738,"Ġfleet":4739,"Ġeld":4740,"year":4741,"William":4742,"Ġhym":4743,"ening":4744,"een":4745,"Ġnine":4746,"Ġopposite":4747,"ĠWell":4748,"orted":4749,"ĠRes":4750,"Ġgreen":4751,"rer":4752,"vis":4753,"God":4754,"Ġconsent":4755,"ilities":4756,"ĠEr":4757,"Ġwinter":4758,"Ġune":4759,"Ġtreated":4760,"last":4761,"Ã¶":4762,"cel":4763,"olland":4764,"Ġbright":4765,"Ġsingular":4766,"Ġconvey":4767,"took":4768,"chan":4769,"iling":4770,"ĠNovember":4771,"54":4772,"iT":4773,"da":4774,"ĠÂ§":4775,"Ġcities":4776,"hor":4777,"Ġadvance":4778,"Ġsituation":4779,"Ġ]":4780,"bled":4781,"div":4782,"olar":4783,"Ġexpedition":4784,"87":4785,"vy":4786,"Ġresembl":4787,"suff":4788,"Ġrefused":4789,"ĠAthe":4790,"Ġsuffered":4791,"istration":4792,"ĠSpe":4793,"put":4794,"uded":4795,"shall":4796,"Ġwise":4797,"kins":4798,"cast":4799,"umn":4800,"abled":4801,"Hen":4802,"view":4803,"Ġmess":4804,"ĠSpanish":4805,"bot":4806,"Ġdro":4807,"ige":4808,"illa":4809,"force":4810,"clock":4811,"Ġfight":4812,"ensions":4813,"usted":4814,"common":4815,"Ġcurrent":4816,"After":4817,"ID":4818,"Un":4819,"Ġvir":4820,"inst":4821,"Ġbase":4822,"ĠTwo":4823,"Ġsaying":4824,"non":4825,"Her":4826,"ĠObserv":4827,"sl":4828,"ĠTre":4829,"Ġ70":4830,"bis":4831,"Ġtaste":4832,"ĠIts":4833,"ference":4834,"Ġrock":4835,"Ġpatri":4836,"oles":4837,"63":4838,"Ġox":4839,"Ġconditions":4840,"icrosc":4841,"Ġmeaning":4842,"Ġfigure":4843,"Ġrepeated":4844,"Ġyield":4845,"Ġlearning":4846,"Ġfer":4847,"Ġaround":4848,"Ġsafe":4849,"Ġproduct":4850,"icus":4851,"name":4852,"Ġthrow":4853,"erences":4854,"Ġaccur":4855,"lim":4856,"England":4857,"89":4858,"Ġcharacters":4859,"Ġminds":4860,"Ġfreed":4861,"EE":4862,"Ġlives":4863,"Ġclasses":4864,"ardinal":4865,"IF":4866,"ESS":4867,"Ġproceedings":4868,"Ġmart":4869,"Ġbelieved":4870,"ani":4871,"ading":4872,"ĠPortug":4873,"rant":4874,"ĠTy":4875,"ĠCap":4876,"Ġspring":4877,"Ġ32":4878,"Ġburn":4879,"acle":4880,"Ġabund":4881,"Ġscientific":4882,"ĠDon":4883,"All":4884,"Ġvariety":4885,"aux":4886,"inth":4887,"ĠTest":4888,"Ġobserve":4889,"Ġmember":4890,"Ġtestim":4891,"Ġcomfort":4892,"ĠGreg":4893,"Ġfee":4894,"enes":4895,"Ġspeech":4896,"ulous":4897,"mis":4898,"Ġsem":4899,"ĠSim":4900,"aches":4901,"tri":4902,"iture":4903,"lying":4904,"bur":4905,"53":4906,"Ġofficer":4907,"ĠHam":4908,"May":4909,"rection":4910,"Ġwrite":4911,"ĠJo":4912,"Ġpriests":4913,"Ġspread":4914,"ancell":4915,"Ġorn":4916,"Ġservices":4917,"Ġlords":4918,"Ġpron":4919,"icles":4920,"ĠUeber":4921,"Ġthence":4922,"OD":4923,"Ġconse":4924,"Ġopposition":4925,"uge":4926,"Ġcollected":4927,"rane":4928,"otus":4929,"ography":4930,"ga":4931,"Ġquiet":4932,"your":4933,"icked":4934,"ester":4935,"ALL":4936,"Ġchem":4937,"Ġthrown":4938,"Ġparent":4939,"Ġstructure":4940,"ĠVal":4941,"Ġdecided":4942,"Ġtaught":4943,"Ġpleased":4944,"Ġherself":4945,"ĠApost":4946,"llo":4947,"ORD":4948,"Ġcredit":4949,"rical":4950,"Ġban":4951,"Ġpursu":4952,"ĠMah":4953,"Ġcrow":4954,"Ġpage":4955,"Ġrose":4956,"did":4957,"Ġanswered":4958,"atum":4959,"Ġthreat":4960,"five":4961,"icle":4962,"Ġmoved":4963,"ĠIX":4964,"90":4965,"erable":4966,"change":4967,"Ġdouble":4968,"Ġministers":4969,"greg":4970,"Ġrate":4971,"Ġactive":4972,"however":4973,"Ġlect":4974,"Ġagreed":4975,"miral":4976,"Sh":4977,"ioned":4978,"ĠScott":4979,"Ġhorses":4980,"ĠCons":4981,"achment":4982,"arum":4983,"asions":4984,"mond":4985,"Ġbri":4986,"claimed":4987,"ribution":4988,"Me":4989,"idel":4990,"Ġconfidence":4991,"ĠMajor":4992,"Ġdepos":4993,"Ġcontinue":4994,"AG":4995,"ĠHeb":4996,"Ġvessels":4997,"Ġpopulation":4998,"END":4999,"Ġinformed":5000,"usalem":5001,"vii":5002,"rael":5003,"Ã©s":5004,"iege":5005,"Ġoath":5006,"Ġthereof":5007,"hered":5008,"Ġhot":5009,"hr":5010,"Ġbelonging":5011,"ĠArt":5012,"Ġpurposes":5013,"Ġheavy":5014,"inner":5015,"adel":5016,"Ġearnest":5017,"Ã¤":5018,"Ġrese":5019,"Ġperformed":5020,"Ġlu":5021,"ĠSeptember":5022,"ustri":5023,"Ġrelative":5024,"Ġexpression":5025,"iL":5026,"entions":5027,"hens":5028,"ENTS":5029,"Ġconclusion":5030,"ĠCommittee":5031,"Ġperpet":5032,"Ġseeing":5033,"Ġcand":5034,"estic":5035,"ELL":5036,"Ġgentlemen":5037,"Ġresolved":5038,"Ġjoined":5039,"Fig":5040,"Ġbapt":5041,"ĠEt":5042,"ws":5043,"Ġwine":5044,"ĠAlexander":5045,"Ġsn":5046,"Ġextraordinary":5047,"ait":5048,"Î½":5049,"Ġprotect":5050,"Ġod":5051,"ĠAthen":5052,"iae":5053,"arer":5054,"Brit":5055,"anger":5056,"Ġpropri":5057,"Ġbank":5058,"criptions":5059,"mag":5060,"Ġihe":5061,"Ġimmediate":5062,"Ġwel":5063,"agement":5064,"Ġmerch":5065,"Ġbeauty":5066,"ĠItalian":5067,"Ġspeaking":5068,"tn":5069,"ban":5070,"Ġef":5071,"trans":5072,"Ġunderstood":5073,"mat":5074,"thren":5075,"Ġacquainted":5076,"51":5077,"ĠENGL":5078,"OB":5079,"UB":5080,"ĠGRE":5081,"pus":5082,"Ġnatur":5083,"Ġaver":5084,"ieve":5085,"CHAPTER":5086,"Ġassist":5087,"Ġpropos":5088,"Ġcomes":5089,"ĠWhere":5090,"Ġinstances":5091,"aments":5092,"Ġinfl":5093,"Ġexamination":5094,"wall":5095,"zen":5096,"Ġperfectly":5097,"Ġacknowled":5098,"Ġstatement":5099,"Ġseparate":5100,"ocks":5101,"iche":5102,"Ġje":5103,"See":5104,"ĠBill":5105,"Ġpreceding":5106,"Ġstrict":5107,"rich":5108,"Ġtrial":5109,"ĠIS":5110,"Ġibid":5111,"ĠSecond":5112,"ĠBib":5113,"ĠChristians":5114,"Ġapplication":5115,"ses":5116,"Ġtemperature":5117,"Ġfeelings":5118,"pare":5119,"Ġdog":5120,"ben":5121,"Ġstage":5122,"hist":5123,"Ġclearly":5124,"arly":5125,"Ġpartly":5126,"Ġcontro":5127,"RY":5128,"ĠDecember":5129,"Ġoccurred":5130,"ĠColonel":5131,"Ġstart":5132,"ĠFebruary":5133,"Ġdesir":5134,"Ġnarr":5135,"ĠCorn":5136,"ĠApp":5137,"ermon":5138,"ĠMuseum":5139,"enses":5140,"ĠHerod":5141,"ĠRomans":5142,"Ġnu":5143,"amen":5144,"ola":5145,"Ġtran":5146,"hum":5147,"Ġsubstance":5148,"Ġecclesiastical":5149,"tu":5150,"ifying":5151,"ĠSi":5152,"Ġbrief":5153,"Ġpointed":5154,"Ġdisease":5155,"Ġaband":5156,"ĠChem":5157,"Ġice":5158,"Ġvillage":5159,"ali":5160,"Ġfish":5161,"ĠAdd":5162,"NATURE":5163,"ĠWood":5164,"Ġnav":5165,"ournal":5166,"iber":5167,"Ġextended":5168,"ylon":5169,"Ġcust":5170,"ads":5171,"line":5172,"ima":5173,"appear":5174,"Ġintention":5175,"Ġnoticed":5176,"sa":5177,"henomen":5178,"Ġunited":5179,"Ġspecimen":5180,"Ġsong":5181,"Ġsanct":5182,"det":5183,"Ġassistance":5184,"far":5185,"ĠLond":5186,"Ġinstrument":5187,"itect":5188,"aviour":5189,"Ġdignity":5190,"father":5191,"Ġdre":5192,"Ġcastle":5193,"Ġdress":5194,"whole":5195,"Ġ170":5196,"ĠPhys":5197,"Ġpersu":5198,"King":5199,"ifl":5200,"whom":5201,"Ġwaa":5202,"Ġhence":5203,"Ġshowed":5204,"Ġbecomes":5205,"Ġfruit":5206,"inf":5207,"stron":5208,"acles":5209,"Ġgenus":5210,"aper":5211,"Ġdevoted":5212,"vious":5213,"Ġow":5214,"Ġtrees":5215,"Ġtravell":5216,"rose":5217,"Ġrelations":5218,"52":5219,"Ġissue":5220,"dr":5221,"using":5222,"mouth":5223,"ĠDel":5224,"room":5225,"Ġauthors":5226,"Ġabsence":5227,"fact":5228,"imus":5229,"gel":5230,"Ġsche":5231,"Ġrid":5232,"Ġmemory":5233,"Ġacross":5234,"Ġparish":5235,"âĤ":5236,"ĠCommons":5237,"âĤ¬":5238,"osing":5239,"tical":5240,"ducing":5241,"Ġmerit":5242,"cm":5243,"Ġerror":5244,"ctor":5245,"arp":5246,"Ġexhibited":5247,"erd":5248,"ĠWales":5249,"oqu":5250,"eks":5251,"Ġexercise":5252,"Ġexert":5253,"Ġsummer":5254,"Ġsave":5255,"olis":5256,"pie":5257,"taken":5258,"interest":5259,"ĠBon":5260,"Ġapparently":5261,"ĠKe":5262,"Ġprayer":5263,"Ġadmit":5264,"English":5265,"Ġmu":5266,"Ġdwell":5267,"ĠMore":5268,"ĠProtestant":5269,"ĠMer":5270,"church":5271,"Ġask":5272,"Ġwrong":5273,"rm":5274,"six":5275,"Ġsufficiently":5276,"Ġshows":5277,"han":5278,"Ġdam":5279,"Ġ67":5280,"Ġrecently":5281,"uther":5282,"Ġleading":5283,"Ġcoll":5284,"princi":5285,"ths":5286,"ĠSpirit":5287,"Ġpounds":5288,"ĠAR":5289,"aration":5290,"aine":5291,"HISTORY":5292,"Ġviz":5293,"nation":5294,"ĠMel":5295,"ĠWill":5296,"Ġchanges":5297,"Ġevident":5298,"Ġissued":5299,"ĠGre":5300,"Ġgoods":5301,"hus":5302,"Ġmaterial":5303,"Ġapart":5304,"French":5305,"Ġaa":5306,"ÃŃa":5307,"path":5308,"ĠCambridge":5309,"pline":5310,"rate":5311,"ublin":5312,"ĠTri":5313,"uty":5314,"igen":5315,"Ġdistant":5316,"Ġcapable":5317,"Ġpersec":5318,"imo":5319,"ults":5320,"jOOQ":5321,"Ġdry":5322,"Ġsick":5323,"bing":5324,"ĠFirst":5325,"yer":5326,"ĠâĢŀ":5327,"ĠAmong":5328,"orial":5329,"86":5330,"asts":5331,"Mi":5332,"aver":5333,"arrison":5334,"sured":5335,"Ġpractical":5336,"both":5337,"oes":5338,"Ġcruel":5339,"ancellor":5340,"ĠSea":5341,"Ġquick":5342,"Ġwounded":5343,"anged":5344,"others":5345,"disc":5346,"tained":5347,"Ġcorrupt":5348,"inds":5349,"Ġwritings":5350,"Ġextremely":5351,"fam":5352,"Ġchosen":5353,"ĠBab":5354,"Ġheads":5355,"Ġvisited":5356,"ĠInst":5357,"ĠPatrick":5358,"Ġcler":5359,"Ġextrem":5360,"idi":5361,"Ġspoken":5362,"Ġobst":5363,"ĠProfessor":5364,"Ġxi":5365,"Ġoi":5366,"ĠSan":5367,"otten":5368,"ĠXL":5369,"Ġpreviously":5370,"asc":5371,"Ġshare":5372,"Ġrequest":5373,"wich":5374,"Ġaddressed":5375,"orous":5376,"Ġcitizens":5377,"ifi":5378,"umin":5379,"Ġrecord":5380,"Ġdread":5381,"Ġ43":5382,"inet":5383,"eres":5384,"ĠFort":5385,"Ġearlier":5386,"aun":5387,"Ġdischar":5388,"Ġfest":5389,"Ġfrequent":5390,"Ġtemple":5391,"Ġfaithful":5392,"theless":5393,"Ġtruly":5394,"Ġgained":5395,"lies":5396,"Ġourselves":5397,"cester":5398,"Ġliterature":5399,"Church":5400,"rn":5401,"Ġsucceed":5402,"little":5403,"stre":5404,"Ġannual":5405,"Ġchapter":5406,"Bl":5407,"var":5408,"Ġfoundation":5409,"cre":5410,"Ġsettled":5411,"ĠDis":5412,"Ġcompelled":5413,"ellect":5414,"Ġacquired":5415,"Ġsword":5416,"Ġcommanded":5417,"ser":5418,"Ġsole":5419,"Ġreply":5420,"Ġconfirm":5421,"Ġsister":5422,"Ġflo":5423,"Ġtriumph":5424,"incess":5425,"ĠAssembly":5426,"unc":5427,"regular":5428,"Ġfortune":5429,"hedral":5430,"Ġdepri":5431,"wick":5432,"Ġescape":5433,"Ġmax":5434,"Ġinferior":5435,"Ġsecure":5436,"Ġtotal":5437,"Ġinvol":5438,"Ġcloth":5439,"Ġcab":5440,"Ġaccordingly":5441,"def":5442,"cit":5443,"Ġinterests":5444,"65":5445,"ĠÎ":5446,"Ġdestroyed":5447,"Ġax":5448,"actions":5449,"Ġobservation":5450,"jj":5451,"Ġrecon":5452,"ĠGreeks":5453,"ĠActs":5454,"IB":5455,"Ġexception":5456,"rank":5457,"Ġideas":5458,"AST":5459,"Ġsentence":5460,"Ġadvice":5461,"Ġslow":5462,"Ġtrib":5463,"Ġactual":5464,"tre":5465,"Ġreach":5466,"ĠChr":5467,"Ġkinds":5468,"tes":5469,"Ġprofession":5470,"Ġdece":5471,"Ġbirds":5472,"ĠSto":5473,"Ġunknown":5474,"Ġ160":5475,"public":5476,"ĠCent":5477,"ĠId":5478,"ĠGal":5479,"commun":5480,"ĠVOL":5481,"Ġfreedom":5482,"ization":5483,"Ġprotection":5484,"Ġball":5485,"ĠChristianity":5486,"Ġserved":5487,"Ġchair":5488,"Ġsplend":5489,"Ġfix":5490,"ira":5491,"ming":5492,"held":5493,"oli":5494,"Ġarchbishop":5495,"Â®":5496,"berg":5497,"Ġactually":5498,"Ġwisdom":5499,"ricult":5500,"oting":5501,"ĠMany":5502,"ĠDomin":5503,"account":5504,"Ġfro":5505,"Ġexposed":5506,"mense":5507,"Ġvictory":5508,"Ġtry":5509,"En":5510,"Ġwal":5511,"otton":5512,"ĠAfrica":5513,"OU":5514,"Ġrad":5515,"astic":5516,"aunt":5517,"Ġtong":5518,"terior":5519,"ĠMaster":5520,"thought":5521,"success":5522,"Ġmountain":5523,"Ġmach":5524,"ĠSecretary":5525,"Ġextensive":5526,"Ġpromise":5527,"Ġtn":5528,"Ġencoura":5529,"Ġmaintained":5530,"77":5531,"Ġband":5532,"rible":5533,"Ġhappened":5534,"Ġsweet":5535,"Ġwy":5536,"Ġwhence":5537,"Ġcommence":5538,"Ġsupported":5539,"OW":5540,"illing":5541,"Ġmeant":5542,"Ġhopes":5543,"OUR":5544,"ĠCop":5545,"ĠBot":5546,"Ġ69":5547,"pton":5548,"Ġgenius":5549,"Ġcloud":5550,"bably":5551,"ilty":5552,"Ġeat":5553,"antry":5554,"ĠLetter":5555,"ĠBoston":5556,"Ġunion":5557,"Ġbranch":5558,"ĠTown":5559,"Ġarc":5560,"down":5561,"ĠBra":5562,"Ġdiscovery":5563,"ĠZe":5564,"Ġaqu":5565,"Ġstorm":5566,"Ġcompos":5567,"Ġdangerous":5568,"ldom":5569,"Ġhabits":5570,"fety":5571,"Ġwished":5572,"Ġhill":5573,"ANT":5574,"Ġnatives":5575,"Prof":5576,"Ġcells":5577,"irl":5578,"wi":5579,"ounce":5580,"Ġnost":5581,"Ġaffection":5582,"unday":5583,"Ġfamous":5584,"Ġmountains":5585,"Ji":5586,"oyage":5587,"Ġmanners":5588,"ĠJews":5589,"hl":5590,"Ġmine":5591,"ĠWas":5592,"ĠNEW":5593,"Ġescap":5594,"ĠArab":5595,"Ġlod":5596,"lling":5597,"ulph":5598,"Ġsalt":5599,"Ne":5600,"Ġwli":5601,"quer":5602,"ĠStreet":5603,"Ġmercy":5604,"Ġretreat":5605,"pse":5606,"ĠEven":5607,"Ġ41":5608,"thus":5609,"ĠFrancis":5610,"uk":5611,"igion":5612,"turn":5613,"ĠXXX":5614,"ĠHy":5615,"olly":5616,"ĠJerusalem":5617,"rous":5618,"Ġreasons":5619,"Ġhall":5620,"Ġsolid":5621,"Ġwholly":5622,"Ġdevelopment":5623,"Let":5624,"Ġrelating":5625,"hn":5626,"dou":5627,"Â§":5628,"Ġgradually":5629,"Ġcompletely":5630,"Ġeminent":5631,"Ġna":5632,"Ġ58":5633,"Ġsuccessful":5634,"Ġveget":5635,"Ġfurnished":5636,"icit":5637,"Ġtone":5638,"ician":5639,"effect":5640,"Ġped":5641,"Ġregret":5642,"reder":5643,"inced":5644,"TT":5645,"Ġmanifest":5646,"mn":5647,"Ġdiam":5648,"Ġestablishment":5649,"org":5650,"Ġfh":5651,"unct":5652,"Ġprud":5653,"Ġvolunt":5654,"Ġmajority":5655,"Ġunfortun":5656,"Ġdimin":5657,"Ġfinally":5658,"Ġcommenced":5659,"Ġspoke":5660,"ĠBlack":5661,"lii":5662,"Ġtin":5663,"Ġnom":5664,"Ġforced":5665,"illery":5666,"Ġweather":5667,"Ġalle":5668,"Ġbearing":5669,"Ġsacrifice":5670,"Ġfra":5671,"Ġrul":5672,"Ġjuris":5673,"Ġcircumstance":5674,"ĠCastle":5675,"ael":5676,"tro":5677,"Ġreform":5678,"Ġconfined":5679,"Charles":5680,"Ġexamined":5681,"ĠMount":5682,"fon":5683,"ĠFr":5684,"byter":5685,"Ġgrave":5686,"Ġnaturally":5687,"Ġcourage":5688,"Qu":5689,"Ġsupre":5690,"zo":5691,"Ġxii":5692,"Ġfallen":5693,"alogue":5694,"Ġerected":5695,"Ġacid":5696,"Ġservants":5697,"mg":5698,"miss":5699,"Ġou":5700,"79":5701,"gener":5702,"wa":5703,"post":5704,"ĠHel":5705,"ĠFe":5706,"riff":5707,"Ġzu":5708,"prov":5709,"oirs":5710,"Ġwon":5711,"Ġexplan":5712,"Phil":5713,"oti":5714,"ĠCape":5715,"Ġpour":5716,"Ġargument":5717,"OUS":5718,"ĠAthens":5719,"ĠMur":5720,"Ġliqu":5721,"Ġaccounts":5722,"Ġprejud":5723,"acob":5724,"Ġbenefit":5725,"othe":5726,"Ġpermitted":5727,"ket":5728,"Ġrent":5729,"arius":5730,"ĠRel":5731,"Ġminutes":5732,"sex":5733,"Ġdated":5734,"Ġfemale":5735,"Henry":5736,"Ġinvent":5737,"Ġsoil":5738,"Ġquestions":5739,"stitute":5740,"ealous":5741,"pul":5742,"cean":5743,"How":5744,"plete":5745,"ĠIsland":5746,"ĠEuropean":5747,"Ġuniversal":5748,"Ġaccord":5749,"Ġlies":5750,"Ġbless":5751,"Ġserious":5752,"Ġcontain":5753,"Ġstriking":5754,"Ġpassages":5755,"Ġstrongly":5756,"arc":5757,"cian":5758,"ungen":5759,"ĠSchool":5760,"Ġstruck":5761,"Ġlabours":5762,"rf":5763,"Ġsought":5764,"Ġmale":5765,"Ġthoughts":5766,"Ġ42":5767,"Ġsand":5768,"Chap":5769,"orig":5770,"Ġefforts":5771,"iÃ³n":5772,"Ġtree":5773,"Ġdivers":5774,"Ġdict":5775,"Ġthorough":5776,"umption":5777,"Ġcas":5778,"Ġdetails":5779,"sels":5780,"RA":5781,"attered":5782,"borough":5783,"Ġlegisl":5784,"Ġtried":5785,"Ġgre":5786,"Ġrail":5787,"amin":5788,"appro":5789,"Ġgro":5790,"given":5791,"ĠMet":5792,"aret":5793,"ĠNatural":5794,"ques":5795,"observ":5796,"ĠChron":5797,"Ġimpr":5798,"Ġarrangement":5799,"Ġstrugg":5800,"She":5801,"Ġtt":5802,"Ġcomposition":5803,"oni":5804,"Ġprovinces":5805,"Ġmit":5806,"aying":5807,"ĠBes":5808,"ĠSic":5809,"Ġsust":5810,"TE":5811,"Ġrig":5812,"Ġdissol":5813,"pons":5814,"Ġreaders":5815,"ĠAccording":5816,"Ġplate":5817,"cip":5818,"ĠYour":5819,"Ġtrouble":5820,"usive":5821,"istle":5822,"itch":5823,"Ġremember":5824,"Ġstanding":5825,"Ġincluding":5826,"ĠPen":5827,"Ġfamiliar":5828,"Ġenabled":5829,"Ġhut":5830,"Ġnotwithstanding":5831,"respect":5832,"Ġmaintain":5833,"Ġnorthern":5834,"mem":5835,"Ġ79":5836,"worthy":5837,"Ġmaterials":5838,"Ġapproach":5839,"Ġfavourable":5840,"another":5841,"Ġhia":5842,"ulg":5843,"Ti":5844,"oper":5845,"Ġabst":5846,"Ġviolent":5847,"Ġservant":5848,"Ġsan":5849,"Ġresidence":5850,"Ġtender":5851,"Ġprisoners":5852,"Ġcompared":5853,"Ġwo":5854,"ju":5855,"ĠMen":5856,"Ġshore":5857,"Ġuniform":5858,"Ph":5859,"ĠGreece":5860,"Ġomn":5861,"ĠJu":5862,"Ġrecorded":5863,"Î¿":5864,"Ġforest":5865,"Ġinch":5866,"ĠRem":5867,"Ġcomo":5868,"What":5869,"cest":5870,"Ġhistorical":5871,"Ġpub":5872,"ĠOR":5873,"pended":5874,"rates":5875,"Ġmankind":5876,"Ġfigures":5877,"ĠHo":5878,"ĠLamb":5879,"ĠEv":5880,"Ġevidently":5881,"mal":5882,"Ġcarrying":5883,"orders":5884,"Ġcra":5885,"Ġseat":5886,"Ġbranches":5887,"ĠEvery":5888,"diction":5889,"Ġinduced":5890,"ago":5891,"reign":5892,"ĠBurg":5893,"Ġbelief":5894,"ito":5895,"number":5896,"cation":5897,"ĠWhite":5898,"Ġelection":5899,"ĠWor":5900,"rated":5901,"large":5902,"Ġfamilies":5903,"friend":5904,"Ġrocks":5905,"Ġ169":5906,"Ġstock":5907,"Ġmajesty":5908,"ln":5909,"Ġfrag":5910,"Ġsafety":5911,"Ġlit":5912,"Br":5913,"Ġconsists":5914,"Ġworking":5915,"Ġneighbourhood":5916,"ships":5917,"erity":5918,"nde":5919,"ĠCrown":5920,"ao":5921,"make":5922,"ĠLeg":5923,"low":5924,"ĠRh":5925,"viii":5926,"ulations":5927,"ardon":5928,"Ġdistinction":5929,"ued":5930,"iderable":5931,"icious":5932,"iat":5933,"actory":5934,"ustry":5935,"MON":5936,"osop":5937,"EY":5938,"each":5939,"Ġfles":5940,"td":5941,"Ġstones":5942,"ĠDublin":5943,"Ġdifficulties":5944,"Ġtranslation":5945,"Ġexcess":5946,"Ġrenew":5947,"Ġqe":5948,"Per":5949,"Jan":5950,"Ġmonaster":5951,"ĠSac":5952,"osh":5953,"Ġopening":5954,"Ġascend":5955,"ĠPark":5956,"Ġprel":5957,"estab":5958,"ographical":5959,"ĠBas":5960,"Ġpunishment":5961,"prised":5962,"cop":5963,"Ġexperiments":5964,"Ġobsc":5965,"themselves":5966,"ĠBu":5967,"ĠScripture":5968,"Ġpublication":5969,"Ġutmost":5970,"Ġyellow":5971,"Ġenergy":5972,"nexion":5973,"Ġpraise":5974,"ONDON":5975,"circ":5976,"kin":5977,"Ġhumble":5978,"Ġordin":5979,"Ġsmaller":5980,"82":5981,"Ġwilling":5982,"Ġdriven":5983,"hich":5984,"ette":5985,"ĠEdinburgh":5986,"ulate":5987,"life":5988,"Ġcompre":5989,"Ġhair":5990,"inder":5991,"Ġcarefully":5992,"Ġbottom":5993,"Ġterritory":5994,"character":5995,"md":5996,"ano":5997,"Ġfortun":5998,"Ġsail":5999,"Ġskill":6000,"ĠDer":6001,"Sp":6002,"Ġquoted":6003,"Ġmad":6004,"whose":6005,"si":6006,"INE":6007,"rews":6008,"VII":6009,"mun":6010,"Ġpalace":6011,"itors":6012,"Ġnf":6013,"ĠFour":6014,"Te":6015,"bat":6016,"ifh":6017,"during":6018,"phia":6019,"Ġones":6020,"Ġsupplied":6021,"Ġimperial":6022,"Ġfate":6023,"ignation":6024,"Ġassured":6025,"ĠLong":6026,"Ġviolence":6027,"Ġtim":6028,"inople":6029,"Ġdemon":6030,"ĠIsrael":6031,"Ue":6032,"Ġrecommend":6033,"ĠDun":6034,"Ġestim":6035,"Ġpromised":6036,"host":6037,"Ġinte":6038,"ydro":6039,"OC":6040,"Ġegg":6041,"fall":6042,"ĠHolland":6043,"Ġphenomen":6044,"Ġopposed":6045,"Ġpicture":6046,"Ġbrown":6047,"Ġran":6048,"ĠSub":6049,"Ġsteam":6050,"ĠPresident":6051,"UE":6052,"CTION":6053,"Ġoriginally":6054,"inued":6055,"Ġ51":6056,"ĠDuring":6057,"Ġjoin":6058,"Ġobedience":6059,"Ġruin":6060,"84":6061,"Ġami":6062,"Ġforming":6063,"Ġbrethren":6064,"Ġdisposed":6065,"Ġconnection":6066,"isation":6067,"ĠGospel":6068,"ÃŁ":6069,"render":6070,"Ġindividuals":6071,"ĠIl":6072,"Ġren":6073,"ĠEst":6074,"Ġrestored":6075,"Ġsource":6076,"Ġassembled":6077,"ĠNature":6078,"pop":6079,"Ġnews":6080,"Ġchanged":6081,"necessary":6082,"phere":6083,"Ġcontempt":6084,"Ġsleep":6085,"Ġpath":6086,"Ġsatisfaction":6087,"OHN":6088,"irk":6089,"ĠJournal":6090,"Ġcharged":6091,"Ġexactly":6092,"fin":6093,"ori":6094,"Ġspeed":6095,"Ġ77":6096,"lections":6097,"Ġexperiment":6098,"import":6099,"Ġscale":6100,"Ġprisoner":6101,"itated":6102,"Ġgain":6103,"ĠHim":6104,"ĠStra":6105,"cra":6106,"Ġbow":6107,"Ġrelated":6108,"Ġpretty":6109,"ĠGregory":6110,"lib":6111,"Ġsubsequent":6112,"Ġdur":6113,"ILL":6114,"Ġtestimony":6115,"death":6116,"Ġbelonged":6117,"Ġgods":6118,"Ġafford":6119,"Ġacquaint":6120,"Ġconcluded":6121,"Ġremaining":6122,"Ġpossibly":6123,"Ġtribes":6124,"mount":6125,"Ġeleg":6126,"gement":6127,"ructed":6128,"Aug":6129,"ĠRiver":6130,"ĠMi":6131,"Ġcreated":6132,"lit":6133,"Ġuna":6134,"Ġoccasions":6135,"natural":6136,"Ġregion":6137,"ĠAsia":6138,"ĠCanada":6139,"abor":6140,"Ġdram":6141,"ĠJul":6142,"Ġlegal":6143,"Ġexisting":6144,"Ġadj":6145,"Ġtranslated":6146,"grace":6147,"ĠPop":6148,"minster":6149,"Ġsuddenly":6150,"anch":6151,"erves":6152,"sed":6153,"Ġrelief":6154,"Nor":6155,"Ġcart":6156,"cht":6157,"Ġrealm":6158,"Ġspent":6159,"Ġaccepted":6160,"Ġtail":6161,"reason":6162,"Ġrain":6163,"onia":6164,"alys":6165,"Ġoccurs":6166,"Ġconfess":6167,"inson":6168,"Ġcommunication":6169,"cular":6170,"omp":6171,"Ġgrie":6172,"ump":6173,"Ġreputation":6174,"Ġris":6175,"second":6176,"Ġjoint":6177,"publ":6178,"Ġsuccession":6179,"ĠReport":6180,"Ġproperly":6181,"ĠArchbishop":6182,"Amer":6183,"back":6184,"Ġrules":6185,"Ġbat":6186,"orable":6187,"ĠGood":6188,"Ġfinding":6189,"cli":6190,"Ġconsult":6191,"Ġgran":6192,"ĠEdition":6193,"Ġcompet":6194,"proper":6195,"prom":6196,"atre":6197,"ĠAlexand":6198,"ĠHug":6199,"spect":6200,"xes":6201,"Ġestate":6202,"Ġcommonly":6203,"har":6204,"came":6205,"Ġlying":6206,"Ġaccident":6207,"AK":6208,"Ġoil":6209,"ĠSar":6210,"ashion":6211,"á½":6212,"Ġproject":6213,"Ġlooking":6214,"acqu":6215,"Ġdeliver":6216,"Ġretired":6217,"Ġendeavour":6218,"Ġblue":6219,"raction":6220,"Ġrob":6221,"Ġseek":6222,"inqu":6223,"mann":6224,"Ġflat":6225,"Ag":6226,"log":6227,"times":6228,"Ġmix":6229,"former":6230,"Ġcalls":6231,"Ġspeaks":6232,"ĠCommission":6233,"Rob":6234,"Ġlimited":6235,"ĠAT":6236,"Ġintellect":6237,"Ġintim":6238,"pent":6239,"Ġowing":6240,"fav":6241,"Ġprincip":6242,"CC":6243,"Ġcens":6244,"Ġshape":6245,"Now":6246,"key":6247,"ĠNich":6248,"itia":6249,"udd":6250,"Ġresolution":6251,"El":6252,"Ġpages":6253,"elle":6254,"therefore":6255,"Ġreward":6256,"ĠHol":6257,"ĠShak":6258,"ois":6259,"oubted":6260,"anus":6261,"Ġvener":6262,"Ġattacked":6263,"Î±":6264,"noon":6265,"One":6266,"Ġdestruction":6267,"ĠServ":6268,"Ġambass":6269,"dam":6270,"ĠPol":6271,"hemat":6272,"ĠColl":6273,"Ġmurder":6274,"CON":6275,"Ġsnow":6276,"ĠJoh":6277,"Ġcrim":6278,"vate":6279,"anded":6280,"ĠEle":6281,"Ġ200":6282,"nox":6283,"Ġpul":6284,"asses":6285,"Ġarranged":6286,"Ġdrink":6287,"Ġpetition":6288,"Ġbal":6289,"Ġbeat":6290,"Ġprosper":6291,"yet":6292,"Ġtells":6293,"Ġmonks":6294,"Ġwatch":6295,"cen":6296,"Ġbreat":6297,"ĠFOR":6298,"Ġconfirmed":6299,"Ġsake":6300,"Ġbeneath":6301,"ĠRight":6302,"Ġtype":6303,"cum":6304,"arded":6305,"oys":6306,"iller":6307,"ounding":6308,"Ġacted":6309,"Ġexecuted":6310,"Ġadapt":6311,"Ġexcited":6312,"ifications":6313,"Ġdiscussion":6314,"Ġbore":6315,"Ġcontent":6316,"Ġmagnific":6317,"85":6318,"France":6319,"ITH":6320,"cern":6321,"fit":6322,"Ġfarther":6323,"ĠDivine":6324,"ocent":6325,"asp":6326,"Ġentertain":6327,"Ġincon":6328,"Ġdig":6329,"Ġattempted":6330,"Ġfavourite":6331,"Ġgroup":6332,"Ġwi":6333,"ulus":6334,"SON":6335,"imum":6336,"Ġoe":6337,"ados":6338,"Ġconducted":6339,"aneous":6340,"Ġepiscop":6341,"ky":6342,"ATE":6343,"Ġsixty":6344,"Ġvols":6345,"Ġoperations":6346,"oid":6347,"ĠDen":6348,"Ġmovement":6349,"Ġpatron":6350,"una":6351,"Ġconfer":6352,"Hi":6353,"idents":6354,"Ġwherein":6355,"Ġbarbar":6356,"Ġvac":6357,"aur":6358,"Ġessential":6359,"Ġlevel":6360,"ĠConf":6361,"Ġsuspic":6362,"ĠTreat":6363,"treat":6364,"question":6365,"Ġexternal":6366,"Ġinterior":6367,"TON":6368,"Ġdoth":6369,"Ġpresents":6370,"Ġsecurity":6371,"Ġfifteen":6372,"Ġpoetry":6373,"Ġimmense":6374,"brought":6375,"nu":6376,"Ġingen":6377,"unction":6378,"Ġgoes":6379,"RON":6380,"mind":6381,"Ġsocial":6382,"pens":6383,"zz":6384,"anta":6385,"Ġcomparative":6386,"Ġassumed":6387,"Ġclosely":6388,"Ġcommittee":6389,"Ġsiege":6390,"Ġpride":6391,"Ġindependent":6392,"Ġstar":6393,"Ġphilosophy":6394,"ĠIT":6395,"tending":6396,"pecies":6397,"Ġgar":6398,"care":6399,"Ġdrew":6400,"Ġdeclare":6401,"Ġcrime":6402,"Ġprotest":6403,"Ġglo":6404,"UST":6405,"pore":6406,"ĠGer":6407,"Ġfifth":6408,"isto":6409,"Ġalarm":6410,"clam":6411,"olics":6412,"Ġschools":6413,"Ġchoice":6414,"Ġaffected":6415,"cf":6416,"inian":6417,"ushed":6418,"oleon":6419,"Ġadditional":6420,"Ġein":6421,"Ġpassion":6422,"Ġvolumes":6423,"Ġfolio":6424,"Feb":6425,"ĠSanct":6426,"Ġreck":6427,"ardens":6428,"mentioned":6429,"Ġshowing":6430,"Ġassembly":6431,"Ġhearts":6432,"Ġexplained":6433,"ications":6434,"iri":6435,"Ġunable":6436,"Ġhonest":6437,"Ġdoctrines":6438,"aU":6439,"ei":6440,"rod":6441,"ustomed":6442,"achers":6443,"Ġtribe":6444,"ĠTrade":6445,"ĠSen":6446,"ACE":6447,"Ġhu":6448,"ENCE":6449,"Ġinterpret":6450,"Ġsquare":6451,"thur":6452,"Ġnob":6453,"ienced":6454,"exam":6455,"inations":6456,"itus":6457,"ĠDutch":6458,"ground":6459,"Ġgovernor":6460,"Ġmoderate":6461,"Ġprofess":6462,"ĠWall":6463,"Ġabroad":6464,"Ġrange":6465,"Ġarmed":6466,"Ġ159":6467,"rain":6468,"ĠCong":6469,"icht":6470,"ĠRed":6471,"ĠMessrs":6472,"Ġanxious":6473,"ĠSil":6474,"Ġnit":6475,"Ġtrace":6476,"Ġbegin":6477,"Ġexisted":6478,"ĠGo":6479,"Ġthanks":6480,"Thomas":6481,"James":6482,"Ġsituated":6483,"Ġos":6484,"ĠFore":6485,"Ġplease":6486,"cus":6487,"Maj":6488,"ĠSE":6489,"Ġail":6490,"ĠRey":6491,"Ġreadily":6492,"ÏĦ":6493,"illy":6494,"Ġgrowth":6495,"isi":6496,"eper":6497,"icians":6498,"Ġintelligence":6499,"Ġrejo":6500,"Ġgas":6501,"owards":6502,"ĠBru":6503,"urther":6504,"Sch":6505,"ĠBi":6506,"pool":6507,"Ġflour":6508,"ĠNic":6509,"felf":6510,"ĠCamp":6511,"onday":6512,"Ġignorant":6513,"Ġhearing":6514,"Ġ89":6515,"Ġdirectly":6516,"Ġprevailed":6517,"ĠDem":6518,"Ġelected":6519,"Ġsimply":6520,"Ġnamely":6521,"Ġstream":6522,"avalry":6523,"heart":6524,"rap":6525,"Ġ109":6526,"Ġeo":6527,"ĠSunday":6528,"qual":6529,"abl":6530,"Ġwaters":6531,"isher":6532,"olas":6533,"aked":6534,"Ġimperfect":6535,"ĠDep":6536,"person":6537,"ĠVirgin":6538,"ibi":6539,"ustrious":6540,"take":6541,"seen":6542,"Ġtan":6543,"ĠSou":6544,"Ġtoler":6545,"ĠCur":6546,"Ġadministration":6547,"ospital":6548,"Ġspirits":6549,"ĠBed":6550,"Ġcenturies":6551,"gn":6552,"Ġladies":6553,"iant":6554,"appeared":6555,"Ġsuggested":6556,"perial":6557,"wed":6558,"hent":6559,"Ġben":6560,"Ġ90":6561,"ĠBaron":6562,"Ġfatal":6563,"Ġfier":6564,"Ġprayers":6565,"ĠVict":6566,"ĠWhy":6567,"Ġadvantages":6568,"icks":6569,"Ġsatisfied":6570,"jf":6571,"Ġincluded":6572,"Ġperman":6573,"Ġboat":6574,"Ġconcerned":6575,"Ġseized":6576,"terbury":6577,"ĠPost":6578,"ĠBre":6579,"agg":6580,"Ġliterary":6581,"rived":6582,"itie":6583,"acious":6584,"ipt":6585,"Ġatmos":6586,"ione":6587,"ĠSix":6588,"Ġinquiry":6589,"ĠHill":6590,"ĠHence":6591,"isting":6592,"Ġearliest":6593,"Ġdespat":6594,"Ġauthorities":6595,"cribe":6596,"Ġconj":6597,"Ġproceeding":6598,"Ġcontrovers":6599,"Ġtask":6600,"ancing":6601,"Ġdisposition":6602,"fif":6603,"Ġantic":6604,"Ġesta":6605,"Ġmagistr":6606,"ĠIL":6607,"third":6608,"ocation":6609,"Ġactions":6610,"Ġdrawing":6611,"too":6612,"gest":6613,"Ġdiss":6614,"Ant":6615,"Ġta":6616,"ĠCOM":6617,"Ġparticulars":6618,"Ġoccasionally":6619,"ĠHaving":6620,"RIT":6621,"gate":6622,"Ġseldom":6623,"Ġtempt":6624,"Ġguilty":6625,"Ġcy":6626,"aratus":6627,"Ġditto":6628,"ĠAdmiral":6629,"vas":6630,"ĠDie":6631,"return":6632,"Ġbul":6633,"arches":6634,"fel":6635,"Ġbot":6636,"Ġconscience":6637,"ighth":6638,"81":6639,"Ġmarks":6640,"Ġ87":6641,"Ġappeal":6642,"Ġkeeping":6643,"Ġflesh":6644,"Thus":6645,"Ġbare":6646,"Ġfel":6647,"Ġcir":6648,"Ġring":6649,"Ã©n":6650,"ĠOffice":6651,"Ġinsect":6652,"Ġexpense":6653,"Ġstands":6654,"ALS":6655,"Ġavoid":6656,"inion":6657,"Ġexamples":6658,"master":6659,"ĠCe":6660,"rav":6661,"Ġadds":6662,"Ġvisible":6663,"Ġaware":6664,"Ġapply":6665,"hard":6666,"ĠThose":6667,"small":6668,"83":6669,"still":6670,"ĠPoly":6671,"Ġquam":6672,"ĠLieut":6673,"igious":6674,"June":6675,"ĠPR":6676,"Ġtongue":6677,"Ġformation":6678,"Ġcourts":6679,"Ġsyn":6680,"usions":6681,"ANCE":6682,"Ġfub":6683,"icism":6684,"ĠSl":6685,"Ġappropri":6686,"Ġing":6687,"Ġcapit":6688,"Ġchance":6689,"ĠMax":6690,"Ġliber":6691,"onde":6692,"Ġfailed":6693,"several":6694,"Ġignorance":6695,"eight":6696,"Ġways":6697,"Ġcup":6698,"sea":6699,"Ġsentiments":6700,"dn":6701,"vest":6702,"Ġtrain":6703,"Li":6704,"Ġbroke":6705,"Ġprecise":6706,"arth":6707,"Ġconsequently":6708,"Ġmidst":6709,"Ġ167":6710,"Ġflu":6711,"unk":6712,"Ġnovel":6713,"town":6714,"vin":6715,"Ġdas":6716,"Ġrevolution":6717,"Ġguns":6718,"bor":6719,"Ġencl":6720,"Ġinternal":6721,"Ġescaped":6722,"arian":6723,"ĠFreder":6724,"Ġarts":6725,"Ġlake":6726,"Ġpoem":6727,"Ġamid":6728,"Ġinclined":6729,"ĠWorks":6730,"Ġ300":6731,"uscript":6732,"Ġsket":6733,"pring":6734,"according":6735,"lliant":6736,"allel":6737,"ĠTemple":6738,"Ġdinner":6739,"Ġweeks":6740,"Ġupwards":6741,"March":6742,"Ġphysical":6743,"UG":6744,"Ġ$":6745,"Ġcaptain":6746,"Ġdiscipline":6747,"igs":6748,"Ġdesert":6749,"Ġcommerce":6750,"ml":6751,"anda":6752,"strong":6753,"world":6754,"ĠOh":6755,"Not":6756,"tis":6757,"andy":6758,"ANS":6759,"Ġcondemned":6760,"cim":6761,"Ġwicked":6762,"igns":6763,"Ġlimits":6764,"Ġhoped":6765,"case":6766,"Ġcompleted":6767,"Ġchamber":6768,"PH":6769,"ĠBull":6770,"Ġ64":6771,"ailing":6772,"Ġprint":6773,"Ġelements":6774,"ala":6775,"ĠHor":6776,"Ġ%":6777,"Ġrapidly":6778,"oked":6779,"iana":6780,"Ġsolution":6781,"days":6782,"eting":6783,"Ġtum":6784,"ĠBa":6785,"ĠEnt":6786,"arte":6787,"Ġshot":6788,"Ġobey":6789,"ĠGall":6790,"Ġburied":6791,"ĠTestament":6792,"CL":6793,"born":6794,"Ġgarden":6795,"Ġprefer":6796,"Ġkne":6797,"Ġsteps":6798,"Some":6799,"iM":6800,"Ġeager":6801,"Ġrecol":6802,"ENS":6803,"Ġjealous":6804,"aved":6805,"Ġinstruction":6806,"Ġaverage":6807,"Ġjudges":6808,"Ġcentral":6809,"KS":6810,"ĠOs":6811,"Ġarchitect":6812,"phen":6813,"Ġfinal":6814,"âĢŀ":6815,"ieved":6816,"Ġrising":6817,"Ġnarrative":6818,"LAND":6819,"ĠBern":6820,"igne":6821,"erving":6822,"organ":6823,"Ġtiie":6824,"Ġentrance":6825,"Ġhol":6826,"Ġdelay":6827,"Ġdeparture":6828,"Ġerrors":6829,"Ġflowers":6830,"Ġpont":6831,"Ġric":6832,"Ġprovisions":6833,"Ġendeavoured":6834,"Im":6835,"dl":6836,"Ġprem":6837,"tho":6838,"iir":6839,"Ġtwice":6840,"Ġengine":6841,"OV":6842,"full":6843,"Ġbatt":6844,"bling":6845,"isse":6846,"ĠAnother":6847,"'m":6848,"Em":6849,"You":6850,"ache":6851,"Ġinfinite":6852,"Ġclaims":6853,"ĠENGLAND":6854,"180":6855,"uce":6856,"Ġgarrison":6857,"ĠCrom":6858,"Ġpil":6859,"Ġobser":6860,"Ġislands":6861,"Ġintroduction":6862,"illes":6863,"Ġsever":6864,"Ġscheme":6865,"Hist":6866,"Ġpan":6867,"estine":6868,"ildren":6869,"Ġafforded":6870,"Ġbanks":6871,"Ġmiss":6872,"Ġdish":6873,"ĠMod":6874,"Å¿Å¿":6875,"Ġadvent":6876,"Ġspr":6877,"atem":6878,"Ġnobles":6879,"quar":6880,"sum":6881,"igence":6882,"IE":6883,"state":6884,"Ġpill":6885,"Ġprospect":6886,"Ġhur":6887,"ĠPur":6888,"ĠWhile":6889,"Ġsoft":6890,"agh":6891,"Ġfan":6892,"ĠLuther":6893,"onic":6894,"ĠThough":6895,"empl":6896,"Ġreported":6897,"aped":6898,"itious":6899,"uting":6900,"uli":6901,"prising":6902,"Ġgun":6903,"hington":6904,"Ġtreatment":6905,"ĠPrice":6906,"fle":6907,"ĠPel":6908,"Ġic":6909,"ciet":6910,"Ġrespons":6911,"Ġarose":6912,"passed":6913,"Ġpup":6914,"cause":6915,"dent":6916,"ĠScience":6917,"placed":6918,"icip":6919,"Ġtherein":6920,"Ġ150":6921,"Ġinstruments":6922,"Ġexplain":6923,"Ġfome":6924,"retched":6925,"Ġteaching":6926,"tli":6927,"Ġfulf":6928,"ĠPortugal":6929,"FR":6930,"Ġsearch":6931,"Ġ63":6932,"Ġhonourable":6933,"Ġexplanation":6934,"Ġwithdra":6935,"Ġslightly":6936,"ayer":6937,"Ġchapel":6938,"Ãº":6939,"Ġhills":6940,"ĠLi":6941,"Ġthereby":6942,"Ġseparated":6943,"aii":6944,"ĠLetters":6945,"ker":6946,"alis":6947,"means":6948,"Ġwhereas":6949,"Ġknights":6950,"rep":6951,"Ġfond":6952,"BER":6953,"uity":6954,"Ġvice":6955,"ribute":6956,"Ġconnexion":6957,"Ġtradition":6958,"cad":6959,"ĠPor":6960,"Ġjustly":6961,"Ġoperation":6962,"Ġcareful":6963,"Ġeffected":6964,"pecial":6965,"ĠEss":6966,"Ġ55":6967,"Ġraise":6968,"Ġshortly":6969,"arest":6970,"Ġsurrounded":6971,"rine":6972,"Ġsins":6973,"ĠNote":6974,"uen":6975,"Ġci":6976,"itur":6977,"tered":6978,"period":6979,"Ġinstitution":6980,"Ġlegend":6981,"ĠCommon":6982,"Ġancest":6983,"Ġblind":6984,"Ġcam":6985,"Ġcongreg":6986,"Ġfeatures":6987,"ĠUnder":6988,"wt":6989,"UAL":6990,"high":6991,"Ġpressure":6992,"adelphia":6993,"PP":6994,"âĦ":6995,"âĦ¢":6996,"Art":6997,"Ġsaint":6998,"Ġea":6999,"PT":7000,"half":7001,"ĠGil":7002,"Ġcolours":7003,"OPE":7004,"cult":7005,"eous":7006,"Ġenable":7007,"oche":7008,"Ġ53":7009,"ĠBeg":7010,"enance":7011,"Ġhappiness":7012,"Sy":7013,"inger":7014,"bation":7015,"ervation":7016,"ĠBible":7017,"Ġstir":7018,"Ġay":7019,"eff":7020,"lets":7021,"Ġrecords":7022,"Ġpair":7023,"armed":7024,"Ġrebell":7025,"Ġresistance":7026,"Co":7027,"ĠFer":7028,"ĠCity":7029,"Ġov":7030,"Ġdans":7031,"Ġsection":7032,"ĠJacob":7033,"Gen":7034,"Ġthinks":7035,"ĠLo":7036,"Ġvari":7037,"Ġflight":7038,"Ġaim":7039,"Ġrom":7040,"Ġthofe":7041,"Ġlin":7042,"ĠIC":7043,"Ġends":7044,"ght":7045,"Ġconversation":7046,"Ġreceiving":7047,"eft":7048,"Ġwalk":7049,"erson":7050,"Ġchron":7051,"west":7052,"Ġknows":7053,"Ġconsecr":7054,"Ġquality":7055,"Ġprosec":7056,"Ġgrounds":7057,"Ġelement":7058,"appointed":7059,"says":7060,"Ġio":7061,"Ġimpression":7062,"Ġtrem":7063,"ected":7064,"Ġoffices":7065,"Ġstandard":7066,"ĠAccount":7067,"vals":7068,"Ġcomparison":7069,"Ġbuildings":7070,"iger":7071,"ĠHad":7072,"received":7073,"Ġmes":7074,"orte":7075,"Ġenv":7076,"BOOK":7077,"Ġgate":7078,"Ġaged":7079,"sociation":7080,"iiii":7081,"Ġaccess":7082,"Ġfuch":7083,"oute":7084,"ĠBoard":7085,"icine":7086,"Ġtalents":7087,"Ġreview":7088,"dest":7089,"Ġsad":7090,"Ġante":7091,"auce":7092,"inv":7093,"inated":7094,"erer":7095,"ĠGovern":7096,"Ġportions":7097,"Ġ~":7098,"izing":7099,"Ġcontempor":7100,"uine":7101,"ensity":7102,"Ġdegrees":7103,"Ġconstantly":7104,"Ġhes":7105,"Ġstreet":7106,"tit":7107,"Ġheir":7108,"whether":7109,"ĠIh":7110,"cession":7111,"Ġteach":7112,"pired":7113,"Ġvalley":7114,"Ġprevented":7115,"Ġdeeply":7116,"going":7117,"ĠMadame":7118,"iil":7119,"ĠFrank":7120,"Ġambition":7121,"Ġfashion":7122,"Ġhung":7123,"ĠLect":7124,"eries":7125,"Ġcolony":7126,"Ġedge":7127,"Ġcontinent":7128,"Ġassigned":7129,"Ġdefect":7130,"bal":7131,"Ġbitter":7132,"Paris":7133,"forth":7134,"Ġspecul":7135,"Ġaltar":7136,"wealth":7137,"aired":7138,"ĠChap":7139,"uced":7140,"wy":7141,"represent":7142,"icers":7143,"stra":7144,"Ġenorm":7145,"inese":7146,"Ġconcert":7147,"Ġbrave":7148,"Ġproduction":7149,"Ġteeth":7150,"Ġquo":7151,"April":7152,"ĠCounty":7153,"ĠPitt":7154,"ĠED":7155,"mean":7156,"mund":7157,"Ġconsisted":7158,"Ġindustry":7159,"mil":7160,"ources":7161,"super":7162,"Ġbringing":7163,"cat":7164,"oure":7165,"ĠSaint":7166,"amps":7167,"ĠSaxon":7168,"Sec":7169,"cha":7170,"igation":7171,"ĠREG":7172,"Ġaug":7173,"Ġretire":7174,"Ġminor":7175,"oot":7176,"Ġthefe":7177,"ĠMich":7178,"ceedings":7179,"Ġcalculated":7180,"ĠLE":7181,"bours":7182,"ĠCro":7183,"ĠNav":7184,"ĠUpon":7185,"yrus":7186,"Sept":7187,"ĠPruss":7188,"ĠFol":7189,"Ġxiii":7190,"engal":7191,"Oct":7192,"asted":7193,"Ġnn":7194,"ĠMass":7195,"sett":7196,"ĠSamuel":7197,"ĠProvince":7198,"sing":7199,"Ġcer":7200,"ĠBell":7201,"Ġundoubted":7202,"ynge":7203,"Ġprivileges":7204,"Ġaus":7205,"Ġarrest":7206,"Ġaston":7207,"ĠDor":7208,"iciency":7209,"Ġrespects":7210,"Ġphilosop":7211,"Ġcord":7212,"Ġenjoyed":7213,"ĠArist":7214,"resses":7215,"Ġejus":7216,"Ġphot":7217,"chn":7218,"Ġdebt":7219,"apers":7220,"wl":7221,"mons":7222,"Ġhal":7223,"Ġplates":7224,"version":7225,"Ġsettle":7226,"Christian":7227,"vated":7228,"Ġsoldier":7229,"osition":7230,"udal":7231,"Nov":7232,"above":7233,"Ġmarched":7234,"Ġirregular":7235,"Ġcolle":7236,"Ġfault":7237,"grat":7238,"Ġ61":7239,"fluence":7240,"dict":7241,"Ġstars":7242,"Ġbecoming":7243,"Ġperformance":7244,"lier":7245,"Ġ65":7246,"cludes":7247,"Can":7248,"hat":7249,"ĠSand":7250,"Ġsympath":7251,"Ġcryst":7252,"give":7253,"ilton":7254,"Ġforget":7255,"Ġtorn":7256,"enc":7257,"prove":7258,"ĠGib":7259,"Ġcheck":7260,"olf":7261,"Ġclosed":7262,"Ġsouthern":7263,"nature":7264,"Ġentertained":7265,"either":7266,"ĠLanc":7267,"ĠAlb":7268,"Ġborne":7269,"often":7270,"Ġattain":7271,"nothing":7272,"Ġclot":7273,"pract":7274,"Ġinstant":7275,"say":7276,"Ġtow":7277,"oln":7278,"decl":7279,"Ġarmies":7280,"Ġtyran":7281,"anges":7282,"sac":7283,"ifts":7284,"Ġ99":7285,"ka":7286,"encies":7287,"athered":7288,"ĠPRO":7289,"Ġcanon":7290,"Ġprovision":7291,"British":7292,"ele":7293,"tery":7294,"Ġmethods":7295,"ĠCardinal":7296,"ĠDom":7297,"Ġrot":7298,"Ġneck":7299,"shal":7300,"ĠFab":7301,"Ġeloqu":7302,"ĠCL":7303,"Ġrt":7304,"Ġeverything":7305,"itudes":7306,"lation":7307,"Ġvote":7308,"Ġburnt":7309,"umberland":7310,"happy":7311,"Ġsilence":7312,"Ut":7313,"Ġspite":7314,"100":7315,"fig":7316,"Ġwestern":7317,"ulgar":7318,"enti":7319,"Cr":7320,"MAN":7321,"venth":7322,"iol":7323,"eder":7324,"Ġquarters":7325,"Ġdomestic":7326,"Ġsaved":7327,"Ġconsisting":7328,"ĠHerodotus":7329,"fee":7330,"Ġcorps":7331,"Ġattempts":7332,"Act":7333,"tus":7334,"Ġmixed":7335,"Ġgene":7336,"ĠHebrew":7337,"ĠBoth":7338,"Ġrays":7339,"Ġhit":7340,"Ġecon":7341,"Ġstay":7342,"ĠGray":7343,"Si":7344,"Ġmand":7345,"subject":7346,"Ġnt":7347,"Ġworse":7348,"Ġskin":7349,"Ġpardon":7350,"ĠAber":7351,"Ġie":7352,"Ġum":7353,"ĠOther":7354,"ĠStat":7355,"Ġcharity":7356,"ĠAuthor":7357,"Ui":7358,"Ġproud":7359,"within":7360,"direct":7361,"ints":7362,"ĠHistor":7363,"ĠBro":7364,"Ġperf":7365,"ĠObservations":7366,"Ġbones":7367,"Ġaspect":7368,"Ġconfl":7369,"Ġremedy":7370,"imer":7371,"Ġalleg":7372,"advant":7373,"Ġpale":7374,"Ġlose":7375,"inence":7376,"Ġselected":7377,"ĠChina":7378,"unto":7379,"Ġyo":7380,"manner":7381,"ometer":7382,"irty":7383,"ĠHi":7384,"Ġ54":7385,"ecess":7386,"arg":7387,"Ġcro":7388,"Ġconject":7389,"ĠBOOK":7390,"lated":7391,"Ġacknowledged":7392,"atholic":7393,"ifer":7394,"Ġmoon":7395,"Ġholding":7396,"Ġdebate":7397,"QU":7398,"Ġimage":7399,"Ġabsolutely":7400,"Vol":7401,"amental":7402,"Ġretained":7403,"Ġcontempl":7404,"ĠPsal":7405,"agues":7406,"Ġregiment":7407,"ipped":7408,"rier":7409,"Ġelsewhere":7410,"Ġheret":7411,"Sax":7412,"Ġdetermine":7413,"Ġconstruction":7414,"73":7415,"Such":7416,"Ġqualities":7417,"Ġbien":7418,"Ġimpl":7419,"ĠThree":7420,"Ġmoreover":7421,"ATH":7422,"Ġcareer":7423,"mediately":7424,"Ġdenied":7425,"MS":7426,"RIST":7427,"ĠFa":7428,"cio":7429,"Ġimprison":7430,"esley":7431,"works":7432,"ĠStr":7433,"wit":7434,"Ġproble":7435,"ITY":7436,"Ġah":7437,"ĠScottish":7438,"Ġmun":7439,"Ġaccustomed":7440,"Ġimpart":7441,"castle":7442,"ofed":7443,"plicity":7444,"duces":7445,"Then":7446,"ĠUpper":7447,"Ġstreets":7448,"lab":7449,"Ġmechan":7450,"iverpool":7451,"KE":7452,"ĠCle":7453,"Ġallies":7454,"Ã¡n":7455,"omical":7456,"Ġshut":7457,"Ġtears":7458,"Ġattained":7459,"ĠBabylon":7460,"arse":7461,"Ġcalling":7462,"because":7463,"ĠFoxe":7464,"ptes":7465,"agger":7466,"Ġtliat":7467,"Ġsorrow":7468,"Ġsplendid":7469,"Ġseal":7470,"phal":7471,"justice":7472,"Ġmultitude":7473,"Ġsouls":7474,"Ġpictures":7475,"ĠHan":7476,"Ġinher":7477,"volution":7478,"Ġdepth":7479,"bable":7480,"Ġsitting":7481,"Ġlog":7482,"Ġblow":7483,"ployed":7484,"Ġaccomplished":7485,"eret":7486,"ĠLake":7487,"Ġei":7488,"Ġappointment":7489,"Ġtendency":7490,"Ġcharges":7491,"Ġdemonstr":7492,"rows":7493,"Ġanticip":7494,"Ġremove":7495,"Ġoffence":7496,"Ġglorious":7497,"eding":7498,"leton":7499,"think":7500,"ĠWestminster":7501,"Ġinstitutions":7502,"Ġdicho":7503,"IFE":7504,"Ġfled":7505,"urious":7506,"ĠCant":7507,"free":7508,"different":7509,"ĠWin":7510,"Ġwanted":7511,"Ġmasters":7512,"mm":7513,"wen":7514,"eded":7515,"Ġobserves":7516,"iendo":7517,"Ġblessed":7518,"NE":7519,"ĠBat":7520,"ario":7521,"Ġdiffer":7522,"ĠDiss":7523,"Ġcommunity":7524,"uties":7525,"Ġlof":7526,"ĠCanterbury":7527,"ĠRussia":7528,"Ġunfortunate":7529,"Ġtur":7530,"Ġpursued":7531,"unting":7532,"rians":7533,"Ġdisturb":7534,"Ġcircle":7535,"Ġ74":7536,"74":7537,"Ġsuccessor":7538,"ja":7539,"ĠOri":7540,"mans":7541,"ĠTim":7542,"ĠMark":7543,"ciation":7544,"inde":7545,"Ġmeas":7546,"acted":7547,"Ġxvi":7548,"Ġconsequences":7549,"icans":7550,"ĠElect":7551,"Ġcoal":7552,"ĠLieutenant":7553,"Mon":7554,"vern":7555,"ĠÂ©":7556,"Ġdemanded":7557,"aron":7558,"Ġmurd":7559,"ĠRog":7560,"Ġregions":7561,"ĠConstantinople":7562,"urred":7563,"chess":7564,"Ġfab":7565,"ĠAntiqu":7566,"July":7567,"Ġther":7568,"quam":7569,"ĠXIV":7570,"Here":7571,"ĠLinn":7572,"Ġpaint":7573,"Ġere":7574,"ĠMonday":7575,"Ġpreached":7576,"Ġsummon":7577,"Et":7578,"seless":7579,"Ġwait":7580,"Ġeternal":7581,"Ġscript":7582,"ĠSa":7583,"vels":7584,"Ġthinking":7585,"Ġbegun":7586,"landers":7587,"Ġdeprived":7588,"kl":7589,"Ġcommunion":7590,"ĠTheod":7591,"real":7592,"Ġaside":7593,"ĠÂ°":7594,"city":7595,"á¼":7596,"quare":7597,"Ġwindow":7598,"Ġurged":7599,"rl":7600,"raid":7601,"Ġsurv":7602,"Ġhay":7603,"rad":7604,"Ġauf":7605,"Ġgent":7606,"Ġfriendship":7607,"Ġdeclaration":7608,"Ġstudents":7609,"ĠWater":7610,"Ġwrites":7611,"179":7612,"LIAM":7613,"Ġlux":7614,"Ġips":7615,"Ġartillery":7616,"Ġdirections":7617,"ĠEgyptian":7618,"ĠPra":7619,"ĠAbout":7620,"Ġimprovement":7621,"Ġlanded":7622,"wart":7623,"ĠCOL":7624,"Ġanci":7625,"Ġprohib":7626,"Ġalive":7627,"ĠIslands":7628,"EAR":7629,"aign":7630,"atin":7631,"ĠScots":7632,"Ġjurisdiction":7633,"since":7634,"Ġconfusion":7635,"La":7636,"Ġbond":7637,"Ġinstructions":7638,"UD":7639,"Ġremarked":7640,"court":7641,"Ġsaints":7642,"ĠWed":7643,"Ġcool":7644,"Ġdispos":7645,"Ġverse":7646,"etors":7647,"inding":7648,"aturday":7649,"rc":7650,"Ġba":7651,"Ġfill":7652,"Ġsharp":7653,"uese":7654,"Ġcontrad":7655,"Ġpleasant":7656,"orem":7657,"Ġ52":7658,"Ġeastern":7659,"Ġbee":7660,"Ġ75":7661,"Ġemployment":7662,"Îµ":7663,"Ġhoc":7664,"Ġaltern":7665,"Î¹":7666,"Ġaffirm":7667,"Ġmile":7668,"usual":7669,"ĠHowever":7670,"APP":7671,"Ġneglect":7672,"Ġlament":7673,"Ġcha":7674,"ĠChief":7675,"iate":7676,"idable":7677,"Ġcontents":7678,"Ġcert":7679,"ctic":7680,"ĠChris":7681,"Ġcopies":7682,"ya":7683,"Ġenthus":7684,"herent":7685,"ĠZo":7686,"Ġincreasing":7687,"ĠNapoleon":7688,"Ġ81":7689,"Ġsincere":7690,"government":7691,"Ġconclude":7692,"mor":7693,"Ġloud":7694,"Ġrival":7695,"ĠAcademy":7696,"ĠSpart":7697,"ĠDisc":7698,"onial":7699,"Ġcontributed":7700,"Ġbaptism":7701,"jt":7702,"Ġvoyage":7703,"Ġenlar":7704,"lis":7705,"Ġsucc":7706,"Ġcollege":7707,"prof":7708,"ĠWho":7709,"ĠIsa":7710,"Ġmanufacture":7711,"West":7712,"ĠKings":7713,"angers":7714,"Ġslaves":7715,"Ġexperienced":7716,"enger":7717,"kt":7718,"Ġfancy":7719,"Ġhorn":7720,"Ġparallel":7721,"embered":7722,"ĠBY":7723,"Ġtouch":7724,"sure":7725,"roke":7726,"Ġcounter":7727,"Du":7728,"Ġpreserve":7729,"gi":7730,"houses":7731,"Ġbears":7732,"Ġsigned":7733,"Ġbehalf":7734,"akers":7735,"Ġdisplayed":7736,"Ġcavalry":7737,"Ġunderstanding":7738,"osophical":7739,"oufe":7740,"Ġincom":7741,"Ġlest":7742,"tle":7743,"Ġcharacteristic":7744,"bius":7745,"Ġpow":7746,"ĠTer":7747,"Ġvirtues":7748,"HT":7749,"ĠAM":7750,"ĠDur":7751,"Ġamend":7752,"done":7753,"Ġsuitable":7754,"Ġflag":7755,"left":7756,"ĠOrig":7757,"Es":7758,"Ġtf":7759,"ICLE":7760,"Ġceased":7761,"Ġcommons":7762,"ĠPublic":7763,"Ġouter":7764,"oso":7765,"Ġdeemed":7766,"Ġwars":7767,"Ġsale":7768,"Ġmagnet":7769,"Ġwishes":7770,"icer":7771,"Ġabol":7772,"Ġexha":7773,"Ġmarket":7774,"Ġhoriz":7775,"ĠCarth":7776,"Ġsic":7777,"ĠMON":7778,"Ġdeny":7779,"omon":7780,"ĠBrown":7781,"ĠFar":7782,"Ġfinished":7783,"iards":7784,"pendix":7785,"history":7786,"Ġcomment":7787,"Ġconquer":7788,"Ġconquest":7789,"Ġfathers":7790,"Ġsatisfactory":7791,"Ġprivilege":7792,"Ġantiquity":7793,"ĠWalter":7794,"omed":7795,"particular":7796,"Ġnecessarily":7797,"Ġthoroughly":7798,"bri":7799,"Ġincons":7800,"onn":7801,"oring":7802,"Ġrejected":7803,"enedict":7804,"IO":7805,"word":7806,"Ġrect":7807,"Ġhereafter":7808,"Ġdetail":7809,"Ġparents":7810,"Ġconve":7811,"Ġvary":7812,"went":7813,"soever":7814,"Ġnin":7815,"Ġofficial":7816,"Ġroot":7817,"Ġtii":7818,"Ġprocure":7819,"Su":7820,"Ġfri":7821,"Ġthank":7822,"Ġutterly":7823,"Ġpag":7824,"adow":7825,"ĠLIFE":7826,"away":7827,"semble":7828,"Ġstudies":7829,"uls":7830,"URCH":7831,"XXX":7832,"osc":7833,"WE":7834,"Ġloved":7835,"Ġbrilliant":7836,"ĠHand":7837,"ĠEu":7838,"Ġlegs":7839,"Ġcalm":7840,"alysis":7841,"Ġhered":7842,"Ġstraight":7843,"Pat":7844,"Sm":7845,"archy":7846,"agon":7847,"ella":7848,"ĠDeath":7849,"Ġcommercial":7850,"ocked":7851,"ĠHal":7852,"Ġimpress":7853,"Ġregards":7854,"Ġprocured":7855,"Ġpronounced":7856,"hab":7857,"ctions":7858,"Ġsurprise":7859,"ĠTurk":7860,"Ġrequires":7861,"annel":7862,"ĠJewish":7863,"till":7864,"Ġbay":7865,"utor":7866,"Ġsex":7867,"Ġrespective":7868,"late":7869,"Ġascertain":7870,"Ġannounced":7871,"ĠPapers":7872,"stud":7873,"ĠWat":7874,"Ġobjection":7875,"parent":7876,"dy":7877,"Ġlif":7878,"Ġappend":7879,"ĠPrinci":7880,"Ġwing":7881,"ĠSav":7882,"Ġroof":7883,"Ġsecured":7884,"Ġinterrupt":7885,"Ġcheer":7886,"Ġgrowing":7887,"Ġxl":7888,"Ġ1851":7889,"cieties":7890,"72":7891,"ĠANN":7892,"Ġrunning":7893,"build":7894,"Ġsor":7895,"owe":7896,"cipit":7897,"Ġ120":7898,"Ġtube":7899,"Ġconvenient":7900,"Ġtent":7901,"Ġgrew":7902,"Ġ68":7903,"Ġstruggle":7904,"Av":7905,"almost":7906,"ĠGE":7907,"ĠDay":7908,"Ġip":7909,"gans":7910,"avit":7911,"Ġabsurd":7912,"Ġdistricts":7913,"clamation":7914,"ĠBart":7915,"Ġ73":7916,"Ġboats":7917,"Ġprofit":7918,"ĠSP":7919,"fted":7920,"Ġdeveloped":7921,"lc":7922,"ĠCas":7923,"Ġmargin":7924,"Ġ1847":7925,"twenty":7926,"Ġcommencement":7927,"Ġobvious":7928,"ioch":7929,"vet":7930,"Ġwanting":7931,"crit":7932,"Ġwonderful":7933,"zes":7934,"istence":7935,"icroscop":7936,"Ġreli":7937,"ader":7938,"ĠDev":7939,"bol":7940,"always":7941,"Ġanat":7942,"Ġrepublic":7943,"ĠArthur":7944,"Ġmerits":7945,"spirit":7946,"Ġgift":7947,"Ġartific":7948,"ĠHay":7949,"cert":7950,"Ġthrew":7951,"ĠSab":7952,"rage":7953,"dec":7954,"pressed":7955,"Ġtables":7956,"Ġ66":7957,"few":7958,"Ġinstantly":7959,"Ġexamine":7960,"George":7961,"Ġdefeated":7962,"ĠRoy":7963,"Our":7964,"lay":7965,"ilis":7966,"ĠUr":7967,"Ġmistake":7968,"kn":7969,"amount":7970,"ĠGar":7971,"early":7972,"fts":7973,"Ġspecific":7974,"endus":7975,"Ġpunish":7976,"oresaid":7977,"idem":7978,"ĠOper":7979,"aughters":7980,"unter":7981,"Ġcontra":7982,"ĠMartin":7983,"Ġbull":7984,"agne":7985,"Ġalike":7986,"ICH":7987,"Ġavail":7988,"DEX":7989,"Ġprin":7990,"Ġresist":7991,"Ġaux":7992,"ifies":7993,"Ġestates":7994,"Ġconveyed":7995,"xi":7996,"Ġoc":7997,"Ġuncertain":7998,"Ġrecover":7999,"75":8000,"yt":8001,"Ġcried":8002,"speare":8003,"Ġdescribes":8004,"ĠSO":8005,"Ġadapted":8006,"mand":8007,"ĠSat":8008,"Ġdistinctly":8009,"Ġ}":8010,"Ġunex":8011,"Ġministry":8012,"uesday":8013,"Ġrevenue":8014,"folk":8015,"rait":8016,"Ġcolonies":8017,"Ġ1852":8018,"Ġ1858":8019,"Ġfever":8020,"Ġct":8021,"geon":8022,"Ġperiods":8023,"things":8024,"Ġ85":8025,"incoln":8026,"Ġsanction":8027,"lan":8028,"Ġarise":8029,"ĠXII":8030,"ĠAra":8031,"ĠOrgan":8032,"ĠBesides":8033,"ĠLis":8034,"oval":8035,"Ġsli":8036,"Ġconceived":8037,"ĠBE":8038,"ciences":8039,"tive":8040,"Ġburg":8041,"ĠPont":8042,"Ġpayment":8043,"amph":8044,"Ġfairly":8045,"AGE":8046,"ila":8047,"icts":8048,"Ġconvinced":8049,"Ġoo":8050,"Ġconform":8051,"quest":8052,"Ġwear":8053,"Ġdevotion":8054,"imi":8055,"Ġliberal":8056,"ĠPersian":8057,"LY":8058,"Ġferv":8059,"ĠBengal":8060,"Ġdoubtless":8061,"Ġarguments":8062,"MENT":8063,"pu":8064,"ĠDirect":8065,"ĠVe":8066,"Ġpit":8067,"Ġthither":8068,"Ġarbit":8069,"ĠEX":8070,"Ġafternoon":8071,"Ġsooner":8072,"Ġresearches":8073,"ouf":8074,"olation":8075,"Ġadvoc":8076,"parts":8077,"71":8078,"lain":8079,"orter":8080,"ĠMis":8081,"ulo":8082,"Ġintr":8083,"Ġhistorian":8084,"Robert":8085,"Ġparte":8086,"Ġdiameter":8087,"HI":8088,"riages":8089,"Ġflower":8090,"ĠEM":8091,"ĠHard":8092,"usa":8093,"ĠAustral":8094,"uo":8095,"Ġtalk":8096,"hs":8097,"athan":8098,"ĠUl":8099,"Ġguide":8100,"Ġrecommended":8101,"uld":8102,"Ġwhereof":8103,"Ġcorpor":8104,"Ġstop":8105,"Ġpenet":8106,"ĠCHAP":8107,"Bo":8108,"Ġfought":8109,"Ġforbid":8110,"amped":8111,"young":8112,"lers":8113,"Ġfert":8114,"oda":8115,"Ġeditor":8116,"Ġbreast":8117,"ISTER":8118,"78":8119,"length":8120,"ĠLuc":8121,"San":8122,"otal":8123,"Ġgospel":8124,"Book":8125,"Ġapparatus":8126,"monies":8127,"Ġapt":8128,"ĠLew":8129,"Ġsettlement":8130,"Ġextremity":8131,"ĠSyn":8132,"aks":8133,"ĠKent":8134,"Ġtransport":8135,"Ġfalling":8136,"Ġwil":8137,"arts":8138,"engers":8139,"icia":8140,"Ġasc":8141,"cannot":8142,"Ġful":8143,"Ġ1846":8144,"Ġdetermination":8145,"hundred":8146,"Ġexh":8147,"ĠRussian":8148,"Ġactivity":8149,"mediate":8150,"Ġphr":8151,"Ġpermanent":8152,"ĠCarl":8153,"ĠRec":8154,"Ġaudience":8155,"bran":8156,"tures":8157,"esc":8158,"Ġlibert":8159,"Ġcapacity":8160,"Ġera":8161,"Ġ1849":8162,"Ġcandid":8163,"Ġabandoned":8164,"ĠHomer":8165,"Ġterrible":8166,"ĠGrand":8167,"Ġmajor":8168,"hill":8169,"Ġpiety":8170,"Ġdare":8171,"ĠMUS":8172,"ORT":8173,"Ġengra":8174,"Ġeffort":8175,"igo":8176,"aciÃ³n":8177,"compl":8178,"Ġremainder":8179,"Ġimagine":8180,"Ġrude":8181,"asse":8182,"aming":8183,"umm":8184,"cius":8185,"Ġalliance":8186,"Ġpartial":8187,"Ġfreely":8188,"Ġ1848":8189,"eo":8190,"ĠArg":8191,"Ġbelongs":8192,"Man":8193,"Ġcattle":8194,"Ġ1841":8195,"ĠRus":8196,"Ġoutside":8197,"Ġimproved":8198,"nding":8199,"IONS":8200,"Ġmedical":8201,"Ġcombined":8202,"Ap":8203,"Ul":8204,"ĠFranc":8205,"imately":8206,"Ġinjury":8207,"ĠAnne":8208,"Ġwings":8209,"Ġcommunicated":8210,"gs":8211,"Ġpretended":8212,"Ġsetting":8213,"ENDIX":8214,"Ġphenomena":8215,"Ġgriev":8216,"Ġstudied":8217,"Ġputting":8218,"Ġsurely":8219,"Gree":8220,"Ġended":8221,"Ġelectric":8222,"Capt":8223,"ĠBour":8224,"Ġcompass":8225,"Ġmighty":8226,"Ġuncle":8227,"Ġ62":8228,"Ġdw":8229,"Ġ56":8230,"ĠCatholics":8231,"occasion":8232,"Ġeggs":8233,"Ġpoison":8234,"army":8235,"Ġdoubtful":8236,"Ġaccompany":8237,"Ġtreason":8238,"ĠAlexandria":8239,"Ei":8240,"Ste":8241,"Ġmentions":8242,"learn":8243,"Ġdecision":8244,"ĠExcell":8245,"Ir":8246,"hol":8247,"Ġbon":8248,"Ġembra":8249,"eenth":8250,"antes":8251,"Ġuns":8252,"ĠSupp":8253,"Ġbell":8254,"ĠFlor":8255,"ĠThom":8256,"Ġknowing":8257,"towards":8258,"perfect":8259,"Ġexercised":8260,"written":8261,"RAT":8262,"bene":8263,"nders":8264,"Ġhang":8265,"ilian":8266,"Ġchrist":8267,"ĠChinese":8268,"Ġsubmit":8269,"Ġbrothers":8270,"ilia":8271,"ĠHa":8272,"idelity":8273,"mere":8274,"ĠGrace":8275,"ardin":8276,"Ġcontest":8277,"Ġslain":8278,"ĠIndeed":8279,"ĠCab":8280,"idity":8281,"Ġrepent":8282,"comp":8283,"osity":8284,"Ġadmirable":8285,"olution":8286,"Ġfollowers":8287,"Ġ1840":8288,"covered":8289,"words":8290,"Ġlot":8291,"east":8292,"entes":8293,"Ġremote":8294,"fell":8295,"Ġshell":8296,"Cal":8297,"Ġrele":8298,"ĠSk":8299,"near":8300,"Another":8301,"Af":8302,"Ġagricult":8303,"ORE":8304,"Ġdispute":8305,"cnt":8306,"sen":8307,"Ġdioc":8308,"Car":8309,"hension":8310,"Ġmetal":8311,"ĠMinister":8312,"Jo":8313,"jn":8314,"rather":8315,"irds":8316,"Ġlibrary":8317,"olo":8318,"Ġliquid":8319,"Ġease":8320,"exper":8321,"Ġindiff":8322,"Ġcustoms":8323,"CHE":8324,"Ġfoss":8325,"Ġnotion":8326,"Ġgenera":8327,"Ġcarbon":8328,"ĠOrd":8329,"hope":8330,"Ġconsidering":8331,"Ġsixth":8332,"Ġmounted":8333,"rors":8334,"Ġsubsequently":8335,"rus":8336,"Ġrein":8337,"coming":8338,"Ġtreasure":8339,"Ġanalog":8340,"Ġdistribution":8341,"Ġindis":8342,"Ġpredecess":8343,"Ġacting":8344,"Ġidol":8345,"ĠStud":8346,"ICA":8347,"ĠJOHN":8348,"Ġ84":8349,"ugg":8350,"ĠAld":8351,"ĠLiverpool":8352,"plan":8353,"Ġcontact":8354,"Ġburning":8355,"hands":8356,"Ġtract":8357,"Ġhid":8358,"rift":8359,"ICE":8360,"ĠSvo":8361,"ORGE":8362,"Ġprovide":8363,"Ġpapal":8364,"Ġtreatise":8365,"76":8366,"Lie":8367,"object":8368,"Ġfool":8369,"VIII":8370,"Ġyards":8371,"pping":8372,"ĠMethod":8373,"Ġsunt":8374,"Ġmete":8375,"Ġbasis":8376,"Ġcompanions":8377,"Ġchemical":8378,"Ġsite":8379,"Ġthro":8380,"ĠMission":8381,"lio":8382,"Ġaccus":8383,"Ġfacult":8384,"Ġeldest":8385,"AW":8386,"gal":8387,"Ġfet":8388,"ĠNotes":8389,"ĠAthenians":8390,"Europe":8391,"ding":8392,"Ġafl":8393,"once":8394,"Ġdivisions":8395,"olitical":8396,"Ġach":8397,"ĠTro":8398,"iders":8399,"Ġdial":8400,"Ġlan":8401,"ĠAssociation":8402,"Ġhandsome":8403,"Ġfitted":8404,"ĠPag":8405,"Ġyounger":8406,"UND":8407,"ĠXVI":8408,"Ġlb":8409,"Ġprobability":8410,"Ġoccasioned":8411,"ĠLibrary":8412,"House":8413,"rendered":8414,"istered":8415,"ollen":8416,"99":8417,"York":8418,"Ġreports":8419,"velled":8420,"ĠJun":8421,"Ġrough":8422,"Ġ190":8423,"Ġreality":8424,"zed":8425,"obl":8426,"Ġaper":8427,"ĠTw":8428,"ĠAlf":8429,"Ġrequis":8430,"appears":8431,"ĠFlore":8432,"Ġfold":8433,"Ġsheep":8434,"Ġinvited":8435,"Ġdecree":8436,"ĠNorman":8437,"Where":8438,"best":8439,"urance":8440,"Ġcontribut":8441,"ĠAnglo":8442,"Your":8443,"rament":8444,"Ġloyal":8445,"ĠOd":8446,"Ġ500":8447,"Ġpoems":8448,"arms":8449,"lj":8450,"mel":8451,"Ġ71":8452,"Ġwhereby":8453,"Ġstudent":8454,"ĠÃ":8455,"Ġbarons":8456,"ieties":8457,"ĠDam":8458,"Ġreasonable":8459,"Fran":8460,"Ġlev":8461,"ods":8462,"Ġretain":8463,"Ġdesirous":8464,"Ġenormous":8465,"rh":8466,"Ġcel":8467,"Ġears":8468,"Ġindependence":8469,"uated":8470,"Ġpainted":8471,"Ġdit":8472,"Ġascribed":8473,"ĠEastern":8474,"Ġindul":8475,"'ll":8476,"Ġperse":8477,"Ġincor":8478,"Ġeleven":8479,"Ġconceive":8480,"Ġdominions":8481,"dev":8482,"Dec":8483,"posing":8484,"Ġ1839":8485,"Ġstatute":8486,"Ġsugar":8487,"Ġfeast":8488,"Ġattract":8489,"aze":8490,"Ġinvestigation":8491,"ĠEccles":8492,"Ġhonor":8493,"angel":8494,"Ġig":8495,"Ġheres":8496,"Ġadmiration":8497,"Il":8498,"Ġcrossed":8499,"ĠWAR":8500,"forced":8501,"Ġdistress":8502,"Ġ1857":8503,"Ġboys":8504,"doubt":8505,"Ep":8506,"ĠIb":8507,"ĠMoses":8508,"ulating":8509,"Ġmyster":8510,"Ġventure":8511,"gh":8512,"Ġfc":8513,"Ġnos":8514,"ava":8515,"Ġvit":8516,"Ġclimate":8517,"ictions":8518,"ĠAtt":8519,"Ġrivers":8520,"Ġmotives":8521,"matter":8522,"Ġdy":8523,"eman":8524,"Ġyearly":8525,"stri":8526,"Ġ111":8527,"ĠBerlin":8528,"Ġnobility":8529,"reement":8530,"Ġble":8531,"Ġhydro":8532,"already":8533,"Ġassume":8534,"Ġ1845":8535,"joined":8536,"fulness":8537,"feel":8538,"ĠTower":8539,"Ġbridge":8540,"plex":8541,"iac":8542,"Ġtub":8543,"Ġomitted":8544,"istics":8545,"Ġstead":8546,"ĠNorm":8547,"OLOG":8548,"Ġtouching":8549,"perate":8550,"BB":8551,"Í¤":8552,"tera":8553,"soon":8554,"Ġchiefs":8555,"ĠApoll":8556,"Ġdic":8557,"Ġcrimes":8558,"Ġtemporal":8559,"Mac":8560,"aders":8561,"ĠDra":8562,"Ġalluded":8563,"Ġesse":8564,"Ġmagnificent":8565,"iw":8566,"ĠLin":8567,"Ġfib":8568,"Ġgates":8569,"Ġsuffering":8570,"Ġcritical":8571,"ĠTor":8572,"rot":8573,"ĠHeaven":8574,"Ġaffair":8575,"afterwards":8576,"Ġnut":8577,"ĠHind":8578,"Ġpoets":8579,"asy":8580,"IVE":8581,"Ġtun":8582,"Ġgather":8583,"ĠAgain":8584,"Ġforgotten":8585,"Ġwin":8586,"Ġpious":8587,"ĠHaw":8588,"Ġdelicate":8589,"icroscope":8590,"Ġdying":8591,"uming":8592,"Ġvind":8593,"Ġmyst":8594,"hu":8595,"urrection":8596,"affect":8597,"tm":8598,"ĠRich":8599,"Ġclean":8600,"Ġburst":8601,"fol":8602,"Ġaliqu":8603,"Ġdesigned":8604,"Ġ00":8605,"UNT":8606,"ĠNaples":8607,"len":8608,"isms":8609,"Ġmerc":8610,"Ġobtaining":8611,"olars":8612,"Ġ130":8613,"PR":8614,"inis":8615,"itan":8616,"nefs":8617,"pled":8618,"Ġinterval":8619,"ĠCarol":8620,"intend":8621,"enter":8622,"esses":8623,"Ġsurprised":8624,"Ġcounsel":8625,"Ġcontroversy":8626,"Ġ123":8627,"conduct":8628,"making":8629,"Ġpains":8630,"Ġreturning":8631,"Ġpurchase":8632,"ĠTR":8633,"ĠBal":8634,"rac":8635,"ĠWel":8636,"Ġusur":8637,"Ġturning":8638,"Royal":8639,"icul":8640,"ĠNever":8641,"otic":8642,"ĠAe":8643,"ĠLan":8644,"allow":8645,"stat":8646,"ousands":8647,"Ġaccused":8648,"Ġprompt":8649,"Ġmillions":8650,"umer":8651,"ĠLONDON":8652,"Ġsuit":8653,"Ġperceive":8654,"Ġpositive":8655,"Ġagreeable":8656,"Ġpreparation":8657,"Ġconsiderably":8658,"Ġatmosphere":8659,"Ġxix":8660,"Ġample":8661,"picuous":8662,"tory":8663,"esse":8664,"ĠDar":8665,"Ġconspir":8666,"Ġattributed":8667,"following":8668,"Ġkindness":8669,"Ġdeparted":8670,"ĠAL":8671,"ĠPan":8672,"Ġcontract":8673,"Ġcommend":8674,"ĠRegent":8675,"Acc":8676,"Ġunjust":8677,"Ġcountenance":8678,"Ġ1856":8679,"Ġleaders":8680,"Ġvoices":8681,"Ġafraid":8682,"ĠPass":8683,"Ġscattered":8684,"Ġbehold":8685,"hended":8686,"Ġacquaintance":8687,"Ġ400":8688,"Ġgratitude":8689,"Ġdischarge":8690,"die":8691,"Ġarea":8692,"Ġpermit":8693,"eping":8694,"proved":8695,"Ġsubmitted":8696,"rj":8697,"oma":8698,"ĠMas":8699,"crip":8700,"Ġdeter":8701,"ĠAnton":8702,"vag":8703,"lord":8704,"Ġff":8705,"ĠCond":8706,"Ġdeed":8707,"Ġij":8708,"Ġcalam":8709,"Ġmovements":8710,"Ġextending":8711,"Ġtex":8712,"Ġange":8713,"ĠWy":8714,"Ġindebted":8715,"perhaps":8716,"ĠInstitute":8717,"Ġabsor":8718,"tb":8719,"Ġoh":8720,"Ġpars":8721,"Ġprecious":8722,"ermons":8723,"itis":8724,"Ġworked":8725,"LET":8726,"Ġprimitive":8727,"iih":8728,"Ġ83":8729,"Ġwants":8730,"ĠSaturday":8731,"ĠStan":8732,"ĠScriptures":8733,"Ġnaval":8734,"ĠFin":8735,"Ġetiam":8736,"Ġ76":8737,"ĠTrinity":8738,"ĠWm":8739,"Ġnevertheless":8740,"ĠAbbey":8741,"Ġillustrated":8742,"Ġcultivated":8743,"Ġocean":8744,"Ġfran":8745,"ĠMex":8746,"odes":8747,"Ġsignal":8748,"Ġdies":8749,"arked":8750,"Ġtraced":8751,"Ġtlic":8752,"alty":8753,"ĠSaviour":8754,"ogue":8755,"ĠInn":8756,"Ġ1838":8757,"Ġtres":8758,"burn":8759,"onian":8760,"Ġgathered":8761,"knowledge":8762,"ĠCHRIST":8763,"Ġdepartment":8764,"Ġinduce":8765,"Ġshame":8766,"Ġbutter":8767,"Ġdefin":8768,"Ġxvii":8769,"mid":8770,"asury":8771,"Ġinvolved":8772,"aylor":8773,"oble":8774,"Ġintercourse":8775,"Ġtranqu":8776,"ĠMSS":8777,"alls":8778,"Ġrestra":8779,"VER":8780,"Ġreception":8781,"Ġfourteen":8782,"ĠBishops":8783,"Ġdesigns":8784,"yard":8785,"Ġmutual":8786,"try":8787,"Ġ1860":8788,"ĠKen":8789,"Ġbrig":8790,"Ġproperties":8791,"ĠWestern":8792,"Ġincident":8793,"Ġseventy":8794,"Ġborrow":8795,"aris":8796,"Ġaforesaid":8797,"Ġfly":8798,"Ġrat":8799,"Ġneces":8800,"jOOQIC":8801,"ĠTom":8802,"Ġcountrymen":8803,"OLD":8804,"Ġexertions":8805,"iB":8806,"onge":8807,"ector":8808,"Ġ1853":8809,"Ġneighbouring":8810,"Ġprophet":8811,"fast":8812,"Ġfie":8813,"Ġeccles":8814,"tal":8815,"Å¿s":8816,"Ġplea":8817,"persons":8818,"ancholy":8819,"Ditto":8820,"past":8821,"ĠNational":8822,"Ġplainly":8823,"Ġornament":8824,"Ġentering":8825,"Ġcomparatively":8826,"omic":8827,"ĠDa":8828,"Ġspo":8829,"Ġconscious":8830,"Ġgeneration":8831,"Ġannum":8832,"Ġundoubtedly":8833,"icable":8834,"Ġ1844":8835,"otted":8836,"ĠClare":8837,"Ġvigour":8838,"ĠREGISTER":8839,"iie":8840,"vn":8841,"Ġtod":8842,"Ġrelates":8843,"difficult":8844,"Ġsupreme":8845,"Ġrepre":8846,"Ġibe":8847,"Ġadvers":8848,"beg":8849,"Ġsensible":8850,"Ġtale":8851,"Ġbestowed":8852,"ursday":8853,"ĠStephen":8854,"yth":8855,"Ġplayed":8856,"Ġdifferences":8857,"ĠEnd":8858,"Ġprincipally":8859,"Cor":8860,"gave":8861,"Ġhaue":8862,"Ġworst":8863,"Ġ95":8864,"Ġdistinguish":8865,"Ġram":8866,"Ġability":8867,"Ġpasses":8868,"ĠUnion":8869,"Ġdoctor":8870,"Ġpurchased":8871,"bb":8872,"Ġoct":8873,"Ġsauce":8874,"aling":8875,"stition":8876,"Ġcircular":8877,"Ġaccurate":8878,"separ":8879,"ĠLiter":8880,"ĠEuse":8881,"consider":8882,"iot":8883,"ĠChurches":8884,"Ġcolum":8885,"ĠEpist":8886,"Ã±or":8887,"Scot":8888,"Ġexceedingly":8889,"Ġtower":8890,"Ġpled":8891,"Ġgenuine":8892,"Among":8893,"ÏĤ":8894,"Ġsalvation":8895,"pedition":8896,"Ġinvention":8897,"Ġ1859":8898,"While":8899,"Ġmasses":8900,"olph":8901,"ĠBurn":8902,"Ġ1842":8903,"OUSE":8904,"Ġbatter":8905,"ĠIllustr":8906,"iere":8907,"ĠFam":8908,"aws":8909,"Ġoppon":8910,"Ġdescribe":8911,"fal":8912,"Ġinner":8913,"riv":8914,"ĠComptes":8915,"continued":8916,"ĠSicily":8917,"Ġys":8918,"mill":8919,"utt":8920,"ĠAdam":8921,"ĠMusic":8922,"ĠBibl":8923,"uits":8924,"bear":8925,"Ġ1850":8926,"Ġenterprise":8927,"Ġarrangements":8928,"ASS":8929,"Ġconstructed":8930,"Min":8931,"lle":8932,"ĠGlou":8933,"OIR":8934,"Ġskull":8935,"Pe":8936,"Que":8937,"Ġaft":8938,"inge":8939,"isons":8940,"iries":8941,"kh":8942,"ĠROM":8943,"Ġpound":8944,"ĠMu":8945,"iia":8946,"Ġtermed":8947,"Ġpn":8948,"ĠJah":8949,"Ġ1854":8950,"Ġprofound":8951,"inj":8952,"Ġexists":8953,"ĠWol":8954,"Ġ97":8955,"Ġframe":8956,"Ġcorresponding":8957,"ĠMichael":8958,"Mad":8959,"Ġpod":8960,"ĠLincoln":8961,"money":8962,"eni":8963,"Ġrecovered":8964,"Ġapproved":8965,"Ġexpressly":8966,"Ġmusical":8967,"py":8968,"erit":8969,"Ġdegr":8970,"overty":8971,"Ġperfection":8972,"500":8973,"rys":8974,"Ġresearch":8975,"riday":8976,"system":8977,"Ġprosperity":8978,"gre":8979,"ienna":8980,"Ġsky":8981,"Ġfurnish":8982,"prison":8983,"Ġsmo":8984,"Ġvest":8985,"Ġcopper":8986,"Edward":8987,"Ġber":8988,"reck":8989,"find":8990,"Ġnoted":8991,"Ġqua":8992,"Ġ129":8993,"Ġtomb":8994,"circum":8995,"Roman":8996,"ĠAlso":8997,"Ġverses":8998,"rolog":8999,"Ġcav":9000,"urbed":9001,"Ġrebellion":9002,"Ġfriendly":9003,"azine":9004,"Ġ1837":9005,"Ġacknowledge":9006,"Ġmild":9007,"icating":9008,"Ġformidable":9009,"ATIONS":9010,"eme":9011,"ĠGold":9012,"Ġmedium":9013,"Ġfaint":9014,"Ġanno":9015,"ĠWhit":9016,"Ġwindows":9017,"Ġcf":9018,"Ġrear":9019,"nty":9020,"Ġpermission":9021,"Ġremembered":9022,"Ġ72":9023,"Ġconver":9024,"Ġconverted":9025,"ousin":9026,"except":9027,"Ġlawful":9028,"urus":9029,"Ġsurrender":9030,"ĠBeing":9031,"published":9032,"fy":9033,"mers":9034,"nut":9035,"tin":9036,"viously":9037,"erk":9038,"Arch":9039,"Ġdefeat":9040,"fh":9041,"Ġliable":9042,"Ġaffl":9043,"Ġhumanity":9044,"xxx":9045,"ĠThou":9046,"ĠInstitution":9047,"Ġgenerous":9048,"Ġ103":9049,"Ġstranger":9050,"Ġmental":9051,"Ġdyn":9052,"Ġapud":9053,"Ġscenes":9054,"Ġevils":9055,"ĠEpiscop":9056,"Ġstrengthen":9057,"Ġangle":9058,"Sam":9059,"ĠWhether":9060,"ĠChal":9061,"esterday":9062,"probably":9063,"aeus":9064,"Ġinserted":9065,"Ġruins":9066,"Ġstatements":9067,"Ġtotally":9068,"authority":9069,"Rev":9070,"ĠTuesday":9071,"apan":9072,"Ġscul":9073,"ĠAlthough":9074,"Ġporque":9075,"Ġ1862":9076,"Ġaltered":9077,"Page":9078,"Ġsermon":9079,"Ġbig":9080,"ĠBank":9081,"North":9082,"Po":9083,"Ġoft":9084,"Ġshew":9085,"ĠMemoirs":9086,"Ġsending":9087,"faith":9088,"Ġtyr":9089,"Ġtoward":9090,"bas":9091,"nig":9092,"Ġeee":9093,"agen":9094,"ĠPlant":9095,"otle":9096,"Ġrub":9097,"ĠThird":9098,"Ġ88":9099,"tenance":9100,"Ġreflect":9101,"ĠBefore":9102,"ropolis":9103,"Ġgetting":9104,"Ġconviction":9105,"ĠImperial":9106,"Rep":9107,"iJ":9108,"adors":9109,"Ġallied":9110,"BY":9111,"atu":9112,"ĠSpaniards":9113,"Ġsag":9114,"ĠAstron":9115,"Ġdarkness":9116,"ĠDoctor":9117,"Ġcaught":9118,"chap":9119,"ĠVan":9120,"Ġcorrespondence":9121,"bts":9122,"although":9123,"ĠSing":9124,"Ġmeat":9125,"Ġpersecution":9126,"ĠGoth":9127,"Alex":9128,"Ġsho":9129,"nit":9130,"unning":9131,"agree":9132,"ĠYoung":9133,"ĠPoet":9134,"text":9135,"Ġrighteous":9136,"Ġconcur":9137,"anguage":9138,"Ġeighteen":9139,"Ġabundant":9140,"Ġvulgar":9141,"opinion":9142,"Ġwore":9143,"ĠChancellor":9144,"Ġ1855":9145,"Ġdisplay":9146,"utive":9147,"ĠPa":9148,"Ġapostles":9149,"ĠGene":9150,"indeed":9151,"Ġasserted":9152,"Ġfruits":9153,"Ġsuspicion":9154,"sk":9155,"Ġunity":9156,"Ġperceived":9157,"Ġ1861":9158,"Ġhappen":9159,"Ġsecretary":9160,"ĠAh":9161,"erers":9162,"express":9163,"Mrs":9164,"pence":9165,"enz":9166,"Their":9167,"Ġclo":9168,"ounter":9169,"Ġregarding":9170,"Ġ1831":9171,"Ġharbour":9172,"Ġquickly":9173,"ateful":9174,"Ġ86":9175,"Ġillustrious":9176,"regard":9177,"Ġbeloved":9178,"Ġpractised":9179,"TERS":9180,"During":9181,"ees":9182,"Ġcure":9183,"ĠInf":9184,"pleasure":9185,"ĠXI":9186,"Ġmodem":9187,"iop":9188,"lr":9189,"test":9190,"uta":9191,"ĠSong":9192,"Ġgrown":9193,"Ġloose":9194,"Ġadopt":9195,"human":9196,"Do":9197,"Ġtons":9198,"ĠSeveral":9199,"ĠProphe":9200,"Ġrailway":9201,"ĠHome":9202,"Ġdispers":9203,"ĠSuff":9204,"Ġmerchants":9205,"Ġassisted":9206,"Ġelegant":9207,"seven":9208,"antur":9209,"Ġmanuscript":9210,"service":9211,"ĠPrincess":9212,"ISS":9213,"Ġrestore":9214,"Ġcontinually":9215,"Ġbands":9216,"peare":9217,"Ġseed":9218,"ITION":9219,"Ġsilent":9220,"200":9221,"Gr":9222,"Ġsentiment":9223,"Ġfupp":9224,"Ġwidow":9225,"bad":9226,"Ġmuy":9227,"Ġlargest":9228,"Ġxviii":9229,"olitan":9230,"ĠFROM":9231,"Fl":9232,"Ġorgans":9233,"Ġvaried":9234,"Ġdescended":9235,"ĠApr":9236,"ĠKt":9237,"Ġmonk":9238,"hig":9239,"places":9240,"vr":9241,"ĠHum":9242,"acht":9243,"Ġrefuse":9244,"Ġdefinite":9245,"ITER":9246,"Ġprelates":9247,"ĠAre":9248,"Ġsty":9249,"incre":9250,"Ġ78":9251,"Ġlargely":9252,"Ġabandon":9253,"SC":9254,"Ġcow":9255,"usively":9256,"Ġarising":9257,"Ġpoly":9258,"Ġ1843":9259,"Ġgolden":9260,"nel":9261,"ĠOl":9262,"INDEX":9263,"Ġmoving":9264,"cutta":9265,"Mo":9266,"Ġgross":9267,"erem":9268,"ALE":9269,"Ġhatred":9270,"Don":9271,"pow":9272,"uft":9273,"Ġ93":9274,"Ġconfession":9275,"Ġobscure":9276,"ĠMarg":9277,"ĠCromwell":9278,"yne":9279,"Ïģ":9280,"ĠaU":9281,"Ġpreach":9282,"Di":9283,"Ġyourself":9284,"ĠProc":9285,"icli":9286,"Ġwarrant":9287,"sufficient":9288,"fen":9289,"ĠPAR":9290,"Ġsaith":9291,"Ġprize":9292,"Ġpromises":9293,"Ġscholar":9294,"letter":9295,"Ġsuggest":9296,"German":9297,"PI":9298,"Ġbom":9299,"PER":9300,"idad":9301,"Ġexhibit":9302,"uis":9303,"ĠBenedict":9304,"Ġ149":9305,"Ġsung":9306,"willing":9307,"ouch":9308,"Ġfalls":9309,"Â©":9310,"ĠOli":9311,"Ġweakness":9312,"short":9313,"Ġrepres":9314,"nesday":9315,"ĠPL":9316,"Ġspecially":9317,"Ġpert":9318,"omach":9319,"ĠWashington":9320,"latter":9321,"rayed":9322,"Ġmaid":9323,"lee":9324,"Ġrepresentation":9325,"pol":9326,"Ġquot":9327,"Ġsecular":9328,"Ġopenly":9329,"abs":9330,"Ġanch":9331,"piece":9332,"Cam":9333,"istent":9334,"Ġseg":9335,"class":9336,"ANN":9337,"Ġolder":9338,"ĠTen":9339,"quire":9340,"Ġprecept":9341,"Ġcoloured":9342,"ologists":9343,"Ġsummoned":9344,"iin":9345,"stan":9346,"Ġliis":9347,"Ġdisciples":9348,"Ġperpetual":9349,"sus":9350,"andal":9351,"Ġrepair":9352,"iques":9353,"lon":9354,"Ġinvasion":9355,"school":9356,"Ġgirl":9357,"Ġwhenever":9358,"Ġextract":9359,"Ġlecture":9360,"Ġnearer":9361,"Ġprices":9362,"big":9363,"pole":9364,"ulis":9365,"Ġprod":9366,"Society":9367,"Ġinconven":9368,"Ġforfe":9369,"Ġ91":9370,"Ġpull":9371,"aba":9372,"Ġamuse":9373,"Ġalleged":9374,"seems":9375,"Ġcommander":9376,"Ġinquire":9377,"Che":9378,"Tt":9379,"iH":9380,"ampton":9381,"Ġhaz":9382,"Ġdoors":9383,"ĠSwed":9384,"fch":9385,"itself":9386,"Ġdisgrace":9387,"Ġapproaching":9388,"joining":9389,"ĠJustice":9390,"iens":9391,"Ã±o":9392,"cb":9393,"Ġslave":9394,"ĠEmpire":9395,"ĠManchester":9396,"Ġesteem":9397,"Je":9398,"rons":9399,"sil":9400,"Ġsession":9401,"Ġsources":9402,"ĠIntro":9403,"Ġreconcil":9404,"Ber":9405,"Ġurg":9406,"retion":9407,"grave":9408,"Ġfunctions":9409,"Ġtexts":9410,"uin":9411,"Ġdismiss":9412,"Ġelabor":9413,"Ġfields":9414,"ranean":9415,"Ġhonours":9416,"ophy":9417,"Ġaccum":9418,"Ġsmooth":9419,"Ġnig":9420,"Ġrarely":9421,"Ġintegr":9422,"hal":9423,"pay":9424,"Ġcher":9425,"Ġdemands":9426,"Ġimagination":9427,"fat":9428,"species":9429,"este":9430,"Ġscru":9431,"ĠIND":9432,"gil":9433,"Ġbegins":9434,"occup":9435,"Ġmonastery":9436,"ĠLow":9437,"Ġcontrol":9438,"ĠBet":9439,"Ġindicated":9440,"Ġ110":9441,"Ġproofs":9442,"Ġnomin":9443,"oit":9444,"Trans":9445,"Ġsketch":9446,"gow":9447,"macy":9448,"izes":9449,"Ġpreaching":9450,"Ġceremony":9451,"Ġelder":9452,"eat":9453,"giving":9454,"tii":9455,"Ġtie":9456,"icacy":9457,"Ġul":9458,"nearly":9459,"ĠLev":9460,"Ġsurvey":9461,"ĠAddress":9462,"Ġlii":9463,"Ġwaste":9464,"ĠFre":9465,"Ġquad":9466,"Ġincap":9467,"Ġ1836":9468,"nant":9469,"Ġpressed":9470,"rius":9471,"Ġlimit":9472,"IGN":9473,"tar":9474,"ĠCra":9475,"Ġattachment":9476,"named":9477,"ĠPhiladelphia":9478,"omerset":9479,"Ġsustained":9480,"Ġastron":9481,"rove":9482,"ammar":9483,"gent":9484,"Ġremon":9485,"Ġvn":9486,"Ġ82":9487,"Ġthreatened":9488,"ancient":9489,"Ġdust":9490,"Ġlust":9491,"aum":9492,"ĠNothing":9493,"Ġ1830":9494,"Ġauthent":9495,"orkshire":9496,"Ġdominion":9497,"Ġrenewed":9498,"Ġexclaimed":9499,"Ġpt":9500,"ĠOp":9501,"Ġinterf":9502,"ĠWilson":9503,"Ġconferred":9504,"vity":9505,"ĠBath":9506,"open":9507,"Ġá¼":9508,"venant":9509,"Ġflow":9510,"Mart":9511,"Ġfed":9512,"ĠCyrus":9513,"ĠBarn":9514,"Ġsab":9515,"Ġpack":9516,"Ġintellectual":9517,"uu":9518,"eri":9519,"Ġcos":9520,"Ġdiscourse":9521,"Ġfestival":9522,"ĠLam":9523,"EB":9524,"enta":9525,"ĠBRIT":9526,"ĠPO":9527,"ĠLower":9528,"osph":9529,"Ġgallant":9530,"became":9531,"Med":9532,"pra":9533,"Ġsculpt":9534,"icum":9535,"ĠBol":9536,"Ġoffering":9537,"Ġlordship":9538,"Bar":9539,"sign":9540,"Ġdaughters":9541,"Ġ94":9542,"Ġtroubles":9543,"especially":9544,"olved":9545,"Ġita":9546,"phy":9547,"Ġdesirable":9548,"imp":9549,"Ġuniversity":9550,"important":9551,"tween":9552,"incial":9553,"Ġtraces":9554,"otions":9555,"nte":9556,"Ġquit":9557,"Ġwoods":9558,"Ġrecognised":9559,"Ġancients":9560,"aren":9561,"Er":9562,"ndon":9563,"itution":9564,"stru":9565,"itute":9566,"Ġthi":9567,"ĠClement":9568,"attempt":9569,"Ġcarriage":9570,"Ġexpressions":9571,"Mil":9572,"Ġ105":9573,"Ġprofessed":9574,"Ġanterior":9575,"ĠCatalogue":9576,"Ġcontrast":9577,"icio":9578,"Ġ117":9579,"Ġimposed":9580,"Ġrefuge":9581,"Ġguilt":9582,"Ġnun":9583,"ande":9584,"Ġranks":9585,"ocity":9586,"Ġmarry":9587,"Ġ1863":9588,"Gu":9589,"TI":9590,"lv":9591,"mont":9592,"Ġmanagement":9593,"ĠEdited":9594,"ĠSimon":9595,"isa":9596,"Ġell":9597,"ĠIndies":9598,"Ġmerchant":9599,"Ġcriminal":9600,"ĠAntioch":9601,"ieg":9602,"ĠDI":9603,"Egypt":9604,"UC":9605,"Ġsulph":9606,"ĠLight":9607,"throw":9608,"Ġamounted":9609,"uart":9610,"Ġfon":9611,"Ġsupplies":9612,"Ġbreaking":9613,"ĠLordships":9614,"Ġascertained":9615,"thes":9616,"ipping":9617,"looked":9618,"favour":9619,"APPENDIX":9620,"cas":9621,"pn":9622,"anes":9623,"ĠCour":9624,"ensation":9625,"Ġoutward":9626,"ĠEssex":9627,"Ġsig":9628,"Ġfen":9629,"peace":9630,"Ġunanim":9631,"suing":9632,"Ġ96":9633,"Ġsixteen":9634,"various":9635,"osom":9636,"Ġsolic":9637,"glass":9638,"AMB":9639,"mighty":9640,"pothes":9641,"Ġgrief":9642,"ĠBuck":9643,"Ġeighty":9644,"Ġoccurrence":9645,"ĠMc":9646,"ĠRendus":9647,"Ġpreparing":9648,"ĠFle":9649,"Ġpretend":9650,"Ġpersuaded":9651,"advantage":9652,"Ġseas":9653,"udes":9654,"Ġstrictly":9655,"Saxon":9656,"heard":9657,"Ġmole":9658,"velation":9659,"ĠPlato":9660,"determ":9661,"lad":9662,"vs":9663,"close":9664,"ĠCHURCH":9665,"sions":9666,"Ġpof":9667,"Ġeft":9668,"llen":9669,"Ġheirs":9670,"LEY":9671,"ĠComment":9672,"Ġpatient":9673,"Ġpatriarch":9674,"family":9675,"fil":9676,"Ġwound":9677,"ĠBall":9678,"ĠLud":9679,"oused":9680,"ĠDei":9681,"Ġdefended":9682,"ĠDescription":9683,"Two":9684,"Ġtha":9685,"iron":9686,"ogra":9687,"ĠFRANCE":9688,"Ġproposal":9689,"Ġtyranny":9690,"Great":9691,"ĠAnim":9692,"Ġexcuse":9693,"iasm":9694,"Har":9695,"rin":9696,"ĠCivil":9697,"ĠFair":9698,"portions":9699,"uri":9700,"ĠBri":9701,"books":9702,"Ġadvert":9703,"better":9704,"ĠDaniel":9705,"Richard":9706,"oster":9707,"Ġrelate":9708,"Ġnewsp":9709,"ĠSurvey":9710,"Ġinnocent":9711,"ĠHart":9712,"Ġproceeds":9713,"changed":9714,"ianof":9715,"Ġreturns":9716,"Pres":9717,"illings":9718,"Ġlectures":9719,"August":9720,"bels":9721,"Ġimages":9722,"Ġgame":9723,"ĠPH":9724,"ologist":9725,"Ġoccupy":9726,"Ġblessing":9727,"til":9728,"Ġnou":9729,"Ġindignation":9730,"Ġwaiting":9731,"ĠShakspeare":9732,"DAY":9733,"ĠSun":9734,"ĠCu":9735,"deen":9736,"Ġfragments":9737,"bn":9738,"Ġnotices":9739,"ucle":9740,"Ġkindly":9741,"Ġtyme":9742,"opes":9743,"Ġnece":9744,"Ġpreferred":9745,"inguished":9746,"Ġneglected":9747,"belong":9748,"Ġcombination":9749,"Ġambassador":9750,"fir":9751,"yo":9752,"isure":9753,"Ġleader":9754,"greater":9755,"mitting":9756,"Ġns":9757,"served":9758,"ĠNorfolk":9759,"Rome":9760,"Ġremed":9761,"purpose":9762,"Ġplus":9763,"Ġentreat":9764,"Cont":9765,"ients":9766,"thew":9767,"atham":9768,"Ġ107":9769,"ĠNon":9770,"Ġtenant":9771,"Ġeducated":9772,"ĠCathedral":9773,"Ġpursuit":9774,"Ml":9775,"ĠLab":9776,"Ġworn":9777,"Ġresources":9778,"Ġpresident":9779,"Ġ140":9780,"Ġengage":9781,"charge":9782,"ĠLaws":9783,"Ġpreparations":9784,"ĠSermon":9785,"ambers":9786,"Ġusing":9787,"Ġlooks":9788,"Ġsuspected":9789,"Ġwinds":9790,"Us":9791,"undy":9792,"Ġterror":9793,"Ġclaimed":9794,"ombay":9795,"fed":9796,"mp":9797,"vid":9798,"Ġreject":9799,"Ġuseless":9800,"odd":9801,"Ġrav":9802,"Ġfaid":9803,"thr":9804,"Ġleaf":9805,"Ġcriticism":9806,"ĠOpera":9807,"isle":9808,"Ġcau":9809,"Ġanni":9810,"ĠiL":9811,"chequer":9812,"until":9813,"Ġchoose":9814,"Ġcongregation":9815,"Ġwond":9816,"ĠSS":9817,"ĠSus":9818,"amus":9819,"true":9820,"Ġcurios":9821,"ĠPersia":9822,"Ġversion":9823,"Ġconflict":9824,"Ġpity":9825,"ĠKingdom":9826,"phew":9827,"Ġharmony":9828,"Ġcrowd":9829,"Ġhys":9830,"quiry":9831,"ĠExt":9832,"Ġagent":9833,"Ġdescent":9834,"Ġstores":9835,"nected":9836,"Ġhospit":9837,"ĠPle":9838,"ulum":9839,"ieu":9840,"phant":9841,"issue":9842,"Ġthousands":9843,"quence":9844,"ĠGent":9845,"ĠAndrew":9846,"ĠGreenland":9847,"urst":9848,"ela":9849,"Mt":9850,"Ġlips":9851,"Ġbeside":9852,"Ġwitnesses":9853,"Ġabundance":9854,"Ġwives":9855,"ĠMir":9856,"ayne":9857,"party":9858,"Ġharm":9859,"Ġheathen":9860,"Ġwelcome":9861,"Ġnull":9862,"ĠSin":9863,"ulent":9864,"Ġvocal":9865,"avo":9866,"Ġindicate":9867,"Ġxxi":9868,"Ġdestined":9869,"Ġappreci":9870,"Ġmessage":9871,"AH":9872,"Mem":9873,"Ġcant":9874,"Ġdc":9875,"ĠMun":9876,"ĠWITH":9877,"iences":9878,"Ġcompanion":9879,"Ġthys":9880,"Ġlia":9881,"onds":9882,"ĠNicholas":9883,"ĠCre":9884,"ĠGerm":9885,"Ġlegit":9886,"century":9887,"Ġvillages":9888,"Ġwidely":9889,"ĠGilbert":9890,"children":9891,"ĠEz":9892,"Ġprepare":9893,"ĠOrder":9894,"Ġcampaign":9895,"igr":9896,"ĠGren":9897,"ĠJohnson":9898,"Ġtouched":9899,"Ġmortal":9900,"Dav":9901,"Ġmould":9902,"ĠTol":9903,"ĠFo":9904,"does":9905,"Ġsympathy":9906,"Bishop":9907,"iE":9908,"yrs":9909,"Ġvision":9910,"TENTS":9911,"Ġtide":9912,"neg":9913,"Ġagents":9914,"Ġfinds":9915,"Ġexcite":9916,"Ġoccupation":9917,"quisite":9918,"Ġhind":9919,"ĠEg":9920,"Hab":9921,"ĠSyria":9922,"Ġprecisely":9923,"Ġreverence":9924,"Bt":9925,"iones":9926,"kel":9927,"Jl":9928,"ĠMost":9929,"Ġunhappy":9930,"ĠChristmas":9931,"ĠPresbyter":9932,"ĠProvidence":9933,"eteor":9934,"PL":9935,"habitants":9936,"ĠSince":9937,"Ġgrey":9938,"ĠME":9939,"Ġannex":9940,"Ġshores":9941,"Ġcomplaint":9942,"Ġseverely":9943,"ĠExcellency":9944,"BS":9945,"Ġgi":9946,"geance":9947,"beaut":9948,"Ġfeature":9949,"Ġiiber":9950,"Ġseventh":9951,"Ġanxiety":9952,"Ġpassions":9953,"ĠArtic":9954,"contr":9955,"itum":9956,"ĠKa":9957,"versed":9958,"IAL":9959,"Ġtodo":9960,"entire":9961,"Ġ119":9962,"Ġinscription":9963,"Ġbreadth":9964,"Ġmixture":9965,"dt":9966,"Ġnay":9967,"ĠLORD":9968,"Ġstew":9969,"Ġsuccessive":9970,"Ġphysi":9971,"Ġcreature":9972,"eches":9973,"maj":9974,"ĠPE":9975,"ĠRail":9976,"ĠNum":9977,"ruc":9978,"Ġ98":9979,"Ann":9980,"religion":9981,"iest":9982,"ische":9983,"toire":9984,"unities":9985,"Ġ108":9986,"ĠGrant":9987,"ĠChester":9988,"Ġamidst":9989,"Ġgrass":9990,"Ġmagistrates":9991,"cover":9992,"yre":9993,"ĠEach":9994,"Ġsubstant":9995,"Ġkey":9996,"ĠPlan":9997,"Ġslowly":9998,"Ġinherit":9999,"Ġprejudice":10000,"Ġbeds":10001,"Ġempt":10002,"Ã©r":10003,"MAR":10004,"jl":10005,"Ġwb":10006,"eda":10007,"Ġchoir":10008,"Ġelevation":10009,"Ġarrive":10010,"alia":10011,"ĠBapt":10012,"Ġidentical":10013,"Ïĥ":10014,"Ġcotton":10015,"ĠLes":10016,"Ġaccommod":10017,"ĠPeace":10018,"Ġfirft":10019,"ĠSolomon":10020,"ĠPole":10021,"Ġrc":10022,"Ġreserved":10023,"orned":10024,"ĠCHAR":10025,"Ġclouds":10026,"Ġopt":10027,"Ġmischief":10028,"vith":10029,"ĠLomb":10030,"ymn":10031,"ĠAppendix":10032,"ĠTal":10033,"ĠAch":10034,"Ġexcommun":10035,"elfth":10036,"fn":10037,"ĠDR":10038,"ensed":10039,"Ġshel":10040,"Ġcolumn":10041,"Ġstopped":10042,"erior":10043,"Ġsine":10044,"Ġvoted":10045,"odox":10046,"ĠDick":10047,"forms":10048,"Ġlofty":10049,"dale":10050,"Ġmartyr":10051,"igent":10052,"Ġapprobation":10053,"ĠAustria":10054,"ĠJon":10055,"Ġneighbours":10056,"Ġruns":10057,"ĠXVII":10058,"arde":10059,"ĠPortuguese":10060,"Ġbj":10061,"Ġdeeds":10062,"fortune":10063,"ĠSum":10064,"ĠMill":10065,"orton":10066,"ĠScotch":10067,"carried":10068,"zer":10069,"Ġcul":10070,"Ġprerog":10071,"ĠUN":10072,"Ġgoverned":10073,"Ġdiscussed":10074,"Ġcruelty":10075,"RS":10076,"mother":10077,"Ġcx":10078,"Ġdeclaring":10079,"Ġast":10080,"Ġnaked":10081,"ĠCass":10082,"ĠDIS":10083,"Ġedit":10084,"ports":10085,"Ġhousehold":10086,"ĠActa":10087,"Ġfunction":10088,"main":10089,"het":10090,"roes":10091,"iph":10092,"deg":10093,"Ġsums":10094,"Ġcathedral":10095,"Ã¼r":10096,"Ġtemporary":10097,"Ġeu":10098,"ĠCran":10099,"Ġjustified":10100,"Ġaccuracy":10101,"Ġaur":10102,"Ġvous":10103,"ansion":10104,"Ġresemblance":10105,"Ġlover":10106,"ĠGentle":10107,"Ġmayor":10108,"prot":10109,"Ġster":10110,"ignty":10111,"Ġard":10112,"Ġwherever":10113,"Ġpleasing":10114,"ĠVenice":10115,"Ġfloor":10116,"Uy":10117,"wife":10118,"lett":10119,"ushing":10120,"iva":10121,"Ġreceipt":10122,"fare":10123,"ĠPot":10124,"Ġexpenses":10125,"Ġcultivation":10126,"turned":10127,"Ġenlarged":10128,"Ġnr":10129,"Ġexchange":10130,"Ġsailed":10131,"Ox":10132,"wat":10133,"otism":10134,"imie":10135,"ĠIk":10136,"Ġselect":10137,"Ġalien":10138,"yram":10139,"Was":10140,"gone":10141,"ĠWIL":10142,"ĠVita":10143,"Ġrequisite":10144,"ĠGloucester":10145,"Ġtall":10146,"Ġtenth":10147,"Ġinhabit":10148,"Ġcommissioners":10149,"Tem":10150,"icon":10151,"Ġargu":10152,"appearance":10153,"tts":10154,"Ġintend":10155,"INT":10156,"icester":10157,"ĠLeo":10158,"round":10159,"Ġao":10160,"Ġrum":10161,"Ġquart":10162,"Ġordained":10163,"poch":10164,"Ġpoverty":10165,"unce":10166,"Ġplans":10167,"Ġflame":10168,"Ġassent":10169,"Ġinfant":10170,"Ġlowest":10171,"ĠIhe":10172,"duc":10173,"ĠJohann":10174,"Ġancestors":10175,"bod":10176,"ĠEe":10177,"Ġscarce":10178,"Ġnavy":10179,"Ġpropose":10180,"Ġaccession":10181,"cerning":10182,"Ġori":10183,"ryst":10184,"Ġplacing":10185,"board":10186,"Ġpossessions":10187,"igate":10188,"ĠPOL":10189,"inking":10190,"Ġimagined":10191,"Ġtribun":10192,"nc":10193,"ĠPs":10194,"acent":10195,"nell":10196,"Ġsuspended":10197,"yon":10198,"Ġpint":10199,"ota":10200,"ĠFel":10201,"Ġinterested":10202,"ĠWilliams":10203,"Ġinsects":10204,"inea":10205,"Ã¡s":10206,"ictionary":10207,"Ġremem":10208,"ĠReformation":10209,"Ġridic":10210,"raham":10211,"cules":10212,"Ġfailure":10213,"Jud":10214,"ygen":10215,"ĠNott":10216,"ĠTurkish":10217,"PE":10218,"Ġbent":10219,"ĠWH":10220,"Ġdeserved":10221,"Ġhostile":10222,"ĠLewis":10223,"Ġphrase":10224,"Part":10225,"ĠTu":10226,"idas":10227,"EMOIR":10228,"FE":10229,"ĠRod":10230,"Ġ181":10231,"ignor":10232,"fling":10233,"Ġabsent":10234,"ĠStock":10235,"ĠFrederick":10236,"Yet":10237,"aging":10238,"ĠEdmund":10239,"ocket":10240,"lion":10241,"Ġaun":10242,"oto":10243,"ĠCross":10244,"ĠVic":10245,"Ġassociated":10246,"ĠRussell":10247,"Lu":10248,"itic":10249,"Ġrepresenting":10250,"Ġseverity":10251,"Count":10252,"á¿":10253,"Ġvine":10254,"Ġinvest":10255,"Ġprominent":10256,"Ġmelancholy":10257,"inem":10258,"Ġ118":10259,"earch":10260,"Ġuses":10261,"Ġsuccessors":10262,"Ġspeedily":10263,"bath":10264,"Ġdar":10265,"Ġdocument":10266,"Ġdocuments":10267,"mist":10268,"lyn":10269,"Ġstories":10270,"ĠNile":10271,"Ġciv":10272,"Ġaffections":10273,"ĠNovello":10274,"heat":10275,"ĠRet":10276,"ĠJones":10277,"ĠStill":10278,"Ġ1835":10279,"Ġmathemat":10280,"ĠHugh":10281,"DU":10282,"nus":10283,"brother":10284,"Ġske":10285,"alter":10286,"Ġweap":10287,"Ġassault":10288,"Ġtea":10289,"Ġdeclined":10290,"Ġcorner":10291,"mr":10292,"Ġshed":10293,"Ġbills":10294,"ilies":10295,"consequ":10296,"Ġinsult":10297,"Ġbenevol":10298,"Ġconcealed":10299,"iro":10300,"ĠFriday":10301,"Ġjury":10302,"obed":10303,"About":10304,"Ġassertion":10305,"Ġfhould":10306,"white":10307,"Ġjustify":10308,"INGS":10309,"jah":10310,"Ġcyl":10311,"ĠCx":10312,"ĠAG":10313,"olence":10314,"ptoms":10315,"Ġspots":10316,"vill":10317,"Ġwand":10318,"Ġdia":10319,"utton":10320,"ĠSER":10321,"ĠPalestine":10322,"Ġzealous":10323,"ianoforte":10324,"Ġsorts":10325,"ĠFig":10326,"inners":10327,"further":10328,"Ġcen":10329,"Ġdos":10330,"Ġhare":10331,"Ġroute":10332,"Ġsatisfy":10333,"love":10334,"truth":10335,"Ġ1833":10336,"Ġsinging":10337,"January":10338,"Jer":10339,"Ġoon":10340,"Ġmoft":10341,"ĠThursday":10342,"Ġbrings":10343,"Ġirre":10344,"Ġsongs":10345,"Ġrepresents":10346,"morrow":10347,"Ġfide":10348,"icates":10349,"Ġentr":10350,"Ġcharter":10351,"vt":10352,"Ġsigns":10353,"Ġtaxes":10354,"Bi":10355,"daughter":10356,"wind":10357,"Ġener":10358,"Ġdisorder":10359,"ĠXIII":10360,"Having":10361,"ĠSON":10362,"ĠEsp":10363,"ortal":10364,"Ġdrop":10365,"Ġva":10366,"Ġrestoration":10367,"Ġcolumns":10368,"adron":10369,"ĠSH":10370,"ĠDuc":10371,"Ġdesires":10372,"Ġintimate":10373,"versal":10374,"Ġestimate":10375,"Ġ104":10376,"ĠColgan":10377,"Ġtalent":10378,"Ġtar":10379,"Ġfounder":10380,"penditure":10381,"Ġinfantry":10382,"establish":10383,"âĻ":10384,"Ġpier":10385,"Ġmourn":10386,"Ġstations":10387,"iveness":10388,"Ġsimplicity":10389,"Ġmiserable":10390,"Ġrevenge":10391,"âĻ¦":10392,"uti":10393,"ĠRO":10394,"ĠZool":10395,"Ġnd":10396,"plain":10397,"Ġagreement":10398,"Ġwrought":10399,"ĠAmericans":10400,"Ġlieutenant":10401,"Ġprudence":10402,"thy":10403,"ĠKnox":10404,"ĠYorkshire":10405,"Mag":10406,"udence":10407,"Ġ92":10408,"Ġcanal":10409,"ĠDerby":10410,"ischen":10411,"Ġesteemed":10412,"dered":10413,"Ġsell":10414,"allen":10415,"Ġ1834":10416,"Ġhun":10417,"ifully":10418,"iep":10419,"Ġstem":10420,"Ġray":10421,"asty":10422,"perors":10423,"ĠĠĠĠĠĊ":10424,"Ġrespectable":10425,"Ġfierce":10426,"Ġaugment":10427,"troops":10428,"borne":10429,"dition":10430,"Ġepit":10431,"Ġgifts":10432,"next":10433,"ĠPlut":10434,"Ġfeeble":10435,"lam":10436,"Ġtbo":10437,"enemy":10438,"ĠOt":10439,"ĠiJ":10440,"Ġdoe":10441,"Ġconfident":10442,"adem":10443,"Ġlabor":10444,"Ġmud":10445,"Ġcutting":10446,"piration":10447,"Colonel":10448,"original":10449,"ĠLim":10450,"ĠGhost":10451,"ĠGrecian":10452,"ĠGEORGE":10453,"vered":10454,"Ġchlor":10455,"ĠConstitution":10456,"icing":10457,"ĠHIS":10458,"ĠGran":10459,"Ġemer":10460,"Ġformal":10461,"ristol":10462,"Ġholds":10463,"Ġcommod":10464,"Ġraising":10465,"Ġflatter":10466,"Ġadding":10467,"Ġelevated":10468,"similar":10469,"generally":10470,"ĠCommissioners":10471,"satisf":10472,"ĠVo":10473,"Ġjealousy":10474,"isen":10475,"Ġfuc":10476,"Ġreduce":10477,"ĠEwer":10478,"ngth":10479,"Ġcoin":10480,"Ġinfirm":10481,"Ġrequested":10482,"ixt":10483,"Ġdomain":10484,"ĠÃ©l":10485,"Ġdream":10486,"ĠAD":10487,"esta":10488,"illity":10489,"Ġdescriptions":10490,"ĠMilan":10491,"frequ":10492,"Ġore":10493,"Ġ1815":10494,"pun":10495,"ĠFitz":10496,"Ġproducing":10497,"Ġstrangers":10498,"Ġsumm":10499,"ĠPerhaps":10500,"Ġidolat":10501,"ril":10502,"Ġora":10503,"ĠMiddle":10504,"ĠVers":10505,"Ġfeared":10506,"exec":10507,"Ġrestrict":10508,"Ġwitli":10509,"Ġdespair":10510,"ĠProtestants":10511,"vice":10512,"Ġbased":10513,"Ġshadow":10514,"ĠVienna":10515,"Ġlaying":10516,"Ġidle":10517,"Ġautem":10518,"Ġangels":10519,"mu":10520,"tur":10521,"ĠAy":10522,"ĠHud":10523,"Ġnotions":10524,"Ġstim":10525,"Ġchain":10526,"Ġtraveller":10527,"ĠRoger":10528,"Ang":10529,"ĠÃ³":10530,"Ġswell":10531,"adop":10532,"Ġchose":10533,"Ġincome":10534,"Ġexempt":10535,"Ġconspicuous":10536,"Ġintervals":10537,"Cu":10538,"elect":10539,"ipes":10540,"Ġprior":10541,"ĠLuke":10542,"Mary":10543,"Ġexpe":10544,"ĠCalcutta":10545,"Ġdull":10546,"chant":10547,"rior":10548,"Ġmilk":10549,"established":10550,"aro":10551,"stead":10552,"Ġacquire":10553,"Ur":10554,"orie":10555,"forward":10556,"Ġvarieties":10557,"office":10558,"Ġquantities":10559,"American":10560,"Ġmeteor":10561,"inery":10562,"ĠILL":10563,"ĠLITER":10564,"ieh":10565,"Ġik":10566,"become":10567,"Ġblock":10568,"Ġadditions":10569,"Ġ113":10570,"Ai":10571,"lines":10572,"Ġfy":10573,"Ġeverywhere":10574,"ructive":10575,"Ġpatience":10576,"Ġapproached":10577,"Joseph":10578,"Ġpf":10579,"gram":10580,"Ġdreadful":10581,"Ġcontemporary":10582,"ĠJapan":10583,"Ġvigorous":10584,"Ġfhe":10585,"imm":10586,"Ġfeudal":10587,"Ġseparation":10588,"BE":10589,"Ġconvent":10590,"allowed":10591,"Ġcertainty":10592,"isis":10593,"ĠAu":10594,"quet":10595,"ĠLittle":10596,"Ġkill":10597,"Ġ143":10598,"ĠClar":10599,"Ġcreatures":10600,"Ġgroups":10601,"ĠJuan":10602,"ceiving":10603,"Ġcommands":10604,"Ġmodel":10605,"Ġoppose":10606,"ĠSomerset":10607,"Ġshield":10608,"Ġclay":10609,"phil":10610,"Ġpresently":10611,"Ġ101":10612,"Ġproductions":10613,"sons":10614,"nds":10615,"Ġhurt":10616,"osis":10617,"union":10618,"Ġregulations":10619,"Ġessent":10620,"ĠHamilton":10621,"ĠApostle":10622,"dd":10623,"ĠLiv":10624,"Ġdiet":10625,"Ġcease":10626,"oty":10627,"Ġrr":10628,"Ġacres":10629,"ĠExper":10630,"ĠConstantine":10631,"Ġdiscoveries":10632,"UBL":10633,"Ġfluid":10634,"Ġclim":10635,"Ġdeceased":10636,"ieur":10637,"Ġ139":10638,"Ġtemp":10639,"Ġmilitia":10640,"Ġsections":10641,"atione":10642,"spring":10643,"Ġry":10644,"lius":10645,"Ġfug":10646,"Ġdiscern":10647,"Ġsuperstition":10648,"India":10649,"Ġtransmitted":10650,"Ġtitles":10651,"vit":10652,"Ġthread":10653,"irr":10654,"ifice":10655,"essions":10656,"Ġdeposited":10657,"vous":10658,"Ġpy":10659,"Ġunlike":10660,"ĠMarquis":10661,"Ġmultip":10662,"Ġmistaken":10663,"ĠBotan":10664,"Ġtheatre":10665,"Ġfing":10666,"asi":10667,"Ġtemples":10668,"Ġpunct":10669,"mur":10670,"poc":10671,"ĠSid":10672,"ardy":10673,"Ġdiscont":10674,"obtained":10675,"Ġrefers":10676,"grim":10677,"Ġcreation":10678,"tha":10679,"Ġillustration":10680,"Ġdedicated":10681,"Ġencouraged":10682,"lantic":10683,"Ġwretched":10684,"Ġmol":10685,"ĠSed":10686,"Ġconvention":10687,"ĠLET":10688,"ĠEc":10689,"ĠEur":10690,"ĠHighness":10691,"Pet":10692,"erat":10693,"Ġfn":10694,"rii":10695,"Ġui":10696,"Ġvap":10697,"ĠFree":10698,"Ġquis":10699,"Ġappl":10700,"eps":10701,"ĠDean":10702,"Ġcoat":10703,"Ġpromote":10704,"Ġextravag":10705,"Ġslender":10706,"ĠAthenian":10707,"Ġted":10708,"onym":10709,"Ġfm":10710,"utral":10711,"Ġperil":10712,"Ġ102":10713,"Ġelong":10714,"ITE":10715,"Miss":10716,"Ġfay":10717,"Ġnest":10718,"Ġroots":10719,"Ġtort":10720,"Ġprolong":10721,"Ġ127":10722,"Ġrepresentative":10723,"Ġleads":10724,"headed":10725,"ithe":10726,"Ġ1832":10727,"Ġapostle":10728,"Ġå":10729,"Ġenlight":10730,"IANS":10731,"Ġpontiff":10732,"Just":10733,"Ġfidelity":10734,"Ġselection":10735,"Ġleisure":10736,"ĠYes":10737,"ĠAnat":10738,"Ġcompare":10739,"Ġwooden":10740,"Ġsucceeding":10741,"tlie":10742,"uda":10743,"ĠInter":10744,"Ġpolice":10745,"Ġvero":10746,"Ġinhab":10747,"ragon":10748,"Ġhimfelf":10749,"elly":10750,"ĠÂ¢":10751,"ĠWednesday":10752,"eless":10753,"Ġteachers":10754,"Ġthickness":10755,"ipe":10756,"Ġdaring":10757,"Ġexpedient":10758,"Ġuniversally":10759,"lat":10760,"qui":10761,"doct":10762,"ULT":10763,"Ġstarted":10764,"EMOIRS":10765,"170":10766,"apsed":10767,"Ġzur":10768,"laws":10769,"drew":10770,"ordered":10771,"Ġgenerals":10772,"ĠBritann":10773,"Ġdepends":10774,"looking":10775,"ÏĢ":10776,"Ġcn":10777,"Ġming":10778,"acific":10779,"Ġnego":10780,"Ġpreface":10781,"iano":10782,"overeign":10783,"ĠPharm":10784,"Ġwaited":10785,"ĠReview":10786,"Ġquarrel":10787,"Ġmotive":10788,"Ġbalance":10789,"los":10790,"asmuch":10791,"ĠSel":10792,"Ġsubstances":10793,"Ġinstinct":10794,"Ġocca":10795,"due":10796,"Ġtant":10797,"Ġlun":10798,"ĠCuv":10799,"Ġmonument":10800,"Ġbox":10801,"Ġcontinues":10802,"Ġjournal":10803,"Ġdiocese":10804,"ouglas":10805,"ĠHead":10806,"Ġcoron":10807,"Ġprofessor":10808,"oii":10809,"wd":10810,"Ġliv":10811,"Ġappell":10812,"Ġ161":10813,"Ġduly":10814,"Ġ1802":10815,"Ma":10816,"aman":10817,"Ġjun":10818,"atern":10819,"Ġprudent":10820,"thousand":10821,"Ġcounties":10822,"pothesis":10823,"lb":10824,"lh":10825,"ĠTurn":10826,"Ġprose":10827,"earth":10828,"positions":10829,"Ġremoval":10830,"Ġobjections":10831,"Ġfright":10832,"Ġxxii":10833,"Ġanswers":10834,"Ġwalked":10835,"ĠVill":10836,"Ġ1829":10837,"ĠBrig":10838,"Ġmonarchy":10839,"kr":10840,"Ġsees":10841,"Ġboil":10842,"Ġcomplex":10843,"Ġcombat":10844,"Ġprocesses":10845,"esp":10846,"artment":10847,"Ġattacks":10848,"Ġliberties":10849,"fj":10850,"wel":10851,"ĠTaylor":10852,"atherine":10853,"Ġassure":10854,"ĠLeon":10855,"Ġ250":10856,"ĠPeters":10857,"Ġclothes":10858,"GRE":10859,"dence":10860,"icis":10861,"ĠAur":10862,"clusion":10863,"ĠArctic":10864,"Ġpolitics":10865,"ĠPed":10866,"ultan":10867,"inently":10868,"Ġcli":10869,"iese":10870,"venue":10871,"ERN":10872,"lication":10873,"Ġbehaviour":10874,"Eli":10875,"Port":10876,"iK":10877,"Ġave":10878,"Ġfp":10879,"Ġmap":10880,"ĠSep":10881,"ĠHung":10882,"ĠGrey":10883,"ineas":10884,"Ġagainft":10885,"Ġ131":10886,"Ġheresy":10887,"cere":10888,"94":10889,"ĠMons":10890,"Ġvex":10891,"Ġprevail":10892,"Ġepistle":10893,"ĠCornwall":10894,"South":10895,"etor":10896,"Ġdeserve":10897,"iento":10898,"Ġfatig":10899,"Ġphotograph":10900,"graph":10901,"ping":10902,"Ġcited":10903,"Ġinve":10904,"olent":10905,"members":10906,"Ġton":10907,"itio":10908,"Ġbone":10909,"employed":10910,"Ġopera":10911,"Ġslightest":10912,"ĠTurks":10913,"eas":10914,"gentle":10915,"Ġcrew":10916,"Ġdressed":10917,"ĠCoun":10918,"Ġcannon":10919,"Ġadmire":10920,"Nove":10921,"Ġhav":10922,"acre":10923,"ĠIns":10924,"Ġjudg":10925,"IVES":10926,"Ġhistorians":10927,"Ġreigned":10928,"ructions":10929,"Ġinjured":10930,"Government":10931,"fire":10932,"ĠAlbert":10933,"Ġpublicly":10934,"pointed":10935,"ums":10936,"Ġmisery":10937,"hibition":10938,"Ġlanguages":10939,"Ġsafely":10940,"crown":10941,"inch":10942,"itas":10943,"Ġworsh":10944,"Ġcirculation":10945,"kingdom":10946,"Ġendeavours":10947,"Ġundertake":10948,"pell":10949,"ĠField":10950,"blood":10951,"Ġesto":10952,"Ġpurity":10953,"Ġcrowded":10954,"ĠMurray":10955,"ĠVirginia":10956,"sold":10957,"eron":10958,"ceeding":10959,"Ġ1893":10960,"Ġneeds":10961,"cord":10962,"tbe":10963,"least":10964,"ĠHEN":10965,"Ġnearest":10966,"Ġrespectively":10967,"ĠLancaster":10968,"chal":10969,"ĠBoy":10970,"Ġsuspect":10971,"Ġriches":10972,"Ġseated":10973,"antine":10974,"hom":10975,"iatic":10976,"Ġ#":10977,"inl":10978,"Ġreci":10979,"Ġrud":10980,"iai":10981,"Ġgrande":10982,"Ġtribute":10983,"Long":10984,"Ġfount":10985,"attention":10986,"ĠAugustine":10987,"ĠDion":10988,"Ġchapters":10989,"Ġmiracles":10990,"Ġsurrounding":10991,"Ġpall":10992,"Ġscore":10993,"Though":10994,"Wil":10995,"fii":10996,"Ġä":10997,"Ġowe":10998,"Ġwheat":10999,"Ġpec":11000,"stituted":11001,"Ġ1804":11002,"ĠTynd":11003,"Ġeloquence":11004,"Ġauthentic":11005,"Hon":11006,"quently":11007,"Ġyesterday":11008,"ĠRu":11009,"Ġnee":11010,"Ġcolon":11011,"Ġobserving":11012,"Ġsummit":11013,"Ġearnestly":11014,"Ġwaves":11015,"Ġsive":11016,"idea":11017,"Ġpreservation":11018,"Ġ1922":11019,"rity":11020,"ĠWesley":11021,"Ġintrig":11022,"Ġcollections":11023,"ĠENGLISH":11024,"ĠGREE":11025,"term":11026,"ĠLove":11027,"UROPE":11028,"Ġstronger":11029,"Ġsilk":11030,"idy":11031,"Ġ1827":11032,"ianus":11033,"Ġtreacher":11034,"ĠAssy":11035,"Ġfraud":11036,"popular":11037,"ĠAristotle":11038,"encia":11039,"agus":11040,"ĠChamber":11041,"Ġ153":11042,"Ġinterview":11043,"Ġpatent":11044,"Ġrevealed":11045,"FOR":11046,"Ill":11047,"Ġyours":11048,"ĠVenet":11049,"Ġgoodness":11050,"brance":11051,"Ġcommanding":11052,"Ġtil":11053,"ĠKnight":11054,"Ġpursue":11055,"Ġhumbly":11056,"Ġcompanies":11057,"Ġbreath":11058,"Ġborough":11059,"Ġshells":11060,"ĠANNUAL":11061,"call":11062,"tree":11063,"Ġcreed":11064,"ĠLl":11065,"ĠWork":11066,"Ġproclamation":11067,"insula":11068,"Ġcapture":11069,"Ġthirteen":11070,"told":11071,"ĠGes":11072,"ĠAnth":11073,"Ġbreach":11074,"Ġmeetings":11075,"serve":11076,"zar":11077,"ĠMAN":11078,"Ġexagger":11079,"Ġprecipit":11080,"Ct":11081,"Journ":11082,"Ġlime":11083,"Ġquia":11084,"ĠTho":11085,"Ġ145":11086,"Ġbotan":11087,"edo":11088,"printed":11089,"Ġmemoir":11090,"Ġeffective":11091,"Ġdangers":11092,"Ġultimately":11093,"pical":11094,"Ġtab":11095,"Ġaward":11096,"ifted":11097,"Ġunusual":11098,"Ġcouncils":11099,"Ġsufferings":11100,"Ġceremonies":11101,"observed":11102,"aire":11103,"ĠAncient":11104,"ĠDeut":11105,"oen":11106,"pf":11107,"rice":11108,"Ġfears":11109,"Ġsubl":11110,"Ġunworthy":11111,"Ġdistributed":11112,"ealand":11113,"council":11114,"hind":11115,"Ġdow":11116,"ĠAk":11117,"felves":11118,"hould":11119,"Ġstomach":11120,"Ġnephew":11121,"Ġkyng":11122,"ĠMayor":11123,"Ġhereditary":11124,"Ġbought":11125,"ĠPresent":11126,"Ġstaff":11127,"Ġpaying":11128,"Ġsavage":11129,"rels":11130,"cem":11131,"adt":11132,"ĠCirc":11133,"Ġ1828":11134,"Ġdelib":11135,"Ġconcent":11136,"Ġspectrum":11137,"Ġdwelling":11138,"Ġclerk":11139,"Ġbit":11140,"asius":11141,"Ġhee":11142,"iee":11143,"ĠDou":11144,"ciÃ³n":11145,"Ġinvari":11146,"Ġconceal":11147,"Pal":11148,"ĠTimes":11149,"ĠBombay":11150,"Ġplays":11151,"ydney":11152,"Ġpeculiarly":11153,"Ob":11154,"paper":11155,"seem":11156,"Ġabbot":11157,"rica":11158,"ulse":11159,"ĠNewcastle":11160,"ĠAbraham":11161,"Ġinvented":11162,"uii":11163,"Ġorth":11164,"Ġremind":11165,"complete":11166,"Ġreflection":11167,"Ġcomplaints":11168,"NOT":11169,"fold":11170,"Ġcof":11171,"ĠAff":11172,"command":11173,"Ġdates":11174,"ĠGlas":11175,"Ġconquered":11176,"Ġdogs":11177,"Ġreformation":11178,"Ġfrontier":11179,"Ġpainful":11180,"Ġinterpretation":11181,"Cy":11182,"Ġses":11183,"ĠAst":11184,"chi":11185,"gedy":11186,"histor":11187,"OK":11188,"cro":11189,"ĠHope":11190,"ĠMadrid":11191,"nis":11192,"Ġbv":11193,"Ġhollow":11194,"Ġexempl":11195,"Ġdefined":11196,"Ġadvised":11197,"built":11198,"wal":11199,"pels":11200,"ĠNach":11201,"ĠVar":11202,"Ġdecline":11203,"Gl":11204,"Mat":11205,"Ġwl":11206,"omething":11207,"Ġbei":11208,"Ġconfessed":11209,"Ġhonoured":11210,"grand":11211,"Ġjudged":11212,"Ġphilosopher":11213,"Mus":11214,"vant":11215,"leys":11216,"comes":11217,"exc":11218,"RATED":11219,"Ii":11220,"Pre":11221,"Ġcm":11222,"Ġfolly":11223,"rial":11224,"Ġalg":11225,"comb":11226,"Ġextension":11227,"ISHOP":11228,"cour":11229,"Ġwave":11230,"ĠTar":11231,"rying":11232,"Ġdecre":11233,"Ġdecide":11234,"Ġnegative":11235,"foot":11236,"Ġdispat":11237,"intro":11238,"Ġ133":11239,"ontal":11240,"Ġingenious":11241,"chin":11242,"Ġ125":11243,"Ġadmission":11244,"ĠMoore":11245,"Ġexhausted":11246,"ĠLL":11247,"ĠĠĠĠĊ":11248,"black":11249,"endar":11250,"Ġsteady":11251,"Ġproblem":11252,"bass":11253,"cp":11254,"uture":11255,"ĠHipp":11256,"Ġvariation":11257,"Ġartist":11258,"ĠARCH":11259,"Ġquibus":11260,"Ġprincess":11261,"Ġrelics":11262,"Ġassign":11263,"Ġzo":11264,"Who":11265,"Ġconsecrated":11266,"ĠPract":11267,"Ġdetailed":11268,"EX":11269,"Hl":11270,"Ġeon":11271,"Ġepoch":11272,"Ġvid":11273,"Ġreasoning":11274,"Ġfirmly":11275,"Ġerrone":11276,"Uni":11277,"ĠAlfred":11278,"Ġoy":11279,"Ġcardinal":11280,"Ġanalysis":11281,"Ġadequ":11282,"oire":11283,"sider":11284,"Ġlively":11285,"erton":11286,"hm":11287,"laid":11288,"Ġbid":11289,"Ġlap":11290,"Ġshout":11291,"Ġwhatsoever":11292,"Ġcoinc":11293,"Ġdecor":11294,"lique":11295,"Ġbrass":11296,"Ġ171":11297,"Ġundertaken":11298,"faces":11299,"gust":11300,"Ġcook":11301,"Ġplunder":11302,"Ġcanons":11303,"brated":11304,"friends":11305,"Ke":11306,"moment":11307,"top":11308,"Ġrode":11309,"incerity":11310,"ivalent":11311,"Ġlatitude":11312,"civil":11313,"struction":11314,"cep":11315,"chus":11316,"ĠProt":11317,"ported":11318,"ĠBelg":11319,"Ġexclusively":11320,"Ġencouragement":11321,"Hy":11322,"ĠSad":11323,"Ġdrove":11324,"cii":11325,"Ġpau":11326,"ĠRef":11327,"Ġoppress":11328,"Ġpretence":11329,"Wood":11330,"aton":11331,"icu":11332,"ĠWords":11333,"Ġplague":11334,"Ġmemorial":11335,"ĠJeh":11336,"Ġestimated":11337,"Ġappropriate":11338,"Ġcuriosity":11339,"96":11340,"War":11341,"gam":11342,"Ġgal":11343,"Ġ137":11344,"Ġfaults":11345,"Ġkingdoms":11346,"Ġmm":11347,"ample":11348,"ignant":11349,"Ġcrowned":11350,"nine":11351,"ource":11352,"Ġrooms":11353,"Ġblame":11354,"usetts":11355,"Ġstore":11356,"Ġepiscopal":11357,"Upon":11358,"nf":11359,"uable":11360,"Ġwet":11361,"Ġvoc":11362,"aparte":11363,"acea":11364,"Ġrespond":11365,"Ġdrag":11366,"Ġnegoti":11367,"sented":11368,"Ġterritories":11369,"Ġvicinity":11370,"Ġsynod":11371,"ĠFolio":11372,"Ġhie":11373,"Ġabuse":11374,"Ġbref":11375,"ĠEgyptians":11376,"Ġcorruption":11377,"taking":11378,"pear":11379,"Ġ1825":11380,"ĠKal":11381,"Ġresided":11382,"ierre":11383,"Ġmedicine":11384,"Ġpropriety":11385,"cated":11386,"Ġclause":11387,"ĠPersians":11388,"honour":11389,"Ireland":11390,"pine":11391,"ĠEh":11392,"ĠJob":11393,"Ġdoubted":11394,"Ġcheap":11395,"Ġ1872":11396,"ĠPrussia":11397,"rea":11398,"ĠMend":11399,"agraph":11400,"cribes":11401,"ĠNewton":11402,"ĠQuar":11403,"Ġexpectation":11404,"Ġventured":11405,"ĠApostles":11406,"Ġartificial":11407,"ACH":11408,"Ca":11409,"died":11410,"ĠOwen":11411,"Ġflood":11412,"Ġinvested":11413,"Ġxxiii":11414,"Ġpropag":11415,"ĠCentral":11416,"Ġelaborate":11417,"ĠHospital":11418,"neither":11419,"merce":11420,"thel":11421,"Ġtravel":11422,"guard":11423,"orph":11424,"Ġprey":11425,"Ġ141":11426,"Ġdevil":11427,"Ġposterior":11428,"Ġundertaking":11429,"tempt":11430,"ĠSup":11431,"oped":11432,"itzer":11433,"Ġfors":11434,"ĠDown":11435,"orsal":11436,"Ġlanding":11437,"ĠCountry":11438,"Ġsupremacy":11439,"Ġperfor":11440,"Ġpossibility":11441,"Ġannually":11442,"Ġneeded":11443,"Ġ1801":11444,"coloured":11445,"ĠTreatise":11446,"Ġtherm":11447,"Ġreduction":11448,"ĠIst":11449,"cile":11450,"ocke":11451,"Ġcomplained":11452,"Ġmainly":11453,"Ġtuber":11454,"creat":11455,"Ġfare":11456,"utors":11457,"Ġadjust":11458,"Ġjur":11459,"Ġpunished":11460,"Ġfundamental":11461,"founded":11462,"Ġrepubl":11463,"Ġrepeat":11464,"Ht":11465,"inte":11466,"Ġintent":11467,"Ġgrain":11468,"Ġfavoured":11469,"ĠCanon":11470,"Ġroads":11471,"oris":11472,"arton":11473,"phys":11474,"Ġattracted":11475,"Ġfinest":11476,"Ġinclude":11477,"Ġsupra":11478,"Ġexclusive":11479,"iem":11480,"ilde":11481,"neigh":11482,"Ġ121":11483,"inand":11484,"Ġnoise":11485,"Ġpreval":11486,"mercial":11487,"ĠNeither":11488,"AE":11489,"Sl":11490,"Ġhan":11491,"ĠHamp":11492,"Ġdecis":11493,"Ġpurely":11494,"Ġsacrifices":11495,"pound":11496,"ĠVis":11497,"ĠItem":11498,"Ġsubmission":11499,"ĠMonth":11500,"Ġpreceded":11501,"ĠMatthew":11502,"Ġaccordance":11503,"Ġfabric":11504,"Ol":11505,"inions":11506,"accom":11507,"Ġrendering":11508,"ĠWinchester":11509,"AU":11510,"GH":11511,"liness":11512,"igan":11513,"ĠFra":11514,"Ġweigh":11515,"educ":11516,"ĠAth":11517,"ĠLang":11518,"ĠOut":11519,"Ġours":11520,"pendent":11521,"prietors":11522,"Ġsacrament":11523,"Ġdrive":11524,"ĠJudah":11525,"ĠTun":11526,"ĠGos":11527,"Ġproves":11528,"Ġrow":11529,"Ġraces":11530,"Ġtransferred":11531,"Ġ115":11532,"ĠShah":11533,"ĠMaur":11534,"Ġ1871":11535,"Ġnose":11536,"Ġplot":11537,"cellaneous":11538,"Ġfortunate":11539,"GR":11540,"Ġnave":11541,"Ġrage":11542,"ĠMargaret":11543,"bound":11544,"table":11545,"Ġham":11546,"ĠPeople":11547,"fes":11548,"Ġcogn":11549,"etur":11550,"Ġconference":11551,"Ġrisk":11552,"capt":11553,"inement":11554,"ĠKil":11555,"Ġ173":11556,"Ġrepresentatives":11557,"Ġdimensions":11558,"rb":11559,"Ġbosom":11560,"Ġfury":11561,"Ġplains":11562,"ighter":11563,"ĠContinent":11564,"jamin":11565,"pof":11566,"err":11567,"onne":11568,"Ġfile":11569,"Ġeth":11570,"ĠBad":11571,"Ġsubjected":11572,"remark":11573,"Ġswd":11574,"ĠBooks":11575,"Ġvegetable":11576,"Ġabstract":11577,"Ġconjecture":11578,"More":11579,"ĠLike":11580,"ordan":11581,"ĠStuart":11582,"athers":11583,"Ã±a":11584,"ĠJane":11585,"Ġquel":11586,"isco":11587,"Jt":11588,"cill":11589,"ĠHunter":11590,"Ġlear":11591,"ibr":11592,"Ġplane":11593,"Ġ106":11594,"Ġ135":11595,"Ġtechn":11596,"Ġlaboured":11597,"Ġalteration":11598,"Ġgrete":11599,"uest":11600,"xim":11601,"Ġgardens":11602,"ĠLic":11603,"pression":11604,"WARD":11605,"tolem":11606,"ĠVjOOQ":11607,"onduct":11608,"Ġinstructed":11609,"Des":11610,"Off":11611,"oro":11612,"Ġinev":11613,"Ġexile":11614,"Ġresent":11615,"Ġwyth":11616,"ĠNottingham":11617,"vir":11618,"Ġtne":11619,"ĠWrit":11620,"Ġneat":11621,"Ġquitted":11622,"Ġnewly":11623,"Ġchest":11624,"royal":11625,"Ġenclosed":11626,"Ġarbitrary":11627,"ĠEusebius":11628,"run":11629,"uh":11630,"Ġrebels":11631,"ĠNova":11632,"hensive":11633,"Ġpension":11634,"Ġ155":11635,"Ġ147":11636,"Ġautumn":11637,"Ġdefendant":11638,"Ġchristian":11639,"Ġopponents":11640,"Bur":11641,"influence":11642,"Ġvices":11643,"ĠNorthern":11644,"Î»":11645,"assed":11646,"Ġoffers":11647,"Ġlasted":11648,"Ġengagement":11649,"ĠRomish":11650,"Ġvengeance":11651,"fair":11652,"ĠRay":11653,"OURN":11654,"ĠDurham":11655,"method":11656,"nan":11657,"cet":11658,"ĠIli":11659,"ĠGR":11660,"ĠDal":11661,"avy":11662,"ourses":11663,"Ġconstitu":11664,"ĠForeign":11665,"usc":11666,"ducation":11667,"Ġsets":11668,"Ġinsert":11669,"iq":11670,"alone":11671,"iliar":11672,"93":11673,"Ġec":11674,"Ġeve":11675,"ifhed":11676,"ĠEph":11677,"Ġintense":11678,"Ġfaces":11679,"Second":11680,"Ġward":11681,"ĠBow":11682,"Ġpresbyter":11683,"Ġ175":11684,"Ġmonuments":11685,"Ġsteel":11686,"Ġmaintenance":11687,"Ġyielded":11688,"Ġfulfil":11689,"ĠFlorence":11690,"DS":11691,"esar":11692,"Ġinspired":11693,"Ġschism":11694,"Ġmachine":11695,"Ġwages":11696,"Ġquae":11697,"Ġattribut":11698,"Ġfighting":11699,"ĠMexico":11700,"Queen":11701,"Sal":11702,"yers":11703,"Ġinjustice":11704,"Ġduc":11705,"agin":11706,"ĠThy":11707,"tioned":11708,"ĠCollection":11709,"AMES":11710,"Ġlocality":11711,"300":11712,"language":11713,"vari":11714,"ĠPubl":11715,"ĠXIX":11716,"ĠAbbot":11717,"STIT":11718,"White":11719,"Ġmechanical":11720,"want":11721,"Ġcousin":11722,"Ġnucle":11723,"ĠFri":11724,"ĠSuffolk":11725,"ĠEth":11726,"avia":11727,"Ġoffend":11728,"Ġaffords":11729,"alta":11730,"sometimes":11731,"ĠMAR":11732,"emen":11733,"ordinate":11734,"Ġsphere":11735,"Ġintentions":11736,"ceptible":11737,"Ġscholars":11738,"ĠAfrican":11739,"origin":11740,"dress":11741,"lest":11742,"aye":11743,"Ġaristo":11744,"Ġhumour":11745,"Ġattendance":11746,"History":11747,"AX":11748,"enough":11749,"Ġpsal":11750,"ĠOver":11751,"bring":11752,"Ġirrit":11753,"Ġoccasional":11754,"ABLE":11755,"GAN":11756,"NS":11757,"grow":11758,"heim":11759,"Ġlaug":11760,"ĠTit":11761,"ĠTime":11762,"Ġvalour":11763,"anning":11764,"Ġdestitute":11765,"Ġexhibits":11766,"ACT":11767,"cross":11768,"ĠTlie":11769,"river":11770,"ĠLeicester":11771,"Ġmoist":11772,"Ġcomplain":11773,"believe":11774,"Ġrevenues":11775,"marked":11776,"92":11777,"ko":11778,"nold":11779,"ĠOriental":11780,"LONDON":11781,"Res":11782,"mation":11783,"Ġborder":11784,"ĠLast":11785,"deacon":11786,"Ġ@":11787,"Ġhinder":11788,"ĠCad":11789,"ĠOly":11790,"Ġshillings":11791,"Ġterminated":11792,"Ġdischarged":11793,"ulgence":11794,"Ġcompetent":11795,"vile":11796,"Ġdeserves":11797,"tingu":11798,"Ġencourage":11799,"ĠArchiv":11800,"Ġwhis":11801,"ĠHes":11802,"ĠLad":11803,"ĠDid":11804,"February":11805,"home":11806,"science":11807,"Ġprimary":11808,"Ġheretics":11809,"Ġincapable":11810,"iD":11811,"Ġmul":11812,"Ġdiffers":11813,"ĠMaria":11814,"Ġinsisted":11815,"ĠAbb":11816,"ourers":11817,"Ll":11818,"emn":11819,"ĠEll":11820,"Ġsobre":11821,"actor":11822,"deus":11823,"Ġextant":11824,"grad":11825,"officers":11826,"uously":11827,"Ġstating":11828,"Ġproposition":11829,"keep":11830,"closed":11831,"Ġpoetical":11832,"ACK":11833,"Ġornaments":11834,"Council":11835,"Ġlion":11836,"ĠBristol":11837,"Ġ151":11838,"Ġedited":11839,"iterranean":11840,"ĠAnnals":11841,"Ġresembling":11842,"arers":11843,"ĠArm":11844,"ĠBrun":11845,"ARTICLE":11846,"Tur":11847,"oj":11848,"operation":11849,"Ġwelf":11850,"Ġ600":11851,"Ġ157":11852,"Ġcaptured":11853,"Ġstrike":11854,"Ġbrain":11855,"oom":11856,"tan":11857,"condition":11858,"Ġaxis":11859,"quarters":11860,"91":11861,"cred":11862,"ĠScy":11863,"Ġcompound":11864,"ificant":11865,"Ġbesie":11866,"ĠAS":11867,"ĠAsh":11868,"udden":11869,"bery":11870,"fled":11871,"ĠMinor":11872,"98":11873,"ogen":11874,"feet":11875,"Ġcontinuance":11876,"Again":11877,"Smith":11878,"Ty":11879,"tim":11880,"Ġsangu":11881,"ecd":11882,"Ġadvis":11883,"camp":11884,"Ġbree":11885,"ĠSU":11886,"Ġconfeder":11887,"uminous":11888,"Ġvariations":11889,"Ġsq":11890,"Ġcatholic":11891,"leep":11892,"ĠAqu":11893,"olde":11894,"ĠPress":11895,"ĠET":11896,"Ġalfo":11897,"Ġbetw":11898,"aea":11899,"ĠMahomet":11900,"Ġsorry":11901,"fte":11902,"urer":11903,"December":11904,"nance":11905,"Ġfired":11906,"andi":11907,"Ġviv":11908,"Ġreserve":11909,"FF":11910,"Ġsaving":11911,"thor":11912,"ĠBret":11913,"Ġregularly":11914,"ĠCole":11915,"olid":11916,"Ġ217":11917,"Ġshorter":11918,"aiy":11919,"Ġcitizen":11920,"ĠAntonio":11921,"Dan":11922,"Lat":11923,"woman":11924,"ĠIM":11925,"ĠSAIN":11926,"ami":11927,"Ġpreca":11928,"Ġlaud":11929,"ĠYear":11930,"Ġadvancing":11931,"ungs":11932,"ituation":11933,"Nat":11934,"Ġimme":11935,"Ġaccounted":11936,"ĠSC":11937,"Ġsuis":11938,"ĠFlanders":11939,"orde":11940,"Ġ1800":11941,"Ġinterference":11942,"ĠCorinth":11943,"Reg":11944,"Ġambassadors":11945,"ĠCarolina":11946,"iou":11947,"lll":11948,"olated":11949,"Ġcoarse":11950,"Ġeffectually":11951,"ĠIsle":11952,"alker":11953,"Ġpossesses":11954,"Ġillustrations":11955,"irls":11956,"ĠLon":11957,"Ġ1826":11958,"Ġstrongest":11959,"Ġmulti":11960,"Ġcovering":11961,"Ġaccomplish":11962,"Ġeconomy":11963,"Ġtyrant":11964,"Ġmism":11965,"hte":11966,"nium":11967,"Ġharmon":11968,"Ġwitnessed":11969,"ĠMatt":11970,"CHAR":11971,"Ġinval":11972,"ĠMagazine":11973,"Ġexcellence":11974,"Ġfunds":11975,"Ġdrama":11976,"PRO":11977,"Ġthunder":11978,"ĠJesuits":11979,"Ot":11980,"Ġyon":11981,"iea":11982,"ffic":11983,"ogs":11984,"ervyn":11985,"colour":11986,"ĠCamden":11987,"Prince":11988,"Ġtravelling":11989,"nen":11990,"Ġmom":11991,"alph":11992,"Ġrevere":11993,"Ġconcil":11994,"Ġangel":11995,"ifed":11996,"utely":11997,"Ġeditions":11998,"ĠService":11999,"ĠAustralia":12000,"Mont":12001,"rv":12002,"ĠWorld":12003,"Ġwelfare":12004,"sn":12005,"square":12006,"onians":12007,"answer":12008,"Ġdivide":12009,"considered":12010,"Ġcorrected":12011,"Ġdicha":12012,"Ġbriefly":12013,"Ġtm":12014,"Ġrh":12015,"Ġpractically":12016,"Ġdissolved":12017,"jd":12018,"national":12019,"tains":12020,"Ġwed":12021,"Ġpamph":12022,"Ġanger":12023,"sole":12024,"Ġtransactions":12025,"Ġannounce":12026,"Ġcub":12027,"Ġfpe":12028,"Ġhacer":12029,"chem":12030,"ĠVictoria":12031,"Ġenthusiasm":12032,"Fe":12033,"fine":12034,"ĠCic":12035,"ista":12036,"Ġassass":12037,"160":12038,"Ġsimpl":12039,"ĠBright":12040,"Ġintelligent":12041,"ĠEcclesiastical":12042,"ĠRad":12043,"Ġpoore":12044,"mell":12045,"ĠArmy":12046,"ĠZealand":12047,"Ġsecondary":12048,"Ġsuperstit":12049,"stein":12050,"appointment":12051,"Ġdwelt":12052,"fp":12053,"refs":12054,"utter":12055,"thood":12056,"ĠVice":12057,"Ġsupposition":12058,"Ġ128":12059,"prian":12060,"Ġmedi":12061,"Ġvenerable":12062,"Governor":12063,"OX":12064,"VIL":12065,"Ġrites":12066,"Ġenim":12067,"stitutions":12068,"Ġoxygen":12069,"Ġsolely":12070,"dal":12071,"jan":12072,"Ġhole":12073,"Ġfaire":12074,"Ġportrait":12075,"subjects":12076,"ĠParker":12077,"ĠHom":12078,"Ġflames":12079,"Ġ158":12080,"rument":12081,"Ġresponsible":12082,"ppe":12083,"ĠFif":12084,"iiy":12085,"Ġplanted":12086,"Ġguards":12087,"ĠPliny":12088,"Ġskil":12089,"Ġobligation":12090,"Ġcatalogue":12091,"Ġprefent":12092,"Ġfossil":12093,"Ġlean":12094,"Ġimitation":12095,"Ġbron":12096,"Ġ165":12097,"Ġescri":12098,"Ġeffectual":12099,"ĠBritt":12100,"Ġredd":12101,"break":12102,"Sw":12103,"anty":12104,"Ġperished":12105,"ANC":12106,"Ġtome":12107,"ingen":12108,"ĠHE":12109,"Ġrises":12110,"Ġkiss":12111,"nee":12112,"Ġgreatness":12113,"Ġesq":12114,"Ġ193":12115,"Ġfortunes":12116,"Mal":12117,"Ġtid":12118,"Ġbast":12119,"Ġhunting":12120,"Ġshade":12121,"perature":12122,"Ġlatest":12123,"Ġdiminished":12124,"Ġinheritance":12125,"Bes":12126,"XL":12127,"Ġpare":12128,"leans":12129,"Ġeman":12130,"COM":12131,"morning":12132,"vil":12133,"ayn":12134,"iip":12135,"Ġspared":12136,"Ġpresume":12137,"Ġ205":12138,"Cap":12139,"immediately":12140,"arta":12141,"ĠAberdeen":12142,"Ġborrowed":12143,"rock":12144,"Ġgerm":12145,"Ġsund":12146,"Ġunite":12147,"Ġspare":12148,"ĠUt":12149,"ĠMeeting":12150,"Ġsenate":12151,"Ġarchitecture":12152,"Ass":12153,"Ben":12154,"iS":12155,"Ġrepose":12156,"Ġroll":12157,"Ġentre":12158,"Ġ126":12159,"Ġillness":12160,"Ġphysician":12161,"ĠLegisl":12162,"Peter":12163,"taining":12164,"Ġsibi":12165,"iscount":12166,"Ġlisten":12167,"Ġfuneral":12168,"Ġconversion":12169,"USTRATED":12170,"Ġindifferent":12171,"js":12172,"nam":12173,"usually":12174,"ĠHorn":12175,"aston":12176,"achusetts":12177,"dued":12178,"Ġrelieved":12179,"note":12180,"Ġesc":12181,"Ġ114":12182,"Ġdecay":12183,"tian":12184,"Ġhier":12185,"Ġnerv":12186,"Ġconception":12187,"odge":12188,"avour":12189,"Ġparticles":12190,"Ġscales":12191,"150":12192,"Ġgracious":12193,"pieces":12194,"PART":12195,"bum":12196,"ĠlU":12197,"Ġadherent":12198,"ouncing":12199,"ĠTable":12200,"ĠIx":12201,"ĠAme":12202,"Ġconfe":12203,"ĠPRE":12204,"Ġrepaired":12205,"elles":12206,"Ġ209":12207,"Ġmorality":12208,"Ġinflicted":12209,"ĠMid":12210,"ĠEar":12211,"ioa":12212,"Ġespe":12213,"Ġturns":12214,"Ġmatch":12215,"ĠCopy":12216,"ĠMos":12217,"Ġ112":12218,"Ġilleg":12219,"Duke":12220,"ĠHudson":12221,"STITUT":12222,"First":12223,"eros":12224,"Ġrounded":12225,"earing":12226,"preced":12227,"ĠEssay":12228,"Ho":12229,"iid":12230,"orms":12231,"AME":12232,"Ġtruths":12233,"Ġattending":12234,"ĠBasil":12235,"Ġunexpected":12236,"mater":12237,"Ġmines":12238,"Ġdice":12239,"Ġlor":12240,"rium":12241,"Ġunnecessary":12242,"Ġsymptoms":12243,"Ġsuperiority":12244,"ĠSoph":12245,"ĠMit":12246,"Ġproclaimed":12247,"ĠNOT":12248,"ĠEngine":12249,"Ġentry":12250,"Ġhypothesis":12251,"oblig":12252,"Â¢":12253,"Ġpoll":12254,"ordon":12255,"Ġ1810":12256,"Ġlights":12257,"bow":12258,"Ġrede":12259,"ĠFive":12260,"Ġchancellor":12261,"Ġadjoining":12262,"ioii":12263,"prince":12264,"ĠProceedings":12265,"Ġintroduce":12266,"Ġconstitute":12267,"kinson":12268,"FROM":12269,"Rom":12270,"iated":12271,"Ġpir":12272,"imin":12273,"ĠCum":12274,"ĠPage":12275,"ĠNa":12276,"ĠReform":12277,"ieron":12278,"Ġimported":12279,"THER":12280,"Ġclassical":12281,"Ġowne":12282,"Ġreckoned":12283,"cimens":12284,"liter":12285,"Ġluc":12286,"ĠDios":12287,"ibe":12288,"Ġteacher":12289,"Ġextends":12290,"ĠCampbell":12291,"Ġcongrat":12292,"ĠView":12293,"Ġsecund":12294,"Ġsixteenth":12295,"legraph":12296,"Ġbarbarous":12297,"Many":12298,"nia":12299,"irch":12300,"Ġsuited":12301,"duke":12302,"ORK":12303,"Ġglac":12304,"incent":12305,"Ġfirom":12306,"Ġcomprehend":12307,"Majesty":12308,"Ġempty":12309,"Ġessentially":12310,"iug":12311,"uled":12312,"Ġmea":12313,"Ġ201":12314,"Ġxxv":12315,"Ġexcit":12316,"ĠSystem":12317,"ĠBurke":12318,"mounted":12319,"Ġmagnetic":12320,"Ġembraced":12321,"yrolog":12322,"Ġborders":12323,"Ġbeings":12324,"Ġ163":12325,"ĠBeau":12326,"magn":12327,"Ġmeasured":12328,"move":12329,"incl":12330,"Ġexcluded":12331,"ĠKn":12332,"Ġ144":12333,"rifice":12334,"Ġdealing":12335,"Captain":12336,"ĠGlasgow":12337,"ME":12338,"RU":12339,"Ġeighth":12340,"ĠPower":12341,"Ġproduces":12342,"Ġesp":12343,"ĠEditor":12344,"Ġviewed":12345,"accur":12346,"ĠSciences":12347,"Ġmissionaries":12348,"Ġwalking":12349,"Ġbattal":12350,"cence":12351,"vict":12352,"ĠBos":12353,"ulsion":12354,"Ġexpenditure":12355,"Ġowner":12356,"Ġheroes":12357,"ĠSn":12358,"chamber":12359,"ĠVery":12360,"Ġreluct":12361,"Ġsupposing":12362,"Ġdiver":12363,"Ġhorror":12364,"Ġpretensions":12365,"drawn":12366,"ĠWelsh":12367,"Oh":12368,"Ġga":12369,"ĠChapel":12370,"ĠUie":12371,"ORN":12372,"Ġmarine":12373,"ĠGeo":12374,"Ġxxiv":12375,"rdm":12376,"Ġdespatch":12377,"Ġtel":12378,"ĠIj":12379,"Ġsua":12380,"ĠDiod":12381,"ourably":12382,"Ġfavor":12383,"ĠBurgundy":12384,"AI":12385,"mot":12386,"Ġald":12387,"roll":12388,"idia":12389,"iect":12390,"Ġrational":12391,"ĠNations":12392,"agers":12393,"enser":12394,"Ġreferring":12395,"equal":12396,"Ġexceeding":12397,"Ġforests":12398,"HAM":12399,"Mor":12400,"Ġneutral":12401,"Ġchannel":12402,"Ġenumer":12403,"ERT":12404,"Ġsmile":12405,"Ġfaction":12406,"uet":12407,"ONE":12408,"acked":12409,"ĠMajest":12410,"erdinand":12411,"Ġwer":12412,"oue":12413,"ĠGener":12414,"ĠGarden":12415,"ĠDum":12416,"ĠThu":12417,"Ġboiling":12418,"poon":12419,"Ġmanifested":12420,"ĠEntom":12421,"Ġfli":12422,"Ġhospital":12423,"ĠdÃ©":12424,"Ġexpos":12425,"Ġrash":12426,"Ġshop":12427,"Ġabode":12428,"bler":12429,"Ġglor":12430,"Ġ134":12431,"ĠMedical":12432,"HY":12433,"Ly":12434,"gins":12435,"abe":12436,"ĠRose":12437,"Ġrn":12438,"Ġdozen":12439,"Ġcompositions":12440,"ĠâĤ¬":12441,"Ġecclesiast":12442,"ĠTracts":12443,"Ġcontend":12444,"ĠES":12445,"Ġimpat":12446,"ĠBeck":12447,"Ġ207":12448,"Ġsuperintend":12449,"described":12450,"list":12451,"Ġecc":12452,"ĠEaster":12453,"Ġimpe":12454,"Ġprime":12455,"appre":12456,"Ġanimated":12457,"ĠMadras":12458,"ĠGREECE":12459,"Acad":12460,"BUR":12461,"fac":12462,"whel":12463,"Ġware":12464,"Ġbag":12465,"ĠEarth":12466,"ĠFried":12467,"months":12468,"Ġvoluntary":12469,"Ġsatis":12470,"ĠTs":12471,"ĠSym":12472,"Ġgilt":12473,"Ġnoon":12474,"ensible":12475,"OOD":12476,"ĠRailway":12477,"ĠtJ":12478,"Ġinex":12479,"ighed":12480,"ĠJosh":12481,"Ġrout":12482,"Ġtransverse":12483,"afford":12484,"Ġbusy":12485,"Ġconstituted":12486,"division":12487,"Mess":12488,"green":12489,"ĠBod":12490,"Ġsel":12491,"ĠRevolution":12492,"Ġtravelled":12493,"Ġ1809":12494,"principal":12495,"ĠLectures":12496,"Ġimprisonment":12497,"fence":12498,"north":12499,"Ġtamen":12500,"omm":12501,"ĠIng":12502,"ĠGi":12503,"HER":12504,"ĠConcert":12505,"Ġprinting":12506,"arra":12507,"Ġcolonel":12508,"letters":12509,"Ġ225":12510,"Ġmissionary":12511,"followed":12512,"Ġprotected":12513,"Ġstern":12514,"itatis":12515,"Ġment":12516,"Ġnous":12517,"rival":12518,"ĠHas":12519,"Ġsuf":12520,"Ġ1814":12521,"Ġ132":12522,"Ġdeclares":12523,"Sur":12524,"ĠRoss":12525,"ĠKÃ¶":12526,"Ġcontracted":12527,"Ġfarm":12528,"Ġports":12529,"Ġfortress":12530,"Ġconclusions":12531,"horse":12532,"95":12533,"Cat":12534,"zing":12535,"arii":12536,"ĠCow":12537,"ĠFellow":12538,"ĠChimie":12539,"ĠFaith":12540,"Ġfrank":12541,"Ġbeasts":12542,"ĠSant":12543,"Ġunwilling":12544,"Ġseriously":12545,"Ġexhibition":12546,"Ġconsistent":12547,"cases":12548,"fd":12549,"km":12550,"Ġplaying":12551,"ĠSeries":12552,"Ġtravellers":12553,"Ġfent":12554,"arre":12555,"ĠHarr":12556,"Ġleague":12557,"Ġoffences":12558,"Ġdoubts":12559,"Ġcensure":12560,"Ġdecisive":12561,"avery":12562,"ĠSher":12563,"izens":12564,"Ġloving":12565,"Ġcaution":12566,"Ġsystems":12567,"Ġburden":12568,"ĠRemarks":12569,"Est":12570,"Ġwool":12571,"Ġexquisite":12572,"Ġremo":12573,"Ġposterity":12574,"Ġsunk":12575,"Ġdiseases":12576,"Ġprejudices":12577,"DER":12578,"Ġpoured":12579,"Ġmn":12580,"igration":12581,"rill":12582,"estone":12583,"acies":12584,"ĠFull":12585,"Ġrecourse":12586,"Ġarrested":12587,"Ġpredecessors":12588,"bul":12589,"ĠMoh":12590,"optera":12591,"Ġkeen":12592,"Ġstatutes":12593,"Ġavowed":12594,"Ġimprovements":12595,"Ġexhort":12596,"Scotland":12597,"iÃ³":12598,"enne":12599,"iiig":12600,"plom":12601,"Ġuncommon":12602,"ignity":12603,"Ġtwelfth":12604,"Ġ197":12605,"Ġtranquillity":12606,"Ġ1820":12607,"Ġconsiderations":12608,"Ġfigured":12609,"fic":12610,"ĠINT":12611,"ĠObservatory":12612,"Ġdeposit":12613,"CONTENTS":12614,"Ġmagistrate":12615,"Ġaad":12616,"itatem":12617,"Ġdried":12618,"Ã©is":12619,"Ġpopes":12620,"Ġpastor":12621,"Ġvictim":12622,"Ġrevolt":12623,"Ġobedient":12624,"writing":12625,"ĠWorcester":12626,"Ġhuge":12627,"alted":12628,"Ġrenders":12629,"Ġflock":12630,"broken":12631,"Ġcabinet":12632,"jed":12633,"Ġcual":12634,"ĠTE":12635,"ĠMars":12636,"Ġinside":12637,"Ġepist":12638,"Court":12639,"brane":12640,"idences":12641,"umpt":12642,"onso":12643,"cked":12644,"poet":12645,"Ġfemales":12646,"Ġhomage":12647,"ĠGard":12648,"izen":12649,"pread":12650,"OMAS":12651,"Ġhastened":12652,"ĠClarke":12653,"Ġtam":12654,"Ġcott":12655,"iman":12656,"rogen":12657,"ĠVid":12658,"Ġdetached":12659,"iorum":12660,"ETH":12661,"Ġvanity":12662,"Ġchemistry":12663,"keley":12664,"Ġsocieties":12665,"Ġ164":12666,"Ġ203":12667,"istrict":12668,"Before":12669,"Ġmagnitude":12670,"fish":12671,"sense":12672,"Ġwounds":12673,"Ġfoll":12674,"seemed":12675,"ĠCave":12676,"udo":12677,"brand":12678,"Ġstewpan":12679,"MER":12680,"tum":12681,"Ġost":12682,"ispo":12683,"ĠDouglas":12684,"ICK":12685,"ĠClass":12686,"Ġhappily":12687,"Ġapprehension":12688,"tation":12689,"zy":12690,"alo":12691,"Ġseq":12692,"ĠAnglic":12693,"habit":12694,"tom":12695,"ĠBou":12696,"Ġconsented":12697,"Ġenjoyment":12698,"ĠSalis":12699,"Ġstyled":12700,"deep":12701,"Ġpresenting":12702,"Ġverte":12703,"Ġsolo":12704,"lemagne":12705,"added":12706,"NEW":12707,"itans":12708,"Ġdiscretion":12709,"ĠClive":12710,"Ġyea":12711,"successful":12712,"JE":12713,"Ġhr":12714,"ights":12715,"oyd":12716,"ĠAtlantic":12717,"Ġcommunicate":12718,"Ġcoasts":12719,"Ġomnibus":12720,"wild":12721,"rained":12722,"ĠDictionary":12723,"ivian":12724,"Ġrhe":12725,"ministration":12726,"Prov":12727,"Ġdescendants":12728,"Ġinnoc":12729,"America":12730,"icipal":12731,"PO":12732,"Ġlent":12733,"otte":12734,"ourney":12735,"Ġabilities":12736,"Å¿h":12737,"Ġtraining":12738,"CHRON":12739,"Ġtrifling":12740,"value":12741,"CTURE":12742,"Int":12743,"atical":12744,"Ġdir":12745,"ĠSig":12746,"oggend":12747,"month":12748,"Ġbeheld":12749,"Ġgle":12750,"Ġcounsell":12751,"Lady":12752,"uj":12753,"orf":12754,"Ġlui":12755,"adise":12756,"Ġassurance":12757,"spir":12758,"maint":12759,"agements":12760,"conform":12761,"Ġadoption":12762,"Ġreproach":12763,"400":12764,"vhich":12765,"Ġofl":12766,"Ġpace":12767,"ĠSett":12768,"Ġali":12769,"Ġconsiders":12770,"IIL":12771,"Ġovercome":12772,"Ġglobe":12773,"Ġsciences":12774,"Ġregiments":12775,"Ġsolitary":12776,"fourth":12777,"learned":12778,"Ġhide":12779,"anding":12780,"Ġ223":12781,"ĠPalace":12782,"Ġsuggestion":12783,"Ġamiable":12784,"Ġmurdered":12785,"firm":12786,"tc":12787,"odo":12788,"ĠFal":12789,"Ġmarble":12790,"afed":12791,"door":12792,"Ġlayer":12793,"ĠSuper":12794,"Ġgradual":12795,"Ġvolunte":12796,"building":12797,"loc":12798,"Ġspl":12799,"itively":12800,"ilh":12801,"Ġdeeper":12802,"Ġ215":12803,"ĠSydney":12804,"abel":12805,"Ġdesperate":12806,"endom":12807,"Ġ1806":12808,"Ġorganic":12809,"Ġunfortunately":12810,"Ua":12811,"bac":12812,"Ġaven":12813,"Ġoa":12814,"repe":12815,"Ġ1824":12816,"Ġparagraph":12817,"Ġxxvi":12818,"Ġcommunications":12819,"Ġtheology":12820,"ĠAPP":12821,"oler":12822,"racter":12823,"Ġrecovery":12824,"Ġfearful":12825,"dri":12826,"later":12827,"Ġdata":12828,"Ġdift":12829,"ĠCec":12830,"quite":12831,"ĠOrange":12832,"Ġallusion":12833,"Ġ199":12834,"Ġcontinuous":12835,"erness":12836,"andum":12837,"illon":12838,"ĠGaz":12839,"Ġperplex":12840,"Ġresident":12841,"itsch":12842,"ĠStrabo":12843,"Ġsounds":12844,"ĠHerbert":12845,"ĠNether":12846,"Ġqualified":12847,"Ġpest":12848,"Ġnl":12849,"Ġseeds":12850,"ruit":12851,"amente":12852,"Ġforegoing":12853,"Ġinquiries":12854,"Ġfii":12855,"acts":12856,"Ġpeers":12857,"considerable":12858,"Ġcivilization":12859,"ĠMinisters":12860,"Ġquietly":12861,"ĠPP":12862,"ĠHume":12863,"ĠRic":12864,"depart":12865,"David":12866,"bered":12867,"sin":12868,"uction":12869,"oras":12870,"Ġenacted":12871,"Ġoffici":12872,"conv":12873,"Ġ122":12874,"Ġ142":12875,"Soc":12876,"Ġturb":12877,"Ġrenow":12878,"ĠAi":12879,"ĠRaj":12880,"lesia":12881,"Ġtlio":12882,"Ġhydrogen":12883,"bc":12884,"cele":12885,"Ġ1821":12886,"Ġscandal":12887,"bourg":12888,"Ġheavenly":12889,"Ġduration":12890,"Ġengraved":12891,"Ġpersever":12892,"Ġrighteousness":12893,"Lib":12894,"gain":12895,"Ġpitch":12896,"rof":12897,"cca":12898,"shaped":12899,"pherd":12900,"Ser":12901,"upp":12902,"Ġunw":12903,"asurer":12904,"Ġprayed":12905,"religious":12906,"numerous":12907,"Ġsquadron":12908,"Ġinterrupted":12909,"uate":12910,"Ġmob":12911,"Ġlaugh":12912,"ĠPas":12913,"iferous":12914,"acion":12915,"Ġarrange":12916,"Ġdecrees":12917,"ĠHistorical":12918,"Ġpainting":12919,"TR":12920,"uil":12921,"speak":12922,"Ġjuft":12923,"DR":12924,"Ġtales":12925,"Ġnur":12926,"emies":12927,"allic":12928,"ĠChatham":12929,"expl":12930,"poor":12931,"Ġsworn":12932,"Ġinclination":12933,"Ġbark":12934,"ĠTIM":12935,"ĠRock":12936,"ĠiM":12937,"ĠDuchess":12938,"ĠGREAT":12939,"Ġwithdraw":12940,"Ġrepentance":12941,"erals":12942,"Ġsod":12943,"Ġflying":12944,"Ġgig":12945,"ĠMack":12946,"Ġconft":12947,"opy":12948,"ĠMarl":12949,"ĠAlmighty":12950,"Ġbanished":12951,"Ġexcessive":12952,"Ġadequate":12953,"Ġtechnical":12954,"Paul":12955,"virt":12956,"oup":12957,"Ġlac":12958,"ĠFriend":12959,"oking":12960,"Ġafterward":12961,"ĠWhich":12962,"Ġequivalent":12963,"Ġpromoted":12964,"Ġ241":12965,"Ġcraft":12966,"ĠBernard":12967,"Ġshelter":12968,"degree":12969,"Under":12970,"Ġnil":12971,"peculiar":12972,"weet":12973,"Ġcontented":12974,"Ġendure":12975,"Ġ148":12976,"Ġpomp":12977,"icet":12978,"Ġshock":12979,"Ġalarmed":12980,"Ġ124":12981,"Ġprocession":12982,"nations":12983,"Ġape":12984,"Ġbath":12985,"Ġbail":12986,"angular":12987,"measure":12988,"ALTH":12989,"Ġmodes":12990,"Ġexpressing":12991,"Ġcritic":12992,"support":12993,"ĠReligion":12994,"ĠSarac":12995,"itzerland":12996,"orce":12997,"Ġpatter":12998,"ĠTa":12999,"ĠMes":13000,"ĠHIST":13001,"Ġstages":13002,"ĠWind":13003,"Ġprelim":13004,"Ġdetachment":13005,"Ġtrying":13006,"Ġdramatic":13007,"Ġpupils":13008,"Cast":13009,"oz":13010,"rar":13011,"Ġsuo":13012,"Ġya":13013,"ĠRud":13014,"Ġdisturbed":13015,"Ġlateral":13016,"Ġconsulted":13017,"ĠThomson":13018,"ĠHI":13019,"ĠLar":13020,"ĠDitto":13021,"Ġshr":13022,"udent":13023,"Ġquid":13024,"asso":13025,"Ġboast":13026,"nesse":13027,"Ġhunt":13028,"Ġbef":13029,"Ġrea":13030,"Ġ1000":13031,"ĠHook":13032,"acons":13033,"Ġabuses":13034,"Ġextracts":13035,"Ġmetropolis":13036,"ĠHoward":13037,"amongst":13038,"Ġmaximum":13039,"ĠHENRY":13040,"Span":13041,"ean":13042,"ĠCertain":13043,"racy":13044,"offer":13045,"ortes":13046,"agn":13047,"Which":13048,"Ġinjurious":13049,"Ġassociation":13050,"Ġsprings":13051,"names":13052,"itime":13053,"Ġinft":13054,"Ġperish":13055,"ĠYEAR":13056,"Ġremarkably":13057,"ĠLawrence":13058,"CIENT":13059,"Ġangry":13060,"Major":13061,"Ġdishon":13062,"ĠSparta":13063,"inum":13064,"Ġate":13065,"ofl":13066,"urely":13067,"Ġ1818":13068,"rances":13069,"Ġwrath":13070,"Ġfifteenth":13071,"Ġthrowing":13072,"Ġlearnt":13073,"ihe":13074,"iden":13075,"ĠBul":13076,"Ġplat":13077,"Ġdebts":13078,"Ġwidth":13079,"ĠNormandy":13080,"ĠCamb":13081,"Ġatque":13082,"suc":13083,"Ġgenerations":13084,"Ġ138":13085,"ovah":13086,"Ġuttered":13087,"Ġ1805":13088,"Ġnod":13089,"Ġmemor":13090,"Ġbeneficial":13091,"Edin":13092,"Ġmidnight":13093,"Ac":13094,"SO":13095,"dad":13096,"miles":13097,"ware":13098,"Ġcc":13099,"ĠCrit":13100,"ĠRot":13101,"Ġcovenant":13102,"Ġguar":13103,"ĠBrad":13104,"ĠPhot":13105,"Ġdeputies":13106,"Ġsalut":13107,"Ġnuest":13108,"Ġmachinery":13109,"trees":13110,"ĠMerc":13111,"ĠBan":13112,"Ġdealt":13113,"ĠRow":13114,"ĠKnow":13115,"Ġdeserted":13116,"Ġgrants":13117,"Ġsayd":13118,"Ġ191":13119,"ĠHerr":13120,"Ġallegiance":13121,"furn":13122,"Ġ168":13123,"Ġdelighted":13124,"Ġpupil":13125,"UBLIC":13126,"GY":13127,"hour":13128,"Ġninth":13129,"Ġjus":13130,"Ġnobis":13131,"anging":13132,"ĠDecl":13133,"produced":13134,"Ġmoderation":13135,"ĠÅ¿o":13136,"Ġbloody":13137,"Ġprophets":13138,"indsor":13139,"Ġknees":13140,"ĠBurnet":13141,"eno":13142,"anth":13143,"Ġreaching":13144,"ĠSaints":13145,"Ġcontrived":13146,"Ġprerogative":13147,"CK":13148,"iten":13149,"Ġdorsal":13150,"Ġnnd":13151,"andson":13152,"pendence":13153,"ĠRepublic":13154,"Ġboundary":13155,"Ġidentified":13156,"ĠVictor":13157,"Ġninete":13158,"Ġintegrity":13159,"health":13160,"Ġinnum":13161,"Ġej":13162,"Ġrecom":13163,"ĠBirds":13164,"bend":13165,"enery":13166,"Ġbrid":13167,"Ġmemorable":13168,"Ġvertical":13169,"ĠShort":13170,"Ġdestro":13171,"Ġ221":13172,"Ġinforms":13173,"Ġtimber":13174,"ĠCranmer":13175,"Ta":13176,"Ġaj":13177,"ĠHouses":13178,"Ġvio":13179,"achments":13180,"ATUR":13181,"ĠEpistle":13182,"Ġmotions":13183,"ĠBedford":13184,"Ġobserver":13185,"iij":13186,"Ġpublish":13187,"Ġcrisis":13188,"Ġdependent":13189,"Ġtraditions":13190,"principles":13191,"Letter":13192,"Ġadjourn":13193,"ĠBRITAIN":13194,"Ġith":13195,"ĠaÃ±o":13196,"inous":13197,"Ġhaste":13198,"seus":13199,"ĠAU":13200,"ĠKh":13201,"ĠThor":13202,"phan":13203,"Ġsheriff":13204,"Ġmetals":13205,"ustrated":13206,"ĠCongress":13207,"Ġvarying":13208,"Ġht":13209,"Ġnice":13210,"addeus":13211,"ĠMeteor":13212,"ĠPom":13213,"Ġvotes":13214,"ĠDist":13215,"ĠGeol":13216,"Id":13217,"Law":13218,"ĠBec":13219,"ĠGaul":13220,"Ġmyth":13221,"Ġbaron":13222,"lington":13223,"Ġembarked":13224,"Ġsteep":13225,"cracy":13226,"Ġphilosophers":13227,"November":13228,"App":13229,"FACE":13230,"Well":13231,"itchen":13232,"Ġbim":13233,"thrown":13234,"Ġvie":13235,"Ġincred":13236,"ĠFourth":13237,"afe":13238,"zi":13239,"Ġdrown":13240,"Ġepid":13241,"Ġubi":13242,"Ġana":13243,"pte":13244,"Ġclam":13245,"brid":13246,"parliament":13247,"Ġresting":13248,"Ġtypes":13249,"werp":13250,"ĠChronicle":13251,"ĠAlbany":13252,"Ġdefinition":13253,"Ju":13254,"olate":13255,"oco":13256,"Ġmostly":13257,"ĠAsiatic":13258,"porary":13259,"alogy":13260,"Ġpatronage":13261,"Ġenlightened":13262,"TA":13263,"igi":13264,"Ġproportions":13265,"State":13266,"Ġprivy":13267,"Ġlimbs":13268,"IK":13269,"Ġmail":13270,"Ġforci":13271,"emer":13272,"itherto":13273,"Ġinfam":13274,"Ġ233":13275,"Ġhoufe":13276,"Ġsupers":13277,"ĠArmen":13278,"Ġ146":13279,"regarded":13280,"ĠPlace":13281,"CIET":13282,"Ġbeaten":13283,"mine":13284,"Ġtended":13285,"ĠMic":13286,"ĠEin":13287,"ĠDet":13288,"ĠOpp":13289,"Ġchast":13290,"Ġresumed":13291,"Lt":13292,"Ġale":13293,"Ġ220":13294,"Ġpecc":13295,"Ġ154":13296,"Ġderive":13297,"Ġrevived":13298,"Ġinvestigations":13299,"Acts":13300,"Jes":13301,"Nap":13302,"cure":13303,"orse":13304,"Ġdent":13305,"Ġanecd":13306,"Ġalc":13307,"Ġsurprising":13308,"Ġslavery":13309,"Ġgrows":13310,"Ġtliis":13311,"ĠOliver":13312,"accept":13313,"Ġleagues":13314,"agram":13315,"Ġgrateful":13316,"Ġintere":13317,"Ġsmallest":13318,"Ġpositions":13319,"Ġexceptions":13320,"bishops":13321,"ropolitan":13322,"Ġsecretly":13323,"lasting":13324,"ĠDenmark":13325,"Pers":13326,"Tl":13327,"ficial":13328,"ĠFrag":13329,"need":13330,"Ġjew":13331,"rund":13332,"Ġresort":13333,"olds":13334,"ĠExam":13335,"Ġfuit":13336,"Spe":13337,"Ġtour":13338,"irn":13339,"Ġmanu":13340,"Ġundertook":13341,"Ġdeclar":13342,"Ġ257":13343,"Ġ229":13344,"Ġvirtuous":13345,"Ġpowder":13346,"ĠFlora":13347,"Ġmystery":13348,"cate":13349,"gus":13350,"erunt":13351,"uds":13352,"Ġmetaph":13353,"Aust":13354,"Str":13355,"sis":13356,"itations":13357,"ĠSem":13358,"chre":13359,"ĠClergy":13360,"azar":13361,"ĠMilton":13362,"ĠÏĦ":13363,"leave":13364,"imd":13365,"ĠJordan":13366,"Ġdisgu":13367,"ftion":13368,"Ġ174":13369,"Ġ176":13370,"Ġserving":13371,"Ġrightly":13372,"Ġconfirmation":13373,"Greek":13374,"Ee":13375,"cise":13376,"oui":13377,"Ġmac":13378,"Ġstret":13379,"aga":13380,"Ġresign":13381,"Ġvoid":13382,"Ġnegot":13383,"ĠMediterranean":13384,"Ġconvex":13385,"Ġavailable":13386,"Ġsang":13387,"ĠasÃŃ":13388,"Ġadult":13389,"ATIONAL":13390,"Ġapplause":13391,"ĠCome":13392,"Ġ1823":13393,"Ġrepet":13394,"prudence":13395,"Ġedges":13396,"irmingham":13397,"Ġmistress":13398,"ĠForest":13399,"Ġconspiracy":13400,"ĠSweden":13401,"Ġsundry":13402,"rise":13403,"ridge":13404,"uing":13405,"Ġtv":13406,"Ġtip":13407,"rev":13408,"Ġbounds":13409,"adas":13410,"Ġvass":13411,"Ġjam":13412,"ALY":13413,"ĠTherefore":13414,"ĠAvas":13415,"Sf":13416,"dire":13417,"entered":13418,"Ġwee":13419,"began":13420,"Ġpeop":13421,"Ġoldest":13422,"Ġprovincial":13423,"ĠCalvin":13424,"Ġculture":13425,"Ġhostility":13426,"Ġanchor":13427,"Ġincidents":13428,"Ġexamining":13429,"xe":13430,"Ġsep":13431,"uding":13432,"develop":13433,"Ġcommem":13434,"Ġemperors":13435,"ĠEphes":13436,"ĠStewart":13437,"Ġforbidden":13438,"Ġgay":13439,"Ġ210":13440,"Ġcoins":13441,"swer":13442,"ĠMann":13443,"Ġplaint":13444,"Ġ1819":13445,"inton":13446,"Ġresigned":13447,"ioe":13448,"versary":13449,"Ġboiled":13450,"ometry":13451,"Ġrapidity":13452,"ĠHanover":13453,"Every":13454,"Ġpick":13455,"ĠPall":13456,"ĠPoint":13457,"opped":13458,"Ġarises":13459,"Ġarisen":13460,"Ġfeed":13461,"Ġ166":13462,"Ġexpired":13463,"Ġputs":13464,"Ġdispersed":13465,"Ġorthodox":13466,"Ve":13467,"hc":13468,"leness":13469,"tv":13470,"inen":13471,"ĠTi":13472,"ĠSection":13473,"Ġconced":13474,"Ġ182":13475,"exp":13476,"meet":13477,"Ġinfall":13478,"afon":13479,"Ġstreams":13480,"pensable":13481,"ĠClarendon":13482,"fli":13483,"oor":13484,"inue":13485,"Ġoak":13486,"resist":13487,"Ġweary":13488,"Ġaber":13489,"ONS":13490,"Ġpleas":13491,"alties":13492,"Ġhappens":13493,"Ġapprehend":13494,"ompson":13495,"iently":13496,"ĠLjOOQIC":13497,"ĠWhe":13498,"ciples":13499,"Ġjj":13500,"Ġfores":13501,"hamed":13502,"Ġposts":13503,"Ġtreasures":13504,"ĠPatri":13505,"throughout":13506,"Ġheroic":13507,"ĠChristo":13508,"IUS":13509,"ticular":13510,"aten":13511,"Ġlack":13512,"otel":13513,"uration":13514,"Ġdella":13515,"Ġillustrate":13516,"Ġsovereignty":13517,"interesting":13518,"ĠMoreover":13519,"Ġfertile":13520,"Ġlegitimate":13521,"Ham":13522,"gle":13523,"intended":13524,"anto":13525,"iei":13526,"ENER":13527,"111":13528,"Ġomnes":13529,"presented":13530,"Ġsenses":13531,"jun":13532,"uU":13533,"ĠmÃ¡":13534,"ĠChair":13535,"Ġdisappeared":13536,"Ġdeaths":13537,"prevent":13538,"Ġxxvii":13539,"Ġfortified":13540,"Ġdespatched":13541,"Ba":13542,"kd":13543,"von":13544,"Ġconvert":13545,"ĠPun":13546,"Ġseasons":13547,"ects":13548,"play":13549,"onshire":13550,"ĠYe":13551,"Those":13552,"aneously":13553,"clear":13554,"Ġlistened":13555,"itr":13556,"oult":13557,"Ġdeceived":13558,"Ġsequ":13559,"iffe":13560,"trade":13561,"Ġ240":13562,"ĠvoL":13563,"Ġallowance":13564,"ographer":13565,"Ġannexed":13566,"oner":13567,"idious":13568,"ĠWord":13569,"Ġridge":13570,"ften":13571,"Ġoffended":13572,"Ġtumult":13573,"Ġcontributions":13574,"According":13575,"Ġdared":13576,"aufe":13577,"ĠHell":13578,"Ġclos":13579,"Ġenters":13580,"proof":13581,"Ġpublications":13582,"Ġadmired":13583,"Ġ1873":13584,"Ġfoolish":13585,"mity":13586,"inas":13587,"erxes":13588,"ĠTil":13589,"ĠTheory":13590,"Ġmessenger":13591,"Ġvacant":13592,"oat":13593,"Ġeum":13594,"ĠBor":13595,"Ġseize":13596,"Ġ1822":13597,"portant":13598,"Ġsuccessfully":13599,"Ġcleared":13600,"rupted":13601,"addition":13602,"ĠLiebig":13603,"Ġpossessing":13604,"Ġangles":13605,"ausan":13606,"ĠTyndale":13607,"Ver":13608,"WN":13609,"dic":13610,"ĠCatherine":13611,"ĠRy":13612,"ĠJa":13613,"Ġchamp":13614,"foreign":13615,"ĠSeal":13616,"Ġsymbol":13617,"Ġrigid":13618,"Ġcarta":13619,"returned":13620,"mac":13621,"Ġwm":13622,"Ġpig":13623,"Ġhed":13624,"Ġstick":13625,"ĠVi":13626,"Ġaffirmed":13627,"Ġselfish":13628,"Ġluxury":13629,"women":13630,"inating":13631,"Ġtheories":13632,"Ġwont":13633,"ĠIIL":13634,"moved":13635,"RODU":13636,"VENT":13637,"__":13638,"Ġpere":13639,"owl":13640,"120":13641,"Ġ247":13642,"Ġdescribing":13643,"lock":13644,"Ġss":13645,"esthood":13646,"ilo":13647,"ĠFL":13648,"ibet":13649,"agu":13650,"Ġfoundations":13651,"ĠArts":13652,"menced":13653,"Ġdeliber":13654,"Ġdevised":13655,"ĠWithout":13656,"Ġpeculiarities":13657,"ĠGlad":13658,"ĠBibli":13659,"Ġexertion":13660,"Black":13661,"sym":13662,"Ġwire":13663,"Ġplenty":13664,"Ġfalsehood":13665,"Ġtowers":13666,"ĠIntroduction":13667,"din":13668,"pc":13669,"scribed":13670,"Ġts":13671,"quake":13672,"Ġvital":13673,"Ġoutline":13674,"Ġpurple":13675,"azed":13676,"rents":13677,"Although":13678,"Ġcouple":13679,"Ġadjacent":13680,"Ġdisposal":13681,"RES":13682,"mart":13683,"Ġfich":13684,"idance":13685,"ĠMamm":13686,"ĠJos":13687,"izo":13688,"Ġspeeches":13689,"priest":13690,"Ġcareless":13691,"Ġ270":13692,"Ġexplos":13693,"Ġanticipated":13694,"97":13695,"Ġrings":13696,"Ġrefusal":13697,"Ġrulers":13698,"Boston":13699,"Lo":13700,"Mer":13701,"gt":13702,"powers":13703,"wv":13704,"icke":13705,"utus":13706,"imon":13707,"Ġardent":13708,"Ġpend":13709,"possession":13710,"Ġwatched":13711,"ĠAnnual":13712,"ĠPrivy":13713,"Parliament":13714,"Ġmysterious":13715,"IP":13716,"Ġwax":13717,"Ġadmon":13718,"Ġbelieving":13719,"cells":13720,"Ġ231":13721,"ĠCommander":13722,"lementary":13723,"ĠAugustus":13724,"Ġhate":13725,"ĠAli":13726,"ilation":13727,"Ġvert":13728,"Ġ271":13729,"greatest":13730,"ĠEstab":13731,"ĠDionys":13732,"Ġdex":13733,"abet":13734,"Ġ219":13735,"Ġtruce":13736,"Ġrepr":13737,"ĠOnly":13738,"Ġbuy":13739,"Ġambitious":13740,"ĠArabs":13741,"ĠCard":13742,"Ġcontribute":13743,"Ġglance":13744,"Ġdefer":13745,"Ġmembrane":13746,"olicy":13747,"Mur":13748,"pation":13749,"Ġscept":13750,"Ġsept":13751,"plies":13752,"oca":13753,"Ġemph":13754,"efty":13755,"Ġtk":13756,"Ġpotest":13757,"ĠSom":13758,"Ġvow":13759,"pleased":13760,"parative":13761,"poration":13762,"ĠPhilosophy":13763,"Ġ1803":13764,"Ġdawn":13765,"Ġembrace":13766,"Ġphilosophical":13767,"Ġimmortal":13768,"Ġdiligence":13769,"Green":13770,"tent":13771,"ndi":13772,"Ġpocket":13773,"Ġnisi":13774,"ĠTert":13775,"Ġyoke":13776,"Ġ188":13777,"Ġ279":13778,"Ġcopied":13779,"royed":13780,"Ġawful":13781,"ĠGothic":13782,"frey":13783,"mad":13784,"Ġrevelation":13785,"eta":13786,"ĠPil":13787,"Ġdecom":13788,"ĠGardens":13789,"Ġimpressed":13790,"ĠAlps":13791,"ĠHistoria":13792,"ĠExeter":13793,"stantly":13794,"Ġannoy":13795,"Ġvictorious":13796,"ĠWalpole":13797,"Ġvigil":13798,"acquainted":13799,"Four":13800,"dif":13801,"nical":13802,"Ġlamp":13803,"ĠTart":13804,"ĠAut":13805,"urers":13806,"Ġuncon":13807,"Ġscar":13808,"Ġ198":13809,"Ġreckon":13810,"agreeable":13811,"Ġinterfere":13812,"ĠBalt":13813,"rae":13814,"ĠNatur":13815,"Ġsolar":13816,"Ġ249":13817,"Ġaccompan":13818,"Ġruined":13819,"Ġaided":13820,"ĠLane":13821,"Ġ211":13822,"Ġplum":13823,"Ġ1812":13824,"Ġclub":13825,"Ġconstitutional":13826,"Ġholiness":13827,"Ġinfinitely":13828,"enza":13829,"Ġfron":13830,"arrived":13831,"ĠList":13832,"ciously":13833,"Ġarid":13834,"Ġ156":13835,"Ġutility":13836,"Ġapplicable":13837,"Ġavoided":13838,"Ġcurrents":13839,"Ġaperture":13840,"Â¥":13841,"ĠCall":13842,"ĠCotton":13843,"pection":13844,"ĠGulf":13845,"Ġvisits":13846,"Ġlodged":13847,"ĠHorace":13848,"ĠJen":13849,"Ġques":13850,"sequently":13851,"ĠWarwick":13852,"property":13853,"aque":13854,"fur":13855,"gro":13856,"ĠFerdinand":13857,"ipot":13858,"Ġusage":13859,"ĠUs":13860,"Ġarmour":13861,"Ġdivines":13862,"Ġexcav":13863,"Ġheights":13864,"Ġproducts":13865,"duty":13866,"ĠIR":13867,"Ġvot":13868,"ĠEo":13869,"ĠGas":13870,"aceous":13871,"HEN":13872,"Ġfait":13873,"Ġlessons":13874,"Ġ195":13875,"Ġjudicial":13876,"Sub":13877,"esh":13878,"ĠSket":13879,"ĠMM":13880,"Ġseats":13881,"Ġ213":13882,"beyond":13883,"Ġendowed":13884,"ĠNorthumberland":13885,"ĠFrederic":13886,"Bib":13887,"East":13888,"Ġtheological":13889,"Ġdan":13890,"Ġnec":13891,"Ġquote":13892,"Ġji":13893,"Ġjug":13894,"blest":13895,"Ġinsurrection":13896,"ĠClub":13897,"Ġceo":13898,"Ġboldly":13899,"Ġrepeatedly":13900,"ĠDissert":13901,"circumstances":13902,"Ġexcitement":13903,"ĠHert":13904,"iiu":13905,"Ġtreating":13906,"Ġ269":13907,"ĠCyprian":13908,"Ġenthusiast":13909,"brown":13910,"Ġstout":13911,"Ġ136":13912,"Ġannals":13913,"Ġpopularity":13914,"Ġmonasteries":13915,"Ġhorizon":13916,"Ġadherents":13917,"inks":13918,"Ġwc":13919,"asia":13920,"ĠFlem":13921,"Ġintensity":13922,"Ġreceives":13923,"ĠBridge":13924,"Ġencounter":13925,"ĠChemistry":13926,"ĠDickens":13927,"ĠPlutarch":13928,"Ġomit":13929,"Ġfath":13930,"Ġdurch":13931,"omination":13932,"istical":13933,"Ġsepul":13934,"Ġenforced":13935,"Ġparticip":13936,"Ġnights":13937,"Ġexecute":13938,"Ġharvest":13939,"Ġvelocity":13940,"Ġtroubled":13941,"ĠMUSICAL":13942,"Ġinvariably":13943,"loss":13944,"Ġatro":13945,"akened":13946,"ocus":13947,"Ġincur":13948,"Ġtroop":13949,"ĠAMER":13950,"Ġhazard":13951,"Ġbetwixt":13952,"ĠCod":13953,"Ġvos":13954,"ĠNos":13955,"ĠXen":13956,"ĠMarshal":13957,"ĠGeorg":13958,"ĠBarb":13959,"Ġnach":13960,"ĠTbe":13961,"ouring":13962,"coast":13963,"Ġsplendour":13964,"Ġwliich":13965,"Ġtomo":13966,"ĠTerm":13967,"ĠCou":13968,"liam":13969,"Ġ1811":13970,"Ġperfon":13971,"sects":13972,"Ġrecognition":13973,"Ġfragment":13974,"Mah":13975,"VL":13976,"bott":13977,"fem":13978,"Ġbount":13979,"ĠBem":13980,"ĠPi":13981,"anton":13982,"liance":13983,"deal":13984,"plend":13985,"private":13986,"Ġcolouring":13987,"College":13988,"Ġdrawings":13989,"ĠSanctorum":13990,"ĠoF":13991,"Ġsore":13992,"ania":13993,"anwhile":13994,"Ġorator":13995,"Ġenforce":13996,"Ġ1816":13997,"Ġtransparent":13998,"Ġexpresses":13999,"Ġstatue":14000,"ĠVirgil":14001,"ĠSalisbury":14002,"08":14003,"BO":14004,"battle":14005,"Ġthine":14006,"ĠHOUSE":14007,"ĠRos":14008,"Ġshalt":14009,"Ġ800":14010,"Ġ172":14011,"Ġ245":14012,"ĠCorrespond":14013,"points":14014,"gramme":14015,"bil":14016,"dre":14017,"tary":14018,"alian":14019,"ĠBeth":14020,"Ġpreacher":14021,"Ġ162":14022,"Ġsupper":14023,"Ġrecalled":14024,"Ġ152":14025,"Ġstrata":14026,"ĠNotice":14027,"Ġhyt":14028,"ĠAgricult":14029,"Ġvalued":14030,"Ġpreference":14031,"ĠCapit":14032,"itative":14033,"lev":14034,"ifs":14035,"Ġride":14036,"neys":14037,"Ġlinen":14038,"Ġdismissed":14039,"Ġfisher":14040,"icity":14041,"Ġdeposed":14042,"quant":14043,"Ġsui":14044,"excell":14045,"Ġreflected":14046,"velope":14047,"Ġdetected":14048,"Ġ243":14049,"Ġadmiral":14050,"none":14051,"Ġlob":14052,"cted":14053,"osus":14054,"ĠGa":14055,"unge":14056,"ordin":14057,"Ġchim":14058,"Ġabbey":14059,"Ġdissent":14060,"ĠEnglishmen":14061,"scarcely":14062,"Ġtrusted":14063,"OLOGY":14064,"itent":14065,"Ġ116":14066,"countries":14067,"Ġgeological":14068,"Ġ1808":14069,"Ġvictims":14070,"ĠNevertheless":14071,"Ġcylind":14072,"Land":14073,"PRE":14074,"lich":14075,"isition":14076,"Ġdio":14077,"Ġcaut":14078,"Ġ289":14079,"continu":14080,"Ġfacility":14081,"Ġpotato":14082,"Cons":14083,"EC":14084,"bread":14085,"cens":14086,"adier":14087,"Ġhell":14088,"ĠHerm":14089,"Ġane":14090,"Ġ325":14091,"HES":14092,"Ġglob":14093,"ĠCharacter":14094,"Ġ253":14095,"ĠBlood":14096,"Ġmaintaining":14097,"Ġrecognized":14098,"distinct":14099,"Mel":14100,"got":14101,"wan":14102,"Ġmicroscope":14103,"icn":14104,"ĠIg":14105,"ĠBry":14106,"Ġmanor":14107,"Ġabdom":14108,"ĠVincent":14109,"plant":14110,"Ġspend":14111,"Ġshoulders":14112,"Ġtenants":14113,"Ġ255":14114,"Ġsickness":14115,"Ġdissolution":14116,"Wal":14117,"cording":14118,"paid":14119,"ĠPp":14120,"ĠLIB":14121,"ĠWard":14122,"ighted":14123,"Ġchallen":14124,"Ġoppression":14125,"Ġrequiring":14126,"Ġfingers":14127,"zog":14128,"Ġmt":14129,"lea":14130,"imis":14131,"Ġconcludes":14132,"result":14133,"ĠRou":14134,"ĠNay":14135,"entirely":14136,"bank":14137,"asis":14138,"Ġeis":14139,"Ġyf":14140,"illo":14141,"ibern":14142,"apparent":14143,"Ġprofits":14144,"Ġmillion":14145,"ĠDepartment":14146,"ĠSouthern":14147,"Ġdynasty":14148,"Life":14149,"MOND":14150,"anne":14151,"ĠAir":14152,"ĠMicroscop":14153,"ifax":14154,"ĠseÃ±or":14155,"exerc":14156,"ĠLee":14157,"ĠPhilipp":14158,"ĠBav":14159,"ĠEducation":14160,"ĠRi":14161,"Ġrates":14162,"Ġmineral":14163,"ĠConst":14164,"pendicular":14165,"Ġ281":14166,"Ġ287":14167,"Ġimprobable":14168,"Ġhorizontal":14169,"ĠCarthage":14170,"itating":14171,"Ġcin":14172,"anx":14173,"Ġdt":14174,"Ġashes":14175,"rique":14176,"notice":14177,"prises":14178,"Ġrested":14179,"married":14180,"Ġinstituted":14181,"Philip":14182,"Ġphenomenon":14183,"ĠAntiquities":14184,"ardinals":14185,"Ġremonst":14186,"ĠSAINTS":14187,"bd":14188,"ball":14189,"gold":14190,"Ġsincerity":14191,"Ġfus":14192,"ĠLou":14193,"Ġ1817":14194,"show":14195,"ĠestÃ¡":14196,"USS":14197,"ĠJustinian":14198,"Ġlocalities":14199,"ĠWellington":14200,"ĠBond":14201,"Ġvague":14202,"Ġexalted":14203,"ĠRam":14204,"Ġwillingly":14205,"iffs":14206,"Ġbetrayed":14207,"ĠDeo":14208,"ihi":14209,"Ġattendants":14210,"Fr":14211,"cru":14212,"Ġlift":14213,"Ġtheirs":14214,"agle":14215,"Ġprescribed":14216,"ORS":14217,"Ġdivinity":14218,"ussia":14219,"Ġ285":14220,"ĠUniv":14221,"Ġbenefits":14222,"Ġforeigners":14223,"Ġtubes":14224,"noble":14225,"page":14226,"Ã¨":14227,"Ġwn":14228,"entious":14229,"rive":14230,"Ġyard":14231,"ĠDarius":14232,"ugar":14233,"ĠComp":14234,"Ġ350":14235,"RIG":14236,"Ġlegislation":14237,"Ġmuseum":14238,"Ġthirst":14239,"ĠWa":14240,"ĠWright":14241,"opon":14242,"Ġlibr":14243,"ĠExpedition":14244,"Ġburned":14245,"Ġruled":14246,"ĠAccordingly":14247,"neighbour":14248,"fly":14249,"ĠHast":14250,"quired":14251,"Ġ313":14252,"ruments":14253,"Ġdoctors":14254,"Ġharsh":14255,"Ġ1890":14256,"Ġeaten":14257,"ĠBraz":14258,"Its":14259,"Ro":14260,"Vi":14261,"ustion":14262,"Ġintermediate":14263,"Ġsmoke":14264,"Ġinsign":14265,"Ġ192":14266,"Ġ235":14267,"Ġlovely":14268,"cended":14269,"Ġtelling":14270,"ĠJudge":14271,"Bot":14272,"ĠGro":14273,"Ġnobody":14274,"ĠStar":14275,"Ġrelieve":14276,"Ġdamage":14277,"adopted":14278,"erum":14279,"Ġgente":14280,"elson":14281,"Ġleather":14282,"cloud":14283,"inta":14284,"Ġlongitud":14285,"Ġnormal":14286,"Ġrejoice":14287,"Ġdefects":14288,"Will":14289,"lost":14290,"icr":14291,"ĠTill":14292,"Ġgem":14293,"oland":14294,"raits":14295,"udad":14296,"ĠChrys":14297,"ĠPetition":14298,"Ġfulfilled":14299,"Ġcrystall":14300,"Ġerroneous":14301,"Catholic":14302,"cv":14303,"ĠMort":14304,"ĠHunt":14305,"Ġhairs":14306,"Ġjaw":14307,"Ġimpost":14308,"existence":14309,"velle":14310,"vellous":14311,"front":14312,"United":14313,"ĠDarwin":14314,"Num":14315,"Ġvault":14316,"essing":14317,"ĠKr":14318,"exhib":14319,"Ġrap":14320,"Ġ265":14321,"Ġattempting":14322,"marks":14323,"Ġdepended":14324,"Ġcruc":14325,"Ġcavity":14326,"tun":14327,"Ġmak":14328,"ĠRoche":14329,"endeav":14330,"ĠEnglishman":14331,"Ġ288":14332,"ĠXVIII":14333,"ĠTurkey":14334,"Ġsovereigns":14335,"ĠIllustrations":14336,"gall":14337,"Ġhomin":14338,"ĠBL":14339,"ĠProm":14340,"Ġdepl":14341,"ĠGir":14342,"ĠRhe":14343,"ĠOcean":14344,"ĠKING":14345,"ierra":14346,"required":14347,"Ġcustody":14348,"Ġvegetation":14349,"lead":14350,"imag":14351,"ĠBac":14352,"ĠDiet":14353,"adequ":14354,"Ġtermination":14355,"Ġprelate":14356,"Alexander":14357,"ĠWILLIAM":14358,"icut":14359,"idian":14360,"ĠMath":14361,"ĠErdm":14362,"upiter":14363,"ĠPrim":14364,"ĠPrayer":14365,"Ġtempore":14366,"Ġelectro":14367,"ĠSpeech":14368,"Ġpursuits":14369,"ĠArticles":14370,"LT":14371,"cue":14372,"along":14373,"Ġ320":14374,"ĠVit":14375,"Ġobf":14376,"Ġacute":14377,"Ġestablishing":14378,"strength":14379,"Ġentertainment":14380,"Ġimpartial":14381,"Bel":14382,"isible":14383,"esy":14384,"ĠMother":14385,"ĠMervyn":14386,"acing":14387,"rup":14388,"comfort":14389,"hilst":14390,"Tho":14391,"Ġagricultural":14392,"Ġinhabited":14393,"diss":14394,"mut":14395,"Ġtion":14396,"orius":14397,"arium":14398,"imt":14399,"Ġmeal":14400,"cesses":14401,"proportion":14402,"130":14403,"Ġgeographical":14404,"Ġfountain":14405,"Ha":14406,"iog":14407,"south":14408,"Ġtheore":14409,"reich":14410,"Ġreverse":14411,"ĠPent":14412,"Ġsurrendered":14413,"Ġcarries":14414,"Ġmodest":14415,"ĠInde":14416,"ĠWhatever":14417,"ĠMemoir":14418,"Ġpetty":14419,"Ġprefixed":14420,"Ġrents":14421,"Ġtodos":14422,"Josh":14423,"uz":14424,"Ġwider":14425,"Ġseamen":14426,"ffion":14427,"whatever":14428,"ĠUm":14429,"Ġstring":14430,"Ġ259":14431,"Ġ337":14432,"Ġdecidedly":14433,"Ġpremises":14434,"Ġgrandeur":14435,"rounded":14436,"Ġfitting":14437,"Ġecli":14438,"sted":14439,"ĠBus":14440,"ĠBacon":14441,"Ġconfounded":14442,"ĠArnold":14443,"Ġwarning":14444,"Ġappearing":14445,"Ġtenure":14446,"Ġ227":14447,"ĠDoct":14448,"Ġ1891":14449,"ĠTransactions":14450,"Ġknife":14451,"limited":14452,"CCLES":14453,"fest":14454,"uum":14455,"Ġforts":14456,"Ġpartially":14457,"Ġtraffic":14458,"Ġsacerd":14459,"Ġ356":14460,"Pri":14461,"ĠSovereign":14462,"ĠCumberland":14463,"Ġdevi":14464,"Ġabhor":14465,"aund":14466,"Ġbride":14467,"nesses":14468,"uts":14469,"ĠBene":14470,"Ġending":14471,"Ġeleventh":14472,"Ġexcurs":14473,"ĠPoor":14474,"Ġvisitors":14475,"heads":14476,"Ġinnov":14477,"amaica":14478,"ĠSpeaker":14479,"whe":14480,"Ġrelax":14481,"cyd":14482,"Ġmerry":14483,"Ġhundreds":14484,"eyes":14485,"PIRE":14486,"bate":14487,"boy":14488,"fied":14489,"iors":14490,"Ġeorum":14491,"ĠlO":14492,"child":14493,"Ġstamp":14494,"Ġ317":14495,"chell":14496,"ĠZur":14497,"Ġguineas":14498,"arrative":14499,"Ġ237":14500,"ĠAmph":14501,"ĠTeym":14502,"Ġseventeen":14503,"Ġwych":14504,"Ġnicht":14505,"olical":14506,"ĠDU":14507,"Ġmanaged":14508,"cker":14509,"Ġespecial":14510,"Ġ383":14511,"Oxford":14512,"wig":14513,"Ġiniqu":14514,"lefs":14515,"Ġlens":14516,"stock":14517,"ĠCart":14518,"Ġrushed":14519,"liqu":14520,"aird":14521,"ICLES":14522,"Ġcontinuing":14523,"Ġexercises":14524,"Ġweapons":14525,"jc":14526,"Ġion":14527,"Ġace":14528,"Ġwhither":14529,"Ġrust":14530,"Ġ321":14531,"Ġupright":14532,"orns":14533,"Ġmoder":14534,"Ġ277":14535,"Ġdenomin":14536,"CTS":14537,"nent":14538,"zel":14539,"itory":14540,"ĠSyl":14541,"ĠMaced":14542,"Ġexpelled":14543,"rowne":14544,"Ġtransfer":14545,"Ġsusp":14546,"charged":14547,"Ġcoffee":14548,"oil":14549,"tie":14550,"Ġftr":14551,"Ġhn":14552,"ĠTop":14553,"ĠIce":14554,"rable":14555,"odon":14556,"Ġadorned":14557,"Ġpeasant":14558,"Ġparas":14559,"Ġextinct":14560,"Ġseeking":14561,"Ġsolicit":14562,"ĠCHRON":14563,"divided":14564,"Ġresembles":14565,"poonful":14566,"Ki":14567,"ku":14568,"lived":14569,"ĠHu":14570,"oping":14571,"okes":14572,"ugh":14573,"Ġcoach":14574,"dred":14575,"isans":14576,"Ġcree":14577,"opt":14578,"ĠNice":14579,"Ġ291":14580,"ĠSurrey":14581,"supposed":14582,"Ġcontinual":14583,"Ġremembrance":14584,"gence":14585,"mult":14586,"Ġtissue":14587,"ishers":14588,"ĠTT":14589,"lde":14590,"Ġ218":14591,"ioi":14592,"ĠLey":14593,"remained":14594,"Ġ263":14595,"Ġinfluenced":14596,"Ġ401":14597,"longer":14598,"ĠPriest":14599,"Um":14600,"felt":14601,"sun":14602,"sary":14603,"Ġling":14604,"sters":14605,"chie":14606,"olia":14607,"pert":14608,"Ġ280":14609,"ĠSwiss":14610,"ĠBenjamin":14611,"uniary":14612,"Ġclothed":14613,"ĠOrigin":14614,"Ce":14615,"cry":14616,"dit":14617,"Ġcot":14618,"emic":14619,"pture":14620,"blem":14621,"Ġjudicious":14622,"reasonable":14623,"ĠTreaty":14624,"Ġconjunction":14625,"Ġmingled":14626,"VE":14627,"alus":14628,"secr":14629,"ĠPad":14630,"ĠFest":14631,"ĠJOURN":14632,
[...]
