#version: 0.2
Ġ t
h e
Ġ a
i n
Ġt he
Ġ o
r e
Ġ s
Ġ w
n d
e r
o u
Ġ Ġ
h a
i t
i s
Ġ b
o n
e d
Ġ m
e n
Ġo f
Ġ f
â Ģ
Ġ c
Ġa nd
Ġt o
o r
e s
in g
Ġ p
a r
l l
Ġ in
a t
Ġ d
a n
a s
Ġ h
Ġ l
Ġ he
Ġ n
o m
Ġ ha
i c
l e
Ġb e
Ġ I
o t
ha t
Ġ e
s t
i on
v e
Ġ g
s e
u t
o w
l y
ĠĠ ĠĠ
c e
en t
l d
i m
Ġt h
i d
Ġ y
g h
Ġ re
a l
Ġ it
it h
Ġw h
v er
Ġt hat
i r
e t
Ġw as
a y
Ġy ou
Ġo n
Ġa s
Ġw ith
u r
Ġf or
Ġh is
c t
âĢ ľ
Ġ u
âĢ Ŀ
a d
r o
he r
gh t
Ġ is
âĢ Ļ
Ġw e
r i
Ġn ot
Ġhe r
Ġa n
Ġ M
t er
c h
Ġs t
r a
ou ld
Ġ T
ĠĠĠĠ Ġ
Ġa t
ic h
i ll
o o
i f
Ġs a
Ġha d
es s
Ġm e
Ġs u
re d
a nd
i l
Ġwh ich
a in
k e
q u
t h
âĢ Ķ
Ġm y
o re
Ġ S
a m
Ġs e
Ġo r
r om
p e
Ġs o
Ġb y
Ġha ve
u l
Ġ A
t he
at ion
ou r
a ll
Ġh im
Ġd e
g e
Ġc on
re s
Ġ H
i ght
- -
Ġb ut
Ġs he
Ġf rom
b le
om e
Ġ C
es t
p p
Ġe x
t o
Ġ âĢľ
u s
e m
Ġ B
ar t
ver y
Ġa ll
Ġn e
Ġ v
ĠT he
Ġ k
n t
Ġth is
a c
an t
at e
l f
Ġsa id
ou s
Ġw he
Ġ r
u st
Ġ W
Ġs h
is t
in d
ha n
er s
Ġwh o
Ġa re
u m
o s
ar d
e ct
as t
e l
. âĢĿ
Ġc om
Ġ L
Ġn o
Ġwe re
or t
o l
Ġu p
i e
oo d
i ve
Ġm an
it y
ou nd
Ġd o
Ġ P
on e
ou t
p t
on g
n e
Ġa l
, âĢĿ
Ġthe y
u re
Ġon e
Ġthe m
Ġw ill
ĠM r
Ġp ro
Ġf e
or d
ou gh
se lf
Ġw ould
l a
a k
v en
o st
Ġbe en
Ġthe ir
f f
Ġ E
i g
u n
it t
in e
e nd
t her
an ce
r y
Ġm ore
Ġl i
Ġwhe n
Ġ F
en ce
Ġl e
o d
n ow
a ble
v ed
Ġyou r
w e
oo k
Ġa b
i es
Ġ very
re at
a g
Ġ if
Ġu n
Ġan y
p er
a u
o se
c c
Ġa m
Ġthe re
Ġt han
Ġ qu
a re
o p
c k
as s
p l
T he
ic e
Ġ D
o f
m ent
o nd
he d
is h
Ġa g
Ġw or
res s
id e
Ġs p
Ġ Ċ
Ġ G
Ġc ould
Ġa d
ĠH e
Ġc an
a ke
Ġ j
a b
Ġ R
Ġw hat
c i
Ġo ther
Ġs ome
u d
Ġ im
Ġa r
Ġin to
m e
Ġd is
' s
ot her
f ore
i re
Ġu s
ow n
am e
ur n
Ġo ut
w n
b e
t e
Ġp er
ion s
n g
im e
Ġk now
o ve
âĢ ĺ
it e
at her
u ch
Ġs ha
Ġo ur
in k
ou ght
all y
ĠĠĠĠ ĠĠĠĠ
ar y
b er
r u
Ġp art
Ġf a
Ġm ay
ou nt
Ġ O
Ġsh ould
Ġha s
itt le
re e
Ġn ow
Ġ ro
f ul
a ge
Ġ N
Ġit s
e p
at ed
ad e
Ġt w
Ġ en
ing s
ay s
Ġm ust
v ing
f or
is s
r an
i le
h ing
Ġg o
ar s
Ġl ittle
Ġp l
i ed
Ġ 1
Ġp re
Ġup on
ad y
i ous
f ter
Ġt ime
n ess
Ġc l
t ain
v es
ac k
e ll
Ġo b
Ġb r
Ġli ke
Ġthe n
Ġp r
Ġsu ch
Ġm uch
Ġto o
Ġg ood
nd er
Ġg reat
a ch
Ġse e
Ġc h
Ġon ly
Ġo wn
Ġp o
ic k
Ġ J
in t
Ġl ook
m an
f e
Ġc ha
ar k
Ġo ver
Ġh ow
h is
d e
ĠI t
o ll
a p
? âĢĿ
Ġb l
w h
Ġha nd
t y
o ld
Ġcom p
! âĢĿ
Ġre m
Ġab out
is e
Ġbe fore
l ed
if e
Ġag ain
u ll
Ġwe ll
w ard
i ly
on s
Ġd id
Ġbe t
t hat
n ot
Ġtw o
c l
an c
Ġre s
Ġne ver
Ġs ay
Ġth ink
Ġ (
Y ou
Ġs m
Ġd es
o y
u e
Ġa fter
Ġth r
pe ct
Ġm ade
Ġthe se
Ġs c
ĠB ut
ir st
Ġg r
en s
Ġm ight
Ġa cc
p s
j ect
ĠĠ Ġ
ri ght
ou se
Ġe very
Ġl ong
Ġof f
he n
Ġe ven
b ut
i ld
Ġcon t
at h
ation s
Ġf l
re n
Ġim p
or n
Ġo ld
l i
Ġp e
Ġd ist
Ġy e
ri end
a w
i gh
Ġm ost
s o
Ġs pe
l ess
Ġth ought
Ġat t
a ve
os s
c om
Ġp res
Ġu nder
Ġbe ing
le as
e ver
Ġhim self
Ġcon s
Ġp ass
Ġf irst
Ġa p
c ed
Ġg l
Ġt r
ig n
Ġse em
Ġe y
ct ion
, --
Ġd ay
Ġa w
f t
b l
al k
ĠS he
Ġ "
it ion
m ed
ĠA nd
Ġwor k
Ġe ar
Ġwith out
s h
Ġcom m
w ith
i ble
Ġd own
. "
Ġ ra
c on
ot h
Ġsha ll
Ġre t
i p
Ġyou ng
Ġf riend
la ce
Ġth ose
Ġ '
ri ed
Ġwhe re
Ġl et
i v
ff ect
Ġ ent
t ed
Ġa pp
Ġsa me
g g
Ġbe l
Ġ _
Ġs er
Ġg ent
ra ct
au se
Ġm ind
en er
om et
in ed
Ġthr ough
re t
l es
er tain
an s
n er
en ed
Ġ âĢĺ
Ġth ough
ĠM iss
s u
e red
Ġm ake
Ġl ife
it ed
or y
Ġy et
Ġfe el
ĠMr s
i x
m s
Ġsu pp
Ġsu b
a ir
Ġw ay
Ġman y
Ġhe art
Ġc ount
Ġe ver
Ġc ome
Ġbe c
s er
Ġad d
it her
Ġw r
Ġl ast
g et
ic al
u al
e x
a red
Ġp ers
ul t
in ce
r ow
it s
m er
l and
ce pt
d u
o ck
is hed
Ġp leas
ow er
Ġw ord
Ġg ra
as e
Ġt urn
i z
Ġl ove
at ter
an g
Ġst ill
at es
Ġ 2
y ou
he s
o b
Ġl ight
Ġ V
w ays
Ġo p
ent s
Ġc all
Ġa c
Ġ ke
ĠS t
Ġre p
Ġm en
ul ar
p le
Ġap pe
Ġd if
Ġ K
Ġhe re
Ġn at
c es
Ġf ound
t on
ce i
Ġj ust
Ġha lf
Ġb o
Ġin st
Ġf ather
Ġe m
ver s
a ce
ĠI n
Ġw at
Ġex p
Ġse c
A nd
ak ing
a id
H e
Ġwh ile
Ġhe ad
as ter
u p
Ġret urn
or s
I t
Ġh ouse
re st
Ġp lace
c ess
Ġha r
Ġha pp
i an
Ġb ack
i b
os ed
i al
Ġs et
E R
Ġt ake
Ġc ame
Ġan s
od y
wh ich
Ġgent le
se l
Ġm in
Ġey es
Ġs l
Ġ You
Ġne w
he re
o pe
oll ow
Ġh our
h y
ic t
g ed
w as
Ġc han
k ed
m ost
s p
Ġc our
im es
Ġs omet
Ġk ind
t en
ent ly
f ort
Ġbe g
Ġaw ay
Ġwor ld
Ġl o
le ct
Ġo cc
Ġal ways
Ġg ive
c y
Ġwh om
u nd
Ġcon f
Ġp ur
Ġt er
Ġnot hing
a v
Ġe nd
Ġp ut
Ġin d
Ġc o
in ess
in s
ward s
Ġre f
Ġe ach
a le
Ġn ight
Ġon ce
Ġseem ed
re ad
Ġbet ter
Ġm om
Ġsa w
en se
Ġ 3
Ġth ree
, âĢĻ
u nt
Ġ U
i red
Ġex t
Ġin de
Ġso on
Ġan other
o ice
Ġin te
Ġl ess
Ġsm all
Ġs ur
Ġin ter
Ġc he
c o
Ġg ener
Ġth ou
Ġle ft
we en
a ut
ie ld
r on
re nt
Ġpres ent
Ġg i
au ght
Ġre l
Ġf ar
Ġre st
ĠI f
Ġre ad
k s
as on
c ha
Ġm ar
Ġg u
Ġde l
op le
Ġin t
Ġp oss
Ġex c
a il
Ġde ar
Ġw ant
ar n
Ġt ell
Ġh on
re w
Ġf am
th ing
Ġw om
Ġch ild
is ed
ne w
el t
et y
Ġ right
M r
Ġfa ce
Ġc ar
ate ly
a ct
ĠW e
Ġre g
Ġbel ie
is ter
Ġt e
Ġn ame
d er
Ġqu ite
Ġmom ent
m y
Ġs il
Ġw ent
B ut
Ġfe w
ha ps
b y
Ġwho le
ir c
re m
Ġc ertain
i a
an y
Ġad v
Ġh ome
Ġe v
Ġv is
Ġpo or
Ġhe ard
ut h
ut e
Ġf ollow
Ġc ur
n ight
Ġs ir
a x
ud e
Ġ Y
Ġd on
p ro
ĠĠĠĠĠĠĠĠ ĠĠĠĠĠĠĠĠ
Ġro om
m en
ment s
n y
ra w
Ġmy self
Ġlook ed
en e
Ġl aw
Ġc le
Ġc are
t ing
ou b
at ing
oo l
Ġfe ll
anc es
Ġd one
ĠS ir
ĠT h
p r
Ġb oth
Ġbet ween
Ġb est
ress ed
d en
Ġse en
Ġth y
Ġr ather
s s
ĠThe re
o on
Ġin f
u res
Ġa ct
Ġpers on
Ġf ull
Ġagain st
Ġf ind
Ġha ving
Ġst e
Ġm other
Ġr ound
sel ves
ne y
Ġfor m
Ġne ar
Ġhe ar
l ing
Ġher self
Ġe qu
id er
Ġs at
get her
c hed
Ġcan not
ĠE ng
ĠThe y
Ġtoo k
it ies
Ġh ope
Ġth ing
Ġinde ed
Ġas s
Ġwho se
Ġpe ople
Ġob ser
er n
ent ion
Ġg et
p h
Ġst r
Ġt ra
orn ing
f ect
Ġt ru
pl ied
, "
Ġs ince
g er
Ġt ill
Ġdo or
Ġsu ff
Ġh um
Ġpo int
Ġn or
c ri
Ġa ffect
Ġhow ever
Ġin c
ab ly
Ġhand s
an e
ĠA r
ren ce
ce ed
ak en
one y
w hat
ic es
Ġsu re
Ġre cei
u ck
Ġp ar
Ġv oice
et h
i er
Ġs ide
. âĢĻ
Ġc r
Ġcount ry
ĠL ord
H A
s he
Ġdif fe
Ġf elt
Ġye ars
Ġl ar
Ġc op
ou d
le y
Ġin v
Ġc irc
Ġu se
Ġw alk
. âĢĶ
Ġst ate
Ġam ong
ĠT his
Ġb ro
a pt
Ġen ough
p ar
w or
b r
Ġp ower
T ER
ha d
Ġh igh
ut es
Ġsomet hing
Ġl ady
Ġspe ak
a ven
ow ed
re am
r ic
y m
Ġal so
Ġad m
) ,
ou n
Ġd ire
o ke
Ġar t
Ġke ep
x t
ull y
Ġlet ter
ow s
Ġb re
il ity
ar m
Ġpro p
Ġsu n
Ġw ind
u c
Ġre c
il ed
Ġal most
u red
u se
Ġre plied
et s
Ġcha r
Ġme an
Ġt alk
Ġk new
Ġa ir
er y
ir l
we red
Ġhar d
Ġm orning
ha r
n o
w er
Ġs im
ain t
Ġd ark
Ġwom an
Ġob ject
Ġh or
la im
i ent
ot t
k en
pp ed
' t
Ġw a
ro ss
Ġs ent
we ll
b ed
Ġrem ain
for m
Ġ ill
Ġm atter
Ġd oub
Ġo pp
ha ve
u ally
ri v
Ġth ings
Ġle ast
Ġthe e
Ġd ays
Ġwat er
b s
Ġd et
h im
Ġcont in
Ġcall ed
Ġ ve
us ed
en g
at t
Ġre qu
S he
e e
Ġe l
ri but
Ġdis c
ter n
h il
ag es
Ġans wered
Ġa ff
Ġsp ir
Ġw ish
Ġ 4
Ġinte rest
st and
n ing
Ġde c
Ġv ar
Ġm od
ou red
Ġto ld
o g
u bl
ond er
te red
r ing
Ġgo ing
Ġper haps
W hat
c ul
ant s
if f
Ġbe aut
Ġfam ily
Ġf ire
d ay
Ġlar ge
er t
Ġbec ause
id ed
Ġdo es
f ully
Ġword s
ie f
? "
Ġser v
g r
pe nd
Ġg ave
Ġman ner
v our
em pt
u ght
HA P
HAP TER
f rom
Ġth us
m on
as h
ing ly
Ġf ore
ie w
Ġbr other
ract er
g ar
Ġgentle man
p art
Ġf ine
Ġsub ject
le t
Ġnat ure
Ġ es
ĠL ady
Ġof ten
Ġappe ar
Ġst ran
itt ed
ĠĠĠĠ ĠĠĠ
ur ing
id es
Ġcour se
an k
or row
ĠW hat
b it
ĠW hen
Ġc ond
o h
Ġs k
as ion
Ġs ou
em ent
Ġto wards
re ady
Ġab s
Ġturn ed
on t
ĠA s
Ġpart ic
Ġb us
Ġac qu
! âĢĻ
ĠE d
Ġl and
Ġcons ider
al s
ĠH is
un g
Ġmin utes
os ition
it ing
Ġm oney
Ġal one
N o
Ġle ave
med i
ot ion
Ġu nt
ro om
at ive
Ġsh ort
. '
y ing
id ent
the re
l ish
Ġne xt
Ġfe ar
Ġs we
Ġdoub t
Ġm on
u ed
u ne
Ġear th
Ġb oy
Ġs ens
k ing
al t
Ġpass ed
Ġs ister
Ġop en
Ġs w
Ġas ked
pp er
o ot
Ġey e
Ġcon st
M y
Ġc ried
Ġg irl
ĠC h
Ġus ed
I I
Ġtru e
w ill
Ġs ing
Ġme ans
um st
Ġgi ven
Ġre ason
Ġwith in
0 0
b ody
Ġm et
Ġpre t
e v
e w
i et
end ed
Ġrem em
est ion
Ġres pect
Ġbelie ve
oh n
ha m
Ġstr ong
ou ra
Ġcomm on
se qu
Ġso l
Ġpro du
ci ous
Ġm is
Ġto gether
Ġde ep
ĠP en
an ny
I n
Ġm er
b our
Ġp ol
at ure
ak es
Ġdiffe rent
Ġg ot
ĠA n
f ic
Ġhe l
is on
Ġt ran
us h
a z
Ġt aken
aught er
ubl ic
Ġc ol
Ġpl ac
Ġc old
Ġun c
per i
Ġbr ought
a pp
Ġe ffect
Ġm o
en n
Ġreturn ed
apt ain
ĠM y
e f
in ci
Ġgener al
Ġin s
Ġha st
if ic
al th
ut ion
ĠS c
the y
Ġpro f
H E
Ġf our
Ġ1 8
ĠB e
Ġp rom
Ġne cess
C HAPTER
Ġpro v
ur al
o int
Ġt end
Ġne ed
Ġc ap
Ġdis p
Ġfa ir
it ude
Ġcha racter
Ġe lect
. .
Ġst and
Ġit self
Ġe as
Ġbeg an
Ġs ound
Ġg re
Ġpre v
ac hed
ect ion
o ver
u g
Ġl ord
e k
Ġthem selves
Ġapp ro
s c
Ġhon our
ĠU n
Ġex pect
Ġs ort
Ġe ither
O N
Ġme et
e y
Ġf all
Ġst re
Ġh old
Ġg one
Ġdire ct
Ġt able
Ġper fect
Ġl au
, âĢĶ
W e
Ġm aster
ĠG od
Ġthere fore
Ġst ood
Ġother s
d o
Ġhapp y
Ġunt il
d is
Ġme re
Ġ 5
g in
li ke
Ġwhe ther
Ġl ay
Ġexp ress
sh ip
i ar
Ġde ath
Ġpro per
Ġlook ing
ĠT o
Ġeven ing
Ġal ready
The re
th is
d den
Ġs on
er ing
ove red
Ġb ra
Ġcop y
ur y
Ġde v
l u
ri age
? âĢĻ
in ation
Ġp ay
ĠF or
ĠD o
Ġl ad
Ġab ove
ent y
Ġ |
Ġc al
ve l
Ġr u
res h
Ġt imes
Ġd in
Ġc or
Ġpl ay
Ġd ra
Ġpleas ure
Ġcle ar
T his
Ġt ri
wh o
Ġfor t
Ġfriend s
g es
Ġf ree
Ġp ain
Ġ ide
O h
Ġl ist
Ġt em
eng th
Ġw ife
ce ive
Ġfor th
Ġb ody
ond on
Ġn um
Ġsec ond
m a
Ġpur p
Ġcirc umst
Ġs le
al ity
Ġsu m
w here
Ġp ast
ir d
Ġany thing
Ġocc asion
it er
ess ion
ant ly
the m
st er
Ġknow n
Ġans wer
Ġfeel ings
id ence
f ield
Ġ est
Ġc ase
Ġp a
is ing
Ġadd ed
Ġsu dden
w ould
at er
ĠA t
Ġbe h
Ġwh ite
w hen
o c
u ct
led ge
ix ed
ĠM ar
Ġhel p
e c
ĠW ar
Ġc ause
Ġchan ge
Ġp at
a j
as p
h ouse
Ġm il
i am
ur ch
Ġim medi
Ġt en
ar ce
o e
Ġm ark
T o
Ġb ed
ĠJ ohn
Ġ ed
Ġrecei ved
Ġb ar
e ad
Ġ 6
er m
Ġv iew
Ġfell ow
ĠF anny
Ġtr uth
re as
Ġle arn
ad d
Ġacc ount
il ing
l er
Ġpart y
Ġl ive
we re
_ ,
ot e
ent ed
th ough
Ġter ms
Â ł
Ġw onder
is f
Ġl ength
iz ed
ĠA l
Ġc e
Ġor der
ort ion
if ul
k now
Ġm ag
p an
ce ll
ut en
, '
P g
m ore
Ġ ri
Ġsp oke
W ell
Ġ ir
Ġs ense
ĠEng land
Ġye ar
at s
Ġwor th
air s
Ġpartic ular
c he
ĠT hat
Ġex ist
Ġv al
Ġcl ose
ĠI s
Ġc a
Ġs it
it ation
Ġbe ar
Ġacc om
Ġin cl
Ġcon c
ll ed
ious ly
Ġpr inci
on y
ĠL ondon
ound ed
Ġhor se
E N
Ġfeel ing
im ent
Ġc ut
ĠN o
Ġb u
Ġp ublic
Ġvis it
Ġcour t
ĠH ow
ru pt
ĠH er
a ld
w ood
ow ing
ra m
Ġbl ack
Ġposs ible
Ġst ru
Ġre ally
c ome
ĠC l
in es
ĠA ll
Ġsupp ose
Ġrem ark
Ġm ine
Ġso ci
the ir
Ġde f
Ġqu ar
Y es
Ġd aughter
Ġel se
g n
th ur
ĠM ary
re l
Ġwork s
-- --
Ġen g
Ġ ut
Ġm ist
Ġqu estion
Ġhum an
Ġbus iness
E S
Ġl ow
Ġk ing
Ġar m
Ġst ep
Ġdel ight
m ber
Ġswe et
b and
Ġb ook
il s
I N
itt ing
am p
Ġcon sequ
Ġf in
Ġhour s
Ġcom pl
m b
y our
Ġ X
ar l
p re
Ġm us
Ġj ud
Ġpro b
ĠA d
Ġde ad
are nt
con t
ow ers
Ġsu cc
Ġdif fic
Ġop in
v o
Ġb ur
Ġfa vour
Ġ 8
Ġbec ome
! âĢĶ
Ġb it
Ġl ab
fe rence
s m
Ġspir it
c ent
Ġs ix
Ġacc ord
ain ed
Ġf re
ather ine
Ġbr ing
ar r
ĠEng lish
Ġwh y
ch ing
Ġreg ard
ĠW ill
Ġgr ound
Ġb es
Ġde g
Ġin qu
Ġfa ct
la w
Ġim ag
Ġb ene
Ġpret ty
ver ing
ir m
Ġfor g
Ġunder stand
re g
Ġso ft
us ion
Ġsec ret
Ġpurp ose
Ġsc arce
en ance
Ġlong er
Ġw ild
ĠP ro
Ġcon vers
I f
s ome
ĠW h
ang er
Ġcontin ued
ber g
Ġsomet imes
Ġto wn
o or
Ġcom fort
Ġre al
Ġqu iet
c han
t s
tain ed
Ġaffect ion
Ġe le
Ġfor ce
ry ing
! '
Ġh us
ĠO F
if ied
ĠO n
Ġt ou
Ġm ed
ve re
Ġre ady
wor th
Ġ Q
A R
l ook
ra nd
Ġgo ld
Ġd raw
Ġa unt
Ġl ost
Ġcon v
Ġres ol
T h
igh bour
Ġse lf
ct or
Ġan x
ĠS o
pl oy
Ġas k
ter s
uten berg
Ġc ast
Ġsuff ic
g ing
v ol
the n
Ġag re
Ġent ered
Ġd iv
ĠM aster
ect ed
Ġk n
Ġimp ort
g l
Ġre d
Ġbeh ind
Ġw it
Ġpl an
h ood
ess ed
am es
ag ed
iss ion
Ġr ich
Ġchild ren
Ġsou l
Ġd ro
ne ver
Ġappe ared
ou th
ou ble
Ġle ad
h ow
ĠĠĠĠ ĠĠ
Ġcomp an
u nder
Ġs ign
Ġs y
is m
Ġf ra
W hen
T hat
Ġm aking
Ġf ive
Ġd est
Ġfor mer
Ġex cept
Ġsl ow
g y
j oy
w ick
ĠP e
Ġnat ural
Ġb ad
li z
Ġcomp le
! "
en ing
il t
o ly
in ct
Ġhe ld
Ġle g
f ord
Ġo ught
Ġqu ick
c ons
in ary
ĠSt ates
Ġpro ceed
Ġgl ad
ill ed
Ġs la
Ġs alt
Ġd r
ran k
Ġbec ame
ha nd
Ġst ri
ĠAr thur
Ġm ut
Ġobser ved
Ġdin ner
Ġbut ter
Ġpr ot
ang u
Ġtend er
g u
Ġd uring
. ,
ren ch
Ġsl ight
ĠP r
Ġro ad
Ġp ound
Ġbre ak
Ġth ick
Ġyou th
Ġl ate
Ġf ig
ce nd
Ġv ol
ac es
Ġc reat
Ġsat isf
c ount
Ġf ur
Ġs ays
Ġde p
Ġdes p
liz ab
Ġinte ll
com m
Ġm id
Ġtr ust
Ġs ight
Ġle a
Ġdist ribut
O R
re es
Ġex pl
Ġide a
r or
Ġlau gh
Ġc oll
Ġper i
anc y
ron ic
Ġdet erm
Ġlaw s
Ġb right
Ġke pt
und red
Ġsur pr
Ġcol our
y ond
Ġno ble
lizab eth
r it
id ing
Ġde al
ous and
os op
ĠE m
ber t
in ter
Ġag ree
aj or
A s
s pect
Ġh ur
ri es
laim ed
Ġar ms
Ġt one
ust om
c hes
Ġyour self
Ġe ff
f ace
t han
Ġl im
ĠC aptain
ĠN or
Ġseem s
i ety
Ġper m
Ġcom ing
ĠUn ited
it ions
Ġh op
ri gin
Ġnear ly
Ġwh is
am ent
Ġstran ge
Ġcircumst ances
ic s
Ġre pe
Ġse nd
Ġremem ber
n et
Ġst art
ast e
Ġknow ledge
e ar
Ġus ual
c ould
oss ible
Ġj o
Ġa ge
Ġhus band
i ence
ar ri
Ġst o
ĠT HE
Ġdist ance
Ġequ al
f er
z e
uth or
i us
Ġc ent
ir t
ĠR e
Ġpre p
com p
Ġsm ile
Ġset t
r um
Ġro se
Ġap art
Ġappear ance
sh ould
i vers
o ved
Ġnecess ary
c an
Ġs ch
or g
Ġbl ood
Ġm ur
l ight
s ha
ĠL e
Ġem ploy
Ġplac ed
Ġd anger
cei ved
Ġsoci ety
Ġex am
ag er
Ġcont r
d es
Ġf at
or m
ard s
Ġdes cri
b o
Ġinf lu
Ġthought s
W hy
Ġcl ass
Ġo rigin
pe ci
' ll
I T
Ġcomp any
Ġunc le
enn is
l ig
be en
Ġd ress
Ġal ong
Ġes c
ĠM ic
Ġne ither
ap pe
Ġf oot
re me
at ch
iv id
Ġsucc ess
Ġgra ve
m in
u ce
or k
Ġp riv
Ġsh ow
Ġatt end
Ġf resh
ra ce
ant age
H ow
Ġar ound
Ġear ly
end ennis
Ġent ire
us hed
in ing
ri ef
iz e
Ġperi od
ĠB l
Ġne ighbour
i res
ha pp
ad ed
Ġex cell
ie ce
N ot
Ġb reat
ll i
The y
ĠG l
Ġg all
Ġcount enance
ill e
ar ing
ot s
Ġimmedi ately
Ġst ra
Ġtem per
l t
Ġr un
W h
er ve
Ġbeaut iful
Ġse ver
Ġmon th
Ġl ed
Ġhe at
Ġconvers ation
i um
Ġfe et
Ġnum ber
ide red
Ġfollow ed
st one
ay ed
Ġbeg in
Ġlad ies
d ing
w ise
Ġw all
Ġan n
ĠW ith
um e
Ġopin ion
! --
Ġha ir
Ġsu gar
p id
t w
Ġt aking
Ġa ble
Ġm ain
cul iar
Ġconc ern
Ġgreat er
Ġsub st
O U
Ġsle ep
N D
it al
r ist
Ġd ut
ci ence
Ġp aid
ard en
Ġcomm and
Ġse a
form ation
Ġth ousand
u es
Ġex act
ci ent
wh ile
Ġh undred
Ġde m
n a
Ġperfect ly
Ġs qu
w ay
im p
Ġso le
ab les
itt en
Ġatt ention
Ġocc up
or al
Ġbe yond
ĠĠĠĠ ĠĠĠĠĠ
ĠEd ward
Ġm ount
aven s
n ers
Ġt rem
Ġw ood
Ġgre en
ri ved
as k
Ġst ud
ous ly
on es
ort s
Ġscarce ly
âĢĶ âĢĶ
ran ge
r ance
ac y
al ter
Ġob lig
Ġw ine
en ry
ver n
Ġen joy
Ġm otion
en cy
Ġst ir
Ġimp ro
S t
om en
s ion
s ide
hy s
ut ure
f ra
anc ed
v y
so ci
hil osop
Ġtran s
Ġp en
ound ation
Ġme as
ĠThe n
Ġd ri
Ġvar ious
a pe
Ġbeaut y
ĠD e
I S
Ġ er
ĠC atherine
un ity
Ġdel ic
f l
Ġa ction
Ġp int
Ġd ream
Ġse par
u ke
st em
Ġsupp osed
har d
Ġpa per
Ġl aid
Ġpers ons
red it
es ter
Ġgentle men
1 8
is es
pl es
o om
res ent
i ol
ĠL et
ĠF oundation
Ġj oy
Ġwind ow
b et
Ġw arm
bl ing
R E
Ġm ention
Ġre co
Ġl ine
av y
i ves
. --
r own
Ġp ost
Ġpres ence
. ;
u ff
Ġc ost
ll ing
ill s
os p
um ed
d on
Ġo un
Ġlo ved
p ers
Ġcertain ly
Ġelect ronic
ing u
ĠT r
Ġcond uct
Ġd im
a fter
k es
. _
r s
Ġem b
Ġt ax
ra ph
Ġsay ing
Ġpass ion
Ġac cept
i qu
Ġor d
Ġsever al
Ġs ym
Ġsp o
Ġch ief
du ced
Ġf la
to gether
ĠC la
Ġsil ence
Ġc ross
ĠF rench
Ġatt empt
Ġdeg ree
in to
Ġm ot
Ġen c
Ġan g
oo se
Ġafter wards
v al
Ġh ot
Ġk night
peci ally
u b
en ess
un ic
oon ful
Ġinflu ence
Ġu nd
ĠE lizabeth
r is
Ġme l
Ġwhat ever
e ed
Ġa uthor
aw ber
Ġop ened
t r
at or
Ġwalk ed
Ġinst ead
Ġfollow ing
d ist
ĠP endennis
D o
id ge
Ġsa uce
in c
S o
Ġw ar
Ġtw enty
Ġwom en
Ġgl ass
Ġsing le
k er
l ic
ar ch
cept ion
ĠP er
Ġhe alth
Ġexc laimed
Ġsudden ly
Ġd ish
ĠWar wick
en ces
ress ion
Ġe t
ive ly
Ġw is
Ġd read
Ġear n
Ġext reme
ro p
ĠB y
Ġpl ain
Ġsc ene
aint ance
Ġcha ir
Ġte ars
ĠE arl
be fore
ĠN ot
k ind
Ġpe culiar
Ġwr ong
Ġso ld
n at
as ed
ĠM ad
Ġcopy right
Ġ [
nd ym
ndym ion
Ġde part
Ġagre ement
l ong
l ittle
Ġf uture
Ġc ous
Ġhapp iness
d le
l s
Ġhon est
pt ion
g o
Ġp hilosop
Ġn one
our s
ul ty
Ġdis co
a ur
Ġa st
Ġm ad
Ġc row
ash ion
O T
im ate
ist s
Ġinst ant
Ġd om
Ġhard ly
Ġprob ably
ĠC o
um p
g ood
ag ain
Ġeas ily
Ġm oon
Ġli ps
ivid ual
Ġwant ed
t ime
ot ty
Ġdes ire
ĠWill iam
? '
A N
y e
he ad
Ġv ain
m ory
ĠH enry
Ġsee ing
gg otty
a ff
j ust
Ġv an
Ġpr ay
gg s
E D
m ay
p leas
ur b
ha s
Ġfor ward
Ġsim ple
att le
ol ute
Ġpart s
ĠN ow
Ġbel ow
Ġp ale
Ġde pend
Ġfa ith
Ġpur su
ĠP hil
g reat
Ġp ract
el s
Ġb read
Ġsupp ort
Ġ .
Ġst ay
e ven
ud ed
Ġevery thing
F or
Ġw on
Ġadv antage
Ġchar ge
u ation
c ing
Ġan t
c ise
ĠC om
; --
Ġf ast
Ġl angu
ĠM ajor
Ġspir its
ver se
ĠC ar
v ation
he art
n ed
Ġfor get
Ġstre ng
f ast
p ass
Mr s
Ġcom es
Ġbro ken
Ġc ou
or ge
Ġlike ly
Ġexcell ent
ĠM ac
Ġsha d
Ġpr ide
Ġsil ver
Ġexpress ion
o ff
Ġf ond
ur d
Ġserv ice
st r
Ġfur ther
ĠK ing
tern al
M iss
se c
ĠM ont
cha r
Ġr an
Ġra pid
? âĢĶ
om an
est ed
os ing
e ks
as es
Ġh ig
Ġsome what
oura ge
i i
Ġcons idered
ro ad
Ġche er
Ġm akes
Ġc orn
ĠMic awber
m orrow
Ġst ory
ĠH ouse
Ġv ill
for med
Ġfort une
Ġnot e
Ġsil ent
Ġsy stem
g ent
Ġwe ek
Ġch urch
is ion
u cy
Ġu ne
Ġeas y
Ġl atter
um b
Ġser ved
Ġg az
if t
ain s
gg ed
v ille
Ġt aste
Ġh ost
ut ed
s on
in te
or a
A L
e very
se t
Ġrec oll
Ġcal m
Ġsch ool
Ġb od
Ġoff ic
i ently
os ite
Ġmar riage
fra id
m n
Ġb ound
or ough
Ġli ving
ri an
s uch
Ġb an
Ġ 7
Ġp op
Ġexpect ed
T I
a ction
e av
Ġp ri
Ġfe e
Ġli ved
Ġpe ace
b ur
s aid
se e
Ġan im
Ġwr itten
ĠK night
Ġknow s
on ly
Ġha ll
a h
Ġha th
Ġex peri
Ġentire ly
i ke
Ġd ry
ie ve
Ġocc ur
p ter
Ġe ager
ex t
y n
Ġm ove
Ġcrow d
' d
ĠI nd
c ertain
Ġgu est
Ġc ry
Ġd a
Ġser ve
Ġpleas e
Ġremain ed
p lace
Ġs ad
m ust
r ough
ĠR ob
pp ing
Ġpo et
Ġadm ir
it es
Ġimp ossible
Ġf ool
Ġd are
ĠO ne
Ġgent ly
Ġstru ck
b b
s ed
Ġc ra
Ġdo ing
Ġslow ly
A n
Ġf ield
are r
Ġwr ite
ĠV ar
A t
1 1
e ch
s pe
Ġgra nd
ron t
Ġto r
ĠO h
Ġpleas ed
Ġas soci
Ġwe ak
em ed
ort unity
Ġfor med
Ġsp ot
ĠG e
Ġgo vern
w w
Ġforg ot
u ous
Ġm ort
Ġcompan ion
Ġt reat
Ġs or
ĠD r
Ġmere ly
ĠCh rist
d om
Ġw ished
Ġd en
Ġrecei pt
b el
Ġo z
ish ing
ab ility
o es
Ġthink ing
Ġfam il
Ġste w
i or
Ġp ress
oo re
Ġse ason
Ġind ividual
ag raph
Ġfre qu
Ġd rew
Ġsa ke
Ġcon n
m ond
Ġs orrow
up on
Ġsuffic ient
Ġf ru
ĠC ha
ard on
r ay
Âł Âł
Ġ 9
Ġf ixed
ict ion
Ġgr at
Ġbel ong
Ġf irm
u x
ĠR o
Ġmil es
at ures
i ps
th ought
ist ed
i ance
B ook
it able
ĠC har
Ġmar ried
Ġes pecially
O n
Ġw i
Ġqu ant
ĠJ ane
Ġaccord ing
avens wood
Ġf al
Ġstran ger
Ġoblig ed
Ġp ict
ir th
Ġacqu aintance
p ri
Ġp ort
em pl
Ġall ow
Ġres ult
Ġwat ch
ĠPe ggotty
Ġdeterm ined
ll en
Ġde b
ĠDo ctor
Ġbe com
riv al
y ed
Ġp h
Ġsa ve
Ġadd ress
Ġprep ared
Ġearn est
ic ally
Ġbo il
Ġcomple te
Ġc oun
al ed
il ar
Ġun less
ĠEm ma
G utenberg
Ġs al
Ġear l
Ġadd ition
peri or
? --
I s
Ġaff ord
oura ble
âĢĶ âĢľ
ĠAn ne
ĠVar ney
m p
Ġsu sp
Ġlook s
p ath
ĠS p
Ġj our
Ġgra ce
ors es
Ġdiffic ult
p ond
ĠS h
ab out
ĠW est
er ved
-- âĢľ
qu e
Ġrequ ire
ri ar
th ink
Ġcom b
r ation
Ġb all
il ian
Ġcar ried
a ul
Ġproper ty
m ing
Ġsm o
f ather
aur a
Ġan cient
ĠO ld
ach ing
Ġletter s
f riend
Ġm ass
Ġp hys
Ġre nd
Ġcon cl
Ġgener ally
Ġpol it
Ġcous in
I L
Ġ id
Ġbl ess
Ġbl ue
Ġinc reas
Ġconsequ ence
Ġa fraid
os ity
ĠL ove
ix t
ib ility
Ġchan ce
te en
with out
Ġsa fe
anc ing
ic hard
Ġfl our
Ġworth y
Ġp ath
ĠH igh
c le
Ġcon ce
ĠPro ject
Ġexact ly
ĠPhil ip
Ġd er
Ġe ight
Ġv iol
Ġcomm unic
ret ched
W ith
at he
are st
Ġsp ace
Ġra ised
ener al
Ġanx ious
Ġsur face
him self
Ġp al
ud ing
Ġnew s
Ġdut y
st ood
il es
ress ilian
ĠN ew
Ġpr oud
Ġturn ing
Ġrepe ated
re et
Ġha t
our se
Ġne g
Ġpar agraph
Ġs itting
im ents
Ġv irt
Ġspe aking
m uch
Ġag o
Ġfig ure
en ced
an ch
le nd
Ġk ne
ĠE ndymion
Ġcha mber
Ġac ross
h ib
Ġl ie
Ġbr own
Ġinter rupt
v i
Ġs pect
Ġto p
Ġar rived
Ġgi ving
h old
Ġf if
Ġd ie
Ġsu per
it ary
Ġpr ison
Ġint ro
Ġev il
Ġval ue
happ y
Ġre ceive
ĠW alter
Ġim m
ue en
Ġcar riage
raw ford
Ġdem and
if y
ol ine
ĠP ar
app oint
Ġstreng th
c ceed
The n
Ġend eav
Ġlearn ed
ra ction
Ġexist ence
Ġf it
Ġhis t
if fe
Ġme ant
Ġk iss
Ġcl oud
Ġsor ry
p et
Ġpleas ant
ĠT ressilian
Ġcons cious
ĠY ork
Ġquar ter
ist ance
Ġspe c
Ġdr ink
ĠC ra
Ġwor se
Ġe re
ĠL ucy
1 9
Ġc redit
Ġopp osite
re p
fort un
Ġequ ally
c her
s omet
Ġf ancy
Ġst ates
Ġobject s
ha lf
Ġb ott
Ġc iv
ic ed
ĠB ar
m ight
all ed
Ġexc han
B e
Ġre vol
pe red
ĠC ount
are t
for th
1 0
2 0
g ress
Ġm aid
ĠF air
tain ing
Ġoff ice
Ġsto pped
Ġl a
Ġl em
Ġre se
ĠC ol
Ġacc ess
Ġhands ome
lect ed
Ġdire ction
Ġmus ic
Ġapart ment
the se
Ġbre ast
i ans
m ade
Ġt ried
er v
Ġp our
Ġha bit
ib ly
Ġg en
hen omen
A h
Ġst ar
Ġdo g
Ġdon ations
est ic
ign ed
bl es
Ġp ra
Ġth in
ex p
know n
g aret
Ġth ird
us es
Ġne ck
ac ed
Ġtra ve
Ġsh ut
mer ic
Ġprop ortion
Ġmonth s
Ġmo ved
Ġinqu ir
Ġconst it
Ġc laim
ar ily
ul ation
be red
Ġmin ute
Ġbro ad
Ġoun ces
ain ted
Ġse at
Ġtru ly
C E
su b
Ġst ars
Ġdist ingu
arri et
Ġrep ly
Ġbreat h
S ir
Ġchan ged
y d
Ġe Book
ĠThe se
Ġsha r
Ġabs olute
Ġquant ity
Ġa v
re ase
Ġc and
g ment
Ġsu gg
Ġother wise
Ġbur st
N ow
ĠQ ueen
Ġwit ness
Ġre ached
ĠR avenswood
Ġl ines
ac c
Ġdiffic ulty
Ġintell ect
Ġf ate
g an
in st
it ated
ock ed
ric ity
j ud
ĠS te
i able
Ġnot ice
ĠHe re
Ġgr ad
Ġli ked
Ġsha re
Ġopp ortunity
Ġimport ant
Ġlangu age
w r
Ġb old
Ġhe avy
Ġg arden
Ġb urn
Ġd ied
ĠW hy
Ġgu ard
Ġdisc overed
ou p
Ġc ook
ign or
Ġsum mer
Ġtou ch
ĠS ome
pl ay
Ġpass ing
Ġeng aged
1 5
Ġaw are
Ġdra wn
Ġc aught
ot ed
Ġli ber
Ġent er
Ġapp arent
Ġwr iting
Ġbo iled
a ly
Ġs ick
ll y
et er
am ed
su pp
Ġsw ord
Ġpriv ate
Ġsole mn
er gy
Ġinst antly
oun ced
Ġbit ter
j o
ous es
ort ed
Ġour selves
Ġgl ance
Ġtr ad
ĠGe orge
Ġsu perior
Ġ1 0
ĠHe aven
Ġdist inct
Ġdiffe rence
ific ation
L E
Ġbelie ved
er able
Ġwe l
res pond
Ġtr ouble
Ġcle an
EN T
anch oly
Ġt ry
ast ed
Ã ©
in ced
Ġh orses
ter ing
c al
e al
Ġc re
Ġd am
Ġr ank
ĠL aura
Ġsit uation
y ll
ak ed
Ġmar ry
Ġjour ney
1 7
re y
Ġm outh
Ġf ashion
ro o
Ġfe atures
Ġfru it
h or
ĠH ar
o cc
r ate
Ġo d
Ġb ow
c ause
Ġwe ight
ĠM oore
ĠD ora
ĠR ichard
Ġpre par
fe el
ices ter
ĠSc ot
Ġet c
th rough
ĠC rawford
Ġex er
Ġbene ath
1 2
u ice
Ġw id
Ġha ng
IN G
b ack
Ġf ier
Ġp ortion
ract ed
Ġe ggs
Ġspe ech
Ġpers u
Ġhapp ened
Ġrequ ired
Y our
b uck
Ġf ing
be ing
con om
ĠW ell
au fort
ser v
00 0
ĠCla vering
Ġme mory
Ġsu cceed
Ġcap ital
Ġsett led
Ġsusp ic
Ġh ung
Ġro ck
r ant
in a
Ġw and
Ġp osition
Ġh ither
ul ous
Ġr ise
Ġbo iling
Ġf ro
Ġf urn
Ġjust ice
Ġserv ant
ĠX X
ĠLe icester
ĠH el
Ġdraw ing
h um
u f
Ġf ish
Ġthan k
ish ment
Ġro y
pper field
Ġstep s
p he
Ġm ixed
Ġp ap
Ġall owed
Ġbod ies
iffe rent
Ġshar p
3 2
la uc
ci al
Ġw ise
Ġcreat ure
Ġha e
if ted
Ġesc ape
Ġfal se
lauc us
ĠO f
ĠY et
Ġqu al
oll y
Ġresol ved
Ġs ong
le ction
ĠS m
ĠK e
g ra
Ġbe at
Ġr id
cl iff
Ġgra vy
Ġbro ke
o ak
Ġin formation
Ġa vo
fe red
Ġprom ise
s ol
he nd
ar row
et t
Ġme at
Ġsurpr ise
Ġ1 5
Ġ ver
Ġin no
Ġal together
look ing
Ġc at
Ġp ure
ĠA ram
ol og
Ġdirect ly
Ġdev il
ĠRo bert
Ġp un
Ġtalk ed
Ġfore ign
add les
Ġf illed
art her
os es
Ġpro cess
Ġprev ent
p al
ri e
ch ief
ĠO R
Ġre nder
ad v
am b
Ġle an
Ġ1 7
Ġoff er
Ġ2 0
Ġmag n
Ġbook s
A l
or ies
Ġv ict
Ġbl ind
anc he
gent le
b its
d id
m ind
ha ll
ĠT om
Ġdes cend
Ġconf idence
Ġjud ge
Ġspo ken
Ġc ity
Ġp henomen
se ll
on el
Ġv ent
ast le
Ġte a
Ġlea ving
em ber
Ġpo ck
B y
he st
qu is
ĠO r
Ġg rew
ation al
ell ow
Ġpass age
Ġtalk ing
Ġsim ilar
ĠD on
He re
Ġhop es
l ar
Ġhe ro
ur ally
Ġam b
Ġter ri
Ġstru gg
s ing
Ġr ays
Ġreco gn
o le
s es
Ġhe aven
ĠG laucus
Ġstand ing
Ġbreak fast
w he
Ġm a
Ġl oud
Ġkind ness
Ġaffect ed
Ġast on
Ġal though
' m
Ġt rees
Ġf ill
Ġex ceed
Ġgreat est
ĠĠĠĠĠĠĠĠĠĠĠĠĠĠĠĠ ĠĠĠĠĠĠĠĠĠĠĠĠĠĠĠĠ
g hed
Ġgl oom
S E
l v
m od
Ġf ol
Ġin j
Ġde cl
Ġsh ook
Ġext ra
Ġpoint s
Ġprodu ced
Ġmil k
tw o
e en
l ied
Ġd ign
Ġl od
ly ing
Ġc ustom
ib yll
Ġcent re
Ġsym path
i o
Ġl oss
Ġg ay
ill y
Ġr ising
Ġsp ring
not hing
ater ial
Ġextreme ly
Ġexperi ence
Ġs ought
Ġr ing
Ġthr own
Ġimp at
Ġquick ly
i ers
Ġs n
Ġe ld
ĠA meric
our t
Ġmid dle
Ġlem on
) .
r ase
th ose
be ll
Ġgr ow
gn es
Ġintell ig
o red
ant ed
Ġfa v
de red
Ġapp re
Ġagree able
e qu
Ġ ing
ĠW ood
Ġar range
Ġsee k
Ġfl owers
s ay
re r
um ber
Ġlab our
r id
ĠA fter
Ġr ate
Ġthr ow
wor k
A ll
Ġc ru
Ġtw ice
Ġmatter s
iter ary
Ġexam ple
_ .âĢĶ
Ġp ity
ĠMar garet
Ġaccom pl
Ġinter v
Ġdec la
re en
Ġb attle
Ġl ose
Ġfor ms
Ġwe ar
Ġst ream
Ġen em
Ġir on
Ġmed ium
. ]
Ġb ri
Ġm eth
Ġman ners
Ġdist ant
Ġtr ade
II I
Ġmeet ing
Ġparticular ly
p or
Ġt al
Ġp age
om as
Ġaff airs
a e
f it
f irst
Ġst one
ĠBe aufort
Ġmel ancholy
ĠCar oline
1 3
T O
ĠAr ch
l ow
Ġg ate
Ġread ing
Ġut ter
Ġorigin al
ĠE l
ĠE x
Ġche ck
A y
d el
e per
ir ley
Ġst at
ĠF rom
Ġshad ow
Ġcorn er
Ġc overed
ĠN e
Ġwr ote
Ġcar ry
it ive
Ġb ank
Ġp ardon
end ing
ap ed
Ġdest ro
L et
Ġth orough
Ġy ield
Ġprodu ce
Ġprinci ple
Ġb on
ĠS ee
ath cliff
Ġpound s
t urn
Ġ ignor
Ġof fered
stand ing
ĠCh urch
ĠSc ott
ot hes
i ver
Ġd ue
ir ty
ĠM ort
Ġun ivers
Ġpre fer
Ġplac es
Ġbegin ning
Ġrend ered
ru ct
Ġmeas ure
R A
m und
Ġp ause
Ġst ock
ail ed
Ġhe ight
Ġth rew
um n
ast ings
Ġent ertain
Ġest ab
Ġimmedi ate
Ġt ong
Ġim per
Ġsec ure
m it
us ing
Ġposs ess
l o
he ld
ud ding
Ġus ually
Ġgi ves
Ġmention ed
' ve
Ġmod e
Ġbes ides
u ge
w ord
her n
ĠJ ew
Ġhear ing
Ġprov ide
Ġhist ory
l our
Ġm oral
Ġdis m
ens ive
Ġf em
ran g
ick ed
Ġget ting
Ġfavour ite
ĠCo pperfield
1 6
a ffect
b re
at ic
Ġwe alth
Ġpre ced
Ġwalk ing
Ġwa it
Ġsh owed
Ġproceed ed
c ur
Ġf arther
Ġn ur
ck now
Ġstre et
Ġa cknow
ant ic
ax on
Ġhigh ly
Ġwall s
Ġfla vour
inte rest
Ġg ar
Ġre ve
Ġappe ars
Ġg rief
com mon
t ake
Ġs ize
Ġsha me
Ġread er
Ġlau ghed
Ġimpro ve
1 4
e an
is k
Ġex cl
Ġra ce
Ġsur r
Ġkeep ing
Ġgirl s
Ġt akes
in ite
ed s
en ne
ac ity
op s
Ġcl osed
Ġche ek
Ġcond ition
ustom ed
Ġ &
Ġo per
Ġd ressed
Ġter m
Ġpro gress
Ġsp lend
Ġposs essed
Ġsurpr ised
yd ia
_ .
a ving
Ġc ool
Ġp iece
ent al
Ġre ach
ĠH arriet
Ġra re
Ġser ious
Ġconst ant
h us
2 2
s ur
as hed
ĠA ND
est ions
ell y
Ġsens ible
y p
Ġc ott
Ġdis appoint
Ġreg ular
Ġmark ed
Ġperm ission
ĠTr addles
Ġfamil iar
H is
m osp
Ġb ent
Ġbes ide
Ġw ide
at tered
ĠA b
Ġam id
du ce
Ġfore st
Ġemploy ed
Ġ ur
en c
an other
ne cess
Ġyour s
Ġbr ow
ĠJ em
Ġdelic ate
o x
ut ation
Ġgreat ly
Ġcomp ar
Ġeff ort
Ġord inary
con f
Ġlaugh ing
Ġhig her
Ġforgot ten
i ation
er r
Ġg ro
Ġor gan
ale b
Ġm ess
Ġciv il
S T
ĠC on
Ġpro of
Ġchan ges
Ġwa iting
Ġgovern ment
Ġgrad ually
y et
Ġp owers
ic ense
Ġg od
Ġsp ite
Ġext ent
cha nt
Ġev ents
Ġwel come
k y
ou l
Ġb ird
Ġbe ll
ĠA gnes
Ġsp read
ĠTh omas
Ġcast le
Ġmur m
b es
Ġli qu
Ġknow ing
Ġspe ed
you ng
Ġbelie f
Ġsuff er
Ġsing ular
O ne
s y
v is
z en
Ġv ast
Ġinv ol
ring ton
Ġdisco ver
is to
id ney
Ġcomp re
Ġmean ing
Ġmist ress
Ġpop ular
Ġsmo oth
Ġs tern
Ġl ower
ĠI one
el ve
ire ct
Ġfa ult
man y
Ġlo c
Ġsla ve
Ġhop ed
m ar
Ġs igh
ar cy
ll ey
Ġind ul
Ġcircumst ance
Ġm ill
Ġe at
au nt
Ġsc he
Ġmod er
T HE
Ġf old
Ġc up
Ġal arm
a per
d own
r ong
on ed
Ġin n
ĠH all
Ġun happy
Ġed uc
Ġphenomen a
i osity
Ġ ess
ĠK ee
Ġev ent
rand on
c ar
Ġm iss
Ġart ic
Ġconsider able
asp oonful
mb ers
L I
g ue
Ġb irth
Ġp ot
Ġex per
ound s
Ġcor respond
Ġd well
Ġas ide
us hing
um ph
Ġrem oved
ock s
Ġnat urally
Ġsens ation
Ġcontr ary
Ġroy al
c ourse
Ġo w
int on
ester day
p ur
Ġb rief
Ġre comm
ĠG ree
su ff
Ġinst ance
Ġrel ation
TI ON
m other
ay enne
th ou
Ġacqu ainted
Ġprov ided
appe ar
Ġ rom
Ġd ouble
Ġunder stood
ret urn
Ġexp ressed
ĠM ay
os om
ĠP aul
Ġpro ved
Ġabs ence
Ġcheer ful
C T
i ally
ou is
Ġm our
ic ity
Ġas se
Ġinc rease
sha ll
Ġph rase
g ain
o ker
u gh
ld om
Ġth ine
el ine
ĠJ ob
Ġcou ple
R I
um m
Ġri ver
Ġbu ild
Ġremark able
Ġoccup ied
phe w
ĠKe ats
3 4
A M
w ind
Ġw inter
Ġm ing
Ġf ight
Ġse ven
con c
Ġreg ret
Ġprom ised
x ion
Ġc ream
Ġwith d
ro se
Ġwe ather
Ġpro ve
Ġper form
ĠJ ames
Ġcare fully
Ġperson al
Ġcr own
Ġlist ened
g utenberg
v ent
Ġs cience
Ġe ars
ĠS uch
be y
ink s
Ġpart ies
Ġ1 6
Ġdescri bed
ĠMont fort
s ame
ĠS ibyll
ĠB ert
ate ful
ĠP l
pt on
Ġam ount
Ġint im
eal ous
i est
un ning
age ment
pect ed
ĠTh or
Ġcal cul
Ġa x
Ġa id
Ġp an
Ġbe ef
au d
over n
Ġmag net
Ġcompan ions
ĠArch ive
Ġp arent
om in
Ġli ves
Ġsuffic iently
Ġwhis pered
Ġrecoll ect
Ġpict ure
re ason
ĠB rit
Ġpro spect
Ġfort un
ĠWest on
p res
z z
Ġsu it
Ġch oice
Ġsatisf ied
c hen
Ġb ore
Ġwe eks
Ġst ro
Ġcon ve
Ġdist ress
Ġvis ible
ĠIs ab
b ers
v an
ver t
Ġsu spect
ĠR oy
Ġbecom es
ĠOld buck
Ġn arrow
ic ated
Ġsc orn
Ġgall ant
g um
p ic
Ġf ac
Ġ1 2
Ġposs ession
A T
H er
b ly
Ġt all
Ġsh out
ag ree
ens ity
li ament
Ġgre y
Ġincl uding
Ġlea ves
f am
Ġh int
ir ing
Ġas su
ĠR E
Ġsm iled
Ġlist en
Ġfre ed
somet hing
C ome
t oo
it chen
Ġc ases
ĠC astle
ord inary
Ġcomm er
du ction
ad es
ie ved
Ġgo es
Ġhar m
Ġsk y
Ġmark et
Ġex ternal
Ġno body
Ġar ch
Ġob tained
sh ire
c ame
re f
Ġc ourage
Ġapp lic
iff ord
Ġaccom pan
Ġjo ined
b ook
h ost
u able
Ġs our
er forth
Ġf aint
Ġg ame
Ġinterrupt ed
A fter
st airs
her s
ĠD arcy
ars on
Ġinde pend
Ġsuff ered
Ġdesp air
Ġf un
st ill
Ġprinci ples
Ġpock et
is p
Ġp it
ul ated
est y
ac qu
Ġadv anced
Ġcur rent
Ġpower ful
Ġvar iety
Ġpri est
l ife
o pp
ha bit
Ġm aterial
al ways
Ġdist urb
Ġint ended
ĠTh us
appe ared
n oon
Ġt ables
Ġp os
Ġsa cri
ru e
Ġpr ince
Ġbo x
Ġeff orts
3 5
Ġm at
Ġto t
Ġhe s
ĠA sh
Ġcon ven
Ġex hib
ust ed
ost er
tain s
Ġheart s
Ġwant s
Ġsympath y
c irc
p o
y le
in ent
Ġf right
Ġf riar
as ions
Ġnot ion
Ġor bit
Ġex ec
em s
ac on
Ġpro c
Ġrep resent
ĠY our
Ġdom estic
r ot
Ġt empt
he l
ĠH astings
ep ing
Ġang ry
Ġmeth od
r ors
Ġ ident
Ġb and
ch ild
em ark
Ġref und
Ġpa used
Ġcru el
E ng
er ves
ĠS e
Ġlo ver
Ġcop ies
ĠAd rian
fortun ate
err ars
Ġw ad
ak er
Ġdelight ed
r ict
as ons
ĠO ur
cl ock
Ġconsider ation
Ġfall en
Ġsepar ate
Ġadmir ation
ĠMort on
Ġtong ue
c ol
y r
re qu
Ġg a
ĠM art
ĠW here
Ġpur cha
Ġsoon er
Ġobser vation
Ġremem bered
roo ge
lv a
Ġw in
Ġp ressed
at ory
un k
Ġdis g
Ġro of
I nd
Ġc ab
ĠM an
Ġsh ip
ĠE very
Ġadd ressed
Ġ3 0
Ġcirc le
Ġbra ve
---- ----
3 6
r al
Ġfor ced
ul se
Ġdid n
Ġbu y
i ven
ur bed
ch o
Ġst ation
Ġqu ality
b ro
f ound
i as
m as
or p
Ġd ull
Ġh ill
ĠD uke
Ġwor st
ĠSh irley
Ġgen ius
Ġthorough ly
A r
l in
Ġf rank
ic ular
ĠHe athcliff
Ġobser ve
ĠEd mund
ham pton
Ġvill age
Ġb id
Ġp la
ĠB randon
Ġwho lly
ru ction
Ġra in
let s
Ġappro ached
g ive
Ġne phew
Ġr ough
Ġcl oth
Ġmom ents
Ġprinci pal
ad ing
Ġne arer
a is
b bed
p ed
Ġo ven
ay mond
ge l
Ġtw elve
Ġgra v
ail s
c ond
Ġb osom
Ġat mosp
ke y
Ġstart ed
Ġdign ity
Ġassu red
f ax
w o
Ġc ayenne
el ess
ĠF rance
Ġar rival
Ġdis play
Ġsol itary
Ġimag ine
Ġconcern ing
ĠCount ess
Ġp u
Ġmy ster
ĠO lva
Ġpe pper
Ġve al
Ġqual ities
id ently
Ġsh r
Ġsp ent
Ġpl ate
Ġevery body
ob ser
ĠSt reet
Ġnor th
Ġwhis per
Ġmount ain
Ġstud y
f all
Ã ¦
al es
-- âĢĿ
ach ment
Ġbus y
Ġelect ricity
Ġphys ical
. )
2 4
; âĢĶ
ĠC an
ĠThe ir
ĠF oker
Ġcap able
ĠCha pter
es h
as y
sp ir
Ġfra me
cons ider
Wh o
Ġassoci ated
G od
b id
Ġl ux
per haps
Ġfa il
Ġ1 4
Ġem otion
Ġmut tered
Ġdim in
b led
o is
Ġ *
Ġc aptain
Ġre ven
ĠA nt
ind s
Ġam use
Ġsm iling
Ġpresent ed
Ġte aspoonful
Ġaffect ions
Ġinterest ing
ug ust
G ood
m et
Ġt ale
Ġs ate
Ġb orn
ĠI N
ind a
ast ic
ĠD ick
ud ent
Ġsha pe
Ġadv ent
Ġdisc us
ĠAd am
L ord
Ġl ately
Ġg ain
ent ions
Ġv o
con st
Ġbo ard
Ġass ure
Ġadm itted
Ġsk in
Ġvol unt
count ry
Ġth reat
Ġsp r
ĠJ ul
Ġatt ached
iv al
Ġcur iosity
Ġce ased
o qu
ĠC aleb
Ġr ad
Ġfl oor
Ġref lection
Ġhast ily
Ġprof ession
b aces
h on
Ġf ood
ran ged
ĠShe lley
Ġamong st
Ġmer ry
again st
ĠChar les
Ġs now
ing ley
an ation
Ġha te
ens ion
Ġexc ited
Ġsent iment
Ġide as
ĠPr ince
Ġh ouses
Ġse ated
Ġse ldom
Ġde li
Ġact ive
Ġsubst ance
Ġincreas ed
Ġbri lli
er al
ra in
Ġmight y
Ġwat ched
Ġco ver
Ġjud gment
vere r
C H
Ġm or
Ġst airs
Ġli es
Ġj ealous
Ġper ceived
Ġch oose
Ġbo at
Ġco ach
Ġstre ets
Ġneighbour hood
athe red
s ue
Ġp air
Ġl uck
ri ve
cc a
Ġent rance
Ġrep ro
Ġconf ess
Ġcr it
Ġdark ness
Ġrequ est
enn et
Ġimport ance
ĠRob in
f ety
Ġt im
Ġt est
Ġto ler
Ġp et
Ġqu art
ass ion
Ġrel ations
ĠY OU
Ġanx iety
Ġfier ce
m ist
or ne
ot ions
ĠA m
Ġj oint
Ġper ception
ran c
ĠWh o
Ġamb ition
ar ies
th ree
Ġmin ister
Ġnecess ity
Ġconv inced
Ġintellect ual
3 7
O f
s at
il ton
ig hed
Ġany one
Ġus ing
be cause
ĠSt rong
Ġem pt
Ġabsolute ly
; âĢĿ
g ot
m ons
p on
Ġb ill
Ġm ult
Ġf ront
se en
ra cy
ill a
ĠL inton
Ġgener ous
Ġfull y
br ance
Ġsou p
ixt ure
ĠCol onel
J ohn
L ady
N ay
R O
Ġy esterday
Ġacc ustomed
Ġimag ination
ĠEl ton
Ġt ro
he ard
Ġn ames
Ġy es
Ġab road
ĠĠĠĠĠĠĠĠ ĠĠĠĠĠĠ
Ġdes ired
Ġgu ide
Ġboy s
Ġtou ched
ĠScot land
ĠSm ith
qu ite
Ġsh own
Ġoccur red
V ery
c ase
l ast
Ġe ase
Ġst op
Ġlight ly
Ġrel ig
Ġsens ations
Ġprev ious
Ġdro pped
W ill
p it
in y
in ction
it or
ent worth
ig an
Ġput ting
Ġfind ing
Ġsol ic
Ġbar on
cont in
b ar
i pe
p ower
is hes
ord er
be cca
Ġjo in
L A
f a
ur s
ĠT O
ĠB r
ĠW ick
Ġno vel
ud es
ell a
Ġob tain
Ġabs or
Ġperm itted
Ġguest s
ĠHigh land
v ious
ll er
Ġd iam
Ġha m
Ġon es
pe lled
ĠC he
ol it
ĠF errars
Ġatt ended
Ġhead s
Ġhur ried
Ġrapid ly
Ġliber ty
c r
er ous
au le
Ġter ror
Ġwonder ful
Ġrese m
3 8
C h
I V
d ed
ed ric
Ġp ull
Ġhe n
Ġwhe never
Ġr ude
ĠL ouis
Ġqu estions
Ġshould er
Ġopen ing
ĠWar rington
asp ed
Ġtrem bling
ĠAsh ton
ar med
Ġse ized
wh y
Ġfriend ship
ĠAr baces
Ġdisp osition
Th ou
ĠMad eline
ĠKnight ley
ĠM on
Ġst orm
ĠW ay
Ġpre cise
Ġkind ly
Ġill ust
Ġserv ants
Ġagre ed
Ġfrequ ently
Ġcompre hend
Ġasse mb
b ury
o pt
s ent
Ġt reas
st ers
ur ity
Ġsh ore
Ġpr ice
Ġret reat
Ġyoung er
Ġexc use
Ġve l
Ġdeep ly
ĠHow ever
org an
ĠPar is
Ġdistingu ished
aule verer
P er
w ater
Ġb ran
Ġg le
ent ial
Ġper ceive
Ġfl esh
,-- âĢľ
Ġref lect
Ġadv ice
Ġappro ach
ĠCl ar
Ġinqu ired
bet ween
ĠSte erforth
ĠS axon
Ġbr ide
Ġev idence
Ġdirect ed
Ġdeg rees
Ġsla ves
Wh ile
Ġda ily
Ġod d
c ap
Ġw ond
Ġc aut
Ġex ert
The se
Ġob st
Ġpr int
Ġear li
Ġpain ful
Ġsatisf action
Ġfem ale
Ġmoder ate
Ġf le
Ġg ained
ist ing
Ġdes ir
Ġcr ime
Ġtri f
S c
b oy
re ct
Ġv en
ĠE ven
ĠG eneral
Ġ2 5
Ġpast e
Ġut tered
2 6
: --
Ġw retched
at ors
as hing
Ġbl ow
Ġinst rum
Ġbra in
Ġauthor ity
Ġexchan ge
Ġinno cent
Ġt ar
Ġa u
Ġs ides
Ġout side
aw ay
Ġmod ern
Ġmo ving
Ġru in
ĠCl ifford
Ġaffection ate
Ġconn ected
2 7
3 0
in er
Ġcont empt
Ġpres erve
Ġobser v
Ġpar lour
bet ter
Ġavo id
' re
t able
Ġt ask
Ġa ud
er ted
Ġk itchen
Ġany body
Ġown er
Ġrel ative
Ġforg ive
Ġvirt ue
Ġhither to
Ġaccompan ied
N OT
Ġt it
or ious
Ġha ught
ous ed
ĠĠĠĠĠĠĠĠ ĠĠĠĠĠ
Ġacc ur
Ġatt ack
Ġaw a
Ġsent ence
oe hampton
Ġregard ed
E T
w oman
Â ·
Ġs in
ha nt
Ġd ate
se emed
wor ld
arr ass
Ġtemper ature
Ġwis hes
Ġs li
Ġsa fety
ĠR ev
Ġpres ently
Ġact ually
Ġeffect s
Ġdiv ided
2 8
Ġt ur
or ous
le g
qu ar
me an
Ġuse ful
ĠQ u
U n
Ġw ays
Ġha bits
ĠC ome
Ġun f
ĠG er
Ġimp ression
Ġser ies
Ġmind s
Ġdisp osed
Ġleg al
Ġprot ect
urd stone
F anny
p resent
Ġb are
qu ire
pe ople
Ġdes ign
Ġhum our
Ġplay ed
gl ass
W here
it z
Ġc ord
Ġl ot
nt on
ink ing
Ġpart ly
Ġpoint ed
Ġmis erable
Ġaccord ingly
gy pt
Ġsett le
Ġpra ise
f our
f ollow
Ġm al
le br
Ġas pect
Ġ1 9
Ġres umed
Ġpass ions
Ġent reat
Ġprop osed
Ġstra ight
ĠLove l
l ine
ha st
Ġp ick
ar se
are well
Ġsp are
ud d
Ġco at
Ġremain s
app ro
Ġut most
ĠWh ile
Ġdistribut ing
Ġdistribut ion
Ġexpl anation
p any
Ġl one
le ep
Ġse ll
pe l
Ġdes per
Ġsens es
chan ge
s ince
Ġp oured
Ġse vere
ĠR aymond
Ġgu ess
Ġinf er
Ġdec ided
Ġsubject s
Ġsister s
Ġself ish
Ġprison er
E m
en es
ĠC HAPTER
ive red
ĠF OR
Ġim age
Ġob sc
Ġdirect ions
vel op
Ġconsequ ently
iqu ary
l ove
Ġh osp
ĠĠĠĠĠĠĠĠ ĠĠ
Ġafter noon
Ġcontin ue
pers on
Ġfif ty
a f
c ence
p her
p oss
t ra
Ġd i
ac hes
com fort
Ġconf usion
Ġsou th
Ġview s
2 5
O bs
U T
Ġt ree
Ġm ental
Ġp ie
Ġre new
Ġde fect
ĠB ingley
Ġr ide
Ġper man
iz ing
ĠSc rooge
look ed
Ġaccept ed
Ġpolit ical
: âĢĶ
x ed
in n
Ġwill ing
ine gar
ru p
ĠN ature
Ġcare less
Ġplan et
M ar
f ice
Ġw arn
if ference
ĠE gypt
ĠF rank
od e
ĠR ed
ĠN ev
Ġgr oup
Ġind ign
Ġdelight ful
Ġwid ow
P ro
es ides
im in
if orm
res pect
Ġar ise
Ġvis ion
Ġquiet ly
Ġsucceed ed
Ġw ore
Ġm ould
Ġc her
Ġst yle
Ġ2 4
my self
Ġsold ier
ĠMac G
b ald
m ake
Ġf an
Ġd ance
le igh
Ġst age
ĠS at
ĠC oll
Ġr ul
Ġro ast
ren ces
Ġsub s
Ġcall ing
Ġprodu ct
Ġclose ly
Ġexer cise
Ġenem y
Ġatmosp here
s im
ow l
Ġapp oint
Ġserv ices
Ġca uses
Ġintellig ence
Ġloc ated
E d
n al
n ature
t ran
Ġt ired
Ġw ages
Ġbe held
Ġmy st
ul f
ĠD ou
Ġsp ark
com pl
oun ce
gr at
Ġquar rel
Ġord ers
Ġwis dom
ĠChrist ian
p ret
ĠT H
Ġcon qu
Ġun fortunate
Ġar gum
Ġcomp osed
aught ers
Ġroom s
Ġlaw y
Ġhig hest
ranc is
e re
m itted
ha ving
om s
ĠS idney
Ġse arch
ĠH ad
ĠB ennet
ag ue
Ġro de
Ġev ident
ern on
Ġwind ows
Ġendeav our
D on
e ge
Ġ âĢĻ
Ġp red
Ġre ck
ĠS u
Ġsh op
Ġfe ver
ĠG ood
Ġcomp ly
Ġcont ent
Ġtri umph
A D
P en
b us
l ord
Ġm ild
an ge
Ġth ro
ac le
Ġj uice
Ġocc asions
Ġeld er
Ġming led
z y
Ġt rying
all ey
Ġshe l
os en
ĠE lli
ag u
Ġref er
unt ing
Ġread ily
Ġfin ished
Ġresol ution
Ġcross ed
ĠWood house
A G
a ves
c il
k ins
r ish
s il
Ġm ix
Ġl ing
Ġy onder
Ġas certain
ur ope
Ġr ot
Ġal ike
Ġad opt
Ġlove ly
Ġwat ching
Ġconst antly
Ġpat ron
Ġinquir y
Ġdecla red
Ġunivers al
r ated
z ed
qu estion
ast s
ol ation
Ġab rupt
Ġun known
Ġret ired
sm all
Ġmid st
ĠBl anche
Ġterri ble
Ġsurr ounded
ĠJul ia
r ather
Ġh o
Ġre jo
ĠM any
ac her
ol ar
Ġal ive
Ġthink s
with standing
Ġra ise
Ġke y
Ġlead ing
Ġaddition al
Ġid le
Ġfing ers
in ity
ad uke
ĠC edric
ĠB ath
ie ur
arm aduke
Ġhold ing
Ġbra nd
Ġdanger ous
Ġextra ordinary
re c
it ution
Ġm atch
ce an
ĠA p
Ġsha ke
Ġsure ly
Ġmaster s
gentle man
overn ment
Ġm ach
es sel
Ġan ger
-- -
me at
Ġpl ane
wh om
Ġacc ident
Ġsk ill
Ġcomfort able
Ġfat al
nat ural
Ġconscious ness
Ġexceed ingly
Ġa in
ha med
Ġc it
ĠB el
Ġsh ot
Ġfree ly
ĠAll en
Ġopin ions
how ever
b orn
f ar
r at
Ġb ab
ess or
Ġsu s
Ġex cess
ĠL ong
ons ieur
Ġsupp er
Ġprop ri
.. ..
ĠRe becca
R e
t em
in f
Ġc apt
il ities
Ġso ot
ul ate
ul gar
Ġmis ery
Ġmot ions
Ġune x
Ġsuspic ion
9 7
O M
g ers
i ant
m om
Ġthe ory
Ġb al
Ġe conom
ĠL am
Ġcl oak
Ġtran sm
Ġoccasion ally
Ġmut ual
p oint
Ġt aught
Ġf ly
Ġme chan
Ġv ig
Ġfe ars
Ġnat ive
Ġexp ense
cri bed
Ġlar ger
Ġce rem
Ġacknow led
agree able
y ard
ĠR oehampton
br other
Ġtri al
Ġca used
Ġprot ection
Ġconcern ed
Ġspec ies
uf act
m ir
m ag
it ement
Ġm ixture
Ġl ying
id s
ĠB ur
ist one
Ġdo ors
Ġal tern
Ġper pet
Ġcur ious
Ġbear ing
Ġanim al
Ġgrat itude
Ġcomplete ly
Ġl ater
ĠA ugust
all s
ĠL iterary
Ġatt achment
Ġcons cience
ob ject
Ġstri king
Ġlim ited
ĠPer haps
Ġconce al
necess ary
Ġa ut
er k
Ġb as
Ġn ice
ut ions
Ġde arest
Ġpl enty
Ġass umed
Ġve get
Ġtran sp
Ġfall ing
m aster
s bald
Å ĵ
Ġm ood
Ġh om
ow ards
Ġth irty
ĠM auleverer
Ġsa v
Ġv ac
iz ation
ash leigh
worth y
Ġvan ity
Ġfrequ ent
Ġcott age
L L
m at
p ut
p rom
es c
ĠM urdstone
ĠP eter
ag ger
of t
Ġ2 7
Ġwat ers
Ġnew sp
Ġrel ief
uck le
Ġadm it
do or
Ġpoet ry
Ġintro duced
V I
X X
m is
p ort
ĠB en
ish op
Ġcont empl
Ġval uable
p oor
he t
Ġp or
Ġd ine
im medi
Ġas ser
th ings
ĠC al
os al
ĠF oster
Ġaw ful
und ay
ĠTh ou
Ġfair ly
Ġlord ship
Ġbeh old
Ġsqu are
Ġamid st
circ umst
Ind eed
e ach
n or
Ġ i
Ġt y
as c
Ġh oly
her self
ĠC ost
Ġspe nd
ult iv
Ġass istance
Ġhor ror
Ġland s
Ġdep th
p ly
on ce
Ġf aces
th rop
um in
Ġno d
Ġim pl
Ġsha king
Ġem p
Ġstrong ly
Ġpay ing
sbald istone
Ġl at
Ġbe ha
ĠH am
ĠP ark
Ġpol ic
Ġappro aching
Ġann ounced
Ġoun ce
Ġgaz ed
Ġdestro y
c red
d ep
g en
h ip
m atter
v ar
Ġb ig
ll s
Ġg athered
et ter
Ġan aly
if ying
ĠS ha
am ma
ĠB uck
Ġgood s
Ġgr owing
Ġreturn ing
arn s
Ġev idently
ĠNor th
Ġapparent ly
Ġfreed om
orp oral
Ġin ch
ist ribut
ind eed
leas e
Ġke en
ils on
Ġkiss ed
it a
al one
ill ing
ĠS T
ac ious
Ġab st
Ġgl o
ib r
Ġaff air
Ġce lebr
Ġprep are
Ġdread ful
Ġgaz e
2 9
M ary
i pp
n ame
Â °
Ġw ilt
is ure
Ġin habit
Ġd ying
ic ip
Ġsa ved
qu et
ĠC ourt
Ġno ise
un s
Ġro b
Ġind ic
Ġhum ble
Ġpol ar
Ġincl ined
Ġhen ce
g s
Ġ vers
Ġh ollow
Ġl ifted
ĠM or
Ġv essel
ud den
ĠN ed
Ġpr im
fort une
br idge
Ġremem brance
arr ant
Ġphilosop hy
ĠeBook s
Ġsche me
C om
w ixt
Ġn ine
al most
Ġsa il
Ġli br
au ce
Ġgl ory
ract ers
Ġadv ance
Ġtra in
Ġele g
can not
ĠHel stone
e er
Ġfl ower
ĠV al
Ġexp ed
Ġdel ay
pro p
Ġsol itude
Ġdescri ption
Ġesc aped
sat isf
a ult
m oney
Ġw ed
Ġh yp
os ure
ĠV ernon
Ġref used
room s
Ġfear ful
bour ne
Ġdisco very
sub ject
Ġpap ers
Ġb orne
Ġp udding
Ġbe gg
Ġcl othes
Ġgr own
Ġhapp en
Ġste ady
Ġrecei ving
Ġinterest ed
Ġprof ound
Ġsound s
Ġmist ake
Ġele ments
Ġrun ning
Ġdepart ure
Ġeduc ation
Ġempt y
Ġau ld
u le
Ġc atch
at re
ĠS aint
ĠC am
we et
Ġcl ergy
com ing
Ġbel oved
Ġsupp ly
Ġabs ent
Ġnum bers
Ġexpl ain
Ġpursu ed
Ġkne es
whe ther
ĠGree k
ĠWay land
ĠElli ot
b est
g one
l iness
or se
Ġbe w
ri ll
Ġgr ateful
Ġlo ves
ĠTh ough
Ġgloom y
3 3
Ġ $
st e
um es
Ġno se
Ġar ranged
ĠN ever
ĠJ an
Ġfl atter
Ġfollow s
Ġcle ver
Ġact ual
Ġsoft ly
ww w
Ġmaid en
ĠThor nton
U R
d oub
Ġb ones
an ville
ic ian
ĠI V
Ġy ellow
Ġwe ary
Ġun iform
Ġpart ed
Ġrem ove
Ġapp lied
cha racter
Ġsqu ire
Ġemb arrass
inte ll
s us
t ook
Ġp le
Ġp ill
Ġd u
Ġd ust
Ġg ather
Ġfor ty
Ġwe ap
Ġsa nd
ĠA N
ant ages
ĠE urope
Ġcons ent
Ġimag ined
Ġcontr ast
Ġmort al
Ġrecomm end
f av
f oot
l ished
id ity
Ġu lt
Ġex ha
Ġwa ves
Ġwa ited
Ġunc ons
Ġclear ly
oc ity
Ġhur t
Ġstra in
lar ge
Ġignor ant
Ġpreced ing
ĠLam bourne
c or
e ers
i en
Ã ł
Ġb ought
ĠI d
im s
Ġre ward
Ġas hamed
Ġu pper
ard ed
ĠF rancis
ber ry
Ġcont act
Ġstir red
Ġstew ed
Ġtrad emark
Ġappre hen
Ġbrilli ant
l eness
p at
en ough
Ġc la
Ġre asons
Ġv ic
ĠP lace
Ġal tered
Ġdist inction
Ġ2 8
Ġlist ening
Ġleg s
= =
d et
r ound
s ens
he red
Ġb ills
Ġh uge
ow der
ld ar
ĠG ra
con ven
Ġsim pl
there fore
Ġmur der
Ġdut ies
Ġburn ing
olog y
F rom
i ents
s per
Ġd aughters
Ġn arr
Ġha unt
ut ter
th y
ĠC orporal
ĠW entworth
ĠN ydia
Ġen ergy
Ġpre jud
Ġstr ict
uc hes
Ġsol ar
Ġtax es
Ġant icip
Ġestab lish
Ġsplend id
Ġmyster ious
R AN
b u
g eneral
l ady
u ated
Ġb owed
Ġm ace
Ġin formed
Ġn iece
ĠA h
Ġwor n
Ġrest less
ĠY es
Ġcare er
gr ound
ey es
Ġdev oted
heart ed
Ġimm ense
e ither
g ate
k in
v est
â Ħ
an n
Ġh id
Ġr ushed
un ch
end er
Ġun l
Ġthan ks
op y
Ġfl ung
Ġspe cul
Ġsum mon
Ġfaith ful
ÂłÂł Ċ
Ġcommer cial
B l
O ur
u it
Ġl b
Ġre ference
ĠP ort
Ġrem ind
Ġint ention
Ġest e
ĠIsab ella
ĠAnt iquary
âĦ ¢
C aptain
H ave
I C
n ut
Ġl icense
ĠI rish
ir med
the less
ĠB E
ect or
Ġcould n
Ġrec overed
Ġneighbour s
ĠChrist mas
Ġbecom ing
c alled
k b
s ure
ed ing
Ġf oe
Ġe cl
ĠW ald
Ġcomp ared
Ġsince re
Ġpen et
Ġbott om
S ection
g ro
Ġ âĢĶâĢĶ
Ġo ak
Ġw ound
Ġfell ows
Ġcol oured
.. .
Ġclass es
bur ne
Ġdeb t
appear ance
Ġbuild ing
NOT E
C atherine
m ark
m orning
p en
w a
w alk
Ġc ell
Ġst out
th us
ĠS us
Ġse x
ol id
ful ness
ick s
Ġcomm od
pr inci
Ġass ist
Ġchar m
them selves
Ġcolour s
pleas ant
Ġconstit ution
Ġuncons cious
D e
T H
es y
st ep
il burne
Ġor n
ight ed
us ual
Ġthr one
Ġtran qu
Ġendeav oured
) ;
A d
A re
ha el
Ġv inegar
Ġun able
Ġag ony
ab s
Ġper il
ret ch
Ġbeg un
Ġequ ator
dis c
Ġproper ly
Ġremark ed
ES S
Ġbene fit
Ġvol ume
Ġcoll ection
Ġsacri fice
m aid
Ġf er
Ġf olly
Ġin sp
Ġd ared
Ġl est
ver ted
Ġor dered
Ġv ulgar
Ġwould n
ĠF itz
Ġres ent
so on
Ġatt raction
com ple
Ġcor rect
IT Y
ĠGl en
Ġdri ve
pleas ure
ĠBert ram
mom ent
A S
d iff
e lect
o ch
in qu
Ġs well
Ġm ile
Ġf ed
ĠM armaduke
Ġsa cred
Ġam az
ud ence
Ġpre cious
Ġdes ert
aw t
Ġadm ire
who le
Ġquar ters
b ing
w yn
is en
Ġf ix
Ġd ancing
il ty
ĠL aw
Ġman kind
Ġfa iled
Ġsc enes
so le
Ġrespect able
c are
Ġh ide
ĠS unday
ol t
Ġfe ared
ĠR ow
for ce
Ġatt ract
Ġexc itement
Ġtell ing
ĠMy ra
Ġest ate
ĠAl ice
Ġaccom pany
Ġmad am
E M
P e
S h
y l
Ġn ut
ge on
Ġcon ne
ac count
han k
Ġcom et
Ġpro ject
Ġdis sol
Ġshould ers
Ġdist urbed
Ġrep ose
Ġco ff
co at
Ġmer cy
Ġplan ets
ĠBl ack
Ġchief ly
go ing
spe ak
Ġobserv ations
g ener
Ġp in
Ġr ice
Ġch osen
Ġsm oke
Ġgr asp
Ġimp ulse
ĠAnd rew
Ġ3 6
Ġhast ened
m es
t t
t aken
it ure
ĠI I
ress ing
ex c
ins on
Ġremain ing
Ġgold en
Ġstri ke
Ġprot ected
Ġdistribut e
Ġlim bs
tw enty
Ġeager ly
Ġcloud s
Ġinterv iew
Ġlibr ary
E x
Y et
b or
h our
Ġl bs
Ġhe ir
st ead
il ney
Ġent hus
Ġem otions
Ġref use
Ġext rem
Ġhon ourable
will ing
Ġappro pri
Ġru le
Ġplay ing
Ġmot ive
Ġpract ice
Ġweak ness
Ġfamil ies
O L
on et
Ġf ame
Ġl ake
st ate
Ġre v
ĠF l
Ġag itation
Ġdis d
Ġacqu ired
Ġpat ient
Ġkn ife
Ġsubst ances
Ġfing er
Ġlean ing
Ġax is
awt rey
e ff
f essor
i ved
in cent
Ġbe nd
Ġnot es
Ġher s
ra p
ra ined
Ġne at
ac les
ĠO x
ĠO sbaldistone
Ġbet wixt
Ġposs ibly
Ġfat ig
4 5
W ar
f ive
z ing
Ġw icked
end s
per fect
ĠR od
Ġwork ed
Ġcount ries
Ġrep lace
Ġconsider ing
Ġreason able
Ġunderstand ing
Ġer ror
nat ured
Ġcoun sel
Ġmagn ific
ean while
N ever
d one
d ifferent
e ffect
t le
in cl
Ġo ath
it ating
Ġm ax
ing ing
Ġn ae
Ġk en
ck ed
Ġag itated
Ġcomp assion
ons ful
Ġright s
Ġvis ited
Ġact ed
Ġsuff ering
Ġpurp oses
Ġdef ence
Ġfield s
Ġpersu aded
Ġfol k
Ġnur se
Ġ ii
Ġt ail
ou ch
Ġh ills
am ing
pe are
Ġv ary
ĠW ilson
Ġal oud
ons ense
Ġgr ass
Ġpe as
Ġkind s
ail ing
Ġte eth
Ġinv est
Ġchar ming
Ġabs urd
Ġsol id
Ġpat ience
Ġcompl iance
Ġwood s
Ġtreat ed
Ġviol ence
kb arns
4 0
t alk
Ġg own
Ġle isure
ag re
Ġdis char
Ġpr on
ĠJ ust
su cc
Ġinf inite
cri pt
Ġhast e
Ġ5 0
Ġincl ination
Ġfif teen
ĠKee ldar
Ġperman ent
m el
Ġ -
re ll
ed y
Ġg ri
Ġre nt
al og
ight s
ol ks
ne ar
Ġqu een
ĠR us
Ġbl essed
Ġind ust
Ġind ifferent
Ġinv ited
Ġsoci al
reg ular
S uch
Ġp ipe
am s
Ġv alley
Ġman ufact
Ġwhen ce
Ġany where
Ġam iable
ĠG race
com pan
Ġhouse hold
Ġobser ving
Ġcor p
Ġdiv ine
d irect
e b
h ome
r ants
Ġ Z
ĠI II
ri ah
ra wn
ul ations
Ġr ay
pl aced
Ġj est
Ġinv itation
Ġprob able
Ġtender ness
Ġrecoll ection
Ġsugg ested
ĠEgypt ian
3 9
G u
s aw
Ġa rose
ar ling
Ġst air
Ġpart ner
cl osed
land s
Ġgra cious
Ġste ad
Ġoccasion ed
Ġlearn ing
Ġlive ly
Ġdro p
Ġformer ly
str ong
Ġban ks
feel ings
w ent
in et
Ġl oose
Ġre duced
qu al
Ġr ic
ort hern
Ġfriend ly
Ġill ness
ze al
Ġenjoy ed
Ġdescend ed
fam ily
Ġpie ces
S ee
d ita
r ust
Ġ rival
ll in
âĢľ âĢĺ
ĠM onsieur
Ġk ins
other s
Ġcont ents
part icular
aj esty
Ġslight ly
ĠNot hing
Ġbott le
ĠHel en
Ġindepend ent
Ġhaught y
C l
b oth
Ġp ubl
se y
Ġas cend
ĠL ester
Ġal ter
con sequ
Ġ3 5
pr ise
ern al
Ġ4 0
Ġnum erous
bb ing
ĠCra ven
Ġpap a
I M
Ġf ulf
Ġp ounded
ĠS omet
ag on
ĠD id
Ġag es
Ġpl ed
Ġch o
Ġte ar
Ġpartic les
reg or
Ġsubst it
Ġdri ven
ĠMont agu
Ġconce aled
Ġviol ent
Ġvo ices
Ġlone ly
Ġs ed
Ġp ack
et ch
ur ance
ĠT empl
Ġsu st
art on
art ed
of ty
ĠR ashleigh
Ġsha de
Ġcomm itted
iet ies
Ġprev iously
Ġcompl iment
min utes
Ġenjoy ment
Ġoffic er
Ġaccompl ished
Ġprefer red
Ġcompar ison
ĠNev ile
Ġargum ent
Ġb le
Ġb la
Ġf o
Ġg host
ore rs
Ġcon ceive
ĠH ave
ĠB esides
Ġr iding
ab led
Ġpre c
Ġpre m
Ġcha racters
Ġend ed
Ġ3 9
Ġconv iction
Ġpriv ile
Ġpursu it
Ġdifficult ies
occ asion
Ġgod s
Ġsour ce
ĠCost igan
D id
E lizabeth
l ot
w ed
Ġt um
is c
Ġin duced
ul ating
ĠA re
Ġman sion
Ġdo ll
ord ing
per t
Ġwor ship
te ll
ĠĠĠĠĠĠĠĠ ĠĠĠĠ
Ġcont ribut
Ġimp ress
Ġrel uct
Ġtra vel
Ġmer c
ush worth
Ġeng agement
ĠGl anville
Ġrevol ution
ĠHar ry
pher d
Ġcit iz
8 0
N or
T ake
f ashion
m or
p ir
Ġb en
Ġc ultiv
or ke
âĢĶ âĢĿ
ist ence
Ġdo ct
be ar
ĠSt ill
Ġdif f
up iter
Ġche eks
Ġnecess arily
Ġmut ton
Ġdream s
ker chief
ĠMad ame
Ġdepart ed
Ġvan ished
pass ed
Ġbless ing
Ġdism iss
Ġdesper ate
Em ma
ĠBuck law
4 7
t ill
Ġt ide
ha re
Ġc ard
Ġn erv
al ty
Ġcom r
Ġdis gu
be aut
Ġres idence
Ġfl at
Ġimp r
bl er
sp oonful
cri be
vere nd
Ġoffic ial
" '
. :
C ar
f ull
m o
w ife
it ate
ver ty
Ġas king
qu iet
Ġal armed
Ġpo verty
wh ose
Ġwork ing
Ġpur se
Ġint r
Ġste el
Ġsim ply
Ġneed ed
Ġdisp leas
Ġhold er
do es
Ġpain s
Ġinqu ire
Ġhur ry
ĠMic hael
ye ars
ĠXX X
Ġreven ge
Ġprecise ly
s is
u ity
y re
Ġb ust
ri al
Ġant iqu
Ġmyst ery
2 1
c est
c ross
g irl
Ġto wer
Ġn ation
le ft
Ġst up
Ġr ust
ĠL ilburne
Ġpro sper
Ġqu it
Ġset ting
Ġunc ertain
Ġmist aken
Ġbring ing
Ġstrugg le
Ġliqu id
Q u
U D
in ations
Ġo cean
Ġw ave
it ality
Ġn amed
Ġar d
Ġro lled
ens es
Ġequ ip
ĠEd ie
Ġdro ve
ĠAmeric an
Ġunex pected
, )
w ers
Ġs ighed
Ġm ir
en ger
Ġp up
ĠP ri
ber ries
Ġbl ush
Ġcons ult
Ġlo ving
Ġref lected
Ġrest ored
uc hat
Ġfore head
Ġce ase
Ġexpl ained
Not hing
Ġpict ures
ĠFair fax
Ġrid ic
Ġp ace
Ġn erves
Ġso vere
ĠC rown
Ġne b
out hern
ck s
pl ess
Ġrep ort
Ġint imate
rem ain
Ġdisc laim
Ġprev ented
Ġphilosop her
vi our
quis ite
Ġing en
p osed
r im
t owards
in ate
Ġb orrow
Ġf ain
ll ust
om ed
Ġe gg
ĠT ilney
ĠH ay
ĠJ ack
Ġcont ro
ĠSt ate
Ġhar mon
pr ot
Ġenc oura
Ġgrace ful
Ġinquir ies
Ġaston ishment
Ġconven ient
ĠGer man
c ra
Ġn ay
Ġe cho
Ġre ject
ul ars
ard our
Ġab ode
Ġsome body
Ġpart ing
old s
Ġsec ured
Ġdel ivered
pro f
Ġbre aking
Ġel oqu
Ġed ge
sha w
Ġmount ains
Ġav ail
Ġinterv als
bre ak
Ġparent s
Ġs ne
is ions
Ġl iter
le men
Ġwas te
ĠE llen
ĠG reat
Ġsha lt
Ġrep utation
Ġgrave ly
Ġconcl uded
doub t
h igh
s a
Ġs ons
Ġp ars
Ġl ofty
Ġy ard
ad s
ch ool
ĠA mory
ĠH art
um ption
Ġinf ant
oun ter
Ġwa ist
Ġtend ency
Ġsle pt
Ġdress ing
por ary
Ġgro an
Ġess ential
Ġgrav ity
Ġadvent ure
b ra
m ount
en us
Ġg rie
ess ert
all ow
cl es
pro b
Ġprof it
Ġperm it
ask et
Ġdom ain
Ġafford ed
Ġfav ourable
Ġartic les
udden ly
A B
Ġw et
Ġw est
Ġm ajor
Ġin ten
al ing
ĠM organ
Ġde velop
Ġcom pelled
of ten
ĠN OT
Ġfl o
Ġwr it
Ġ3 8
Ġsun k
Ġcommon ly
Ġstand s
Ġslight est
Ġsold iers
bur gh
Ġkne e
suff ic
Ġdisg race
Ġinhabit ants
llin or
Ġinten se
4 6
j uice
m aking
p ing
r ous
Ġ zeal
re ak
er ving
âĢĿ --
ĠM e
Ġsa e
Ġdo zen
ĠP oor
Ġli p
ci ed
Ġar row
Ġpo em
ĠIt s
so ever
bl ance
iv ity
Ġent ering
su ed
ock ing
Ġinter val
Ġremark s
AR T
Ġsepar ated
ĠCla rence
Ġfool ish
feel ing
Ġimprove ment
Ġthro at
h oe
m al
r ine
en a
ar th
ke eper
Ġun ited
Ġam used
ĠR ome
man ner
Ġhon oured
Ġhast y
ĠNor man
bo x
ĠTr ot
somet imes
Ġcand le
serv ice
ĠAmeric a
Ġtreas ure
Per haps
Ġtit le
Ġcerem ony
Åĵ uf
Ġsav age
p es
at in
Ġd ed
Ġg la
Ġre ality
al ian
ur ies
ĠA then
ect ure
Ġpl ans
Ġbr isk
ian a
Ġact ing
Ġcop ying
br ought
Ġmod est
let ter
amp bell
bo ard
Ġlawy er
ĠId ris
Ġs illy
ĠT em
Ġme mber
Ġsu llen
res ented
ers hare
el ham
Ġun common
cei ving
Ġinst inct
Ġfam ous
pro per
Ġcare ful
Ġaccom mod
Ġtrem bled
turn ed
Ġignor ance
Ġestab lished
Ġbird s
ĠMart in
Ġcelebr ated
4 8
c ast
g reg
i ving
l inson
u gg
an z
Ġha l
Ġfor ces
Ġfor bid
ri er
Ġme nd
il bert
ke ep
Ġcon ject
ĠJ upiter
Ġcha mp
ĠIn formation
Ġend ure
Ġpar ish
Ġrec ord
Ġinterest s
Ġenc ourage
Ġrequire ments
Ġcommunic ation
M ad
b ow
Ġf und
Ġst ore
am ong
Ġv ener
um ing
Ġqu itted
Ġdes erted
Ġter med
Ġsur ve
cri ption
pend ed
Ġexpect ation
Ġcourt esy
Ġdep os
bel ieve
Ġder ived
Ġimpat ient
Ġexper iment
a res
d aughter
f ree
Ġa pt
Ġw oe
Ġw ounded
Ġp isto
st ri
ĠT wo
Ġr isk
Ġr oused
ĠL y
pt ic
ĠV incent
cha ir
Ġwant ing
Ġrom antic
p ast
p iece
Ġn on
Ġha z
le my
Ġso il
ĠC ath
ĠB racy
pl ayed
Ġar rest
ap ers
Ġfl ight
Ġ2 6
ces ter
Ġbeg ins
Ġgre et
Ġfin est
hand s
Ġer rors
ĠInd eed
Ġdisappoint ed
Ġur ged
uches s
B Åĵuf
c reat
e ase
v il
Ġo be
Ġs add
it udes
Ġg ard
Ġth under
Ġme mbers
Ġde ed
Ġr ang
ĠW or
ĠW as
ĠL anc
ĠP o
Ġsc ru
ĠU riah
Ġdoubt less
Ġsing ing
Ġdev otion
word s
Ġinfer ior
Ġshel ter
m ission
t ax
Ġb aked
an im
ĠM us
Ġse es
ol ate
Ġad apt
Ġcount y
Ġ2 9
Ġfar m
ail ie
ĠY orke
Ġobject ion
Ġimpro ved
Ġsauce pan
Ġoffic ers
Ġbon net
Ġinstrum ent
ĠAN Y
d ig
l ist
ic ious
Ġan cest
Ġcon taining
res ist
ĠB rown
Ġr ind
ol k
Ġsp ort
ĠR oman
cept ible
Ġpleas ures
Ġcall s
Ġmin ced
Ġopp osition
ĠAl wyn
AR RAN
Ġcreat ed
ĠChurch ill
b read
l ay
v oice
Ġo h
Ġw ont
Ġc rying
Ġwh ist
ne ighbour
pl ed
Ġj elly
Ġbl oom
Ġrem ote
Ġoff ence
Ġco arse
Ġgu ilty
Ġfin ally
Ġmount ed
St ates
IS T
Ġfee ble
Ġcoun ter
Ġbeat en
Ġarrange ment
ĠMon kbarns
Ġmax im
Ġnerv ous
C ha
f in
r ayed
Ġw ra
Ġc as
at a
Ġcon tained
ĠL ook
Ġun ion
Ġar my
Ġend s
Ġhor iz
ĠPer dita
Ġtal ents
Ġdwell ing
Ġmour n
Ġtim id
Ġassemb led
Ġearli er
Ġbrand y
O O
S ome
Ġe la
ĠM er
Ġsu ited
Ġde mon
em and
ie u
ĠG awtrey
Ġres our
Ġche st
Ġfig ures
Ġcrowd ed
ĠNe uchat
circumst ances
diff ic
V E
Ġt our
Ġs me
ed ed
Ġd ried
Ġl aughter
im ag
Ġnot iced
Ġst retched
Ġsa le
âĢĶ "
ul s
the lemy
Ġexp osed
Ġind ifference
Ġext ended
Ġhear th
Ġdin ing
Ġattempt ed
Ġconn ection
Ġutter ly
aud em
Ġfright ened
Ġdisd ain
Ġsovere ign
P oor
ing er
Ġp ir
at hed
Ġd il
Ġas leep
ĠM ore
ĠM oney
Ġde ce
ĠC ON
Ġdo ctor
ond s
Ġgr ay
con vers
Ġpleas ing
Ġlight s
Ġconf used
Ġinter nal
Ġland lord
ative ly
Ġdra in
Ġsucc ession
Ġlead er
Ġmeas ures
5 0
O r
d est
Ġb ree
Ġc ow
ll ers
Ġd ame
Ġn orthern
ri f
ĠM S
ud ge
Ġbr oth
Ġch ose
Ġsc attered
Ġwr ath
Ġinst ruct
Ġ3 7
Ġrel ieved
Ġste ep
Ġinc ap
Ġmer chant
Ġoccup ation
Ġapplic able
Eng lish
Ġamuse ment
Ġacknowled ged
audem ont
A TION
a ac
p ose
w it
in ner
Ġb ase
Ġin form
Ġn ational
le ton
Ġg ift
se x
Ġwe el
ri ous
Ġsh oot
Ġcha mbers
Ġra ge
Ġte ach
Ġins ide
Ġbene vol
Ġtou ching
Ġsend ing
Ġsuccess ful
imp ort
Ġang le
Ġpeculiar ly
Ġconcl usion
Ġincreas ing
affect ion
obser ved
Ġabrupt ly
A U
I R
es e
Ġp ier
Ġh orn
il k
Ġshe d
Ġne arest
Ġr um
ist ent
ound ing
ose ph
Ġper ple
Ġapp ly
ans field
Ġadm ired
Ġmer it
ivers ity
Ġknight s
Ġdemand ed
Ġconne xion
2 3
i pped
k ward
o il
p ot
Ġa ught
Ġf led
Ġto ss
Ġme al
ak ened
ud der
Ġhar sh
ial ity
ĠTh ose
Ġdistribut ed
Ġmel ted
Ġpress ure
Ġaston ished
ĠScott ish
Ġsuspect ed
Ġident ity
f ire
g ments
i verse
l ain
l ict
r ical
Ġw arrant
Ġre ign
al ready
âĢĻ ,
th ony
ul ted
Ġv ague
Ġup stairs
ĠR ushworth
Ġpres erved
Ġgl anced
Ġtr im
ex cept
Ġconf ident
ron om
Ġgu ilt
Ġpar all
Ġstran gers
Ġmo ist
Ġest im
Ġprepar ing
ĠKee per
Ġexper iments
bus iness
f ind
h ind
Ġs an
ha l
Ġd re
le ast
Ġbe ings
Ġth read
Ġcon j
ig ation
ĠD aw
ĠG arden
me re
Ġbl ame
Ġwr iter
ĠĠĠĠĠĠĠĠĠĠĠĠĠĠĠĠ ĠĠĠ
Ġcle ared
Ġinv ar
Ġwalk s
Ġexperi enced
Ġvict im
Ġpu zz
Ġcaut ion
Ġfan cied
f act
h ope
n ie
Ġt id
Ġb ag
Ġd essert
ur red
Ġso ber
Ġab und
fe w
Ġlight ed
Ġconf irmed
Ġadv antages
Ġthy self
ĠNor ris
Ġmot ives
Ġda wn
ĠBrit ain
Ġrelig ion
c old
in ion
it self
Ġm ush
Ġf id
Ġd arling
Ġre la
ro ll
il i
Ġde emed
ĠC ampbell
ĠB ell
ĠL ittle
ĠL uc
Ġch im
Ġdes erve
Ġfl ow
ob ody
Ġconf ined
Ġbest owed
Ġvisit or
Ġcent ury
Ġconduct ed
Ġbelong ed
Ġtrave lling
Ġvent ure
Ġfold ed
* *
d iv
d raw
y es
Ġ ice
Ġc el
ut or
Ġon y
ort un
ĠE llinor
ĠF oll
Ġab and
Ġar med
Ġob li
Ġob vious
Ġcomp ut
Ġatt ribut
resh old
Ġrare ly
ĠBrit ish
ias m
Ġdisplay ing
succ ess
I llust
i ott
re ceived
Ġf est
ĠM ars
Ġst ated
Ġst rew
ĠS y
ĠB unning
Ġk illed
ĠW ardour
Ġsh one
ist ory
ie nd
ĠR ose
me as
Ġgood ness
cl ose
Ġthrough out
Ġname ly
Ġtra ce
Ġwind s
ĠWar ner
Ġdepend s
Ġbelong ing
Ġneg lect
ĠTom linson
Ġmurm ured
Ġobsc ure
Ġbeha viour
G o
c ut
m ical
Ġ z
it che
Ġp ark
at ives
at oes
Ġy on
Ġre tain
Ġst iff
Ġst ones
Ġde w
ĠB arton
Ġr at
ĠD es
Ġed itions
ĠScot ch
Ġimpat ience
Ġdisappoint ment
Eng land
a um
l or
s ister
u ced
Ġl if
Ġl ift
Ġl inks
ur th
Ġcon ceived
ĠL icense
Ġno on
ol ic
ĠP res
ĠG o
ĠĠĠĠĠĠĠĠ ĠĠĠĠĠĠĠ
Ġcl erk
ick en
Ġcomp et
Ġpass es
Ġspeak s
Ġprom pt
ey n
Ġpray er
Ġpop ulation
Ġcry st
Ġspect rum
van hoe
olit ical
ĠFoll iott
F rench
l im
l est
v ated
er ity
Ġh un
Ġst ick
ĠP elham
Ġun w
de ar
Ġrem orse
Ġgr anted
Ġdist rict
Ġ" _
with in
cept ions
any thing
gr ad
Ġprodu ction
ĠUn ion
friend s
Ġclaim s
adv antage
Ġsummon ed
M ay
b on
c ular
t m
Ġb ull
ar c
ot es
st ru
st ane
Ġst amp
Ġv ibr
ĠE ach
ci p
Ġro ll
Ġob taining
Ġres istance
Ġworld ly
Ġinter course
Ġdelic acy
hor se
oak s
Ar thur
Ġasser t
ĠNeuchat el
m ail
p ossible
re rs
Ġb atter
Ġhe avens
ur ious
ĠS im
ge ance
est s
ĠB ows
ĠW ould
Ġper formed
Ġres erve
Ġapp et
unt il
Ġste ed
Ġins ult
Ġground s
Ġele ment
Ġsign al
Ġsla very
ĠHouse man
Ġvill ain
Ġresult s
Ġprepar ation
Ġeld est
Ġenem ies
enc ies
Ġvel ocity
Ġclergy man
D ear
f ellow
p ost
Ġ iv
Ġs ieve
Ġl am
Ġl amp
se ver
ri ble
ĠC r
os itions
Ġle vel
are ton
ĠD av
de c
wh ite
Ġvis its
Ġpar liament
Ġrequ ires
Ġprob ability
Ġsupport ed
Ġvolunt eers
Ġtoler ably
ĠJan et
d ark
f elt
p ublic
he m
Ġm ant
ent ered
Ġre n
Ġor ange
ĠB on
Ġag ent
Ġpo le
Ġres ist
ens ions
cy throp
Ġfollow ers
Ġinc ons
Ġmil itary
Ġca res
Ġbu ilt
Th us
Ġdeterm ine
Ġstart led
Ġpress ing
Ġpropri et
Ġpars ley
f ig
g iven
j our
n el
w en
Ġa y
in ence
Ġe ating
Ġst uff
ĠA G
um s
ol es
ig ence
ĠG rant
ount ain
Ġaw ake
Ġtell s
Ġsil k
Ġmag ist
Ġwand ering
Ġpla gue
cond uct
Ġadopt ed
Ġvers es
Ġeleg ant
5 7
V III
t is
Ġd ined
Ġl iterary
Ġhe d
Ġher bs
Ġst ately
red ients
em an
Ġsp here
Ġappe al
Ġlo g
Ġche ap
rew d
Ġcur se
Ġrec all
Ġpain ted
cell ent
Ġfact s
Ġapart ments
Ġdescri be
Ġden y
ett a
Ġsplend our
Ġconve y
Ġrul es
immedi ately
Ġpolic y
opy right
h ic
s al
Ġ âĢĶ
Ġm amma
Ġf anc
ar ms
Ġl un
Ġth ither
pe ak
ac ob
ist ic
ĠL ight
Ġdis appeared
Ġen orm
Ġcont ented
com b
Ġsl ice
Ġrel ated
cha mber
Ġmar ch
Ġchar ity
Ġmean while
Ġdec or
Ġcond em
ĠAn thony
Ġins ens
Ġstra ined
Ġadmir able
ĠColl ins
Ġaut umn
Ġbegg ar
! !
! )
; "
E ndymion
h ouses
Ġa ch
er ies
it ations
Ġf il
Ġf rown
Ġhe av
ut ch
al so
ill ings
Ġv ir
ĠW ARRAN
ick et
Ġthr ust
Ġra ising
Ġexp enses
Ġref resh
pro v
Ġart s
Ġwish ing
ĠBe fore
ĠMar quis
Ġcompl ain
Ġwarm th
Ġmove ment
Ġdrink ing
Ġartic le
child ren
Ġpurcha se
Ġabsor bed
Gu ilbert
Ġkins man
C on
Ġ Î
Ġa we
Ġa fore
in v
Ġs ore
er ick
ver age
Ġnot withstanding
Ġan gel
ĠT ower
ĠB et
ĠR os
me red
Ġsm iles
ĠV I
Ġint ensity
Ġposs ibility
Ġve x
sc ape
Ġlist s
ĠIs aac
Ġmid night
Ġtor t
Ġcre ation
Ġfortun es
ĠBel inda
Ġcoff ee
ĠTempl ar
Illust ration
C an
b ene
Ġa ven
Ġo we
Ġw ings
Ġd w
Ġd rank
Ġg un
Ġg ude
ent h
ent ive
em ents
Ġsh owing
Ġun willing
ĠD avy
ĠG overnment
ĠN ove
Ġcha in
ex pl
Ġrest ed
Ġprov iding
Ġelect ric
ĠPr ot
Ġcreat ing
Ġrepe at
Ġmain tained
amb a
Ġfortun ate
Ġrob ber
comple te
ĠTem ple
L ondon
c rum
g on
re al
Ġf ried
Ġst or
ĠC ont
ĠB ailie
Ġno is
Ġfe es
Ġun worthy
ress es
Ġdis like
fe rences
Ġbl ank
ens ed
bl ack
ex peri
ph il
az z
Ġru ff
know ledge
Ġconsequ ences
Ġsign s
Ġplain ly
even ing
Ġstew pan
mond s
Ġpolit ics
Ġlux ury
inds or
Ġwond ered
comfort able
ĠSu pp
Ġsimpl icity
Ġresent ment
E very
P r
_ ;
o lf
Ġb ade
Ġm art
ot ted
Ġe mer
ct ions
Ġnot ions
Ġst oo
and er
am ation
Ġcon grat
ĠH unt
ĠC f
Ġsh ows
Ġun like
Ġsp rang
ĠG rand
ĠĠĠĠĠĠĠĠ ĠĠĠ
Ġcl ock
Ġcha pter
not e
Ġra pt
Ġret ire
vers ed
Ġchild hood
by e
Ġfort night
Ġcompl aint
Ġsoft ened
Ġfra gr
cons cious
ingu ished
Ġsafe ly
Ġcommunic ated
occ up
Ġfun eral
Ġdeli ber
ĠWick ham
ĠWick field
Ġanaly sis
a wn
c oll
d ays
i el
l stane
m ine
t imes
Ġw ard
Ġf arewell
Ġc ot
Ġl ack
ic ism
the lstane
ĠP al
ane ous
ev il
Ġsatisf y
Ġmeas ured
Ġacknow ledge
Ġexha usted
ĠOx ford
eyn olds
C har
f ine
g ence
m outh
re nd
ou cester
Ġb ay
Ġe ast
ĠS outh
all owed
Ġex quisite
ĠP om
ĠD an
Ġbr idge
Ġrem o
Ġimp art
Ġinc ident
Ġsim mer
Ġbrother s
Ġcomple xion
Ġtrust ed
ĠCom mons
Ġsuper st
Ġtrave ller
Ġmess age
Ġmagnific ent
4 9
e g
Ġt ight
Ġin conven
Ġl ink
Ġbe half
se par
Ġth reshold
id able
ect ions
ĠE n
ry or
op ed
Ġad orn
Ġpl un
Ġgr im
Ġfl ame
sh ine
ans wer
ult ies
Ġsmall est
rem ark
Ġadm in
ung ay
Ġlab orers
Ġdest ined
Ġmain tain
Ġwood en
Ġearnest ly
hum our
Ġdestro yed
Ġmagnet ic
ĠWald ershare
E L
G l
s k
v ag
Ġs pl
Ġw ww
ou bles
Ġe ternal
ri ot
Ġsu bl
Ġman age
Ġmore over
Ġaw kward
Ġsupp lied
Ġsub du
act ory
Ġact ions
Ġass ume
Ġinv al
Ġpartic ulars
Ġcoll ected
Ġcontr ad
IT ED
inc reas
set t
Ã© e
Ġimper fect
Ġwithd rew
Ġtot ally
Ġbran ches
b ation
k n
Ġa im
Ġh y
Ġl ock
Ġan te
if ully
ĠS n
ĠA cc
ble m
Ġsh ining
de ath
Ġcomp lying
sh ort
Ġfound ed
alt ies
Ġstrong er
Ġir regular
Ġelse where
just ice
Ġtreat ment
Ġder iv
Ġwithd raw
Ġcalcul ated
Ġdesir ous
Ġhosp itality
Ġcommod ities
L ook
T hank
j ac
s auce
v oured
ar v
ĠI vanhoe
ĠS erv
Ġv ice
ĠF ront
ag net
Ġper t
Ġen abled
Ġpo ison
Ġcons olation
con v
Ġlight ning
Ġnight s
Ġcar rying
Ġinc ome
Ġdec ent
Ġprodu cing
Ġprof ess
Ġexist ing
Ġfirm ly
Ġdeb ts
Ġpal ace
Ġrom ance
Ġpull ed
Ġappoint ed
m ble
Ġs ank
it ious
Ġf ought
Ġc ared
Ġh olid
Ġg ang
ĠT ake
il ight
Ġso fa
Ġr ings
ĠD un
Ġpl ant
Ġco in
rem ember
Ġfall s
Ġbur ied
comp any
Ġattend ance
ĠPar liament
Ġvent ured
yr rell
quar ters
Ġnewsp aper
Ġequip ment
a ired
d y
m ut
w onder
Ġa le
Ġc oo
Ġc av
ĠI m
ĠT e
Ġde eper
Ġman aged
ne ither
ĠE conom
ĠG u
ĠG reen
ab b
me g
Ġcl im
Ġseem ing
Ġcomm enced
Ġrep resented
Ġjust ly
Ġbo ast
oub led
uck y
Ġsent iments
Ġfour th
arce ly
Ġproceed ing
Ġsleep ing
Ġpri ze
Ġfurn ished
Ġyield ed
interest ed
Ġliqu or
Ġconve yed
Ġthe atre
re ng
Ġp ed
le an
ay lor
ro y
ĠB ank
ĠW he
Ġsh ru
ĠL ydia
Ġfe ast
Ġun iverse
Ġsp ared
Ġout ward
Ġthr owing
Ġconf irm
Ġprop osal
Ġoccasion al
Ġemploy ment
exp ress
Ġfol ks
Ġjealous y
Ġdesir able
Ġdefect ive
ĠAugust us
convers ation
itche y
C TION
p ence
Ê ¹
ic ted
le arn
ro g
Ġan e
to p
to ld
ĠL ife
ĠL atin
un less
Ġold er
Ġreturn s
Ġext ensive
Ġchar ms
Ġcost s
Ġintim acy
Ġsate ll
Ġdiscus sion
Ġrenew ed
tem per
Ġestablish ment
f la
m us
t ic
t ies
Ġf oul
om er
hat ter
ir k
ur st
Ġcon vert
us ions
ant e
ig s
ment ion
Ġdes ires
Ġfl u
Ġgl orious
Ġheart ily
Ġsl ices
Ġpur sue
Ġve il
Ġdisc ern
Ġmis chief
Ġpay ments
Ġmark s
chan ce
Ġsch olar
Ġpract ical
Ġshad ows
Ġcomb at
Ġparagraph s
Ġdistingu ish
Ġrock s
Ġow ing
Ġapplic ation
contin ued
Ġrot ation
V II
i ate
u ly
Ġf itted
Ġc red
an x
Ġh unt
Ġl ion
Ġhe ll
Ġst alk
Ġst raw
il gr
ĠC arson
ĠB ook
Ġwill ingly
Ġbr id
Ġpr ime
ark is
Ġover come
Ġres erved
Ġrep ent
Ġfather s
sp ring
ĠWe re
Ġuse less
Ġyouth ful
Ġorigin ally
Ġattend ants
Ġvirt ues
Ġwitness ed
Ġinj ury
ĠMacG regor
Ġbab y
umin ous
Ġweap on
Ġapprehen sion
Ġcitiz ens
anz a
5 8
I G
b od
l ate
p osition
r ich
ad ies
ĠE X
itt y
ran ces
Ġgr in
Ġatt entions
Ġent it
Ġser iously
Ġbo ots
part y
Ġrespect s
Ġru ined
che t
IT H
Ġthousand s
equ al
spir it
Ġtar iff
phil osop
I nt
s ir
y ear
is ible
Ġm air
Ġf ret
es tern
Ġn onsense
ve t
ĠM ansfield
ĠA ny
ĠC ap
Ġex empt
Ġr ush
Ġsh ock
um mer
ĠL ike
ol ent
Ġfe ather
ord ingly
Ġdis agreeable
for mer
Ġdist ances
con ce
Ġsec urity
Ġco pper
Ġrest rict
Ġform at
Ġhope less
eng ers
Ġswe ar
ĠMar ion
Ġcoll ege
Ġattend ant
Ġpost ed
sec ond
Ġing redients
fav our
ĠSomet imes
Ġincap able
4 4
L e
b an
b ishop
i ency
Ġt read
is in
Ġf ires
Ġd aring
Ġl ament
ce l
Ġwas h
ri ving
Ġv ap
ĠW amba
ol ence
ĠF ather
ĠR y
Ġour s
Ġbr ings
ĠJ oseph
int s
ĠV audemont
Ġhere after
Ġmis fortune
Ġexpress ions
Ġeng age
Ġexcept ion
Ġdr unk
Ġanim ated
Ġexer c
Ġhang ing
ĠAb bey
Ġinvol ved
col oured
Ġreflect ions
Ġproduct s
etter by
ĠVal ue
Ġenthus iasm
Ġobe yed
Ġappet ite
6 0
H a
I ON
U pon
c all
c orn
g ave
t aking
Ġt ied
re land
Ġs ink
Ġc ake
Ġn ations
ĠM ark
if ies
ĠS ince
us s
Ġli kes
Ġun pleasant
Ġcl ot
ell e
Ġsc ream
Ġgl ow
Ġapp ar
ertain ly
aster n
Ġsmall er
Ġaffect ing
HA T
Ġdoubt s
Ġru ins
add ed
Ġperiod ic
IL ITY
supp ose
hum an
Ġdecla re
Ġstat us
Ġow ed
Ġpos itive
Ġrepro ach
ĠTH IS
agre ement
crum bs
H ER
O S
g ow
g reen
i ations
n on
u ary
Ġs en
Ġs her
is her
Ġb one
Ġb lend
Ġl ass
ĠM al
Ġst aff
ĠA my
Ġr isen
ĠW ilton
Ġun usual
ĠR ep
be gin
for ward
Ġlike wise
ap s
Ġsc ar
Ġgr ant
Ġimp ressed
rest rial
Ġir rit
Ġsecret s
Ġmur de
Ġgaz ing
Ġcomb ined
sub st
Ġmurm ur
Ġprint ed
tran s
Ġchim ney
c a
i vering
k new
p ons
Ġp owder
Ġin duce
Ġl it
Ġn a
im ately
Ġre vel
Ġwhe el
ĠW indsor
Ġqu eer
ĠG urth
Ġdis ease
Ġout er
ove l
Ġch in
att ention
Ġprov ision
Ġhonour s
oc r
Ġview ed
Ġexist ed
angu age
Ġer rand
Ġdelic ious
Ġcous ins
ĠInd ian
Ġ9 0
Ġaddress ing
Ġshout ed
Ġindign ation
Ġeste em
Ġextrem ity
R o
f air
n umber
s w
t ar
he aded
Ġf asc
or ing
as ked
Ġis sue
Ġsh rewd
ort ing
ĠP ryor
Ġevery where
Ġgl ancing
Ġche mical
Ġste am
Ġdoubt ful
Ġreason ing
Ġtem porary
Ġsad ly
pur pose
ĠIsab el
Ġmult itude
inf lu
Ġperpet ual
Ġglo be
Ġreplace ment
J ane
s la
Ġt ext
Ġwe pt
ĠM il
Ġv ale
Ġsh illings
Ġman if
ĠF ield
Ġcan st
Ġus er
Ġcomp osition
Ġoff ended
Ġapp les
Ġinst ances
vers ion
ĠMar ia
count enance
Ġneighbour ing
Ġann oy
Ġneg lected
Ġprepar ations
Ġentertain ed
AM AG
Ġappropri ate
Ġstup id
ĠAG RE
ĠPom pe
A b
I X
O ld
T is
d inner
l ers
Ġ ...
Ġt u
Ġs outhern
Ġf aded
Ġc ree
Ġhe m
Ġy olks
Ġre cess
Ġwe igh
ĠT er
oo f
Ġsa vour
il ful
âĢĶ âĢĻ
all an
ol ution
ong ress
op en
Ġdis played
Ġsha red
Ġpre y
Ġcha se
Ġbl ushed
Ġdes erved
Ġspe cial
Ġwhere ver
Ġsub sequ
ex am
Ġact s
Ġshort ly
Ġ18 18
Ġdiv ision
fer red
peci al
âĢĶâĢĶ âĢĿ
dist ance
Ġcou ch
Ġimm ort
ĠBar thelemy
Ġoper ation
Ġexhib ited
hon our
Ġhoriz on
Ġderiv ative
3 1
S te
Y e
g ings
p ool
s it
is l
on i
Ġto mb
Ġp ul
as gow
Ġbe ast
Ġbe gged
Ġon ions
ri ages
if ts
am a
Ġse lected
Ġcon tain
ĠH areton
ac ing
Ġj ew
ĠJ acob
Ġbet ray
Ġdes k
Ġthought ful
cha l
Ġget s
Ġvar ieties
Ġappear ing
Ġneed s
Ġperfect ion
Ġmus ical
ear th
min ster
Ġmass es
Ġguard ian
Ġperform ing
Ġven geance
Ġdre ary
b ad
n es
re nder
Ġw ip
Ġf el
le ave
Ġst ories
ĠS E
ĠS w
us ive
ast es
el come
Ġpro dig
ĠE s
Ġj ar
ĠJ une
co ver
Ġcontin ually
Ġswe pt
Ġsw ift
Ġed ition
gu ish
Ġenc ounter
Ġdish on
ux ter
ĠSp ir
Ġsugg est
wr iting
Ġpersu ade
Ġfurn iture
affect ed
Ġbran ch
B ec
E W
e rer
f ell
i ber
s ight
t ender
Ġt re
Ġb ake
im mer
th ird
Ġtw ilight
Ġconf ession
Ġcertain ty
pro ceed
Ġspeak er
Ġvar ied
bit ious
Ġrespect ing
Ġlay ing
Ġcor rupt
Ġanx iously
Ġlea f
arri er
ĠBar onet
hus band
vis it
wind ow
Ġwarn ing
Ġenorm ous
Bec ause
A ST
M aster
v iously
v iol
Ġw ing
Ġp ages
Ġp ushed
Ġd azz
Ġha ted
Ġg est
Ġg ates
th ren
od ius
ci le
Ġen vy
con n
Ġheart y
Ġste pped
Ġdef end
law s
under stand
Ġdr own
Ġphilosop hers
Ġhat red
vi ved
Ġdistinct ly
Ġmess enger
Ġexec ution
Ġexert ion
Ġfle w
Ġwed ding
Ġinsp ired
P hil
S C
a ec
c ourt
l ive
p ain
v ill
Ġw retch
Ġd amp
ic o
Ġg ig
ur day
em ploy
ĠB ois
Ġv est
Ġam ple
cl oth
Ġgr ate
Ġconf er
act ions
Ġmoment ary
Ġhold s
Ġdog s
fashion ed
Ġdisgu ise
ĠPri or
Ġneb ul
Ġsme ll
d ated
m id
Ġw arri
it ch
es pecially
ar is
Ġl ocked
Ġre ception
Ġwho les
ne xt
ĠF ar
Ġun just
op ing
ĠHe ad
ci ety
Ġdis hes
ran ger
Ġcha pel
com es
cei pt
ten ance
Ġinter ference
Ġpol ite
Ġhelp ed
Ġlab or
ĠGl oucester
Ġang les
Ġhot el
An ne
Ġdimin ished
Ġrelig ious
Ġsolic it
Ġrejo ined
ĠRus sell
5 5
T rue
s ix
in ently
re ck
it ively
Ġf iend
Ġg oss
id ents
Ġst ayed
ĠT yrrell
ĠS cythrop
ĠG ard
Ġknow est
ition al
Ġfeel s
Ġturn s
Ġhapp ier
sp o
Ġperson age
.âĢĻ âĢĿ
Ġcr ust
Ġart ific
Ġkeep s
Ġrec alled
Ġtri ump
Ġban quet
ĠFair oaks
Ġfro st
Ġreve rence
Ġfault s
Ġmiss ed
return ed
conc ern
Ġremind ed
ĠMus gro
arv ie
P endennis
U S
b al
m iss
r ice
he ar
in cess
Ġw ire
ou ps
or ig
at o
ut ing
ĠS quire
Ġde er
Ġde ceived
Ġk ill
ers ed
el se
Ġsome where
Ġpl ants
Ġ1 1
Ġres c
Ġsc ore
Ġlong ed
Ġatt racted
Ġent ity
row s
du cing
Ġac ute
Ġind irect
Ġrest ore
Ġread ers
Ġev ils
Ġass urance
Ġfine ly
Ġcol umn
Ġregard ing
Ġdest ruction
ĠPr ice
happ iness
Ġexcell ence
umb led
Ġaccompl ish
Ġcorrespond ing
acqu aintance
Ġdissol ved
Ġpup il
I RE
b ri
e le
i ary
n ay
p ract
w ant
Ġ --
Ġt a
Ġa ug
Ġo bey
at us
ic ate
Ġg ross
Ġnot ed
Ġsa ge
Ġde fic
ĠL och
ag g
me et
Ġpre ference
Ġthen ce
cl ass
Ġgr ated
Ġimp osed
ĠU pon
Ġform ing
Ġpoint ing
gr own
Ġaccount s
che l
Ġincl uded
Ġking dom
Ġbur den
ĠPro fessor
count ered
Ġsepar ation
Ġpassion ate
Ġball s
Ġarrange ments
Ġtot al
ĠDou gl
det erm
ĠSn itchey
A K
H arriet
r ind
t ree
Ġt ie
in ery
ou ched
on ies
Ġm orn
Ġan guish
Ġde fe
Ġno bles
ol s
ĠP re
ure ly
Ġpro hib
ig en
ĠĠĠĠĠĠĠĠ ĠĠĠĠĠĠĠĠĠ
Ġcl am
Ġch ival
Ġdes cent
iz zy
Ġadv ise
Ġform al
eng aged
Ġcreat ures
Ġexam ined
bo iled
Ġattend ing
Ġcommand ed
Ġemb ra
Ġune asy
umb ers
Ġpun ishment
Ġtal ent
Ġpor ter
Ġbew ild
Ġencoura ged
Ġsubdu ed
aec ides
M ac
a ver
s ions
in al
Ġo y
re ne
Ġf ry
at en
ur ate
ct o
âĢĿ âĢĶ
Ġsa g
am ont
ul sion
ci ences
Ġsome how
Ġob ed
ret ion
Ġind isp
Ġco ast
Ġgener ations
Ġgener osity
Ġprof its
Ġcap acity
Ġlord s
Ġwonder ing
Ġri pe
ĠCl odius
Ġdest iny
cons idered
Ġdesp ite
tr ad
Ġseason ing
Ġavo ided
Ġrecogn ized
Ġspr ung
Ġdiam eter
ĠRow ena
Ġdoct rine
resist ible
U M
in burgh
Ġb uck
Ġb ased
Ġc ards
Ġl ust
Ġl osing
ic able
Ġre conc
Ġme mor
ĠB ates
ĠB arkis
art s
pt ember
other ing
Ġcl os
Ġcl ung
de ep
Ġref uge
act ly
rem em
Ġopp osed
gr ateful
ĠCh ief
sc ot
your self
reg ard
chan ged
Ġcoll ect
Ġindividual s
Ġinvol unt
Ġrefer red
97 32
Ġadapt ed
Ġcot ton
Ġrestrict ions
cto ber
C la
f resh
o ves
s l
s un
v iew
Ġs ke
Ġs ang
Ġf ury
Ġl ap
Ġe lli
Ġy ards
Ġwh it
ĠT etterby
ĠL ow
ord s
be come
pro ve
ken ess
Ġsle e
ec hes
mb led
cont r
Ġkn ock
tr uth
char d
Ġeager ness
pri l
Ġintro duce
Ġwand ered
Ġextra vag
Car oline
ĠNove mber
4 1
T r
] .
s low
w ish
in ces
in ement
re ci
Ġhe ated
Ġg oose
se em
ĠM at
ĠA thelstane
Ġv ivid
Ġr out
pl an
Ġar isto
Ġdis cont
ĠO wen
Ġcl iff
Ġthr ong
Ġpass ages
Ġwr ought
ial s
Ġlo vers
Ġread s
arn shaw
Ġsun shine
Ġpret end
ĠBe aum
Ġdead ly
Ġkn ave
Ġkn ocked
Ġwit ch
Ġreco ver
Be fore
Ġinno cence
Ġcommer ce
Ġearli est
ĠAp aecides
Ġhaunt ed
Ġfed eral
Ġpron ounced
Ġstair case
ortun ities
Ġentit led
l ies
p ay
s weet
w his
Ġm ission
Ġto il
le x
pe culiar
ĠC ity
ĠB RE
ĠB ungay
ĠW ITH
ort ions
Ġdo st
ag ing
Ġcl an
ack leton
Ġcha p
Ġrem on
Ġspe ll
Ġsupp osing
Ġconf ounded
Ġexc ite
Ġcop ied
Ġdisc ourse
Ġcond itions
Ġins isted
Ġ18 8
Ġdra ught
Ġcut ting
Ġcompl iments
Ġroad s
ĠSp en
fortun es
Ġexchan ged
Ġcand id
Ġfier y
gentle men
Ġgrow th
Ġappre ci
Ġcheck ed
Ġspeed ily
Ġmach ine
intell ect
Ġprec aut
ĠDougl as
/ /
9 6
: //
S u
i ated
u ine
Ġo wer
re ally
Ġm ock
Ġp ang
Ġin her
Ġre tained
Ġre aching
Ġan alog
Ġse m
ant ine
Ġsh oes
um ent
ĠL ake
ĠE ug
Ġj ump
ĠR eynolds
Ġar rive
Ġcl asped
Ġsee king
de f
Ġcont ract
Ġprop ose
Ġsound ed
Ġri g
Ġcomple ted
Ġport ra
Ġmeant ime
ĠMart ha
Ġresem blance
Ġnut meg
ĠDav id
ĠSpen low
B el
g rand
h ire
h ours
t rue
Ġw ake
or ter
at ched
Ġd un
Ġd iver
Ġl ic
ic ation
ĠI reland
ir y
ĠM en
ra int
ĠT HAT
ĠH uxter
Ġshe w
Ġr ises
ind er
ers chel
ĠG ent
Ġim plied
ap art
Ġbl ade
Ġatt itude
ip se
Ġwhere as
gg ing
ĠV II
ĠYou ng
Ġart ist
Ġmet ap
Ġtown s
Ġresol ute
comm unic
Ġglass es
Ġciv ility
Ġrecogn ised
Ġlod ging
ĠThor pe
rot chet
Ġvac ant
ĠSus sex
F air
O W
p op
p ite
s chool
Ġb ark
Ġb acon
Ġc u
es cend
Ġbe ars
Ġwe ep
ch ilt
ĠT ell
and s
qu ick
ĠS all
Ġsh ri
pt ical
la id
la ugh
end ous
be hind
Ġpart ial
Ġbet rayed
but ter
ft s
ĠU nder
Ġinter ior
ĠY e
ĠAl as
Ġbreat he
imp se
after wards
Ġmoon light
thought s
Ġder ive
Ġdecl ined
Ġindul gence
umm ie
Ġmaterial s
hast ly
Ġult imate
ĠGlen allan
Ġdischar ge
Ġindust ry
Ġeloqu ence
ĠHart field
Ġtid ings
5 6
I D
R ob
Ġm ob
Ġm ute
Ġm irth
Ġp om
as hes
Ġhe ed
ad ise
Ġst ag
ra ge
ĠS ec
em ember
Ġdo om
ne ed
ag o
Ġpr udent
ĠIt alian
ex cellent
ĠIn n
Ġmar rying
Ġcur tain
Ġmod el
og raph
Ġacqu ies
ĠEd gar
Ġpol es
Ġstand ard
Ġbar gain
Ġjud ged
ĠAd on
Ġsy rup
Ġnoble man
ĠGl asgow
ĠDe ath
Ġast ronom
Ġcalm ly
An other
Ġgrand father
Ġneg ro
Ġintro duction
ĠAb out
Ġpot atoes
bro ken
consider able
Ġnarr ative
Ġbust le
Ġhed ge
sett led
Ġmurde rer
E ven
N ew
Q U
d ro
d am
g est
p est
p oonful
t own
u ously
x x
Ġo il
re ceive
Ġb asket
Ġl ance
ir ke
ĠT ra
ĠT aylor
th s
Ġqu ot
The ir
ond ay
Ġcl ar
ĠJ arvie
less ly
com par
Ġra il
Ġrep orted
Ġchan ced
Ġgu ine
Ġinv ention
Ġve xed
Ġrequ is
Ġland scape
Ġlim itation
Ġcommand s
Ġhundred s
Ġoccup y
Ġtor n
Ġliber al
Ġmagn itude
anche ster
Ġmour ning
udd ings
Ġpubl ished
B ar
C ertainly
E AT
T wo
p ine
âĢ ¢
Ġc ure
as cal
and al
qu in
am ents
Ġor g
Ġshe et
Ġun necessary
Ġam using
Ġthan ked
ab ove
de g
Ġnever theless
Ġsc ra
Ġgl it
ex pect
du ct
Ġcur rants
Ġbest ow
Ġrequ ested
og ene
Ġ6 0
pre p
Ġlab ours
Ġlim its
Ġrese arch
wr itten
Ġvict ory
Ġdisturb ing
Ġhes itation
Ġdeli ver
Ġcrit ical
Ġaud ience
Ġbend ing
Ġfatig ue
ĠTrot wood
Ġante ced
M eanwhile
W as
m ur
w ild
Ġt utor
Ġw oo
Ġb ul
en ch
Ġc ust
Ġp ant
Ġre ar
Ġwh ites
Ġon ion
ĠM ind
il st
Ġall iance
od es
ĠG r
Ġim ages
ĠN ay
ons on
Ġdes igned
Ġpe er
Ġtr ick
cess ion
Ġdec ide
Ġdec ision
og ue
Ġfore ver
Ġacqu ire
Ġmon arch
dis appoint
Ġarm our
Ġforce meat
Ġsy ll
Ġdeterm ination
Ġemb race
Ġbod ily
certain ly
think ing
Ġere ct
po onsful
ĠLouis a
Ġtrif ling
Ġpled ge
prob ably
suffic ient
Ġvener able
Ġdessert spoonful
Ġadmin ist
ĠSall ust
H T
H enry
i ptic
p ock
s had
Ê º
Ġs inking
or ation
ar nt
Ġl oo
th ousand
ĠH aving
Ġshe ep
ĠC ongress
ol ved
Ġam bitious
Ġsha w
Ġen chant
fe ar
ĠIt aly
Ġdid st
Ġcomm ission
ĠV ir
Ġchan ging
Ġter min
Ġinter posed
Ġprop osition
Ġmod es
Ġconsider ably
Ġmag ic
Ġexist s
Ġremark ably
Ġsto pping
Ġexam ine
Ġperiod s
Ġattempt s
Ġcomb ination
Ġsche mes
Ġcorrespond ence
fam il
ĠMor land
perfect ly
Ġprosper ity
reak le
chilt ree
C o
H ouse
l ength
o ons
Ġm orrow
Ġc hat
Ġhe ath
Ġn ic
Ġg hastly
im ony
Ġat tained
ĠB ed
Ġr ow
um erable
ĠF riar
Ġqu oth
ĠD emand
Ġar ising
ap ing
Ġhand kerchief
Ġoff ers
Ġpur ple
Ġcr imin
Ġearth ly
Ġplac ing
Ġdisp ute
Ġlow est
Ġaccord ance
Ġgall ery
don ate
pass ion
sec ret
ÂłÂł ÂłÂł
Ġgrat ified
Ġdism al
Ġmethod s
Ġbas in
step s
Ġmaxim um
othering ay
f ied
o bl
Ġt in
Ġt ap
Ġb ind
Ġl ou
Ġn ought
ent ire
id ian
ur ation
ĠS ar
ĠS am
ĠS ally
Ġde eds
ge nd
us hes
Ġr hy
ĠL a
Ġab ol
ĠD art
ens ation
Ġtr oubles
su per
Ġext ension
pend icular
ific ant
ĠAl t
soci ety
On ly
Ġhist or
Ġstream s
del ight
iven ess
rec oll
ĠRod ney
Ġcomr ades
Ġecho ed
Ġmagist rate
Ġdw elt
4 2
B ER
R Y
W alter
m em
o k
o ven
s ym
Ġf etch
Ġc rest
Ġc attle
Ġl an
Ġl ob
ow ls
ri ly
ill ity
ge lt
est ab
Ġr ash
Ġsh ield
el esc
Ġfe ud
un ction
Ġab ide
reat h
Ġsha ken
Ġpl ates
Ġoff ices
Ġcont rived
Ġadd ing
Ġem inent
Ġter restrial
Ġless on
Ġgu ided
Ġbre thren
Ġrec ent
Ġremain der
Ġvisit ors
Ġbreat hed
Ġcross ing
Ġassoci ation
Ġeight een
Ġla wn
Ġsuperior ity
Ġbow l
Ġsong s
gra ve
ĠSat urday
Ġdismiss ed
Ġsadd le
Ġgard ens
ilgr im
ĠSpir it
igen gelt
+ --------
8 7
d ish
f lu
g al
w omen
Ġt une
Ġt ones
ou lt
Ġb ru
Ġre ver
Ġre ct
al f
Ġas hes
ct ure
Ġse ar
ough s
Ġun to
ci pl
me ans
Ġen countered
ĠJ oe
ps on
Ġaw akened
su it
Ġbo ot
ged y
Ġmar ble
Ġreg ions
Ġadv ancing
Ġtra ced
wor ks
ific ations
Ġneed le
Ġten ant
Ġpursu its
ĠYork shire
Ġtrave lled
Ġsugg estion
Ġimper t
Ġharm less
book s
Ġdisg ust
Will iam
== ==
Ġhid den
lot te
Ġliter ature
Ġresour ces
Ġcow ard
Ġvibr ations
ĠAlt amont
T ell
g old
h undred
l ock
t ri
t xt
u ction
v idence
Ġt on
he alth
Ġs its
as se
st ra
se ct
Ġre ferences
ĠT ime
ĠT ackleton
Ġat tain
il iation
ĠS al
ĠC ons
ous in
au ld
Ġcl ust
Ġpr ices
Ġpr udence
Ġown s
Ġbl ushing
hen s
Ġfl ashed
Ġgl impse
Ġtr ump
Ġcur ate
Ġfind s
Ġmet al
Ġfra e
Ġstud ies
Ġmad ness
Ġpray ers
Ġstreng then
Ġfashion able
Ġinj ured
Ġrecomm ended
reason able
Ġhes itated
Ġtempt ed
pret ty
Ġpill ow
Ġvic inity
Ġorn ament
Ġharmon y
Ġmajor ity
Ġdemon str
Ġpir ates
Ġholid ay
V ER
a ic
b right
d uring
f requ
i ably
r ating
s ense
Ġc amp
Ġc unning
Ġp au
ar ation
Ġwh ither
et her
Ġme ek
ĠC arrier
ĠC rotchet
Ġv ow
um ps
Ġcom ets
Ġup right
ive l
Ġman ly
Ġag ed
Ġdis s
Ġper sec
ink led
Ġfl ood
ĠShe pherd
Ġapp la
Ġ2 1
ĠV III
Ġrep ublic
Ġrest ing
Ġsil ently
Ġprop ortions
Ġhor rible
Ġstart ing
Ġtrem endous
âĢĶâĢĶ "
Ġdread ed
Ġran ge
cle ar
supp osed
Ġsuspic ions
Ġindepend ence
Ġaltern ate
Ġveget ables
Ġnewsp apers
Ġindic ate
Ġdoll ars
Ġwaist coat
ĠWor ld
Ġorg ans
A m
g all
g la
m ixed
re ed
Ġbe ard
ir ling
il ke
Ġde af
Ġex ult
ĠB oth
Ġsh ips
ak s
ĠF irst
ĠO ut
Ġro ar
ĠJ uly
Ġoff ering
Ġpres ume
Ġap ology
oub ted
Ġform idable
Ġmer its
Ġproper ties
Ġru b
Ġdin ners
Ġfin al
comm od
kes peare
Ġran ks
Al as
Ġlod gings
ruct ed
CT U
Ġinstrum ents
Ġendeavour ing
Ġgather ing
Ġsincere ly
Ġfulf il
Ġaband oned
ĠPompe ii
D ING
J ust
t rees
Ġs cept
Ġm aj
Ġf lying
Ġl ane
ic it
ow ry
im son
lf red
ĠW olf
Ġsh y
ord ers
ĠG ive
be yond
be came
fe re
Ġind icated
aut hor
ks peare
Ġru bbed
Ġtem ple
Ġsix teen
angu ine
gu es
Ġpen ny
Ġstay ing
Ġcra ck
Ġport ions
Ġspec im
ĠCra ggs
exp ression
ĠSm irke
Ġfav oured
Ġtables poonsful
Ġproc ured
Ġtempt ation
Ġtrif le
Ġty ran
Ġgri ev
Ġprivile ge
beaut iful
lemen cy
T Y
b less
g row
i ot
p aper
Ġt astes
Ġo x
Ġm uckle
Ġf owl
Ġc art
Ġd us
st an
Ġth ri
Ġu g
ĠM ed
qu are
Ġse al
Ġor bits
Ġcon tains
Ġbut cher
ant ial
ĠO ctober
ĠN O
ign ant
Ġaw oke
Ġcomm ence
su p
Ġinst it
Ġcour te
Ġco ins
Ġchar ges
Ġprom ises
sc arcely
ey e
gin ald
Ġmed ic
Ġproceed ings
Ġsto le
Ġstud ent
ĠCar fax
Ġanim als
Ġbelong s
Ġcre pt
ett le
ĠEx cept
opp ortunity
ois elle
Ġling ered
mir al
Ġnod ded
Ġprim ary
Ġembarrass ed
Ġprejud ice
Ġbree ze
Ġheav ily
Ġwholes ome
A CH
F OR
O SE
P ray
g race
s oft
in th
it ors
Ġf oes
or ial
ent er
im er
Ġwas hed
ur se
Ġfor s
Ġis sued
Ġse lling
ĠC reakle
ers on
el ing
au x
Ġsp orts
Ġar ises
Ġcl ub
Ġdist ressed
Ġser ving
ult ure
atter n
Ġ2 00
Ġsl umber
ĠU se
Ġint end
Ġass ent
Ġinv isible
Ġdet ail
Ġve ins
Ġpret ended
ĠAn other
ĠOn ly
Ġdiv ide
Ġstrange ly
cient ific
Ġstir ring
dist ribut
Ġchair s
kind ness
off ice
ĠInd ia
Ġphys ician
Ġtrave llers
Ġfurn ish
Ġlod ge
Ġconven ience
Ġproc ure
ĠSe ptember
Ġsli p
follow ed
Ġascertain ed
Ġeconom y
prop ortion
Ġcorp se
Ġmir ror
Ġpuzz led
Ġsubsequ ent
Phil ip
U N
d rawn
e ur
s ound
w art
w arm
Â £
Ġw ax
Ġc ens
or us
as ing
Ġn aked
Ġis n
ĠM ajesty
ĠS hall
Ġse qu
ĠA y
ĠH ector
Ġr ascal
ĠL IM
Ġsp oon
Ġj olly
Ġro ot
Ġres ign
Ġatt entive
Ġrep orts
Ġhapp ily
Ġref ined
Ġass igned
Ġlady ship
Ġcontin u
Ġsk im
Ġexpect ing
Ġca vern
IN E
Ġhus hed
Ġann ual
Ġcommand ing
imp ossible
val ier
great er
Ġden ied
Ġbitter ly
Ġma un
Ġtables poonful
Ġreck on
Ġbal ance
Ġvary ing
Ġsatell ites
H ush
m otion
Ġc ries
Ġto ken
Ġp ian
Ġd ig
Ġd ivers
Ġl ocks
ĠI ND
st rel
Ġre ci
Ġwe eping
Ġher d
ĠT ur
ill er
ĠA gain
ĠH erschel
ĠC ould
Ġex agger
Ġno b
ĠE scot
Ġli able
Ġsp in
Ġwhat soever
be gan
Ġper f
Ġcount ing
Ġset s
Ġsl iced
ĠTh ree
Ġcr um
Ġmo or
Ġdef iance
Ġele vated
hand on
Ġdep rived
Ġpract ised
TI ES
Ġsuspic ious
Ġprocess ion
Ġcruel ty
Ch rist
Ed ward
War wick
ĠJust ice
Ġimpr ison
Ġdispleas ure
Ġridic ulous
ĠHay don
Ġcontro l
Ġchamp ion
Ġhaz ard
Cha pter
influ ence
A uthor
H ar
Y ork
d anger
e ight
l ass
s ign
u el
x ter
Ġt ang
Ġa verage
Ġm ale
en joy
Ġf oll
Ġc ro
or able
Ġd oth
Ġh it
Ġl end
Ġn est
Ġg ifts
se ason
Ġre b
Ġwas n
Ġher ald
Ġse ats
Ġse rene
ĠH en
ol is
Ġal as
ĠD ummie
Ġ1 3
Ġcl asp
de ad
Ġres pons
ps ed
ĠK en
He aven
ĠU ran
act ive
Ġdon ate
Ġinc hes
Ġcr imson
Ġopp ress
Ġprev ailed
ĠMar ch
IN D
ĠWh ite
comm and
inter rupt
Ġmain tenance
Ġjoy ous
Ġburn ed
Ġpock ets
Ġstrugg ling
Ġsn uff
Ġgar ments
RI B
umm idge
Ġluck y
IV E
ĠClar a
Ġsus pended
Ġembarrass ment
Ġsubl ime
Int yre
ĠRy der
Ġpom p
ĠLIM ITED
E nt
M ic
g iving
p han
p riv
s ized
w ivel
Ġc akes
Ġin ev
st range
st reet
ir ts
ĠM ass
ĠM eanwhile
il ence
il worth
Ġv io
ĠD i
ĠD une
Ġj oke
Ġen v
Ġen able
Ġrem edy
Ġfl ushed
Ġyoung est
Ġhouse keeper
Ġlo cal
Ġdark ened
Ġvar iation
Ġpol ice
Ġbed room
Ġir re
ĠCl ay
Ġdef in
ĠRe id
OU R
iqu e
Ġsym pt
spe aking
acc ording
Ġfight ing
Ġtoler able
Ġlat itude
ĠSha kespeare
ĠCam illa
Ġtranqu il
Pe ggotty
near ly
free ly
Ġperple x
Ġparall el
Ġfragr ance
6 5
K e
P lain
d ress
i hil
l am
he ro
ha ble
Ġd ensity
Ġl ur
Ġl oy
ic ing
Ġth irst
Ġwe bs
Ġme ad
th ick
th row
ĠS U
ĠC ro
us al
ĠB ab
ist ry
ig ent
Ġle ather
Ġle arnt
pl ain
de v
Ġsc andal
Ġgl owing
Ġapp le
Ġrel ieve
Ġreg ion
Ġprov isions
uten ant
Ġfin ish
ĠWh ich
chan ges
Ġsatisf actory
Ġtrem ble
Ġstud ied
Ġearnest ness
serv ant
Ġentertain ment
Ġcab in
Ġthreat ened
Ġrad iant
Ġtro ops
sters wivel
tra ve
istribut ion
Ġtum ult
UD DING
Ġpisto l
C ol
b urn
c and
d r
r ates
v ity
re pe
Ġw ig
Ġm ars
Ġd ict
Ġg inger
Ġwh ilst
ur g
Ġis land
ch urch
Ġsu l
ĠH as
em b
Ġv oy
Ġk ings
Ġsh rill
ĠE arnshaw
ĠR u
li ked
Ġap olog
bl ood
Ġhapp ens
Ġcar ved
raw ler
Ġstr ing
Ġcirc ular
ĠEd inburgh
Ġhel pless
Ġsort s
Ġsle nder
ĠSo ciety
Ġcomple x
Ġthick ly
Ġcoll ar
ear ly
Ġrevol ving
Ġenter prise
Ġwid est
Ġhung ry
Ġimpat iently
iver pool
ĠClar ke
Ġmach inery
Ġult imately
Ġencourage ment
Ġarrest ed
Ġbenevol ent
M e
W N
W ould
e el
r ise
u v
w ar
Ġm ien
Ġd irty
Ġl uminous
st on
ve red
Ġg ains
Ġre leas
Ġre bell
Ġfor bear
Ġse lect
Ġbut ler
.âĢĿ [
ort une
ĠP at
pt uous
ig er
ag le
ment ed
ĠG host
ĠR O
Ġsub mit
ĠV enus
Ġco inc
Ġint entions
Ġchild ish
Ġtra ck
what ever
Ġdec ay
Ġ18 7
Ġfair y
Ġsweet ness
Ġfin er
Ġresol ve
Ġleg isl
every thing
Ġrend ers
Ġcommunic ate
Ġcat ching
Ġstrugg led
Ġpos itively
ashing ton
Ġpropri ety
Ġanticip ated
ĠAthen ian
wit ness
rend ered
Ġplun ged
Ġblend ed
ĠKen ilworth
A don
T RA
r idge
s uddenly
Ġ ---
Ġb aff
Ġm as
en et
Ġc ave
Ġd anced
st ew
ur able
ĠT urn
Ġsu itable
âĢĶ -
rom ise
ĠW il
ord ered
ĠD iana
ĠD utch
Ġj ob
Ġfa ire
Ġen er
Ġen light
de al
Ġres igned
Ġsc um
Ġsc ale
Ġacc um
ild a
less ness
Ġgl en
ans wered
su gar
ex istence
Ġgra in
Ġconf essed
Ġgi ant
Ġcur tains
.âĢĶ âĢľ
Ġopp ortunities
Ġdet ails
ued y
Ġpol ished
Ġexpress ive
Ġir resistible
Ġele ven
Ġfra gments
Ġstri fe
Ġmut tering
Ġexam ination
Ġsuccess ive
Ġdri ving
Ġsorrow s
Ġdam sel
Ġver d
Ġwealth y
ĠCon st
Ġven ison
Ġhom age
Ġinfinite ly
Ġstead ily
particular ly
ĠBet sey
G E
M ont
S e
U LL
f at
Ġb red
Ġp ork
Ġh ue
Ġn aught
ot he
ĠM anchester
ĠS op
ĠA ust
ĠA SC
Ġcon ception
Ġne igh
Ġdo c
Ġthem e
Ġli keness
ĠHe ep
ci vil
ĠO mer
ĠO chiltree
Ġpo ets
cl uded
Ġhar p
Ġans wers
Ġput s
Ġless ons
Ġcar riages
Ġvis iting
pro pri
Ġmod ified
Ġprodu ces
Ġwild er
Ġprot est
ues day
Ġsole ly
Ġpeace ful
see ing
ext reme
bb ers
Ġreven ue
poss ession
Mar garet
Ġconqu er
sus pic
ĠSus an
Ġsubstit uted
Ġcav al
ĠCap ital
intellect ual
Ġug ly
M ost
f ish
h ot
s ort
Ã ¨
re co
Ġs ine
is is
en ched
Ġof t
Ġto ast
Ġp arson
Ġl ard
le quin
Ġe pit
Ġg ru
ut y
ĠM ag
ĠM use
ĠM ilton
qu er
ĠH istory
ĠB u
ac he
ist inct
ĠP UDDING
ĠF otheringay
ĠR om
Ġout line
Ġper ceiving
ĠO ther
for ms
Ġdes olate
Ġacc ent
li est
Ġye oman
Ġtr oubled
Ġcomm unity
Ġrep air
Ġinter fere
Ġgu essed
Ġcar r
ane ously
Ġdoub ted
Ġcond escend
fic ial
Ġexpress ing
Ġtruth s
ler able
Ġlab ou
lic ted
Ġphilosop h
ĠSh ould
IL L
Ġlie u
Ġbott les
Ġdecl ine
Ġindul ge
Ġmill ions
Ġmagnet ism
Ġga iety
Ġvel vet
Ġexert ions
Ġweap ons
cor respond
Ġmanufact ure
tax es
Ġwra pped
stru ck
Ġinsens ible
begin ning
Ġresc ue
Ġshaw l
obl ig
G e
H aving
b by
v ous
Ġo mitted
Ġw ert
Ġc ities
Ġin m
Ġd umb
Ġd ashed
Ġl ang
Ġre con
Ġwas ted
ĠM other
ke pt
ore s
ĠS ection
Ġcon verted
ĠH oly
us cript
ĠB acon
Ġv ault
Ġr ational
el ia
Ġal monds
ĠR ock
Ġspe eches
com pre
Ġac id
here nt
Ġref res
arn ished
Ġcr ushed
ĠWhat ever
Ġland ed
Ġswe ep
Ġprov o
Ġneed ful
Ġcor por
Ġsum mons
Ġconc ent
Ġcompl ac
Ġmus ing
ĠAd d
ĠQ uedy
Th ough
hys ical
Ġwis er
Ġmove ments
Ġcoun cil
Ġid ol
Ġgen uine
Ġthank ful
ĠOr der
mar ried
Ġpit ch
Ġcab inet
Ġjoint s
Ġsoot hing
immedi ate
Ġecl iptic
Ġtranqu illity
consequ ence
ĠMars hall
Ġhun ger
mention ed
Ġartific ial
Ġwebs ite
5 9
M ON
a ith
d a
d read
i og
n one
s ac
u ations
Ġt urb
Ġs ire
it he
Ġb ount
Ġp ony
Ġd uchess
Ġbe ating
st ir
st ud
Ġre verse
ro s
ri um
ĠM onday
Ġst ared
ĠS to
ĠA pril
Ġcon ference
ĠH ill
ĠB ol
Ġv iv
el ed
ol as
Ġwould st
au gh
ĠD ilke
Ġper pendicular
Ġro ses
ĠN i
Ġpl uck
ĠJ onson
de pend
Ġsc ant
Ġsc old
li er
ave ment
su ing
Ġche ese
Ġright ly
Ġcur sed
Ġass isted
Ġrec ur
Ġhor rid
Ġdisc retion
Ġmo le
Ġthick ness
ĠRe ceipt
Ġann ounce
Ġwarm ly
pers ons
Ġdepend ed
Ġprospect s
Ġfac ulties
col our
ĠBr other
Ġexped ition
Ġgrie ved
Ġlink ed
Ġadorn ed
Ġvale t
IRE CT
G ive
I CE
R ight
a it
b ound
b able
c laim
d ra
g room
l ost
n s
o ir
p ie
s alt
t ts
y s
Ġs ic
Ġs nat
Ġs arc
ha b
Ġf itting
Ġc ove
Ġin ner
Ġd ang
Ġl in
Ġhe els
ce mber
Ġwe aring
Ġher mit
Ġan on
Ġst able
il ib
ĠS cience
ul ously
ĠA lfred
Ġde gr
Ġall uded
ac compl
lf are
Ġsh ine
Ġsh irt
ĠE ast
Ġar c
ĠO N
ack now
int ed
Ġhand ed
cl usion
Ġimp et
Ġcons ists
Ġra m
Ġ2 2
ĠV olt
Ġdif fer
Ġhar vest
Ġhigh way
use tts
form ing
Ġdet ained
Ġsw ore
Ġ18 19
Ġcal f
Ġrich ly
Ġtender ly
long er
Ġtal es
Ġreve aled
Ġcompar atively
Ġsmooth ly
Ġtest imony
Ġtro op
Ġaccur ate
Ġglo ves
Ġii i
Ġpeas ant
ĠDaw son
Ġsavour y
ĠMusgro ve
Bel inda
ĠASC II
L ucy
n ets
p owder
Ġt elesc
Ġw ives
Ġm ast
Ġm ail
Ġc ig
Ġp ious
Ġp uff
Ġd uke
an illa
as ily
Ġh unting
Ġe ve
ce ler
Ġre verend
ad le
Ġst uck
Ġat e
em oiselle
ort ense
ol ph
ĠF ore
ĠD AMAG
for get
Ġpre cip
ach usetts
Ġcomp osure
aw s
Ġpres ents
Ġco al
ĠĠĠĠĠĠĠĠĠĠĠĠĠĠĠĠ ĠĠĠĠĠĠ
ĠTh orn
Ġcr isis
Ġchar itable
Ġsk ull
Ġprof essed
Ġ6 4
che on
EN D
Ġhuman ity
Ġspirit ual
Ġconv ince
Ġdro ps
Ġlead s
Ġmur dered
Ġbreat hing
ĠBy ron
Ġchurch yard
Ġhabit ual
Ġsick ness
Ġlean ed
whe l
Ġintellig ent
Ġpos itions
satisf action
Ġprejud ices
Sh irley
tt p
Ġsust ain
Ġard ent
proper ty
ĠCath y
Ro bert
Ab out
ĠTer ms
Ġgest ure
ĠHead long
C ON
M art
e arn
g own
m ort
s old
Ġt art
in mail
Ġb ath
Ġf et
Ġp icked
ic er
Ġbe ck
ĠM ost
ĠT ill
Ġse ize
the e
ĠC hatter
ĠB un
ast on
itt ee
ĠF ULL
ass istance
ĠD ot
ĠD IST
ĠG ummidge
ily ard
Ġacc us
Ġeven ings
li ved
Ġcomm it
Ġra v
Ġmin strel
Ġchar ged
har p
Ġins in
Ġanswer ing
Ġconv uls
ĠPr ay
Ġvol s
Ġmotion less
IS H
Ġaccept ing
Ġant agon
Ġconstit ute
Ġbreath less
acc ustomed
Ġcook s
Ġbank er
enc er
Ġess ence
Ġrecollect ions
Ġvo id
Ġquart s
Ġtur f
Ġling ering
Ġmechan ical
Ġpolar ized
compan ion
Ġdisclaim er
sa fe
Ġancest ors
Ġglit tering
9 0
M oore
S hall
e pend
f if
f ric
f illed
i ress
r ut
w ing
Ġt yp
Ġw an
Ġw estern
ed uc
Ġf are
Ġh ole
Ġe cc
st ar
ve ll
qu ant
âĢĶ '
ĠS pan
ĠS handon
Ġde ceive
ĠB a
ĠP G
Ġab use
op es
ĠD E
Ġdis order
ru ly
ru ary
ĠJ en
Ġcomp uted
cl oud
Ġfl ash
Ġcons ol
Ġ2 3
ĠK ent
Ġsec re
Ġconf lict
Ġext ract
Ġsur v
cul es
Ġcal am
Ġval our
ĠAd miral
sm ith
ĠOn ce
Ġdream ed
Ġelectronic ally
Ġda res
Ġaddress es
ĠFair port
Ġlem ons
Ġsword s
Ġsolemn ly
Ġwand er
ĠDon ations
ĠGree ce
pic uous
Ġhint s
Ġarch bishop
Ġsour ces
Ġillust rious
Ġindign ant
Ġdepth s
istribut ing
satisf ied
Ġhyp othes
eb ruary
Ġsust ained
hem ence
ĠWARRAN TY
Ġrefresh ment
IG HT
Ġvap our
ĠAGRE E
trad emark
prep ared
Ġreci pro
ĠDAMAG ES
ĠDIST RIB
4 3
A gain
F oot
M an
R ESS
f old
h ur
o ci
r iment
ha e
Ġf ert
Ġp ile
Ġh ut
et te
ĠM ills
Ġsa ll
ke eping
ĠS ever
us ually
ab ilities
ĠR ef
Ġsha ring
Ġro lling
for ced
int ro
Ġcha llen
Ġbl oss
Ġbl unt
Ġgr oups
sh ips
gg y
you th
He athcliff
Ġmin or
ict ions
read ing
Ġgener ation
Ġint ri
Ġreg iment
Ġpar cel
Ġcountry men
Ġchar med
att end
Ġdeep est
Ġsix ty
ĠRe ginald
Ġbread th
Ġsusp ense
ĠHigh bury
Ġpra ised
Ġhang ed
Ġpun ch
Ġappre hend
Ġindul ged
pres ence
Ġcord ial
Ġric her
Ġreject ed
Ġdece ased
Ġjew els
Ġwip ed
Ġchival ry
ĠBRE ACH
ĠEug ene
Ġrequis ite
ĠDISTRIB UT
C HA
d em
m ain
w ine
Ġt ides
Ġs anguine
Ġw aking
Ġc am
Ġe h
et ry
Ġfor ci
her ing
ĠM id
Ġde xter
ĠH ence
ĠC ru
ĠB ay
ac cess
ol en
Ġup wards
Ġpro long
Ġpro blem
ĠF ull
Ġbr ows
sh ot
Ġem ig
Ġhum ility
Ġcirc uit
Ġmer idian
Ġhorse man
Ġbu ying
Ġlim b
Ġmain taining
Ġenjoy ing
Ġfast ened
Ġcheer fully
Ġcra ft
Ġtop ic
ĠCra igengelt
jo ined
Ġroy alties
Ġfav or
Ġstro ke
Ġadvent ures
Ġpet ty
ĠAm ong
elect ronic
Ġalter ation
Ġcomr ade
Ġborrow ed
Ġlun ar
experi ence
Ġscar let
Ġimmort al
Ġgoss ip
Ġtriump hant
pock et
Ġmaj estic
H ad
H el
b ird
d ling
f olk
Ġ Â£
Ġb unch
Ġc rew
Ġl ent
Ġre de
am eless
Ġcon verse
ĠH a
ĠC lu
ĠC redit
est im
ĠP ut
Ġal tar
ĠE arth
ig ible
Ġj e
ĠR and
Ġpo ems
ĠJ ove
Ġcha ise
ap a
Ġcons isted
air d
Ġrep aired
Ġref raction
Ġbro od
Ġrec ently
Ġel bow
Ġ4 8
Ġpret t
Ġdra ined
Ġcut lets
Ġbene f
Ġlead ers
ĠEm ily
Ġsto red
ĠWith out
ĠCha inmail
cle an
inst ant
Ġcook ed
hum oured
adv ent
Ġterri fied
Ġinn umerable
Ġcrit ic
got ten
Ġgle am
Ġawa ited
ĠColl ege
Ġappoint ment
sil ver
Ġabst ract
Ġunl ucky
Ġeste emed
ĠRod erick
Ġascend ed
Ġsubstit ute
Ġsne er
creat ure
Ġrat io
Ġindirect ly
Ġbewild ered
Ġclos er
Adon ais
Ġcarr ots
c ry
f ur
m aker
Ġa ye
Ġo st
it imate
Ġm ajesty
en ob
Ġin justice
ir on
Ġas cribed
ad mir
Ġhad n
ĠS AU
Ġde ck
ĠH on
Ġsh ocked
ĠL iverpool
Ġman agement
ĠP udding
Ġun grateful
Ġthere by
Ġqu oted
Ġad vers
ĠN ight
Ġcomp are
Ġsm art
Ġgr ows
ject ed
com ed
Ġpres erving
Ġlet ting
Ġkind red
Ġfar mer
Ġexc laim
Ġste al
Ġtra m
Ġsuff ice
Ġwa ved
ee f
Ġaff irm
Ġvar iations
part s
Ġrespect ed
Ġappro ved
Ġri bb
Ġ8 0
Ġsoul s
Ġvol umes
Ġdelic ately
Ġtrad es
equ ally
Ġshadow y
turn ing
vis ible
Ġstern ly
LI AB
ĠAdrian a
ĠAm elia
mean ing
Ġpick le
sim ilar
Ġlawy ers
Ġinstruct ions
Ġinvar iably
Ġinconven ience
Cla vering
ĠBol ton
D ora
R ichard
W he
a ved
b ted
e asy
f aces
j oice
l oved
s light
w anted
Ã ª
on ial
as iness
ic ant
ut ive
ut tered
ent ertain
ri g
Ġan ge
oo h
Ġsu ld
ĠH ind
ĠB ob
ĠB rian
ac hel
Ġsh udder
ĠL ab
Ġfe ed
la b
end eav
Ġli king
ĠF in
Ġun ite
Ġun natural
Ġun comfortable
ide a
ĠHe ights
Ġper ish
Ġro asted
Ġcl ay
Ġown ed
ath y
ener y
omet er
iz es
Ġinde bted
Ġrel ish
Ġcar pet
br own
oun ces
ott age
Ġpret ence
Ġmo an
Ġprof itable
Ġed ges
Ġeng ross
Ġconsequ ent
ĠPro vidence
ĠGl owry
rop olis
Ġforget ting
Ġfond ly
Ġspect ators
inst ead
Ġfalse hood
Ġregular ly
fall en
Ġassemb ly
hant om
Ġcher ished
ĠSat urn
Ġveget able
ĠLaw rence
Ġinvest igation
Ġmourn ful
Ġsan ct
Ġcondem ned
Ġfasc in
Ġmanif est
Ġobed ience
Foot note
F F
L aura
M R
R avenswood
S omet
_ ,--
b ag
b ott
d ale
i os
l adies
m oved
r ad
Ġt ies
Ġw oke
Ġb its
Ġm oss
Ġf ountain
Ġp i
Ġbe ams
Ġg am
Ġwe lfare
ĠT uesday
Ġsh un
Ġqu ad
op inion
ass ad
Ġmay be
Ġcont est
bl est
Ġsupp osition
ĠV ery
ib us
av o
Ġco vering
Ġbelie ving
Ġact ivity
Ġbro ok
Ġdet ain
att empt
Ġ4 5
Ġmod esty
Ġmon y
Ġopen ly
Ġstrong est
alth ough
Ġfour teen
Ġpay ment
Ġtem pest
oc ation
Ġdef ined
ĠPe ople
Wh ich
St ill
Ġreco vering
Ġfool s
Ġpath s
Ġspect acles
Al ice
ĠRoy alty
Ġpurcha sed
Ġfrank ly
Ġpet ition
Ġcaut ious
nut s
Ġmush room
draw ing
c racy
l iction
p gla
t reat
w in
Ġf r
Ġf ile
Ġc laimed
ĠI X
st ock
Ġg e
Ġg room
Ġg ird
Ġon line
ĠM ess
ĠT hy
ill ac
âĢĶ âĢĺ
Ġor phan
Ġde mean
Ġcon greg
Ġbut t
Ġk not
Ġsh illing
ig o
un ken
Ġun b
ĠD ev
Ġj ack
Ġar cher
ru it
Ġch ill
Ġbl ast
Ġthr ice
Ġsc reen
su bs
Ġint ent
ĠBe ing
Ġwit hered
gu ard
Ġaccept able
tr ust
Ġrapid ity
bel ieved
Ġincreas es
Ġconstit utes
Ġbold ly
Ġpersu asion
Ġsingular ly
car riage
Ġexec uted
ival ent
Ġfierce ly
Ġentreat ed
mark et
Ġreluct ance
Ġgroan ed
Ġmush rooms
Ġnois y
occup ied
entire ly
Mic awber
pgla f
7 6
F ig
W ood
l orn
l anguage
u ables
Ġ verse
re se
it ute
is ation
Ġd ata
Ġbe am
Ġe p
Ġe tern
st reng
Ġg ie
ow ered
Ġy awn
et urn
et ition
ich olas
Ġso bbed
ĠA ng
ĠC lemency
Ġv ices
Ġr att
ind ividual
ĠL ie
ĠL ob
ĠL ane
ie ves
ĠP art
ĠE st
ass ed
be aten
Ġper ceptions
Ġcl osing
Ġpr ayed
Ġpe ep
iz ard
ale igh
Ġinf ancy
Ġwind ing
Ġwa iter
Ġopp ressed
bit ter
Ġmet als
Ġeffect ed
Ġdra g
Ġincl ude
amp stead
Ġreal m
Ġblood y
How ever
Ġrun s
fl our
lic ense
pass ing
Ġafford s
Ġconcl ude
Ġbitter ness
Ġdam age
ĠNe ither
Ġroyal ty
Ġfac ulty
isp here
Ġprofession al
Ġmor als
Ġaccur acy
Ġtur key
Un ited
ĠBur g
Ġhyp oc
abs olute
Ġlif ting
agnet ic
ĠAdon ais
b ank
c opyright
d og
i ator
k night
m ill
u ces
Ġb onds
Ġf ug
Ġp all
ar ia
Ġl av
ic ians
ir a
Ġas p
ĠM in
ter ior
Ġsu ng
ĠC le
ĠC ham
ĠB er
Ġwhe els
ĠW ed
Ġup ward
Ġle gend
ĠD uchess
ĠG old
Ġad just
Ġdis may
Ġcons ist
Ġadd itions
Ġexp ensive
sp oke
Ġrel ate
Ġsim mered
Ġdet ect
Ġve hemence
Ġpartic le
alt ry
Ġ18 20
ug al
Ġcourt s
Ġdef inite
Ġmus lin
sm ile
some what
Ġcomfort s
Ġexcept ing
Ġcolour ing
Ġconcern s
Ġtrans l
Ġpint s
Ġpract ically
Ġune qual
Ġhost ess
Ġwi pe
Is ab
Ġsmo ked
Ġsmo king
Ġspec ified
Ġtrad ition
Ġdign ified
Ġbell s
Ġcalcul ate
Ġgallant ry
Ġarch it
Ġgrav itation
fa ith
cap ital
boy s
Ġhosp itable
ĠMacG rawler
Ġtransm itted
Ġvig our
object s
ĠPort man
gener ally
Ġpisto ls
ĠBeaum aris
Ġprecaut ion
Ġnob ility
Ġreleas ed
enob ia
, _
H igh
L ong
b red
c rown
i pping
m atic
o per
p ally
re pro
Ġw ist
is ance
Ġf ant
an ity
Ġha re
Ġha ven
le ad
ĠI nt
Ġre ced
ver b
Ġst aring
ĠT w
and y
Ġse vent
ĠH ope
ac co
Ġwhe at
Ġr ans
ĠW OR
um ents
ĠE v
itt ance
other wise
Ġsha pes
Ġhand le
Ġacc used
Ġcons ulted
bl ue
und y
Ġconf id
Ġrel inqu
pr ison
Ġobser ver
Ġpar am
no ble
Ġobject ions
Ġdet ected
ev ish
Ġdifferent ly
ey ed
,âĢĶ âĢľ
Ġdra gged
Ġcast ing
gl antine
Ġdesp ise
Ġdesp ised
Ġsqu ee
Ġoblig ing
Ġoblig ation
Ġrecoll ected
Ġpolit eness
Ġinterrupt ion
fortun ately
Ġexchan ges
Ġimprove ments
Ġexcl amation
Ġoper ations
sy stem
acqu ainted
ĠSe a
Ġmyster ies
Ġwhisper ing
Ġcapt ive
Ġperpet ually
Ġvessel s
Ġdu ly
Ġcell ar
Ġdevelop ed
Ġconject ure
ĠLanc ast
import ant
Ġcomput er
meas ure
Ġwarri or
ĠGard iner
Ġsyll able
ĠVir gin
Ġabol ition
cipl ine
Ġcourte ous
Ġvoy age
ilib rium
A Y
C he
I ES
T S
d ire
d ream
g arden
k ers
p ict
r ons
r Ã©e
w all
z es
Ã ´
he ment
re ign
Ġs ifted
Ġw ha
Ġb und
Ġf og
Ġto ward
or ney
ing ton
Ġp ine
Ġd ice
Ġh ues
Ġe pic
Ġth ief
Ġan cho
ĠS ay
ĠS ol
ĠS auce
Ġse asons
Ġcon cept
ĠC ross
ĠB o
Ġv ib
Ġr ushing
el ity
ound rel
Ġown ers
Ġover whel
Ġbl ows
Ġfl owed
Ġpe arl
Ġpass engers
Ġdown stairs
Ġra w
Ġhapp iest
Ġend ured
arn ing
ĠĠĠĠĠĠĠĠĠĠĠĠĠĠĠĠ ĠĠ
Ġve hic
Ġsw orn
Ġappro bation
Ġtri be
Ġbar bar
Ġeng ra
Ġ8 4
hand kerchief
Do ctor
Ġfirm ness
Ġdemand s
Ġguard ed
mind ed
Ġpreced ed
Ġsurr ounding
Ġur ge
Ġeat en
Ġrepresent ative
Ġdiscus sed
Ġgle e
Ġsus ceptible
Ġtransp ort
Ġrev iew
Ġneat ly
Ġbla ze
Ġimpress ions
Ġcultiv ated
Ġingen ious
cra ft
Ġconfident ial
Ġach ieve
Ġspl it
Ġexerc ised
Ġcrimin al
hab ited
7 0
D ON
E n
G ra
I P
J ames
K night
P H
S ibyll
h orses
l ie
l atter
m oon
w s
he at
in o
ha ir
is er
Ġl amb
Ġn ap
Ġy ell
al se
Ġfor k
ĠT own
est ial
ac cept
ĠL amb
Ġtheir s
ĠE ve
ass oci
be g
Ġpart ially
Ġpl ays
hen sion
Ġfl attered
Ġap ron
Ġlast ed
Ġac res
Ġinc red
Ġair s
Ġsk ies
bour n
Ġele vation
under stood
Do es
Ġpoet ical
Ġconn ect
ĠChar ley
Ġallow ance
Ġsal ad
Ġver ge
Ġcat sup
Ġphenomen on
Ġfill ing
Sc ot
udd y
Pro fessor
sim ple
question ably
Ġstrict ly
Ġpin ch
rap hy
neighbour hood
sever al
Ġtort ure
increas ing
ĠEconom y
lean or
determ ined
Ġclar ified
M ajor
S ince
b ot
c un
e es
f red
f urn
i astic
j am
t a
t re
t rem
á ½
Ġt act
Ġha w
ot ing
im m
al ted
ad m
ĠM as
Ġsa ck
th orough
ĠS OU
Ġbut tered
ĠC ur
em n
Ġsh ops
um er
ĠL ion
ĠP all
Ġfe ature
ĠE le
Ġyour selves
op ened
Ġag ric
ĠR aleigh
Ġar ray
Ġsha des
Ġro bbers
Ġcl er
ĠJ ip
Ġacc ents
Ġlong ing
Ġra gged
con tain
Ġfound ation
Ġdel ayed
Ġdoub ly
pend ing
there al
ec d
Ġhorse back
Ġstru cture
ĠLet ters
Ġfla voured
Ġanim ation
Ġgrand eur
ĠChar lotte
Ġviol ently
Ġvirt uous
Ġspect acle
Ġprison ers
rep resent
Ġdescend ing
Ġbon ny
Ġunivers ally
Ġpopular ity
ĠRoy al
Ġpu ir
Ġwond ers
Pro ject
Ed mund
Ġspecul ation
Ġble w
Ġscru ple
Ġscru ples
Ġinvar iable
fig ure
chal ots
Ġremon st
famil iar
Ġlin en
ĠChatter is
C K
O IL
d ess
f ed
p in
p ress
p ardon
u ate
v ies
Ġ riv
in no
Ġl ecture
st o
se ems
Ġre ctor
Ġfor fe
Ġan ecd
Ġse ed
ĠH or
Ġv ind
ant al
Ġr ouse
ĠF er
ĠG range
ount ed
ile y
Ġcount ed
Ġexp ose
ale m
ĠU pper
act ed
Ġhome ly
ĠĠĠĠĠĠĠĠĠĠĠĠĠĠĠĠ ĠĠĠĠĠĠĠ
Ġwa ving
Ġacqu aint
app arent
Ġbra ins
Ġlad s
Ġru gged
Ġpat riot
Ġsit uated
Ġcompl icated
comp osed
bo iling
Ġer r
val ue
Ġlie ge
Ġcheerful ness
Ġcurrent s
Ġcoach man
Ġcareless ly
Ġeconom ical
dep art
ĠSha kspeare
Ġecl ips
Ġben ch
Ġaccommod ation
OO D
Ġela bor
Ġtoss ed
oult ry
Ġdefin ition
A meric
T ON
W entworth
b all
c re
c ook
d iss
p air
r usted
Ġt rop
re vol
Ġw ag
Ġb ond
Ġp ink
ar ound
Ġn erve
Ġg orge
Ġre now
et ary
Ġwe ighed
ĠM alone
Ġst im
Ġst urd
Ġst olen
ĠS ym
ĠS weet
our selves
ĠH ollow
ist le
ĠE ss
pl ing
ĠG utenberg
Ġus es
ink le
Ġro gue
Ġcomp ound
Ġfl ies
ign ity
Ġlight er
ister s
Ġinf irm
Ġinv ite
Ġsun ny
Ġtalk s
Ġland lady
Ġsw amp
Ġconst ruction
Ġrespect ful
Ġeas ier
ĠDo es
Ġcourt ier
Ġquestion ed
pre ted
Ġimag inary
ĠPe pper
ĠRe verend
dist inct
ext ra
11 6
Ġfru its
Ġneg ative
Ġstates man
ĠBar on
Ġsharp ly
Ġexceed ing
umn or
bes ides
Ġdisturb ance
ĠChe valier
Ġshore s
Ġtransm ission
pen ny
Ġunconscious ly
Ġfulf illed
Ġela psed
Ġobli ge
Ġvex ation
Ġstalk s
Ġdrown ed
Ġgig antic
Ġembra ced
ĠMat ilda
Ġportra it
ĠSar ah
ĠCru pp
C ra
S ha
S peak
T om
h ole
w on
Ġt ended
in formation
Ġs cientific
er man
Ġf owls
Ġp aced
Ġp avement
Ġhe ap
om ach
Ġbe er
hat tered
st art
Ġre lease
al ong
Ġst ool
ĠS en
Ġse as
ĠA pp
ĠH ilyard
ĠC ard
ĠC umnor
Ġex ile
ĠW ater
ĠW ashington
ĠL and
ol ina
ak ers
ĠD er
ĠD ame
Ġag greg
Ġj un
Ġar isen
Ġro pe
Ġro bbed
Ġpl ot
Ġpl ent
Ġbr ute
Ġsm oot
Ġunder take
Ġgent ry
land ers
Ġind istinct
Ġext inguished
Ġexc iting
ĠWe b
Ġmis fortunes
Ġplac id
Ġ18 0
Ġbra ce
Ġest imate
oc he
Ġbed s
EN CE
pre ced
Ġbur nt
Ġsecret ary
tr ouble
Ġpri or
Ġassoci ations
Ġrepeated ly
wr ong
Ġgar b
mar riage
Ġwithd rawn
Ġexhib it
Ġwin ning
Ġsli pped
quar ter
follow ing
appro ach
ĠRed law
ĠDou sterswivel
sil ence
Ġsoot hed
Ġhom es
Ġcontempl ation
het ic
ipp i
sole te
Ġard our
Ġavail able
Ġstamp ed
Ġpropriet or
ĠSupp ly
Ġcontrad ict
Ġconfirm ation
ĠField head
Ġmedic ine
ĠDi omed
Ge orge
ĠClu b
Ġdemean our
) âĢĶ
1 00
6 7
B esides
K ing
R ed
f ac
f aced
h osp
s ays
t one
Ġw ink
Ġb oughs
Ġf erv
Ġp ared
Ġp onder
Ġp aces
Ġin ward
Ġbe ach
se ven
Ġre placed
Ġre joice
Ġu mb
ri etta
ĠT oo
Ġsu et
ĠA bb
ĠH um
ĠH urst
ĠB ra
Ġv i
ie ving
Ġman hood
Ġman uscript
ĠP olitical
we ar
Ġun seen
Ġqu ivering
Ġro sy
ĠN icholas
iss ippi
Ġpl ump
Ġcl oves
Ġbr ass
int end
ons hire
ps es
Ġday light
Ġsub t
ex ceed
ex actly
ib ilities
Ġter rors
Ġche at
Ġrest raint
ĠĠĠĠĠĠĠĠĠĠĠĠĠĠĠĠ ĠĠĠĠĠ
Ġtra versed
br ing
peri od
Ġeffect ually
Ġri ot
ĠX I
under standing
Ġeff ic
Ġdim ensions
Ġwrong s
spe c
Ġseason ed
Ġquant ities
athe mat
Ġod ious
Ġcustom ary
Ġwear ied
necess arily
Ġcompar ative
Ġdiscover ies
var ious
ĠCam bridge
Ġamaz ed
mount ed
Ġshoot ing
Ġfanc ies
Ġappar ition
Ġlan tern
Ġrever ie
A ram
S ay
c ousin
d ry
d ressed
g age
s le
w at
Ã ī
er vation
is hable
Ġp uddings
ar oni
Ġin ser
Ġl az
Ġhe iress
ot an
Ġe jac
ve y
Ġre cl
al together
ur ous
ad ne
ĠM ir
Ġcon sole
ĠH app
ĠH ugh
-- ,
Ġshe wed
ĠC ent
ac hers
ost on
un ion
un cle
ĠF ebruary
pl aces
ĠD ay
ĠD ear
Ġro ots
ĠN ote
Ġen s
ile t
Ġcl imate
Ġob viously
Ġch ur
Ġfl ames
su perior
su cceed
Ġsub mitted
ser ved
Ġlo an
Ġext end
Ġcur led
ĠTh rough
oun cing
Ġill umin
Ġ4 7
Ġsw allowed
ĠAn n
Ġappro ve
che er
Ġquar re
Ġsecret ly
Ġwild ly
Ġpen it
Ġsepar ately
ĠLet ter
Ġschool s
Ġtor ment
Ġbrown ed
Ġcre ate
Ġqual ified
sol ic
umber land
Ġstat ement
conf idence
Ġsuffer ings
car ried
Ġintim ated
Ġstro de
Ġlux urious
Ġspr ings
Ġnovel s
Ġretreat ed
Ġbride groom
Ġobst inate
Ġvig il
Ġvig orous
Ġcla ret
Ġorn aments
Ġdischar ged
Ġdoll ar
break fast
Ġmend icant
ĠLanc aster
Ġbenevol ence
spo ken
Ġoy sters
Ġelli ptical
ĠSop hy
ĠSpan ish
Ġsecre cy
ĠSAU CE
8 9
H all
H astings
M ore
S m
U p
c ream
e ous
e rest
f ixed
i age
r ude
t es
w orn
y ne
re ction
Ġb orough
Ġp ig
ar ter
Ġl att
om y
Ġg ames
id ious
Ġfor lorn
ad em
ro l
ĠM a
ĠS pe
ĠH ood
ĠC or
ĠC han
ĠC are
ĠB ill
ĠB UT
Ġsh ower
ist en
ind epend
ne g
ff ic
ĠD uring
Ġdis hed
Ġout law
ove reign
ink ling
Ġob solete
Ġbr ush
Ġch orus
ick le
Ġbl anc
aw are
Ġatt ire
Ġtr ow
ang es
Ġbo ils
Ġbo asted
Ġinst itution
Ġchan ces
Ġlo ad
aut y
Ġread iness
Ġvis ions
ĠTh ink
pr ay
Ġtra ces
do ing
Ġaccount ed
ĠAl bert
pre par
Ġdesp ond
des ire
Ġann ihil
Ġspo il
inc erity
ĠPer ry
yn sent
Ġhint ed
opp osite
Ġband s
Ġthreat s
Ġfle et
Ġspark ling
Ġconqu ered
ere rs
Ġfever ish
Ġcontempl ated
Ġpolic eman
princi ples
disc overed
Ġantiqu ity
Ġingen uity
Ġbrisk ly
ĠLy don
Ġabund ance
ĠRose ville
Ġmart ial
ĠWhe ther
Ġrig id
deg ree
Ġcrum bs
ĠMass achusetts
Ġvio let
ĠRand alls
dire ction
A ND
C L
H as
M P
b acco
c up
p udding
r as
u its
in j
it le
Ġc ents
Ġto ps
Ġy o
Ġre duce
Ġwh ip
ver ness
Ġst are
ĠT reas
Ġsa ils
ĠS pr
Ġde em
ĠH im
ĠH ortense
Ġshe ll
ac ross
ac compan
ĠL ock
Ġdo omed
Ġpro ff
Ġpro sec
un ci
Ġqu itting
ass es
ĠN obody
ack ed
Ġdes olation
li ving
Ġatt ach
ĠMiss issippi
ĠK n
Ġpur ity
Ġdear ly
Ġinv ent
Ġve hement
part ic
ĠUn less
ĠUn iversity
ĠMar ian
sm o
Ġcontr asted
appe ars
Ġpen cil
ĠDe cember
Ġjoy ful
Ġdisco vering
Ġvan ish
ĠCom m
yn ch
ĠCra g
Ġrese mbled
Ġaccess ible
jo ining
Ġwel comed
roo k
Ġexcl usion
sur face
Ġalarm ing
Ġbrief ly
Ġfaint ly
Ġsentiment al
Ġrejo iced
mag net
Ġbeha ved
Ġsail or
bu ild
Ġdepos ited
Ġcas ement
Ġabund ant
Ġcel estial
Ġassert ion
Ġsher ry
conn ected
Ġgrate fully
ords worth
ĠDart le
oblig ed
achel or
A P
A cc
D uring
M er
M on
N ote
b ber
c ases
f rey
h ig
p our
p ortion
t ong
t aste
Ġp ays
Ġp aint
Ġin cess
Ġh ounds
Ġe thereal
se nd
ro d
ro ot
âĢĻ âĢĶ
ĠM ell
Ġst anza
Ġsa int
ĠA ct
ĠA fric
ĠB unting
Ġall usion
Ġare a
ĠP ans
ĠF le
ĠF red
ĠF our
Ġun kind
ĠD IS
Ġj ail
ĠR ice
ci pit
Ġbl iss
Ġpres ident
Ġcons umed
Ġwhere fore
gg ard
Ġinter ven
Ġcur t
Ġcur rie
ric ate
Ġadm ission
Ġdoes n
Ġmo ves
Ġprof usion
Ġexpect ations
Ġmeet ings
Ġide al
Ġbu ff
Ġglad ly
Ġlim it
ĠBl ount
Ġcost ly
pers u
._ "
Ġund oubted
Ġvain ly
has is
Ġfond ness
Ġsystem s
Ġtor ch
ĠSp encer
Ġspec ific
play ing
Ġwise ly
sur prise
aunt ed
Ġfac ility
Ġprince ly
hel ion
Ġmor sel
Ġobst acles
Ġselfish ness
Ġsoot he
XX X
Ġflatter ing
walk ed
Ad rian
Ġperil ous
War rington
Ġinvest ig
talk ing
Ġuncommon ly
Ġsurve y
ĠCath olic
diffic ulty
Ġperple xed
Ġsan ction
nes day
Ġfel icity
Ġreconc iled
Ġjump ed
Ġsympt oms
Ġrebell ion
ĠVolt aic
cun iary
C rawford
E P
V EN
d ue
s um
v ial
Ġ 0
Ġo ra
Ġo min
Ġs ly
is ive
Ġm un
Ġm ask
ar ian
Ġd ies
an throp
Ġh oney
ve lled
Ġwh irl
Ġst ub
Ġsa ving
est one
ĠB ald
ac it
Ġr ates
um bling
ag ers
Ġinto x
Ġout rage
Ġro be
Ġcons istent
Ġgl ided
Ġret orted
ip es
ret ary
Ġsupp ressed
ple nd
Ġjust ified
Ġsl ain
Ġter race
Ġstr at
Ġdiffe rences
Ġes pecial
Ġacqu is
ĠCh ild
Ġpa using
uten ess
Ġdef y
Ġmus cular
arr ison
AR K
Ġund ist
Ġhonest y
pleas ed
bel ong
Ġph ot
riar field
ĠCol umb
hel p
obser vation
ĠHighland ers
Ġdiam ond
Ġsettle ment
Ġaltern ately
Ġpor ch
Ġty rant
beaut y
Ġgrie ve
import ance
ĠDaw ton
ĠLuc as
Ġremo val
Ġlou der
Ġinev itable
Ġhypothes is
streng th
I B
U L
V ol
b one
f ly
g le
h ung
n ation
he as
Ġs ter
Ġm ac
Ġm uff
Ġf iles
ing ham
ing lass
le mon
Ġre in
Ġre vived
ro ve
ri bs
ĠM em
Ġst ature
ĠS oup
Ġso bs
Ġde ference
ge y
ĠW H
um bered
Ġcom ment
ĠL o
Ġsp ice
Ġad vert
ĠR emember
for gotten
ick ing
li qu
li ps
Ġseem ingly
Ġgent leness
Ġac celer
Ġem inence
Ġref rang
co ach
Ġreg ulating
pr oud
Ġhard ened
medi ate
Ġconst ructed
Ġmet ropolis
Ġbar ren
ĠIs is
Ġfact ory
reg arded
Ġleg ally
Ġhop ing
ament al
St ay
Ġspo iled
Ġattempt ing
Ġadmir ing
Ġball ad
Ġsuper flu
Ġpun ct
Ġhero es
Ġpossess ing
ocks ley
Ġshr ink
spir its
Ġmult i
contin ue
Ġargum ents
ĠLong bourn
circumst ance
Ġuncertain ty
Ġpictures que
Ġdevelop ment
Ġwrit ers
grad ation
Ġbatter y
!! !!
anx ious
Ġbrid le
ĠSE CTION
Ġtre acher
employ ed
ĠPre cept
quant ity
N T
P lease
c ity
c ury
d ifference
g overnment
h o
m akes
p aste
r ick
ou st
Ġm ate
Ġf isher
Ġc ock
Ġp ool
Ġe ll
Ġe astern
st ay
Ġg al
Ġg ifted
id ance
Ġst ables
ul ent
res ult
Ġbut ton
Ġne gl
Ġr ider
me ant
te xt
Ġgreat ness
Ġch oo
Ġdes erves
Ġgr asped
ens able
Ġfl ush
Ġimp ost
Ġatt orney
Ġgent eel
ex pected
Ġlove liness
Ġsil ks
Ġtra gedy
par lour
Ġsun set
Ġ4 2
Ġvar iable
Ġmon ot
Ġmon op
Ġsens itive
Ġtend s
Ġcharacter istic
Ġview ing
Ġconvers ed
Th ose
Ġsign ed
OU ND
ĠDe an
Ġund ulations
ĠCom mon
Ġune asiness
Ġhall s
Ġoccur rence
Ġtor rent
Ġassoci ate
Ġmort ification
Ġsorrow ful
Ġgrat ification
athe tic
Ġdecl aration
Ġsn ug
say ing
Ġyield ing
cur rent
Ġfold s
Ġfold ing
Ġbuild ings
Ġperform ance
Ġga it
Ġga ily
Ġsolic itude
Ġcher ries
prom ise
Ġamaz ement
ĠZ enobia
Ġdispleas ed
Ġpup ils
Ġridic ule
remain e
Ġgla re
Ġhal ted
ĠServ ice
Ġsag acity
Ġinvolunt arily
EAT S
ĠRu pert
Ġwilder ness
ĠRock minster
Ġcig ar
Ġforci bly
6 2
7 2
E G
P ar
T hy
c astle
e asily
f ool
l iter
m ove
p ent
p ound
s word
Ġo mn
is dom
Ġb ald
Ġc ir
Ġin express
Ġd ip
Ġn et
Ġn our
Ġas cent
her ited
ĠM ount
ra ised
ĠT art
ill ip
th rown
Ġso fter
ul um
Ġex terior
ĠB ible
Ġall ey
ĠL O
ĠL izzy
out s
out side
ord inate
ĠF ortune
Ġab ility
ĠG all
Ġcan na
te ars
Ġper for
Ġsha bby
Ġpart ake
ĠN a
ran ging
oll o
Ġsc rup
ens er
Ġacc ost
Ġcons umm
Ġgl ove
Ġra ven
Ġpleas antly
Ġjust ify
Ġcur ls
pro gress
ĠThere fore
Ġhope ful
Ġtra itor
riv ol
Ġel astic
let ters
Ġru bbing
Ġtem ples
Ġfin an
vo isin
Ġkn elt
gl ad
hand some
Ġfoot ing
lic ation
pleas e
Ġpursu ing
Ġsad ness
Ġburst ing
Ġsucceed ing
Ġmeth inks
Ġcott ons
Ġspeed y
Ġstro ve
Ġbox es
Ġbid ding
consider ation
Ġrelative ly
Ġmal ice
Ġdecided ly
Ġsus cept
Ġtransp arent
Ġple ad
Ġpenet rate
Ġfix ing
Ġwhist le
Ġresour ce
Ġstor ms
Ġcomplaint s
Char les
Ġsuperst ition
sit uation
remem bered
Ġshri ek
Ġguine as
Co pperfield
Ġfoll ies
Ġrecon cile
Ġdang ers
E F
F irst
P ardon
S urely
W est
c redit
f ro
f irm
f uture
m ot
p olitical
w arrant
Ġa far
re plied
re comm
Ġs ins
Ġs ciences
Ġs hattered
en cing
Ġf alter
Ġto morrow
ar range
Ġe c
st ones
ut able
al ph
et or
ad a
ri ans
ch oes
Ġst omach
ĠS un
Ġse ct
ĠA g
-- âĢĺ
ĠC OM
Ġex alted
ĠB ri
ust ion
per ceived
per ception
Ġsp y
Ġen closed
fe et
Ġover fl
Ġsc oundrel
li ber
Ġpe evish
oss ibility
Ġtr icks
Ġaw aken
Ġwr ung
ĠV er
Ġnew ly
Ġend owed
Ġ3 2
pro spect
Ġinf am
eth od
Ġbre ach
Ġdet ach
Ġprom ising
Ġprev ail
Ġ5 7
Ġten ants
Ġlength s
know s
Ġdro pping
Ġsign ify
Ġhur rying
Ġfresh ly
Ġoccup ations
hard ly
._ ]
Ġemb ro
ĠFrench man
dist inguished
AL L
Ġfal tered
Ġkiss ing
exp ressed
Ġcook ery
Ġrender ing
Ġsacri fic
lin thus
Ġfrank ness
Ġtreas ures
Ġconqu est
ĠCal enus
Ġemp ire
ĠMor ris
Ġuniform ly
Ġspecul ations
Bl ack
incl uding
Ġoath s
Ġric hest
OO K
sever ance
ĠWARRAN TIES
Ġremo ving
ĠIm ogene
Ġnegro es
Ġinstit utions
ĠNi gel
earn est
Ġantagon ist
ĠDer by
Ġomin ous
M ort
P ut
c er
c ried
l od
n ine
p owers
s oup
Ġ ign
Ġt ing
Ġthe at
Ġw ool
Ġw ounds
Ġb raw
Ġf aster
Ġto ils
Ġp ulse
Ġd uration
Ġh iding
Ġhe ars
om b
om on
ic y
st ranger
se at
al tered
oo p
il oqu
Ġse izing
Ġde pre
Ġcon sec
est ics
Ġv ote
ĠE leanor
we alth
ĠG os
Ġj u
ĠR ich
Ġdis cipline
ĠO linthus
Ġ1 00
Ġye omen
Ġcons ented
Ġtr un
ans ion
Ġwr ites
ex ist
ult ural
Ġgra ins
Ġhar bour
ER S
sp read
Ġext ending
rem ained
Ġequ ivalent
Ġequ ilibrium
Ġcr adle
Ġinv ented
no x
Ġvar ies
ught er
mon th
part ies
Ġsk ilful
ĠAn nie
app re
Ġprom inent
Ġprinci pally
Ġeng ine
Ġconv ent
Ġrepe ating
Ġcent ral
Ġtrans actions
fl owers
char ge
Ġmass ive
Ġcook ing
cal m
Ġexer ted
Ġlod ged
Ġintellig ible
Ġtong ues
Ġeduc ated
bro ke
Ġdimin ish
Ġnovel ty
Ġresem ble
Ġillust ration
Ġattack ed
ĠBur ke
ĠFl ore
Ġpled ged
stru gg
jour ney
Ġdecor ated
Ġhem isphere
Ġlust re
Ġextravag ant
slow ly
ether field
reco gn
6 4
A VE
C ould
M ENT
P LE
b ones
r ity
s ick
t end
Ġt reason
Ġa ust
in ous
Ġw rest
Ġb ars
Ġf ox
Ġto wers
Ġp est
Ġd arted
Ġd iversity
Ġh ush
Ġbe asts
ir ies
Ġas pir
ĠS quare
pe ace
ul es
Ġde arer
ĠC y
ĠC axon
Ġv owed
ac rity
Ġr ud
Ġr ung
ĠE ND
Ġli v
ĠF ate
ck ing
Ġsp ur
ĠR alph
Ġinto lerable
Ġus hered
Ġper se
ĠN ext
ell ynch
ap h
Ġres ume
Ġspe ar
sh ut
Ġsub mission
ser ve
Ġrep ast
Ġlo aded
av in
Ġsur render
Ġmar vell
pro ved
Ġinf ring
Ġform ats
Ġcirc ulation
She lley
Ġconsider ations
Ġeye b
Ġins ign
Ġhast en
Ġ18 17
Ġest ates
ĠAl though
Ġsoft ness
Ġconvers ing
than k
Ġsett ling
Ġsubst antial
aff ord
str ate
Ġhost ile
Ġmort ar
ming led
vi ving
Ġmat rim
Ġfail ure
olit an
Ġresem bling
Ġcomprehend ed
Ġdesign s
poss ess
Ġreck less
mag n
Ġemp hasis
Ġeleg ance
ĠSomet hing
Ġpack et
Ġprem ises
suffic iently
conscious ness
Ġlob ster
+-------- ----
ĠWil fred
Ġcorpor ation
ĠBa iley
Ġcalam ity
Ġcongreg ation
Ġrans om
6 8
9 4
B oil
L ouis
M any
e pt
g ued
n ical
Ġa ided
is ons
Ġh ym
Ġha g
Ġg n
Ġg out
Ġg uns
Ġre pl
ro lled
ĠM illy
ter ms
ich igan
ill es
red its
ĠA uthor
ĠC HA
ind ul
ĠP AR
ĠP ynsent
we el
Ġqu aint
Ġsp ar
Ġsp ots
ĠG ir
Ġcan v
Ġsha ft
ru ff
Ġro ared
Ġro bes
ĠN elly
ade ira
Ġcl ue
Ġpr ism
Ġsc enery
Ġoff spring
Ġfl owing
Ġcons picuous
Ġap ric
Ġgl ances
Ġapp rent
ret ching
get ic
Ġgra ces
ĠK EATS
cei ves
Ġsec ular
Ġconf inement
Ġsur geon
Ġdel ir
Ġadv ised
Ġadv oc
ĠLord s
Ġadm on
Ġdark er
Ġcontin ues
oura bly
Ġins pect
Ġins olent
Ġprom otion
sc ill
ĠAl b
IN C
Ġjud ges
Ġbur ial
Ġele ction
Ġleg itimate
Ġstri kes
Ġthick ened
Ġdesp atched
Ġexam ining
Ġbound s
ĠGe org
Ġgen ial
adv antages
Ġvict ims
Ġring ing
ref lection
Ġfright ful
Ġstation ed
Ġshr oud
Ġcrit icism
urs day
Sc rooge
Ġawa it
Ġcher ish
Ġasser ted
name ly
ĠJan uary
Ġattract ive
direct ly
Ġeloqu ent
Ġliter ally
Ġattribut ed
ĠPres ident
Ġstor my
Ġrapt ure
ĠServ ices
corn s
Ġnebul Ã¦
orig inal
Ġmemor able
Ġinher it
Ġcu ps
sym path
Ġfeud al
Ġbru ised
Ġsear ching
frequ ently
Ġappla use
Ġpian o
Ke ats
Ġsnat ched
ĠBurg undy
Isab ella
Ġvehic le
Ġsturd y
9 5
A llen
J em
N E
P E
a ise
b ol
c row
e enth
f und
k ens
p aid
p henomen
s orrow
s oul
t ical
t ouch
Ġ Ã
he res
re ached
Ġto bacco
Ġp oultry
Ġd ashing
as m
le man
ut ton
ut ral
Ġas ks
Ġwe b
Ġsu ms
qu il
ore sc
Ġcon ver
ĠH alf
ĠB urn
ĠB oston
art ic
ast y
Ġpro ves
Ġun s
ass ured
ĠD evil
Ġar bit
Ġdis par
ell ed
man ces
Ġbl owing
Ġcont em
Ġfl ock
Ġpe w
Ġret ro
Ġpleas es
Ġrep etition
ĠK now
Ġchan nel
und ered
ph rase
Ġcontin ual
tern ational
Ġes chalots
Ġsens ibility
ham es
We re
like ly
Ġsum mit
Ġval ued
pre me
Ġbad ly
Ġcost ume
Ġfla g
Ġban ished
Ġreceipt s
Ġrevol utions
Ġcand ied
acc urate
Ġamb assad
Ġaston ishing
rid ay
Ġstat ements
interest ing
sur pr
ĠBert ie
Ġhes itating
po ch
Ġrepresent ations
Ġbaron et
ĠClar inda
Ġtur ret
Ġcord iality
poss essed
Ġdi pped
Ġplanet ary
Ġty pe
Ġapprehen sions
Ġswell ed
OL D
Ġneb ulous
Ġmerchant s
mere ly
success ful
ĠSim on
Ġmant le
Ġincons istent
Ġach ieved
experi enced
Ġcoo lly
Ġdazz ling
vill es
Ġdun geon
pop ular
Ġtyran ny
Ġbaff led
Ġenlight ened
sac ri
Ġscant y
fur ther
ĠHind ley
) --
J ob
L ike
b rances
c at
h u
i ac
w ich
Ġ ----
in ue
Ġw ench
er ate
Ġf ren
Ġf rying
Ġto ilet
Ġin k
Ġin habited
Ġd ing
Ġd agger
Ġha y
Ġe agle
ent ricity
ir teen
ri pp
Ġst ake
ra ged
ĠT remaine
ĠS chool
Ġse ren
ĠA ber
ĠH y
ĠC orn
ĠB our
Ġall e
Ġall y
ĠW ILL
ind ing
.âĢĿ --
ĠP hilosop
Ġpro se
ord id
fore ign
Ġtw a
Ġbefore hand
sh ow
Ġcount ess
ang s
ang led
Ġbo on
Ġmin istry
Ġless en
Ġrest s
Ġread able
Ġdel usion
Ġte acher
ax ons
Ġperson ally
Ġass uming
Ġcr imes
Ġcirc um
Ġfear fully
Ġswe eping
Ġrespect ive
know ing
Ġincl udes
ĠCl ack
pre v
Ġmus cles
Ġbes ee
AR D
Ġdr unken
Ġremember ing
Ġjo ining
Ġjo vial
ĠLe gh
Ġsuccess ively
Ġgall on
Ġdepend ent
ĠCar olina
ii i
Ġdeb ate
Ġid iot
Ġwitness es
Ġdam ages
serv ants
ĠDon ne
Ġexcl uded
Ġminister s
Ġobst acle
Ġaccur ately
Ġconceal ment
Ġbas is
Ġemp hat
matter s
Ġsail ors
sens ations
Bl anche
Ġcultiv ation
Ġestim ation
Ġcryst als
Ġaven ue
Ġhy per
favour ite
Ġrecess es
ĠEs q
Ġdefe at
Ġprohib ition
Su pp
Ġbul k
estab lish
Ġdiss ip
Ġphilosoph ical
Ġchallen ge
ĠMid dle
advent ure
ĠEst her
ĠSym pson
5 1
5 3
V al
a fraid
b reat
b orough
c overed
d ri
e em
f u
l itt
n ament
t im
v ain
w id
w atch
Ã ¢
â Ļ
Ġ Ãł
Ġt ract
in ine
Ġs ite
Ġf ag
Ġf ring
Ġc ant
an se
Ġha ggard
Ġg asped
ow dered
ce rem
im prove
Ġon ward
Ġfor b
Ġis inglass
qu es
th ro
ĠS er
ĠB ox
ĠB riarfield
Ġv ag
ĠW alk
Ġsh orter
um per
ĠL iber
ĠL ocksley
ĠP arson
ure en
reat ing
ĠD iv
Ġag ency
Ġsp urs
ĠG am
Ġj am
Ġdis interested
be am
Ġpart ners
Ġpl anted
Ġbr im
Ġres ort
sh op
Ġcomm end
ang le
Ġrep ay
Ġend less
Ġrel ent
Ġev inced
pr ide
Ġtra mp
Ġhard y
Ġobject ed
Ġopp ression
Ġdec rease
Ġbeaut ies
Ġbeaut ifully
Ġsk etch
Ġdisp ers
Ġdisp ersed
dis p
add itional
Ġri p
Ġsweet est
ĠEnglish man
reg ret
hand ed
Ġcent uries
Ġsever ity
Ġreco very
Ġpost ure
OT HER
Ġdom estics
str ous
ĠInd ians
Ġcra ve
Ġbless ings
ĠHigh ness
ĠBar be
Ġsolemn ity
sing le
Ġrecogn ize
ĠJew s
ĠJew ess
Ġexec ute
Ġamuse ments
ĠChe mist
Ġwond rous
Ġpred omin
wa iting
elect ricity
Ġcontribut ions
Ġreluct ant
Ġantiqu e
Ġrecord ed
diffic ult
ATION S
Ġstrew ed
Ġcompet ition
Ġcryst al
Ġunw elcome
Ġwithdraw ing
Ġfires ide
Ġclot hed
Ġsher iff
Ġaristo cr
Ġdiscont ented
Ġanalog y
Ġquot ation
Ġimpert inent
CTU RE
Ġspecim en
interrupt ed
Mart in
Ġtyp es
admir ation
Ġbund le
Ġacquaint ances
D r
E glantine
F ather
R ead
b ble
c oun
f inite
g ic
g ies
l ines
n ant
s ave
v enty
Ġ x
Ġb ail
Ġb isc
Ġm ature
Ġc ured
Ġp end
Ġin ex
Ġd art
ic a
le aving
ut hering
ent ric
ĠM R
ĠT im
ĠT rue
if ting
ĠS av
ĠS peak
Ġse aled
ĠH E
Ġshe pherd
Ġall owing
ac ies
Ġare na
Ġpro verb
ĠE lect
Ġle aped
Ġun reasonable
per formed
Ġsp ont
ĠG overn
Ġj ug
ab leness
ĠN un
ĠJ er
cl othes
cl osure
Ġlong itude
ĠK at
Ġmar ched
uth ors
Ġste aling
ĠCh illip
ĠBe cause
Ġpain ting
Ġcourt iers
ĠAll an
Ġjud ging
Th or
Ġstri pped
Ġdeterm ining
comp osition
des cend
bo at
Ġperiod ical
na h
imp at
Ġwine glass
Ġtrans ient
tr ade
Ġhealth y
Ġwis est
ĠMad emoiselle
ĠCo vent
;-- âĢľ
Ġlangu id
father s
ĠLove tt
Ġspect re
Ġtop ics
Ġinquir ing
Ġav ar
ĠAmeric ans
bre ast
Ġorgan ized
Ġgod dess
Ġloc ations
Ġpla id
Ġbrilli ancy
Ġreck oned
Ġkey s
Ġkeen ly
Ġindic ating
ĠNever theless
princi ple
qual ities
Ġghost ly
Ġprem ature
Ġcitiz en
Ġded uct
Ġfarm ers
Ġmoist ure
prov iding
kn ife
learn ed
fla voured
ĠEX P
orig in
laugh ing
Ġacquies cence
Ġrhy me
ĠHen rietta
Ent rÃ©e
Ġperplex ity
Ġtelesc ope
Ġange ls
ĠLob kins
antal oon
otan ical
Ġfinan cial
8 2
8 4
G ent
P res
R eturn
e ager
f alse
g ently
m are
m aterial
p age
p athetic
r un
r ations
s or
s leep
w inn
Ġt ip
in formed
ou g
Ġb owing
Ġm ud
Ġf ab
Ġp ushing
Ġin it
an es
Ġg ale
Ġwas hing
Ġfor wards
ch rom
Ġst retch
ra pid
ore al
ul ness
all ic
ge ons
ĠC ut
Ġk ettle
ĠW agg
os ia
ast ing
ĠL A
ĠP leas
ven ue
itt ered
Ġun fit
pl ate
Ġshould n
Ġro d
Ġtw isted
Ġen lar
Ġcl enched
Ġgood ly
Ġcha ins
de b
oll s
Ġbl own
Ġbl ock
Ġsc ared
Ġoff end
bl eness
Ġwork men
su gg
Ġref ract
Ġsir s
pro duction
Ġste pping
Ġinc idents
Ġdet ailed
Ġcold ly
ĠBe auty
AR Y
Ġglad iator
Ġsalt spoonful
Ġbright er
Ġdress es
Ġfresh ness
Ġtrem ulous
Ġsym met
ris y
great est
Ġcalm ness
Ġflour ish
inst antly
Ġgrad ual
Ġheaven ly
Ġloud ly
Ġinj ure
Ġreve al
Ġproof s
LI G
Ġax e
Ġhes itate
Ġshr unk
const ant
Ġvolunt eer
mist ress
Ġveget ation
ĠBen wick
walk ing
Ġ50 1
Ġprosper ous
prot ected
prof ession
Ġfund s
Ġgreet ed
Ġparall ax
Ġaband on
ĠDes pite
grad ually
Ġlam ps
Ġruff ian
Ġretire ment
jac ent
Ġfeather s
Ġpul p
Ġcolumn s
Ġaccomplish ments
apart ment
Ġanteced ent
Ġloo s
Ġcontinu ing
Ġlabou rers
acknow led
ĠThorn berry
jam in
thorough ly
ĠSOU P
ĠCard illac
Ġaggreg ate
A ny
C aleb
E LL
L D
L ittle
S idney
e h
g az
p ul
p un
r ings
v able
v irt
w ished
Î ¿
Ġa version
Ġw its
Ġb ounded
Ġb inary
Ġf ir
Ġc ert
Ġc ash
or ic
Ġp ush
Ġd ial
Ġd uck
as per
Ġha ck
st retched
Ġg aud
Ġan ch
ĠM all
Ġst ain
ĠT hames
Ġsu preme
est ine
Ġv oc
.âĢĿ âĢĶ
ĠL ast
ĠP ost
ure au
Ġpro ving
ĠF ul
we ight
Ġab omin
Ġun fortunately
ĠD is
ĠR uth
be aring
Ġpl at
Ġpl um
ious ness
Ġcl inging
Ġbr ut
fe atures
de fect
ty ard
Ġcomp ose
Ġres pond
Ġsm ith
Ġsc rut
Ġcont end
Ġcont raction
Ġimp ed
Ġpres umption
Ġey ed
Ġsupp ress
ock winn
ĠK ellynch
Ġref using
ĠU T
Ġmar vel
ier ce
Ġcr isp
Ġaff ront
Ġaff liction
Ġmis er
Ġhel met
Ġins olence
Ġdisp osal
Ġlay er
Ġbar ons
Ġdef er
ĠX IV
Ġforg iven
ĠWh ig
look s
Ġkn ocking
Ġsign ificant
Ġproceed s
Ġsurpr ising
Ġwhis pers
Ġtrans action
.-- âĢľ
rop he
Ġwon ted
every body
Ġban ner
bel ow
ips y
Ġcre ed
Ġstrugg les
Ġrecogn ition
Ġfol iage
cond ition
Ġgle amed
Sc ott
Ġho arse
Ġimpl ies
ĠST ART
Ġexped ient
Ġple a
IC K
Ġcommod ity
Ġhide ous
Ġcho ked
Ġprivile ges
Ġtravel s
Ġrust ic
ĠAthen s
Ġgreet ing
Ġvir gin
Ġsuperst itious
Ġinval id
ĠAcc ordingly
Ġaristo cracy
Ġcens ure
repe ated
compre hend
Ġrecipro cal
Ġfant astic
Ġstub born
' ,
B rit
U ST
c ong
h om
k a
m ilk
s itting
Ġ #
Ġ âĻ
Ġt ent
Ġw reath
Ġw izard
is ms
Ġb ows
Ġb att
Ġb ug
Ġm are
en ances
Ġin complete
Ġd ances
Ġh ttp
Ġl umps
Ġha iled
hat e
st ory
ent ially
ĠM adeira
ra ise
Ġat h
Ġsu p
us ively
ĠB OIL
Ġr asp
os ion
ect ures
Ġdo ve
ne ll
ne ly
la bour
ĠF e
Ġab bot
pl om
Ġad equ
Ġj ury
ab ol
Ġim b
own ess
ĠO WN
ĠJ ones
int ended
de cl
ap es
Ġcomp romise
Ġpe cuniary
Ġpass ive
Ġshall ow
Ġsub tle
ex er
ob tain
Ġke eper
ĠK atherine
Ġem ail
Ġco ats
Ġmar mal
Ġinf ernal
Ġlar gest
Ġopp ose
Ġdec isive
cul ine
Ġland ing
Ġremem brances
do zen
Ġforth with
erm it
Ġval iant
Ġmed itation
Ġdraw er
Ġfra ud
ivers al
happ ily
Ġdepart ment
ÂłÂł Âł
might y
Ġpour ing
jud ge
ĠHar ville
Ġcapital ists
olog ical
Ġpun ish
Ġcheck s
ĠRE M
ĠRE AD
Ġfun ction
Ġrepresent ation
spir ited
const itution
Ġprotect or
Ġobsc urity
Ġhence forth
pat his
EM ENT
mel ancholy
Ġreluct antly
Ġwrit ings
Mad ame
Ġfid elity
Ġrela xed
ĠLuc illa
Ġcomput ers
ĠProt est
reng aria
Ġflu id
proceed ed
Ġcust ard
Ġadminist ration
Ġrect ory
extreme ly
iog n
Ġbount y
Ġexclaim ing
ockwinn ock
Ġmarmal ade
) (
9 1
C ut
H am
c ou
c op
d are
d imin
d uty
e res
p owered
s ad
w est
w inter
Ġt ough
Ġt asted
Ġt ureen
Ġs incerity
Ġf res
Ġf ib
Ġf ishing
ar ches
at hing
Ġl ined
Ġn igh
om ination
Ġha il
ĠI MP
Ġe ther
se a
et hing
Ġu mble
ĠM ichigan
ĠT ex
Ġme ll
ĠS k
am ations
ul a
ĠA lex
ge red
ĠC ran
Ġr idge
Ġsh rank
Ġsh rie
ist ics
ol n
ne ath
Ġab bey
ag ne
ment al
Ġwor sh
Ġsp oonful
ĠG iles
ĠR ivers
Ġar riving
te aspoonful
ĠN etherfield
Ġen qu
Ġen sure
Ġgo verness
ull ed
ren ched
Ġunder gone
Ġbel t
ĠSt irling
Ġappe aled
ĠK itty
Ġexp anse
Ġlo af
Ġref usal
Ġgu idance
ĠY ates
ĠĠĠĠĠĠĠĠĠĠĠĠĠĠĠĠ ĠĠĠĠĠĠĠĠĠĠĠĠ
Ġperson ages
Ġsat in
Ġdoor way
Ġhum bly
ĠAr t
eth inks
Ġsol ution
Ġsol iloqu
az litt
Ġwonder fully
Ġri vers
Ġir res
Ġeng aging
Ġsix pence
Ġimag in
Ġcomfort ed
Th ink
Ġfra il
Ġinflu enced
Ġclass ical
Ġfoot steps
ĠWith in
Ġmel ody
Ġwar med
verse ly
Ġ7 0
Ġinterrupt ing
cal cul
Ġdam aged
ĠKe ep
Ġpossess es
Ġfem ales
Ġur ging
Ġcompanions hip
Ġshout s
Ġpriest s
Ġempt ied
Ġhaught ily
ĠGer many
person al
Ġsubs istence
Ġexcess ive
Ġflatter y
gener ous
Ġfatig ued
Ġbla zing
Ġcontribut ed
Ġfund amental
Ġdistrict s
Ġincons ider
Pr ince
increas ed
ĠMal voisin
Ġnebul a
concern ed
reci an
Ġdiscont ent
Ġpau per
Col onel
Ġnaught y
Ġneigh bor
Ġprolong ed
ĠTreas ury
Ġcir cles
Ġperfor mances
Ġfren zy
6 6
B rown
C lar
L ove
N e
U nder
Y ours
b ably
b oot
b rand
c it
i ast
m ult
m ple
r ary
t or
v a
Ġt ails
in vol
Ġo scill
en em
Ġc ul
Ġh ire
Ġe poch
st aff
Ġg ild
Ġre bel
al ent
ur sion
ĠM ist
il ess
ĠS her
ĠS uddenly
am on
am use
Ġse ction
all ing
Ġshe ets
ĠC ler
est ry
ĠB ir
el ic
ĠL ay
Ġli ver
Ġli ability
ĠF riend
ĠF ribs
Ġun questionably
Ġqu i
ĠD ra
Ġag ents
Ġag gra
Ġad ept
Ġen e
Ġen sued
Ġthought less
Ġgl im
Ġser mon
ither to
atter ing
ĠV anilla
Ġop ens
Ġco gn
Ġinter preted
co a
pro duced
ĠĠĠĠĠĠĠĠĠĠĠĠĠĠĠĠ ĠĠĠĠ
Ġequ ality
arm outh
Ġprop he
uc id
og raphy
Ġlarge ly
Ġsubject ed
Ġsw ay
sc ene
ĠX II
cont empl
Th ree
Ġkn aves
Ġfur ious
Ġjo kes
Ġsch ol
bo il
Ġtrans cribe
Ġdri ver
off ered
bur st
Ġjour nal
Ġconcl uding
ĠNew ton
Ġfif th
Ġrevol ve
Ġfro ck
Ġprocess es
lv an
Ġcustom s
ĠEx change
Ġstock ings
cur iosity
Ġmurm uring
Ġinvol ve
pur cha
rot hed
Ġident ical
Ġaccur sed
Un cle
sil ent
Ġexcess ively
abs ence
ĠFitz chrom
Ġtail or
Ġcho pped
Ġimpress ive
Ġforbid den
Ġpir ate
ĠMore over
Ġpier cing
Ġrela x
ĠSy kes
ĠAcc ording
meet ing
Ġindisp ensable
ID ENT
Ġcommence ment
Ġimprison ment
ĠMuse um
Ġribb on
Ġfascin ating
Ġvib ration
accompan ied
ĠFitzchrom e
9 8
P age
P LA
T E
W ick
c ake
d iam
e arl
g ression
h oun
r ade
r ush
r itation
w ig
y ss
Ġt ick
Ġt iger
he aring
Ġo ptic
Ġs ordid
is ins
is ement
on ent
Ġp iled
Ġd yn
an ter
Ġh ind
Ġhe aped
Ġn omin
le aves
ur ances
âĢĿ ,
ro ar
ro lo
Ġst ing
Ġst if
Ġst aid
Ġst ung
ĠT ax
Ġsu pers
ĠS ub
Ġor anges
Ġso da
Ġsh o
ast ard
ast rophe
Ġno bler
ound ell
ĠP ower
self ish
Ġle v
Ġper v
ep id
Ġch op
wh oles
Ġsc ri
Ġcons isting
Ġtr ot
Ġret iring
Ġcome ly
ser y
ex ternal
Ġstill ness
Ġsl ack
Ġkind led
Ġinde finite
Ġsur pri
Ġinter pret
Ġrel ating
cha mel
Ġaffect ation
Ġdet est
Ġmon k
Ġunc han
ĠBe ar
Ġdev ice
EN TI
Ġlow ered
ĠX L
cont empt
arr ay
reg ors
Ġsoft en
Ġstri p
Ġhusband s
arri ved
happ ened
St anza
Ġtrans ferred
Ġconduct ing
ub rey
dist urb
Ġwrong ed
ĠCom pany
road s
Ġgrat ify
Ġcommunic ations
Ġpal m
ĠFair service
Ġstar ve
Ġconstit u
Ġav ow
supp ort
Ġrock y
Ġfro zen
Ġdevil ish
Al though
mosp here
Ġsigh s
requ ired
Ġsolic itation
ĠHighland s
Ġunf old
Ġentreat y
Ġaccident al
tem pered
Ġmechan ically
Ġabst racted
Ġhaunt s
account able
Ġencoura ging
Ġsurve yed
ĠLy me
creat ures
Ġcel ery
Ġretain ers
Ġhy ster
Ġpert urb
Ġengage ments
Ġappar atus
OS S
Ste erforth
Ġprodig ious
Ġdefic iency
Ġinvolunt ary
Tr addles
Ġlic ensed
Rob in
Am ong
Ġexagger ated
stew ed
Ġviv acity
ĠWed nesday
Ġelabor ate
exceed ingly
B ack
L inton
_ "
b ill
f ing
f are
g ard
n obody
o cious
p ol
s n
s kin
s ummer
t in
t ot
v oc
Ġa uthors
in ch
Ġthe r
Ġw are
er stone
it ory
it ably
Ġb ud
Ġm athemat
Ġp enance
Ġp ett
Ġl ace
ic an
ic ial
Ġg as
ow cher
Ġwh im
her ic
ch us
ĠA ra
Ġde pl
Ġall ude
Ġr inds
ĠW all
ĠW ordsworth
Ġsh oe
ood y
ĠP y
Ġthere of
Ġsp it
ĠG en
Ġad joining
Ġcan e
Ġcan non
be ef
Ġper ished
Ġnow here
Ġen han
for give
ĠJ ester
Ġres isted
Ġdes erving
Ġcont racted
Ġap othe
Ġdown cast
oth ic
Ġret inue
ĠMiss es
Ġsub ordinate
ex hib
ĠV igo
ĠIn stead
rem ets
pro duct
ĠĠĠĠĠĠĠĠĠĠĠĠĠĠĠĠ ĠĠĠĠĠĠĠĠĠĠĠĠĠ
Ġlaw ful
Ġrec ourse
ribut e
What ever
Ġappear ances
Ġreason ably
Ġcold ness
Ġcap rice
Ġdin na
Ġsecond ly
Ġsecond ary
Ġ6 5
Ġclose t
ĠIs le
ĠIs land
ald on
rel ative
arl ic
sm outh
Ġregard s
Ġmed itated
ĠPr incess
Ġdep ression
Ġjoy s
Ġmot to
rop ri
Ġpeculiar ities
nat urally
Ġshad ed
Ġden omin
ĠRo ger
Be aufort
Ġcand les
wr ite
onel iness
Ġhero ine
Ġspring ing
rid ges
Ġwear iness
affect ions
Ġforest s
Ġeduc ational
wind ows
ĠBert ha
Ġcalcul ation
Ġcalcul ations
Ġax es
Ġsli pp
ĠSu gar
.... ....
Re ally
Ġtransp orted
VI D
ĠFitz urse
incl ined
consequ ently
girl s
Ġarrow s
dest roy
Ġpier ced
Ġtoss ing
Ġestim ated
Ġirrit ated
Ġswift ly
Ġclam our
Mac G
Ġdus k
ĠUran ia
emb arrass
Ġdegr aded
ĠMess rs
Ġetern ity
repro ach
ĠLancast rian
Ġancho vies
ĠUpper cross
Ġgorge ous
ĠSen ate
Ġlatt ice
Ġeyeb rows
Ġene ugh
. [
5 2
C OM
D es
F ar
G erman
I F
L ES
N ESS
P RO
S p
] ,
c ary
d ard
p ale
s ake
v ice
w and
x comb
y er
Ġb olt
Ġf ence
Ġf ired
Ġf rivol
Ġp ane
Ġp enn
ar ly
ar ranged
Ġin duction
Ġin equal
Ġin accurate
Ġd ru
Ġh oof
Ġn ook
Ġn ull
Ġn av
Ġth irteen
et ies
Ġwe ars
ĠM uch
ter bury
Ġst am
il ation
ain ault
ke rel
th in
ĠS osia
ul ity
us age
Ġne utral
Ġv ot
lf ord
Ġr ue
ĠW ages
el ph
ĠP ers
ne ck
Ġal ien
ĠE VEN
Ġli very
ĠF ish
Ġle ap
we ather
we ek
ag ues
ĠG recian
ab el
Ġpre l
Ġcomp ression
ull iv
You ng
Ġsc rap
ren chard
Ġimp ossibility
Ġmost ly
iv ities
ex change
Ġmin es
Ġconf ide
Ġind emn
Ġco ax
Ġinter mediate
Ġche ered
arn ish
Ġreg ain
Ġact ors
Ġtra ined
Ġsuff erer
Ġaffect s
ric ious
Ġbre eding
ĠEd ition
Ġmet e
Ġprof lig
Ġelect rical
ĠUn cle
dis posed
Ġclear ing
Ġsum m
Ġpast ry
ĠAt l
Ġbar rier
Ġcourt ly
Ġdef ended
Ġcomfort ably
Ġmed ical
Ġmed itations
Ġthick ening
Ġdep ressed
Ġagree ably
Ġsqu ires
fl ower
Ġdream ing
Ġtax ation
Ġpassion ately
inc oln
Ġdread fully
Ġfaith fully
Ġgovern or
friend ly
Ġproud ly
Ġkne eling
pet re
Ġav owed
gra cious
Ġpun ished
ĠWood ville
Ġstat ue
RA B
Ġsecure ly
Ġgro ve
Ġmat ron
key s
Ġpepper corns
Ġvolunt ary
Ġrad ius
Ġham mer
Ġpull ing
ĠRev iew
Ġmal ignant
Ġsevere ly
Ġwarn ed
Ġnod ding
Ġpolar ization
inqu iry
Ġproject s
talk ed
remain ing
Ġdece it
Ġnois eless
ĠSupp ose
ĠEX CE
isin herited
ocr atic
exam ple
Ġdishon our
disappoint ment
priv ate
Ġrede em
Ġgird le
ĠWOR K
ĠAbb ot
Ġundist urbed
Ġec st
ĠNun nely
Ġinequal ities
7 5
A gnes
C ap
E l
J an
T RO
b are
b ull
b road
c ost
e z
e leg
f le
h orn
p os
t akes
u i
v ict
Ġa h
ha w
Ġb ishop
Ġb achelor
Ġf iction
Ġc ush
Ġp am
Ġp hil
Ġp heas
at ural
Ġd ash
Ġhe ather
ot ent
st ream
id dy
Ġan ci
ĠM el
Ġsa iled
il ion
ĠS low
our te
res olved
ĠH AVE
ĠB Y
ĠB ishop
Ġal oof
Ġal acrity
ĠE astern
we ak
Ġun it
per mitted
Ġam ang
Ġag on
Ġad ored
Ġad jacent
Ġim pending
Ġar rog
Ġdis liked
Ġpart iality
ĠO ver
ĠO ff
ĠN ort
ĠN one
Ġover power
ap le
Ġcont riv
Ġcont rive
Ġfl ing
li ves
com men
Ġtr unk
Ġpers isted
Ġrep aid
ĠK IND
Ġinst ruction
ĠIn ternal
Ġkind est
Ġext ends
cha lot
Ġexc uses
Ġte ch
Ġcur iously
uc le
Ġair y
Ġsim ult
Ġhor rors
Ġsent ences
ribut ions
Ġdisc ount
will ingly
Ġpat iently
Ġed itor
Ġce ases
Ġconc ert
Ġlow ly
Ġcompl ained
Ġfra gment
Ġcoll e
comp ressed
Ġsleep s
Ġimpro per
dist ant
Ġwar like
Ġplain s
ĠMad ge
Ġhonest ly
Ġdepend ence
Ġcorn ers
dom estic
Ġpal frey
Ġhabit ation
inst ance
Ã© chamel
Ġmouth s
gra vy
Ġavo iding
Ġunivers ity
Ġheight s
necess ity
Ġcivil ization
ĠEvery thing
-------- --------
Ġlux ur
last ing
Ġobst in
Ġspark led
Ġelder ly
point ed
ĠST RI
Com mon
sens ation
Ġattract ions
Ġmagnific ence
direct ions
Cl own
Cl ifford
ĠPo etry
Ġiv y
ĠLight foot
Ġrobber y
Ġdeliber ately
Ġplun ge
omer set
ĠMarion etta
Ġlit ter
Ġtu be
bri lli
Ġslee ve
Ġstrengthen ed
Ġfaire st
ĠBun gey
ĠLab or
Knight ley
Ġnap kin
apparent ly
solic ited
Ġundoubted ly
Ġaccost ed
Ġinfring ement
6 3
9 3
D U
E h
K E
L ovel
O H
P aul
P ooh
R aymond
R ashleigh
S ec
p olit
y ke
Ġt ame
Ġw agon
Ġm im
en force
Ġc ough
Ġto ols
Ġp ite
Ġin sect
Ġd ense
Ġh ob
Ġl oft
Ġhe aved
Ġbe arer
ĠI R
Ġg aunt
Ġg arnished
ut ies
ut tering
ce ls
id ers
Ġre ly
Ġre versed
ro it
ri ver
ri ves
ĠM ill
ĠM aid
ĠM ER
ĠM AN
Ġst retching
qu ality
th reat
ĠS overeign
am ount
am ented
ul sed
ul ses
-- (
ĠC opyright
ĠB all
Ġv iz
ous ing
Ġr ural
ĠL ecture
ol ve
Ġal ert
Ġab yss
Ġam ph
Ġsp acious
ĠG ar
ĠG rove
ĠHe at
Ġj ugg
Ġar ranging
Ġdis aster
Ġper severance
Ġmay st
Ġch icken
man ners
Ġcomp ens
Ġcomp ressed
Ġimp ly
Ġdist racted
com mer
Ġcons pir
Ġcons umption
iv able
ix on
get ting
ex isting
Ġback ward
sel s
unt ed
ron ted
Ġgu ards
Ġexc ursion
Ġte achers
Ġsil enced
pr im
Ġass ail
Ġbro il
ym ph
uc umbers
ery ton
Ġdisc ord
Ġdec reas
ĠLady ship
Ġpret ensions
Ġtend ing
dis position
Ġtri als
Ġfort itude
add ressed
Ġhorse men
rel ation
rel ig
Ġbene fact
Ġreal ized
Ġstri ving
Ġbreak s
Ġbright ness
min ute
fl o
Ġpost ern
ris to
inc rease
Ġearn ed
spe ech
Ġgrat ifying
Ġsal mon
Ġneg ot
Ġpra ises
Ġneck s
Ġcand our
jud gment
Ġod our
rant ic
Ġforeign ers
Ġhero ic
Ġfamiliar ity
suff er
Ġcrown ed
Ġthreat ening
Ġwretched ness
Ġsubs ided
Ġling er
Ġascertain ing
ĠBen jamin
gen ial
Ġbew are
Ġple aded
bu ilt
sole mn
ĠOx bridge
Ġascend ing
Ġflo ated
ĠProt ector
Ġfragr ant
Ġcree p
Ġmock ery
quick ly
Ġenchant ed
hens ive
Ġmas culine
Ġfert ile
Ġfug itive
ĠSol omon
sto pped
arter ly
ĠParson age
wholes ome
, +
8 6
B r
C ons
F arewell
H o
U ND
c aut
d ie
d ied
f inger
g ency
h istory
m ess
m oral
p hys
p ipe
r ases
s ou
s art
s av
t ower
u pt
w elcome
x ions
Ġt ym
Ġw ires
er ton
Ġb ou
Ġb ash
Ġb ureau
Ġp ump
ll a
Ġin co
Ġh ood
Ġl oses
hat h
Ġg in
im ity
et e
et ers
ad ay
ĠM ike
Ġst ating
ra ms
if er
Ġsa uces
ĠS ur
ĠS axons
ul atory
ĠA R
Ġde gradation
ĠH ainault
Ġex h
ĠB right
Ġv ass
Ġv ile
Ġcom pe
Ġdo gged
ĠP ass
ure r
ĠF arewell
Ġab ilities
Ġun he
Ġun affected
per forming
op ening
ĠG a
Ġdis appro
Ġper ceptible
Ġfa iling
Ġro aring
ran ean
Ġ1 20
Ġpre cipit
Ġch ili
Ġcomp ass
Ġsc rew
Ġacc use
ject ion
Ġimp udent
li x
Ġra ces
lace ment
sp ace
Ġcour tyard
Ġche ering
Ġint u
pro c
pro cess
ĠTh ursday
Ġcr ush
Ġcop se
Ġart less
Ġhard ship
att ended
Ġfore most
Ġmon ster
Ġsens ibly
Ġrespect ability
Ġgot ten
ĠSc udder
Ġ5 96
Ġhelp ing
Ġten or
Ġworth less
Ġca ress
EN SE
Ġpublic ly
ĠX III
Ġconv ict
Ġvol can
Ġtrust ing
ĠNor folk
Ġesc aping
Ġmain ly
OU S
Ġimpro bable
Ġspo onsful
val uable
dist inction
AN N
spe cul
Ġconn ections
iction ary
Ġsal ted
friend ship
Ġkiss es
Ġpure ly
Ġblind ed
Ġgrow led
equ ality
Ġcott ages
mar ry
Ġmiss ing
ĠRE F
Ġdiam onds
cap able
Ġtrif les
velop ed
Ġdi plom
rat itude
Ġinsp ire
Ġaccompany ing
Ġgrasp ing
Ġextrem ities
Ġappropri ated
Ġric hes
Ġmerc er
Ġunexpected ly
Ġren ounce
ĠÎ ±
fla vour
philosop hy
ĠMil ky
Ġoy ster
Ġrout e
Ġdus ky
FOR E
Ġloy al
Ġmars ha
Ġepit het
Ġinm ates
ĠSever al
Whe ther
Ġengross ed
Ġhypoc risy
Ġremonst rance
ĠEss ay
Ġillumin ated
Ġblanc hed
Ġell ipse
ĠÃ Ģ
surpr ised
I m
J ul
K now
R even
S TER
W E
b ows
b alls
c ers
d ignity
f ill
f ruit
i ating
j oint
m ixture
n ational
r ays
Ġt int
he aven
he avy
in ox
Ġw ars
Ġw ider
ou ching
Ġp iqu
Ġe choes
Ġg ib
Ġg arlic
ld er
Ġth rill
Ġth ieves
Ġre he
ri a
ĠM ex
ĠM orning
ĠM AR
ra el
ĠT en
ĠT ar
il fully
qu ets
Ġse clusion
Ġso bbing
Ġde uce
ĠH iel
ight ing
ĠB eef
Ġall eg
ous ers
Ġr asc
um sy
ĠP UR
ĠF OUND
ĠF riday
Ġab hor
Ġun well
per ing
op old
ass ure
ĠD ark
Ġdis k
ĠO b
ĠN az
Ġpl under
Ġpr inces
Ġpo ll
ĠJ or
Ġimp arted
li hood
Ġdist rust
Ġpres umed
Ġra p
Ġturn ips
ĠV ic
ĠV eal
ĠSt ranger
Ġnat ures
Ġexp orting
He ar
und ers
Ġind olent
unt eers
ĠU SE
Ġinter cept
Ġreg ulated
Ġfew er
Ġadv ances
Ġvis age
Ġcur l
Ġlaw less
Ġinf lict
Ġste eds
Ġass ented
Ġass urances
Ġtra ffic
Ġinc urred
Ġprop het
Ġdoub ting
Ġfore seen
Ġsk illed
Ġmon strous
Ġsw allow
Ġconst ancy
az ine
app ropri
Ġ5 8
Ġpain fully
Ġpat ernal
Ġpat hetic
ĠX V
Ġimport s
gl ance
Ġthick en
Ġexpl o
Ġsend s
Ġemploy ers
Ġpriv y
ĠBl ue
Ġord in
ĠCo le
Ġvan qu
ĠCom pl
Ġconcl usions
Ġsuper intend
Ġshut ting
Ġdistinct ions
ENT H
ĠHar lequin
ember ley
Ġdecl ining
Ġcustom ers
Ġsympath ies
RA PH
Ġming le
Ġregret ted
Ġpit ied
Ġident ify
Ġquart ered
Ġabsor b
ET S
Ġdesper ately
ĠTH OSE
intell igible
Ġsand s
incl ination
Ġdisgu ised
Ġrust y
Ġgard ener
list ened
Ġmant el
Ġlog ical
complete ly
agnet ism
conv inced
corn er
Ġclot hing
Ġconfer red
Ġgoose berries
Ġappreci ate
delight ful
Ġrespons ibility
TRA CT
Ġcomplac ency
Ġjack et
ĠEv adne
ĠHor ace
ĠHum an
Ãī E
Ġens uring
unci ation
ĠDIS C
Mort on
OH N
) :
B ert
M uch
P T
T itle
W ald
d rew
d well
f right
h ill
i ature
m ad
m iles
r ines
s qu
s cience
s udden
u ber
Ġt un
he nt
Ġthe ories
Ġw reck
is se
on ous
Ġf its
Ġf uel
Ġp owdered
at ious
Ġd iet
Ġh ook
Ġl es
le ans
st orm
ow e
ĠM ake
ĠM owcher
ĠM aldon
Ġme m
ĠS on
ĠS uff
ĠC H
em ar
ĠB read
Ġv ital
lf th
Ġr is
Ġr uddy
ast icity
ĠL incoln
ĠP RO
ine x
od ies
we lfth
Ġun solicited
per or
Ġwor m
me chan
Ġdis appear
Ġdis advantage
other ton
Ġus ur
Ġpl ough
Ġcl ad
Ġcl ans
fe es
Ġcha st
ark ins
Ġover heard
Ġres ided
ĠMiss ion
Ġlast ing
Ġgra ves
Ġhar k
Ġhar der
sp ot
Ġfam ine
Ġte aching
Ġhome ward
Ġcle arer
Ġass ault
Ġrecei ves
par agraph
wor se
ery bing
Ġill um
une x
Ġsw im
ĠCh ic
ev ille
sequ ently
app le
Ġprof use
Ġdev ote
Ġdra ma
Ġlist ener
field s
Ġbed side
pre vent
Ġbright est
Ġbright ened
rit ory
Ġsuccess or
ĠBl ind
Ġtemper ament
Ġheat hen
na res
imp ression
St rong
Ġpost erity
Ġang rily
ĠCom mod
off er
ĠRob sart
Ġgrand mother
Ġmort ified
Ġsal utation
Ġstates men
Ġmaid ens
Ġcat astrophe
Ġblind ness
Ġrecogn ise
del ighted
ĠNe ap
Ġexcl usively
Ġintim ation
Ġdimin ishes
Ġgain ing
Ġspr inkled
hon est
Ġmor ality
Ch urch
NOT ES
Ġcord ially
Ġentreat ies
inn amon
tran sp
esc ape
Ġlat est
Ġbegg ing
Ġecl ipse
Ġpenet rated
Ġpenet rating
princi pal
Ġfer ocious
Sh ould
Ġabsurd ity
Ġadventure r
mal ine
Ġconject ures
Ġsurve ying
imag ination
ĠCr atch
ĠCr icket
Ġemer ged
Ġcongrat ulate
separ ate
remark able
temper ature
Ġcred its
Ġcorrupt ion
remem brance
contr ary
Ġguine a
Ġpant ing
Ġadminist ered
Ġtroubles ome
Ġhistor ical
==== ====
stra ight
Ġpersec ution
ĠAy mer
hero id
ĠAdd itional
Ġmole cules
Ġprecip ice
Ġbeck oned
ĠVirgin ia
ĠPans a
Ġsuperflu ous
Ġmarvell ous
sympath y
Ġadequ ate
ĠProtest ant
ulliv an
commen ced
ĠNaz are
6 9
7 7
A pp
A SE
D E
N one
R emember
c ade
c rit
d ler
d emand
h oly
i ard
l at
l ad
l ings
l oc
n ames
p ressed
r ising
r ounded
t ried
v ision
Î ½
Ġt ut
Ġt iny
Ġs ession
Ġw ot
Ġb ower
Ġb order
ed itions
Ġc odes
es cri
Ġin spir
Ġh over
Ġl ump
st at
Ġg ust
Ġg arrison
ow ard
ent ively
Ġre ared
âĢĻ ;
ri l
Ġst ale
Ġme ets
ke e
am ore
ul ace
ĠH ot
ĠH aw
ĠC O
Ġex empl
Ġk in
ant ime
ĠW in
ĠW uthering
Ġsh owers
os ph
Ġdo le
ĠP UN
per pet
are rs
pl icity
ĠD el
Ġad here
Ġad ieu
ĠR oche
Ġdis continue
iss a
ran s
Ġcl ut
Ġhand ful
not iced
anc er
Ġres isting
Ġsc ram
Ġeven ly
Ġpres um
Ġcons igned
Ġgl owed
Ġret ina
ex per
ex ists
du ces
ĠV ol
Ġbo ats
Ġconf ine
Ġless er
Ġsur faces
Ġpresent ing
ĠWe lford
any body
Ġdon ors
Ġhum bled
Ġwoman kind
att ract
gr ity
In ternational
Ġhel m
Ġtri bes
ĠAt t
Ġconc ur
pre jud
Ġlab oured
Ġsalt petre
Ġstri ps
Ġprot ested
Ġexpl osion
Ġperi helion
Ġsuccess fully
ask with
Ġimpro ving
Ġtrans cend
Ġmention ing
Ġsym pathis
Ġchief s
go es
Ġadmir ably
Ġfrequ ented
ĠSp ain
Ġid leness
With out
Ġcloud ed
ĠCount ry
Ġdistingu ishing
Ġsugg estions
back s
Ġ15 00
Ġinj urious
lo ading
Ġnur sed
antic ip
Ġgar ret
Ġregular ity
conc erted
Ġdistress ing
AT E
Ġshout ing
Ġident ification
requ est
ĠCan terbury
Ġlux uries
Ġhurried ly
cr ust
Ġaud ible
Ġunf av
tran sm
esc ension
maid s
Ġcorrect ed
exc use
Ġenthus iastic
Ġtimid ly
rif ied
Ġtrim med
Ġvir us
Ġstoo p
mus ic
Ġsag acious
Ġcliff s
ĠSec retary
Ġastronom ical
Ġscra pe
ĠBed ford
mem ory
Ġforbear ance
estim able
ĠLion el
extra ordinary
ĠWeb ster
CL UD
Ġacquis ition
Ġphot ograph
ĠGos ling
avin ia
Ġseren ity
Ġalle ged
Ġapothe cary
Ġtym best
erybing le
5 4
A C
B oth
F rank
M other
M auleverer
N a
O x
S ON
b old
b row
c ils
d ers
f arther
g am
j elly
k iss
m our
n igh
p int
s ail
y esterday
Ġt aunt
Ġb er
Ġb air
Ġf ist
Ġf ram
or bit
Ġp y
Ġp il
Ġp attern
ar a
Ġd ub
an cient
an nah
Ġl eng
Ġbe have
st ates
Ġre action
Ġan om
Ġst y
ĠT y
ĠT al
if ice
Ġsa ints
Ġsu its
Ġmy sell
ĠS an
ĠS pect
ĠS erve
ĠS harp
ĠA in
ĠA mb
ĠC all
ĠC art
Ġex pended
to fore
ĠB ow
ĠB ull
Ġv ine
Ġv ows
ant ile
Ġman or
ĠP op
Ġal oft
un ned
un fortunate
ĠF L
Ġun protected
ĠD IRECT
ĠG ul
ĠG az
ĠN EG
Ġen umer
Ġch uck
int ention
not ice
not withstanding
Ġsc or
Ġsc ent
Ġfl ows
Ġfl ashing
ft ed
Ġra isins
Ġent ry
Ġcount enances
ser ious
Ġac re
Ġrest rained
Ġexc entricity
Ġcar ries
Ġsil ken
Ġass id
Ġstr ay
ert rude
.' "
Ġfear less
Ġboy hood
ev ent
Ġmer rily
Ġeffect ual
Ġins ist
Ġins ulted
Ġelect ro
Ġsound ing
Ġsecond s
Ġsit uations
Ġconc ili
cont act
Ġtou ches
Ġdraw ers
Ġwit hal
Ġplan ned
Ġemploy er
Ġtrans fer
fl oor
ĠTr ade
Ġdim ly
pleas ing
Ġlangu ages
str icken
Ġport ico
Ġeight y
Ġbreast s
Ġconstit uted
occ asions
ĠĠĠĠĠĠĠĠĠĠĠĠĠĠĠĠĠĠĠĠĠĠĠĠĠĠĠĠĠĠĠĠ ĠĠĠĠĠĠĠĠĠĠĠĠĠĠĠĠĠĠĠĠĠĠĠĠĠĠĠĠĠĠĠĠ
SE QU
Ġheight ened
Ġgar ment
Ġoper a
Ġur gent
Ġcup board
Ġess entially
Ġfortun ately
Ġfun ctions
Ġexhib ition
Ġrepresent ing
Ġpla us
Ġatmosp heric
const antly
LA IM
Ġreflect ing
Ġodd s
Ġawa iting
Ġbare ly
Ġperman ently
Ġroast ing
Ġaltern ative
Ġspend ing
Ġlat ent
ĠHam ilton
ste ady
ĠPort smouth
ĠBE FORE
care fully
Ġconne xions
Ġmanufact ures
Ġcorp oreal
Ġworship ful
Ġintr ud
Qu ite
Ġancest or
lest on
Ġrecall ing
Ġlun cheon
ĠCont ributions
Ġhunt s
bod ies
third s
Ġwarri ors
AK E
Ġtermin ated
estab lished
Ġtrump et
ĠIND IRECT
Ġloy alty
Ġprovo king
ĠFore ign
Ġwist fully
Ġcler ks
ĠHurst ley
Ġlaz y
ĠAfric a
ĠFred erick
Ġmulti plied
LIG ENCE
cit iz
VID ED
Ġindemn ify
Ġmem ories
6 22
A ye
B randon
C ost
D EM
F ront
G eneral
H old
J ew
L anguage
M a
O OT
P OSE
T w
T ED
c ustom
f ond
l it
l ower
m ould
p a
p arent
t ables
w ond
Ġt ed
Ġt hae
Ġt acit
Ġa ver
Ġa while
re ve
Ġs iller
nd ry
ĠĠ Ċ
is an
Ġb ide
on ing
Ġm ama
Ġc ram
Ġto ys
or ters
Ġd and
Ġhe el
Ġn ucle
om ond
le wood
ĠI F
Ġe man
st re
st ation
Ġg iddy
âĢĻ .
ĠM oon
Ġat ro
Ġme lt
ĠS l
ĠS pecial
Ġor ator
Ġde alt
ĠC reat
Ġex pend
em on
em en
ant ing
Ġr ows
ust ible
Ġsh ines
ĠL IC
ĠP ilgrim
Ġal che
ure ka
la ge
ff ee
ĠE ver
ĠE ff
ĠF IT
Ġun ity
ĠD al
ĠG al
ab y
ĠR es
ĠR IGHT
ci ally
ud dered
Ġar oused
me ll
ru ce
ree k
Ġpre cept
Ġcl umsy
ĠJ eff
Ġcomp ensation
Ġcomp ilation
Ġafter ward
Ġsc ope
Ġimp udence
li ability
Ġpe eping
Ġye ast
Ġthought fully
Ġgl immer
Ġra ll
Ġwhere in
Ġapp lying
ret ty
mer chant
Ġsec uring
ĠU ND
Ġmar row
arn ed
Ġreg ained
Ġreg ulate
ĠY armouth
ĠĠĠĠĠĠĠĠĠĠĠĠĠĠĠĠ ĠĠĠĠĠĠĠĠ
Ġste alth
Ġmother s
Ġass ign
Ġstr ings
Ġtra gic
Ġpar adise
Ġinv iting
Ġart ful
uc er
Ġopp osing
mon t
Ġfore see
Ġsk irts
Ġmer riment
Ġhast ening
Ġ18 21
dis cover
Ġlad der
ma j
Ġ6 3
Ġir ritation
Ġval ues
Ġlab yr
Ġbes et
ĠWh ose
rit ters
could n
should er
Ġorigin ator
Ġsqu ares
Ġtrans cription
18 87
inc ing
Ġphilosop hic
Ġpray ing
ED IES
char ities
umb ent
Ġcrowd s
Ġda is
Ġtor ches
Ġflour ishing
acc ordingly
wr ote
Ġdam ned
did n
Ġdescend ant
whe never
Ġpossess ions
ĠJew ish
Ġfem inine
Ġnur sery
conf usion
Ġproof read
Ġmoder ation
LI ED
ĠGree ks
Ġscorn ful
Ġproc laim
ĠEvery body
Ġrough ly
Ġmult ip
fa ult
Ġdefect s
Ġmould ed
ĠMacG regors
Re lease
Ġacknowled gment
gen ius
Ġprim itive
Ġanticip ate
sure ly
Ġpenet ration
wa it
Ġpron ounce
Ġgracious ly
80 1
Ġimpr udent
ĠPri est
doubt less
ĠNOT ICE
Ġmodest ly
Ġcompet ent
Ġpropriet ary
Ġhunt ed
CTU AL
ĠSU CH
ĠCro ft
Ġener getic
fat ig
Ġrefres hed
educ ation
Ġdexter ity
ĠDev onshire
subs cribe
rese m
Ġarchit ecture
Ġumb rell
ĠKn ockwinnock
IB ILITY
Ġscrup ulous
ĠRich mond
Ġtrun ks
Thor nton
Ġwineglass ful
ĠREM EDIES
ĠFribs by
ĠPUR POSE
ĠLIC ENSE
ĠUND ER
B less
C reating
G et
G reat
M or
M ake
N ITY
P re
V ar
d ouble
g ives
g athered
o id
p ha
p ans
u ating
y ield
Ï Ħ
Ġt ex
Ġa e
Ġw ither
on ge
ed ition
Ġf rantic
Ġc os
Ġc yn
Ġp ilgrim
Ġin eff
Ġd aint
as much
Ġh u
Ġh inder
ot hered
Ġg em
se ek
Ġas h
Ġas cribe
ad elph
ri ers
Ġnot ifies
ch oice
ĠT hank
ĠT renchard
Ġde let
res erved
ĠC ond
ĠB ion
ĠB ad
ĠThe ss
Ġsh ift
Ġsh ivering
Ġwho ever
ĠL E
ĠL avinia
Ġup set
Ġdo en
ĠP OSS
ĠE IN
Ġun moved
Ġqu e
ĠD ep
ish ops
ide as
ĠG IVE
Ġj ars
ĠR ead
Ġdis appearance
Ġout dated
be coming
be ams
Ġper ils
Ġfa wn
Ġen suing
Ġmust n
Ġmust ard
Ġgo als
Ġpl ums
Ġbr on
Ġbl and
!âĢĿ --
Ġfl ute
Ġpres erves
Ġey el
bl ind
Ġent ers
ret ired
Ġadd s
ex ec
ĠSt udent
Ġref rain
read er
Ġ3 1
Ġgi ps
Ġrest oration
Ġadv is
ax e
Ġinf licted
Ġform ation
Ġequ inox
fect s
Ġinv ested
Ġcirc ulated
Ġprop ag
Ġwa its
riv ial
att ies
mon ths
Ġfore ster
Ġsk et
In formation
Ġins ip
do ors
Ġexpress ly
Ġdev ils
add ress
che ck
rel ations
Ġdelight s
Ġmus ingly
cont ent
Ġaffection ately
Ġsuffic ed
Ġred istribut
ĠPe erybingle
ĠEm ail
comp assion
Ġemploy ee
Ġclass ification
IT IVE
ork ins
Ġstud ents
Ġpaper work
ingu ish
Ġsym pathetic
Ġenc ro
Ġpeculiar ity
aff airs
Ġadvantage ous
Ġweek ly
Ġ9 6
Ġcoun sell
Ġcomb inations
aul ted
Ġconce ited
Ġcommunic ating
Ġsuper ficial
rep ly
cher s
Ġhandsome ly
CE MENT
acc aroni
15 41
Ġclean ed
Ġpure st
Al pine
Ġaccompl ishment
Ġnur sing
Ġorgan ic
Ġsigh ing
Ġpot ent
Ġow es
Ġpan ic
ĠRE PLA
Ġshr inking
ĠIN CLUD
power ful
LA F
ĠChe ster
ĠRev olution
inn ie
ĠRed istributing
respect able
ĠDou gal
AG RAPH
Re becca
point s
Ġnice ly
Ġmood y
put ting
sus pected
Ġunl ink
De fects
Ġdesert s
EM NITY
Ġdissol ve
Ġrent s
compan ions
Ġmerc iful
Ġdisclaim ers
Ġflo ating
Ġinstinct ively
Ġnon propri
fin ished
ĠMer cury
diffic ulties
imag ine
ĠCON TRACT
ĠCON SEQU
Ġrum our
Ġstoo ped
Ġtight ly
Ġinval idity
Ġprofess ions
abb ath
Ġclim b
Ġrepent ance
Ġsen ior
ĠAGRE EMENT
ele ments
Ġmorn ings
Ġextravag ance
Ġanalog ous
ĠGent lemen
Ġanteced ents
Ġexult ation
Ġfulfil ment
Ġspecim ens
Ġ200 1
Ġskim med
Ġclasp ing
Ġmead ow
dread ful
ĠPG LAF
ĠRef und
ĠDISTRIBUT OR
Ãª te
Ġsevent een
Ġsquee ze
Ġ84 116
Ġagric ultural
Ġanecd otes
Up dated
Vol unteers
Ġdelir ium
Ġbesee ch
Ġhyper text
ĠGam well
Ġavar ice
Ġdeduct ible
ĠEXP RESS
Ġdial ogue
ĠOWN ER
iogn omy
ĠIMP LIED
ĠBir nie
IDENT AL
epid us
ENTI AL
ĠEXCE PT
ĠSTRI CT
enforce ability
ĠIR S
ĠMER CHA
ĠREF UND
ĠDISC LAIM
ĠNEG LIGENCE
622 1541
DEM ARK
ĠFIT NESS
Ġtex ts
Ġdelet ions
ĠPOSS IBILITY
Ġredistribut e
ĠREPLA CEMENT
ĠINCLUD ING
Ġnonpropri etary
ĠCONSEQU ENTIAL
ĠDISCLAIM ER
8 3
8 5
B ra
C le
C ont
H app
L a
P o
R ES
T ime
b ore
b rain
b reath
c hat
c amp
c ourage
d ance
d oll
e conom
f est
f owl
i ences
m ate
n um
p se
p ounds
r udd
Ġt umbled
he ated
Ġa z
Ġs om
ou le
ha ired
it re
Ġb ol
Ġb aking
Ġb orders
en ham
ing ale
Ġp ies
Ġp ans
Ġd irt
Ġl ore
Ġl oneliness
Ġhe aving
st ool
st atus
Ġg ilt
ent rance
Ġre form
Ġre comp
al tern
Ġas under
ur bs
Ġis lands
Ġwe eds
ter y
Ġat oms
th rew
ĠS alt
Ġse eds
Ġse venty
ĠA CTUAL
the st
ĠH uns
ĠC a
em per
ĠB ag
ĠB less
Ġv ouch
Ġk enn
um ble
ĠL epidus
Ġno blest
ĠP ublic
,âĢĿ âĢĶ
Ġqu est
ĠD own
ĠG RA
Ġad ore
Ġj oc
be ha
Ġsha m
Ġgo ot
ell ing
Ġpr ow
Ġpr incess
ĠJ ud
ĠJ udge
Ġres uming
ens ities
Ġcont ag
Ġfl utter
com be
Ġwork man
Ġdown loading
Ġway ward
ex ert
Ġexp ost
And rew
Ġback wards
fort y
Ġsur vived
Ġcar p
ia lect
Ġcur ses
Ġthy me
Ġass umption
ger y
Ġbro iled
Ġmon ument
Ġsw ung
Ġprov oke
ĠGod dard
Ġ5 5
Ġplay ful
Ġsense less
Ġut tering
your s
ĠX VI
ĠX VII
cent re
Ġmed itating
Ġdro oping
Ġfra med
Ġdest itute
comp ut
ĠLe opold
Ġexam ples
des pair
Ġdescri bing
Ġstud ying
ĠPer cy
Ġsupport ing
str ated
char ged
Ġpop ulace
bel ief
On ce
Ġsal ut
ĠSp enser
Ġconce it
Ġnews letter
Ġrese arches
Ġshut ters
ett es
Ġprocess ing
adv anced
amb ition
sell er
Ġfill et
ruct ive
Ġentertain ing
Ġdwell ings
col m
Ġpu pp
const it
Ġinfer red
ĠRed istribution
grat itude
Ġcit ron
Ġmechan ism
prom inently
Ġwed ded
TH ING
Ġcoff in
exc laimed
Ġghost s
occasion ally
quiet ly
prot ection
Ġzeal ous
Ġstore s
Ġvener ation
ĠANY THING
Ġhoriz ont
Ġhorn s
Ġattribut es
Ġlif eless
Ġdecor um
ĠPal mer
ĠEconom ics
ĠRep lacement
Ġannoy ance
Ġjew el
bal ance
Ġdefe ated
Ġcandid ate
ĠSec ond
disappoint ed
Ġnic ety
recoll ection
Ġrepublic an
ĠIND EMNITY
Ġenv ied
Ġleather n
Ġener gies
ĠRom ans
Ġinm ate
Ġprovo ked
Ġimpet uous
ĠDISTRIBUT E
Ġbenef its
ĠHon ourable
endeav our
Wood house
absolute ly
Ġconfid ant
Ġeclips es
Ġrenow n
ĠSpr ing
Ġproff ered
smo oth
warrant ies
Ġsacrific ed
ĠPAR AGRAPH
Ġinherit ance
phenomen a
Ġding y
Ġfab ric
Ġshrie ked
ĠAtl antic
ĠFOUND ATION
ĠCompl iance
ĠPUN ITIVE
adelph ia
( $
7 8
; âĢĻ
A nt
A sh
D av
D AMAG
H ark
H ampstead
M armaduke
M onsieur
S S
S top
T rot
b rook
c ill
c ock
c ery
e ggs
f ried
g re
p la
s plend
u ing
v ig
v ings
w ide
Ġo men
it ar
Ġb ask
Ġm ent
Ġm ak
Ġf aced
Ġc ad
Ġc raw
Ġto y
Ġp acing
Ġin ve
at ible
Ġl ime
Ġl ung
Ġth orn
âĢĿ ),
ro ck
ĠM ountain
ĠM eryton
Ġst ained
ra h
ĠT ory
ill ust
th ia
ĠS omerset
Ġor chard
Ġso aked
ĠA st
Ġde vour
res ham
ĠH ark
Ġshe wn
ĠB arn
ĠL es
ĠL un
Ġno des
ĠP ot
ĠP hantom
Ġal t
ĠE r
Ġli bert
ĠF ran
Ġun co
Ġun utter
Ġam end
pl us
ice lli
ĠD over
ĠG othic
ĠR el
Ġar gued
te enth
Ġper chance
iss itudes
Ġcl ing
Ġcl own
Ġch ronic
Ġch rist
Ġbl under
Ġbet rothed
Ġimp le
Ġimp osing
Ġimp ulses
Ġatt entively
Ġunder neath
Ġcons cient
Ġgl oss
Ġtr oth
ft en
Ġwork house
Ġwhere with
Ġsupp lies
Ġcount ies
ob tained
up reme
sp eth
Ġcour ses
Ġ3 3
Ġche ated
Ġrest rain
cha nd
Ġvis ual
Ġsat ire
Ġmean est
Ġcontin uous
ribut ion
Ġfire place
gr ade
Ġpartic ip
Ġfear ing
Ġboy ish
Ġmet allic
Ġcap s
Ġdisp ose
over ty
Ġ5 6
Ġpast ime
Ġmark ets
Ġ6 1
Ġca using
rel s
Ġfin ishing
Ġfavour s
Ġconvers ations
ĠWh igs
Ġele v
Ġdraw s
then ed
Ġdesp ot
Ġstart ling
light ed
min ent
Ġgall ows
._ ;
cise ly
Ġfast en
Ġvill a
Ġbound ary
ĠWest minster
Ġcomb ine
Ġpal eness
ĠPar adise
Ġav ailed
through out
Ġcustom er
ĠMort imer
bre aking
Ġsurr ound
Ġoper ate
Ġcool ness
Ġwide ly
Ġspread ing
ĠPl ant
ĠPl askwith
Ġpurcha sing
ĠBr idge
Ġaud acity
Ġquarrel s
master s
Ġabst raction
UR N
intell igence
Ġrecommend ation
Ġupper most
ĠRus s
prof itable
Ġpier ce
Ġmagist rates
Ġlog ic
Ġfanc ying
Ġdeliber ate
Ġannoy ed
ĠFar aday
ĠGent leman
shad ow
Ġtap estry
Ġtrump ets
author ity
Ġreb uke
Ġoppress ive
TRA DEMARK
Ġrefres hing
Ġaccus ation
Ġecc entric
ĠJen ny
Ġdares ay
Ġbloss om
Ġje well
LIAB LE
LIAB ILITY
ĠToo bad
ĠBald erstone
Ġliv id
Ġhym n
INC IDENTAL
sacri fice
ĠGovern or
Ġbug le
ĠMist ress
PRO VIDED
Reven ue
DAMAG E
7 1
8 1
: âĢĶâĢľ
C ur
E AL
G overnment
M AN
P art
R ÃīE
S at
S im
S alt
S weet
b eth
c as
c aught
e ast
e cess
f its
f ancy
j ou
k ne
l oss
o a
s ong
s ides
t empt
v itation
w rit
Ã §
Ġt am
Ġt ires
he um
in ers
in ions
Ġw ager
Ġw itty
ou che
Ġb rew
Ġb umper
Ġm ince
Ġf ath
Ġc innamon
or ily
or ously
ar act
as ure
as eless
Ġl atch
Ġl aird
Ġbe que
ow ager
ly n
ent hus
id st
ir s
ro be
Ġher b
ch ie
Ġst em
Ġsa iling
ain ty
ĠS abbath
Ġso b
Ġso oth
Ġby stand
Ġshe lls
nt il
ant ry
ist ered
ind ifferent
os ky
ĠP ur
ĠE re
ig uous
itt ie
Ġun observed
ose ton
are n
ĠG ray
ab st
ud amore
Ġrem ot
Ġdes iring
ens ible
li ven
Ġunder took
bl in
Ġent rusted
ex cl
ob st
ob serv
Ġexp orts
Ġbeg ad
Ġlo in
Ġlo ath
Ġrel ates
Ġexc used
Ġhon or
new sp
Ġbelie ves
my ster
she l
br oth
Ġadm its
Ġcontin ent
!âĢĻ âĢĿ
Ġsw ine
ev idence
Ġins ane
Ġins cription
Ġcap ricious
Ġdra matic
Ġtri p
would n
ater ially
ĠMar got
asp ing
ĠJohn ny
Th omas
Ġdest ination
Ġsla ughter
Ġthick et
Ġdep rive
Ġsight s
Ġinflu ences
Ġled dy
redit ary
Ġpract ise
Ġweak er
Ġtreat ing
Ġph rases
hold ing
Ġintro ducing
Ġendeav ours
10 9
serv ices
Ġvict or
Ġdecl aring
Ġing ratitude
interest s
Ġprogress ive
sur rounded
Ġpit iful
Ġmat ernal
po et
Ġwad na
Ġvolunt arily
Ġtim idity
Ġcomprehend ing
appro aching
ĠSat an
Ġproduct ive
Ġmyst ic
AG E
mis erable
Ġcontempl ate
var iety
Ġcla pped
ann el
Pe ace
Ġindust rious
direct ed
Ġprec ision
Ġbust ling
Ġconject ured
Ġdepos it
Ġtour nament
rif ugal
Ġattribut e
dark ness
ĠBon ville
Ġcondem n
Con st
bene ath
ĠBook s
Ġimmort ality
ĠLow land
Bar thelemy
deg rees
House man
Ġton ight
Ġpau pers
grow ing
distribut ing
Ġcontinu ance
Har lequin
Ġmead ows
dr ink
ĠConst itution
Ġdoc ument
pie ces
Ġconsol ed
Ġintri gue
Ġost ent
Somet hing
Ġbutt ons
ĠFer roll
ĠTart ar
ĠFlore stan
Ġambassad or
ĠPhilosop hy
pul ch
Ġanch or
exer cise
Ġanci ents
Ġunfav ourable
Ġlabyr inth
rudd ock
. |
7 4
A ugust
B ingley
F OOT
N obody
P eter
R ev
S ilence
b bles
d ust
n arrow
o be
o iled
p red
v ion
Ġa pert
Ġw re
it ud
Ġb ite
Ġm used
Ġm az
Ġto re
Ġto oth
Ġto kens
Ġh ol
Ġh ired
ĠI S
ĠI mp
Ġwh ims
ro of
Ġwe al
ri p
ĠM os
ĠM od
ĠT W
ke red
qu est
ĠS oon
ul ed
ĠA ubrey
res ents
ĠH o
ĠH IS
ĠC ottage
Ġex asper
ĠB raw
Ġall ies
ate ll
ĠL arkins
Ġno stri
Ġup roar
Ġman ager
ig ne
Ġun accountable
ĠD isinherited
ĠG ad
Ġim itate
Ġdis quiet
urn al
be comes
te a
Ġsha ggy
ĠO cean
ade qu
Ġbr ick
ĠJ OHN
ĠJ orkins
fe e
Ġover powered
de vil
anc ers
Ġoff ensive
Ġfl uct
li a
Ġatt ired
Ġtr ousers
Ġaw ed
Ġcomm ons
ret ches
mer c
atter s
ĠV is
Ġrep ute
Ġmen ace
Ġco xcomb
Ġrel atives
cha ise
Ġcar rier
act ing
Ġcur rant
ĠAr ms
what soever
wor king
Ġhigh ness
form ity
Ġdoub led
eng agement
Ġaff licted
Ġbus hes
Ġdev out
Ġce iling
cell aneous
Ġincl inations
Ġpublic ation
Ġdiv iding
Ġdiv isions
cons cience
Ġstri ve
sha re
des ir
des cription
Ġdescri bes
St reet
Ġtax ed
ĠMad ison
11 4
ĠRo ad
Ġsal uted
Ġafford ing
Ġproportion al
acc ur
Ġdam n
Ġlabour ing
ĠAb ove
Ġgro ans
Ġmill ion
Ġcorrespond ent
Ġconve ying
Ġtempt ing
Ġfle e
Ġtar ry
Ġrul ed
Ġcapt iv
ĠWald emar
Ġswell ing
Ġrev ive
Ġpeas ants
Ġdoct rines
div ided
Ġcryst all
Ġelement ary
Ġren amed
jour n
Ġdw ar
Ġinconven ient
mut ton
wonder ful
ĠWhe never
subst ance
ca uses
sla ve
Ġcree ping
Ġdefic ient
Ġinher ited
distribut ed
Ġreckon ing
danger ous
Ġlur king
Mont fort
Mont agu
ithe atre
Ġpluck ed
Ġbath s
Ġconvuls ive
ĠBay mouth
Ġadvers ary
Ġfr oth
Scot land
inno cent
Ġinterven ing
Ġgal van
Ġmonot onous
Ġfalter ing
liber ty
Ġforb ade
Ġaristocr atic
Ġenlar ged
acknowled ged
Ġhack ney
cou ple
ĠAlex ander
Ġhoof s
ANN Y
8 8
9 9
: âĢĿ
F oker
F errars
I AN
P ER
S al
T urn
U E
_ ."
c ation
c ru
d im
d ies
d rop
g ay
g ather
h opes
i ge
m ity
s ch
s ieve
s ighted
t ur
Ġt rivial
Ġa verted
ou bling
it ched
it ative
is hers
Ġb ully
Ġb aker
Ġm ol
en ary
Ġf ern
Ġp ond
Ġd int
Ġd ug
Ġl ame
ve al
se ated
ce ased
Ġth umb
her d
ĠM ur
Ġst ony
ra ble
oo s
Ġsa fer
il bro
Ġde jected
ĠH ob
ĠH ume
ĠC ave
us ages
us sed
ĠB ack
ac ock
ac commod
Ġr ites
ĠW el
Ġsh ocking
Ġsh uddered
ĠL X
un known
ĠF ox
ĠF ANNY
od ge
ag an
Ġam ends
Ġthere in
ass umed
ĠD ixon
Ġsp ray
ĠG irl
Ġdis e
Ġout cast
ng lewood
Ġfa ction
Ġen rich
Ġpre ach
Ġbr ink
Ġbr ushed
man ufact
Ġcha nt
ap ole
Ġhand writing
Ġcomp act
Ġcomp let
!âĢĿ âĢĶ
anc ies
Ġacc ession
li ance
Ġgl iding
Ġdown wards
Ġsub miss
mer cy
Ġgra m
ang ed
ob sc
Ġexp and
Ġexp osure
ĠU p
Ġinte grity
co al
co ats
Ġrel ics
Ġinf id
Ġform ally
Ġobser ves
Ġbre ed
Ġwa res
Ġspir ited
ubl in
Ġes chalot
Ġbus h
Ġconsider ate
ev idently
Ġmo ors
ific ance
Ġdirect ing
che ek
ĠIs rael
ĠEnglish men
Ġcast les
inct s
Ġwhis kers
Ġrepe lled
min ister
Ġstra gg
tw ice
iol og
Ġline age
Ġund es
Ġund ressed
Ġwar mer
great ly
set tle
Ġfee bly
yn thia
ĠOh io
Ġgovern ments
Ġ9 4
ĠChar leston
Ġpal aces
hold ers
Ġmaid s
Ġstar ving
Ġreply ing
Ġsick ly
Ġtrad er
ENT RÃīE
occ urred
Ġver m
Ġterri bly
Ġreve rent
Ġexcl usive
Ġpot ato
Ġming ling
Ġintim ately
ref lect
Ġfright en
Ġproc laimed
consider ing
Ġsnow y
Ġmor bid
Ġtro d
ĠHighland er
Ġresem bles
Ġillust rated
Ġcontempt uous
glass es
ĠNev ille
ĠCal houn
fav ourable
sens ible
Ġanticip ation
ĠBE EF
abs or
cript ions
Ġprem ium
Ġcontribut e
Qu arterly
Ġchamp agne
Mad eline
Ġunw on
dec ided
ĠRos ings
ĠCont inent
Ġsatell ite
Ġgrin ning
ban ks
Ġdazz led
mid dle
Ġslee pless
Ġresolute ly
communic ation
compar ison
ogene ous
Ġlou ng
Ġherald s
trave ller
ĠOther s
Ġbloss oms
Hel en
ĠLie utenant
ĠEle gy
Ġquarre lled
ĠCare we
bber y
hig her
tong ue
Ġalley s
Ġaust ere
Ġarbit rary
Ġdispers ion
Ġbisc uits
Gent lemen
Ġgaud y
ĠCran ium
ĠHiel and
Ġvanqu ished
escri bable
Ġlung s
6 1
9 2
E lli
G reen
G awtrey
H umph
L aw
M en
N ext
N onsense
Q ueen
S axon
S quire
T han
_ ,"
b orne
c ope
c akes
f em
f rank
f olks
f ierce
k ison
s we
s quire
t ail
y gen
Ġw ily
Ġw alt
er d
is bury
en ie
Ġc y
Ġto day
Ġp hant
Ġin equality
at able
Ġd ot
Ġd ialect
Ġhe aps
ic ide
ĠI mag
Ġg ulf
id y
Ġre iter
ir p
ct ial
Ġwe e
ri o
Ġst ability
Ġst ems
ĠT it
Ġsa unt
Ġsu ndry
th irty
Ġby e
ĠH oll
ĠH ampstead
em otion
ĠB ac
ĠW ales
ind ust
ĠL omond
ort e
ol ves
ĠP ope
ĠP emberley
Ġal ighted
,âĢĿ --
ure l
la ug
ĠE nd
un happy
we ed
ĠG OOD
Ġj ell
Ġj aws
ab inet
ĠR h
ĠR oom
Ġdis gra
Ġpart ridges
Ġen raged
ĠJ on
Ġcha fed
Ġover t
Ġbl ades
Ġsc ales
ĠBut ter
ild eb
Ġcont ending
sh own
iz z
ĠV en
ĠV es
Ġrep osed
ĠK irk
Ġexp ansion
up id
Ġend urance
Ġnight ly
Ġ3 4
Ġext racted
Ġsur m
cha racters
Ġgu ides
oub t
Ġste ward
Ġstr icken
Ġinc ur
ym ous
Ġadm itting
Ġdark ly
Ġdet ached
Ġve iled
att achment
Ġrequ iring
Ġdisc reet
Ġaff irmed
Ġ4 3
ert ford
ĠCh ina
Ġcommon place
Ġins ur
Ġins anity
ug n
dis playing
oc al
che st
Ġmist y
ĠX VIII
sm iling
vol ence
Ġkn it
Ġimport ed
Ġexcept ions
Ġyouth s
Ġtrust y
fra me
Ġdri pping
Ġsym bol
Ġenc oun
Ġang ular
Ġauthor ities
ourage ment
ext rem
Ġcra cked
Ġgovern ed
ĠChrist ians
Ġstew ing
Ġlie utenant
Ġsuper b
Ġcredit ors
Ġexchan ging
10 8
jo in
ĠDon well
ĠĠĠĠĠĠĠĠĠĠĠĠĠĠĠĠĠĠĠĠĠĠĠĠĠĠĠĠĠĠĠĠ ĠĠ
ĠEl speth
Ġbon nets
Ġexcl amations
Ġinvol ving
Ġcrown s
Ġrecollect ing
Ġdistress es
Ġdespair ing
Ġexhib iting
Ġcaptain s
Ġrelations hip
Ġabsor ption
Ġham let
Ġillust rate
Ġunf requ
appro ached
Ġobsc ured
Ġrenew al
Ġindign antly
Ġpatron age
Ġadvance ment
Ġreward ed
mark ed
Ad am
yl um
Ġvalley s
Ġconsult ing
Ġcontro vers
Ġded icated
anz as
list en
Ġwhist ling
neighbour s
uls ive
Ġconj unction
Ġfid get
Ġfest ival
Ġhun ter
Ġunlike ly
Ġplant ation
abb em
anx iety
Ġsen ator
Ġirrit able
Ġrevel s
Ġpang s
Ġboot y
Christ mas
Ġreb els
ĠUran us
Ġconcent rated
Ġapprehend ed
bird s
Ġtransl ated
pict ure
Ġoverwhel med
Ġpearl s
ĠSweet ing
fac ility
Ġponder ous
ĠColumb ine
Ġinexpress ible
Ġpend ulum
ĠâĻ Ī
ĠCler k
TRO DU
Ġfram es
Cost igan
Ġnucle us
Ġinsip id
Ġunwon ted
ildeb rand
B E
C edric
F l
M oney
N either
T e
T oo
_ --
a ire
b irth
c p
c ounter
d ressing
f itting
h ist
l ifted
s hed
t ale
t ruly
u um
u bs
Ġt ak
in fer
in habit
Ġo mit
Ġs land
er ring
Ġb ury
Ġb aith
on ious
Ġm int
Ġf ut
Ġc ore
Ġc um
Ġc ob
Ġc rop
Ġc yl
or th
Ġp ipes
Ġin estimable
at mosphere
Ġd itch
an oir
as cend
Ġn ails
Ġn inet
Ġha lt
ic um
im um
id ences
ith met
ad er
ad ox
ĠM is
ĠM oor
ĠM OR
Ġst u
Ġst oned
Ġst unned
ĠT or
Ġsa ble
qu ered
ul og
Ġde ign
Ġde leg
Ġcon genial
ĠH azlitt
ĠC ook
ĠC arl
to e
to ler
ĠB ene
Ġv it
Ġr attle
Ġsh red
han ger
han ging
Ġare as
ĠL oc
ĠL aird
ort ment
Ġdo ings
Ġpro x
ĠE ureka
un ched
un ctions
per se
ĠD en
ĠD ictionary
Ġag hast
Ġsp ices
Ġsp heroid
ĠG ill
Ġcan opy
ci v
ime ly
Ġmay or
Ġpl ume
Ġpre acher
Ġpre late
Ġcl ient
ick ens
Ġsc roll
Ġfl uttered
Ġpe aches
ign ation
sh r
Ġra gs
su pper
Ġsub urb
Ġem blem
Ġworld s
Ġco als
Ġfar ms
Ġint ently
new s
rem pt
rem oved
Ġcur ved
pro duce
ting ham
ĠTh om
Ġact or
Ġhum iliation
Ġsun beam
Ġill eg
Ġel asticity
Ġcond escension
Ġearth qu
Ġconst ell
Ġneed n
dis co
Ġpa wn
ĠHow ard
ĠCl an
Ġmist s
pre viously
Ġforg iveness
ĠPro duction
Ġkn itting
Ġwhis k
Ġesc ort
Ġsuccess ions
Ġdem ocratic
Ġmotion ed
Ġmeas uring
Ġer a
Ġpost s
Ġemb ark
pass age
Ġ7 7
Ġmort ality
sing ular
mod erate
ĠWood villes
rid ic
Ġcru elly
Ġstream ing
del icate
Ġexcl ude
Ġcompre hensive
suff ering
pres ented
Ġassured ly
obser ve
ĠCan ada
hon oured
Ġhate ful
Ġtest ify
Ġtar get
Ġsin ister
Ġshel ves
Ġaccident ally
Ġcapt ured
prom ised
Ġinhabit ant
subject s
Ġorn amented
Ġfer ry
Ġproject ing
Ġfo am
Ġprivile ged
Ġintense ly
ĠNorman s
Ġgla zed
Ġrecord s
anim ous
anim ity
Ġwra pt
Ġinform ing
Ġz one
lim itation
Ġfrown ed
ĠBet ween
ĠRos a
Ġmart yr
Ġcoo led
Ġclim bed
Ġdiscern ed
Old buck
Ġwip ing
Ġgest ures
Ġaug mented
Ġcollect ing
Ġske leton
peculiar ly
Ġprecaut ions
Ġportra its
pop ulation
dro pped
xx x
recoll ect
ĠRO AST
Ġcaval ier
Ġsarc astic
Ġsarc asm
accompl ished
Ġsurv iv
Somet imes
Ġgam bling
oper ation
Ġforfe it
Ġeffic ient
spec ies
Ġinser ted
Ġrefrang ible
Ġpest ilence
Ġgn aw
Ġapric ot
ĠAlb any
establish ment
Ġplat form
ĠTex as
Ġcontriv ance
Ġamph itheatre
ĠCratch it
ĠGaz ette
ĠCreat or
Ġsaunt ered
laug hed
" _
" âĢĶ
' ;
7 9
A way
A mel
B on
B etter
E ver
F ore
F org
F rance
F rancis
G race
H y
I CH
I rish
L ESS
M us
O ut
P ort
S uddenly
T A
T ill
b rew
c aptain
d aughters
f ate
f ers
f arm
f ront
g rief
h oped
i bles
j ealous
m itting
n els
n icious
p ire
p ron
s our
v ary
v inegar
w are
re ach
re ference
Ġw inking
er land
ha ustible
is le
Ġf ount
or ated
Ġp p
Ġp av
Ġp ike
Ġp altry
ar b
Ġin duct
Ġd at
an ks
Ġl ays
Ġhe reditary
Ġha ms
ic ating
Ġbe friend
st op
st air
Ġg ab
Ġy olk
Ġan ew
ĠM Y
ĠM o
ĠM ine
ra ising
Ġsa ir
Ġhad st
and a
ĠS end
ĠS ix
ĠS otherton
ĠS upreme
Ġse cluded
Ġde il
res olution
ĠH omer
ĠâĢľ âĢĺ
us alem
ĠB ess
ĠB otanical
Ġall ows
Ġk illing
ac ities
Ġr ou
Ġr uth
Ġr ousing
Ġcom pel
ĠL ist
pt ions
ne phew
Ġpro strate
ven or
un ter
ĠF ree
Ġle ant
Ġun happily
per ion
ĠD ream
ĠD rum
ĠD hu
Ġsp ed
Ġcould st
Ġcan ary
ab und
Ġim minent
Ġar rayed
Ġdis engaged
Ġsha ped
Ġfa ils
Ġro lls
Ġtw ins
Ġen large
Ġcha l
Ġcha riot
Ġbl ot
Ġbl ushes
Ġrem inds
not es
Ġres ident
oy ed
Ġgr udge
right s
ild ings
Ġfl ashes
Ġimp ose
Ġpe ers
Ġtr ay
con tained
Ġwhere of
iv il
Ġser ves
su et
su ited
Ġsub ter
Ġlight ing
Ġhere tofore
Ġmin iature
was hed
Ġend uring
Ġend ear
Ġco quet
Ġref inement
Ġext inct
Ġche mist
Ġfar thest
Ġcar bon
Ġpoor ly
Ġcur ve
ĠTh rush
Ġinf at
Ġtra p
uck ily
aven port
uc ane
use ful
eng age
Ġconst rained
ev ents
oura ged
app lied
ĠBe gum
ĠBe rengaria
Ġprev ailing
ĠFor ce
Ġcor ps
Ġpain ter
oc olate
Ġbar ge
che ster
pre ferred
cont rol
Ġbur g
Ġgold smith
gl oom
OR Y
Ġhair s
Ġmount ing
Ġjoy fully
after noon
Ġcou ched
Ġbound less
Ġban ners
Ġoccur s
Ġcra v
Ġden ial
Ġresult ing
Ġwatch ful
teen ie
rep resented
Ġburst s
jud ged
ignor ant
ignor ance
Ġhang s
Ġbattle ments
lo ving
Ġgrief s
Ġcompre hension
Ġlower ing
Ġindul ging
car ry
LI M
Ġregret s
pres ently
Ġindepend ently
Ġproc uring
Ġdimin ution
Ġrequest ing
Ġassemb lage
sent iment
Ġruin ous
Ġcareless ness
ĠBel ieve
Ġprotection ist
ĠBur bo
Ġmood s
Â° ,
satisf actory
Ġpill ars
fav oured
Ġproject ed
Ġtum bler
Ġconsult ation
high ly
Ġdil igence
IR ST
ĠProt ection
Ġholid ays
Ġshru gged
former ly
ocr ite
pain ful
pract ice
whis pered
Ġsem blance
Ġmetap hor
Ġmetap hysical
Ġerect ed
bless ing
Ġthri lled
Ġthri lling
Ġapolog ies
Ġaccum ulated
Ġverd ure
ĠAust en
suspic ion
Ã¨ re
Ġsine w
ros venor
ĠSto ck
educ ated
Ġsurv ive
ĠSever n
Ġratt led
Ġratt ling
Ġerr one
Ġstim ul
independ ent
Ġconsumm ate
Ġsuscept ibilities
Ġembro idered
Ġinsign ificant
Ġmatrim ony
ĠBox er
ĠElect ricity
oug ham
Ġrespond ed
Ġinconsider able
Ġschol ars
Ġproflig ate
El ton
Ġobstin acy
brilli ant
Ġmantel piece
ĠChic ago
Ġtymbest eres
FOOT NOTES
ertford shire
A CE
B et
C I
C ount
D ou
D am
F lour
H on
H oly
K ee
L ast
L ife
P l
U C
b as
b ran
e Book
f ood
f les
f ices
g led
i od
i eth
i encies
l ose
l over
r one
s ize
t el
t ry
t ons
u zz
w ages
w retched
w alls
Î ±
Ġ =
in ety
Ġo aken
Ġw al
Ġw icket
Ġw ilful
ha p
Ġm use
Ġin comp
Ġd ir
Ġd ainty
an aly
Ġl ots
Ġbe es
st ring
ent ity
ent ering
Ġwh ir
ct ors
âĢĿ ;
ri ars
ch im
ra pt
ĠT ony
il ies
ĠS AL
Ġse pulch
pe pper
Ġhim sell
Ġshe lf
ĠC irc
ĠL IST
ort ation
ie ge
ĠP ict
out ing
ĠE ton
ig ated
ag us
Ġun broken
per man
ĠD am
ment ary
ĠR ight
ĠR ES
ud ic
Ġdis concerted
fore st
Ġus age
ru in
Ġpart ook
Ġen vious
Ġob vi
Ġch use
int ry
fe ver
Ġover looked
de arest
Ġsay est
Ġfl int
Ġfl annel
li p
Ġspe ck
Ġspe lls
Ġpass enger
Ġaw fully
bl ow
Ġcomm otion
Ġcomm ittee
Ġapp alled
Ġsub due
ob ed
ĠSt ars
Ġappe ll
Ġbo g
It s
Ġhapp ening
Ġback s
Ġmin ut
hy p
Ġkind ling
Ġbeg u
Ġind olence
Ġco coa
cha mp
Ġmar riages
act ually
ĠĠĠĠĠĠĠĠĠĠĠĠĠĠĠĠ ĠĠĠĠĠĠĠĠĠĠ
Ġstr ata
ĠAr ist
Ġpower fully
TER S
Ġprop ositions
Ġdark ening
Ġsent in
Ġill usion
Ġdet er
Ġaff inity
Ġdec ayed
gr ated
Ġbus ily
Ġsens orial
ĠSc ots
Ġprom inently
Ġprov ince
Ġtable ts
ĠFor ster
Ġfort ress
add ition
Ġorder ly
Ġir ks
ĠCl own
Ġbes ought
Ġplan es
liz a
Ġleg acy
Ġquick ened
IT S
Ġtemper ate
Ġoblig ations
hys ics
ĠDe b
fl ies
Ġemb ers
head s
AL TER
Ġban ish
Ġfal con
Ġpal p
Ġhat es
Ġrevol ves
10 1
inst rel
ENT S
inced own
Ġforeign er
rie ved
lv ia
Ġloss es
Ġring lets
Ġpage ant
Ġstat ues
Ġbank ers
Ġimper ious
bes ide
young er
Ġmoder ately
suff ered
Ġexhib its
Ġboard ing
Ġrad ical
Ġcaut iously
Ġprint s
compl ac
agger ing
Ġimpl ored
ĠNorth umberland
Ġcla use
Ġvic issitudes
uit ous
Ġdebt or
pen et
olid ay
Ġassist ant
TH ER
Ġamaz ing
eff orts
Ġcounsel s
Ġgri pe
Ġstead fast
AB ILITY
Ġbloom ing
Ġmourn fully
dec la
ĠBon ner
Ġfanc iful
expl ain
ĠDun stan
learn ing
ĠJacob ina
viol ence
Ġpolite ly
Ġappreci ated
Ġstag gered
Ġclust er
Ġgriev ances
Ġimprison ed
Ġtang ible
ĠBab y
intro duced
bott le
Ġshun ned
Ġep istle
faith ful
Ġrelinqu ished
Ġincred ible
cheer ful
ĠComm ittee
Ġincess ant
Ġtreacher y
Ġchoo sing
Ġmonop oly
ĠNa ples
Ġrepl ies
ĠKat rine
Ġcert ific
amuse ment
fing ers
Ġfrivol ous
Cap ital
ĠNeap olitan
citiz ens
ĠThess alian
Ġhorizont al
Ash ton
Ġtires ome
observ ations
2 00
; '
B uck
C oll
C astle
H unt
L ester
M at
O P
T ur
a vers
b ent
b ig
b Ã©chamel
c ro
c ord
c la
c use
d ancing
g a
h ol
p ole
r ised
s ought
t est
t ide
t rif
t ouched
Ï Ĥ
Ġt resses
he it
Ġs han
Ġs own
Ġw ines
Ġm aterially
Ġc age
Ġc ows
Ġto m
Ġto mat
Ġp ouch
ar gum
at han
Ġd ated
as ks
Ġl ark
Ġn ameless
le gged
le ading
Ġbe to
st age
st ery
ve get
Ġg au
se ized
ce lebr
im ble
Ġre duction
et he
Ġwe ed
Ġnot able
Ġnot icing
Ġan k
ter an
ch osen
ill ery
ill ah
Ġsu lt
ĠS alem
Ġso ak
Ġso les
ĠA T
Ġcon ced
ĠC OR
em e
ĠThe ory
Ġk ick
Ġk idney
Ġr h
Ġup bra
ĠP our
ĠP itt
un iversal
Ġle ase
Ġab ashed
ag ged
Ġun settled
Ġun usually
Ġun noticed
per ceive
Ġqu iver
ĠD ublin
Ġsp an
Ġsp aces
ĠG ertrude
Ġim itation
Ġar rives
Ġout laws
Ġro gues
Ġen liven
Ġen mity
ings burgh
Ġcl o
Ġsee ks
ĠJ e
ĠJ elly
fe ared
Ġcomp aring
Ġrem ed
cl erk
Ġsc our
Ġfl oured
Ġpe el
Ġspe cially
Ġunder go
Ġgl aring
Ġdown right
Ġra ck
Ġcount less
mer ing
Ġgra vel
iz ance
vers ing
ĠIn st
Ġexp ired
Ġhar den
Ġter ritory
av ailing
Ġbetter s
Ġless ened
Ġche que
Ġche aper
Ġche ques
Ġcar ving
Ġinf lex
Ġequ als
Ġtra ining
Ġinv asion
par all
Ġprop os
har m
Ġve in
Ġ4 6
Ġfore saw
part ly
let ic
Ġes p
ĠAn jou
Ġcol on
app ing
Ġprof essor
Ġneed less
Ġdisp ositions
Ġcharacter ized
sc he
We el
Ġexpress es
Ġ| |
Ġpat ent
Ġce aseless
Ġval uables
Ġmist akes
Ġarm ies
Ġsweet ly
Ġbur d
Ġfavour ites
Ġconv ention
Ġred istribution
gu ests
inter v
Ġsett lers
Ġsch oo
Ġemploy ing
des ired
Ġorigin ated
appe aring
Ġpriv ately
Ġstra iner
tw elve
RE M
ĠTr uth
Ġspo ils
Ġant ip
Ġfast idious
heart s
sec ure
ah ren
Ġmort als
Ġsal ute
ĠSh ort
about s
Ġcredit able
10 6
supp ly
Ġmagn ets
ĠNe pt
rang le
Ġgar lands
ST ART
car ious
acqu ired
Ġsacri fices
ĠWhere fore
mist aken
compl iment
Ġpred ecess
Ġshel tered
Ġmechan ic
Ġaut hent
Ġimpl icit
ste ak
Ġdust y
Ġvic ar
ĠâĢĶâĢĶ ,
Ġsex ton
abs urd
Ġadmire r
Nor man
Ġintr usion
Ġflo at
box es
Ġinstinct ive
Ġtour maline
athed ral
Ġmoist en
find ing
Ġfil ial
Ġcomplain ing
bene fit
Ġstoo ping
Gl anville
Ġplant ations
ĠGreen wich
Ġped est
conce aled
Le ave
Ġscream ed
Ġna ething
Ġmanif ested
concern ing
else where
Ġaug ment
Ġwhit eness
def ence
Ġdiver t
Ġcust ody
ĠCons ider
Ġclust ers
Ġdemonstr ation
Ġscept icism
Ġox ygen
Ġresign ation
burn ing
Ġsul ky
Ġdoc uments
Ġlabou rer
sold iers
Ġintri gues
Ġfavor ite
Ġ80 9
ĠCham ber
Ġbarbar ous
furn ished
Ġriv als
Americ an
Ġplent iful
Ġsmoot hed
Ġrecl ined
succeed ed
Acc ordingly
Ġnegl igence
ĠBurn s
Ġabomin able
Ġbrut al
Ġscrut iny
Ġprophe cy
ĠGen ius
Ġecst asy
Ġrehe ars
Wald ershare
unex pected
Ġphotograph ic
ĠGul oseton
Ġplaus ible
Ġexpend iture
Amel ia
2 19
5 00
B ois
B eef
E X
E lect
L Y
L anc
M urdstone
O sbaldistone
P antaloon
V audemont
V anilla
b ug
b attle
c our
c ayenne
h itherto
i enn
k itchen
l ieu
m ach
m ethod
n aker
p ure
p ause
p olar
s an
t ro
Ã «
Ġ {
Ġ 00
Ġt welfth
he ight
Ġa us
Ġa ching
Ġa ux
Ġs inks
Ġw rap
er l
Ġb ob
Ġm ule
Ġm accaroni
Ġc ull
or ange
an ed
an imate
Ġl id
Ġl akes
ic iously
le ham
ot le
Ġe book
Ġg ap
Ġg ear
Ġg ems
se ed
im ps
im ited
Ġre taining
al o
ir ie
ri ental
Ġnot orious
ĠM et
ĠM innie
ch ment
Ġst ages
ĠT han
if ace
Ġsa ith
Ġme als
Ġme agre
ĠS old
ĠS cript
ĠS outhern
ĠS END
Ġse lection
Ġso lace
ĠA c
all owing
ĠH ug
ĠC ape
ĠC urate
us sion
ĠB ent
ĠB oil
Ġv aulted
ust ard
ĠP E
un ches
itt imer
ĠF ill
ĠF ive
Ġun cont
Ġun heard
Ġun wholesome
ass ing
ass dale
of orte
ud ley
me al
Ġsha res
Ġshould st
Ġtw inkling
ick ering
ĠJ ess
Ġsm ote
Ġsc re
Ġfl irt
Ġdist aste
Ġunder taken
Ġcons iders
Ġgl ories
sh ore
Ġra ils
ĠV EAL
Ġac uteness
Ġhead ed
sp ersed
ten ham
Ġref racted
Ġext ric
cha in
Ġmar gin
Ġinf l
Ġass uring
Ġass ailed
Ġtra cing
ric hed
har mon
Ġopp onent
att ached
att raction
ash ions
Ġfore sight
Ġsk ins
Ġsou ps
Ġbus ied
oot ing
Ġpret ending
Ġnecess aries
Ġtend encies
Ġprev alent
Ġappro x
Ġfall acy
dis gu
Ġ5 3
lu x
Ġlad en
Ġcor on
Ġsle ek
asp he
Ġ6 6
ĠAl pine
Ġut ility
Ġbes ie
Ġmed dle
Ġmed itate
Ġresol utions
Ġsign ifies
Ġbad ge
Ġquick er
gu ing
gu est
Ġwhis ked
Ġcent rifugal
comp ly
comp osure
min ced
Ġgall antly
Ġann ouncing
fl at
Ġreco iled
Ġfla gs
ĠPhil ips
Ġforget fulness
Ġune qu
Ġpoet ic
Ġgrace fully
que en
Ġphys iognomy
Ġspect ator
Ġhabit ually
inst rum
12 3
Ġcat aract
Ġmeasure ment
Ġpreced e
Ġshame ful
Ġcivil ized
Ġindul gent
ĠJob son
Ġscorn ed
requ ire
Ar t
Ġdiscus s
Ġrad iation
Ġrepro aches
Ġtest ified
Ġabsor bing
Ġmal ady
Ġmild ly
ĠAp ollo
mom ents
Ġcerem onies
ĠEurope an
Ġcla pping
conven ience
Ġconstitution al
Ġfer vour
elect ric
ĠBlack well
exc ited
Ġcompassion ate
Ġdiff used
Mad am
Ġcas ual
Ġrum ours
div ision
ĠScotch man
Ġprompt ly
Ġlam ented
Ġstuff ed
prov ided
inv itation
Ġtort ured
ĠPal ace
Ġimperfect ly
Ġpoison ed
Ġgrin ned
ĠRy land
Ġexerc ises
subst ances
Ġwheel ed
Ġfrost y
ĠMusgro ves
Ġreconc iliation
ograph ical
Ġastronom y
dam ages
Ġrail road
expect ation
VER Y
Ġmeek ly
Ġrespons ible
cand le
Ġdict ated
Ġcoinc ide
Ġverd ict
Ġlard er
ĠInt ell
ĠTw enty
Ġengra ving
Scot ch
Ġhaw k
recomm end
Ġadvoc ate
Ġemphat ically
wid ow
thro at
ELL Y
RAB LE
Ġphil anthrop
ĠOff ice
Ġbenefact or
Jul ia
Ġcounsell or
chie vous
infer ior
ĠLoc ke
LIM ITED
ahren heit
ĠNept une
+ ----
C r
E conom
L y
O ther
P ot
R oehampton
S ever
T ush
W ilson
b ul
c ultiv
d s
f an
f ounded
f reed
h ound
h ttp
k et
l Ã©
m atch
n od
n arr
v ac
v ulgar
w right
w ishes
Ġ urch
in ies
in vest
re ward
Ġs ings
Ġw arr
Ġw olf
it ur
it ia
Ġb ier
or ical
Ġp ensive
ar ant
Ġin ference
Ġin effect
Ġin asmuch
as certain
Ġh ilar
Ġn ail
Ġha ud
Ġha me
Ġbe au
Ġe ulog
st ars
Ġg ran
im pl
Ġwh ilk
Ġis suing
ri bb
ĠM ah
ĠM utton
Ġst anzas
ra ces
Ġat om
Ġat one
qu estions
ĠS urely
ul p
ul pt
ul ence
ĠA L
ĠA ss
res istance
ĠH ON
ĠC at
ĠC ow
ĠB ET
Ġk icked
Ġr heum
ind le
ard ing
ĠL ee
ĠP ast
Ġfe ats
ven ge
ĠE N
ĠE liza
ig ree
od ox
Ġun intelligible
ass y
ĠD u
ĠD or
ĠD ie
ĠR ut
ĠR iver
Ġdis com
te lling
Ġper j
Ġper usal
Ġper nicious
ĠJ o
ĠJ un
int im
Ġover look
cl ergy
Ġres ide
Ġsc rat
Ġsc ulpt
Ġdist ract
sh owed
Ġever lasting
Ġwat ery
ĠU t
Ġinter fered
Ġmar ching
Ġdel ine
Ġcar rot
ĠĠĠĠĠĠĠĠĠĠĠĠĠĠĠĠ ĠĠĠĠĠĠĠĠĠ
Ġinf all
Ġact ress
Ġtru ff
Ġpar as
Ġadm ittance
Ġ4 9
empt ion
Ġmon ks
will iam
Ġrespect fully
ĠPen ruddock
ush rooms
Ġcol or
ific ent
Ġdisp utes
vel ope
Ġce asing
Ġincl ine
ĠHer cules
ines e
Ġjud icious
Ġwild est
some body
Ġmed ia
Th rough
Ġdiv inity
Ġkn ives
cons ent
rit ical
Ġdeal ing
As k
Ġfoot step
ivid ually
ĠBl oundell
Ġgall oped
Wh ite
OU RABLE
Ġenjoy ments
Ġpen alty
Ġdream t
Ġconduct or
Ġknight ly
ĠNot tingham
ĠCom mer
Ġlangu or
char m
Ġhost el
Ġmort gage
ior ation
oore r
Ġsal ary
Ġid ly
Ġflour ished
Ġchamber lain
Ġsuper natural
Ġimm o
Ġcredit or
Ġneck lace
ĠSte yne
12 5
Ġfurn ishing
ĠXX I
Ġrid ers
Ġexceed ed
Ġsn ake
Ġstream ed
Ġdism ounted
Ġforest ers
return ing
pres erve
Ġnarrow ly
Ġmat urity
Ġconven iently
fall s
24 0
ĠAdam s
Ġthreat en
Ġmult itudes
urs ions
ĠClar issa
itz erland
Mar ry
Ġvision ary
Ġmould s
Ġrot ten
mat ical
uckle back
ĠCal ais
Ġexplain ing
foot ed
uches se
exc itement
alog ue
Ġjest s
Ġble ak
Ġmerc ury
ĠJack son
prob able
Ġsullen ly
Ġaccommod ated
among st
Ġhaz el
** *
Ġdew s
Ġsore ly
Ġcongrat ulated
Ġexquisite ly
Ġcoin age
Ġshru bs
conce ivable
ĠMal colm
Ġfasc ination
ĠEs quire
Ġobed ient
ĠSam uel
ĠDart more
Ġsear ched
ĠOut law
Ġfors ake
Ġsequ ence
enjoy ment
suspic ious
correspond ing
Ġecc les
Ġprett iest
ĠFin ucane
prison er
DON ATIONS
Americ a
Ġpenit ent
Mon kbarns
Ġincess antly
Ġstrat um
Ġster ling
ĠPrecept or
West on
Ġoverfl owing
Ġinfam y
Ġdepre ci
Ġapprent ices
ĠBour gh
ĠMiddle ham
Val ue
Ġmell ow
Ġirres olute
Ġlev ied
ĠBright on
ĠCommod ities
Ġpresum ptuous
Ġdub ious
ĠAin ley
stre ets
num erous
Ġrecomp ense
ĠPlant ag
Ġbystand ers
apole on
) --âĢľ
A ha
A ugh
C or
H or
H alf
K Y
M organ
P rot
P retty
R U
R ow
S aint
S ections
b orrow
b bit
b osom
c ate
d ying
f il
f arewell
g il
g ame
l uminous
m ol
p hen
r ative
r unning
s quare
s harp
z ens
á ¼
Ġ ire
Ġt attered
Ġa verse
re ceipt
Ġs ingly
Ġw ield
Ġw oes
Ġw oven
er ation
ou ill
Ġm ap
Ġc ulture
or ific
Ġp ens
Ġp ines
Ġp hantom
ar ge
ar rival
Ġin separ
Ġin experienced
Ġin versely
at om
Ġd urst
Ġd izzy
Ġl ac
Ġl ave
Ġn ymph
om est
ĠI nglewood
st ro
st ick
ent reat
ent ious
Ġre appeared
ĠM E
ĠM arm
ĠM instrel
ter m
Ġst ip
red istributing
th ri
âĢĶ (
ĠS ch
ĠS even
am oured
the w
ge e
-- _
ĠC ream
ĠC redits
ĠC ivil
ĠB uc
ĠB EN
ĠB etter
ĠW oe
ĠW omen
Ġsh ovel
ĠL en
ĠL XX
ol ated
ĠP h
ĠP ole
ĠP ART
out ed
ord on
ĠE p
un enforceability
ine a
ry st
ĠF ew
ĠF cp
Ġle vity
od ious
Ġab used
Ġun ce
Ġun man
Ġun gu
Ġam iss
Ġqu ivered
ĠG RE
Ġad o
ab and
Ġim be
ĠN EW
Ġen forced
Ġmust er
for ter
Ġpre carious
Ġbr ine
int imate
Ġcomp la
cl osing
but tered
Ġfl own
Ġold est
Ġpe rempt
Ġye arning
Ġpres ided
Ġear then
Ġra g
Ġgent ler
ex cess
Ġpleas anter
Ġgra pp
Ġgra ced
ĠSt rand
Ġrep ented
Ġrep ulsion
Ġrep resents
ib i
und ays
Ġco hes
Ġpresent iment
Ġwant on
ia zz
ĠTh ird
den ial
Ġsat ir
Ġinc or
ĠAr gy
Ġrec re
Ġhard ness
Ġsent ient
Ġdet ection
Ġdec ency
part ner
Ġacqu iring
bour g
app reci
Ġ18 90
Ġelect ed
ON S
Ġdev ised
ĠFor th
Ġdra gon
Ġpat ches
add le
Ġlive liness
Ġyear ly
Ġcut s
Ġbu oy
Ġblack ened
ES T
Ġunderstand s
gu ess
Ġexpl an
Ġlaugh s
Ġcent um
ĠLe ave
des cribed
Ġoccup ying
Ġgreen wood
soci al
ĠDe fect
ĠDe altry
Ġaccept ance
ub b
Ġund o
ĠPhil adelphia
off rey
Ġban quets
ext ent
certain ty
11 1
Ġweak ened
Ġspot less
Ġwatch man
Ġjour n
Ġpal er
Ġvirt ually
ĠCra ig
Ġstar ry
Ġbroad er
ĠSte wart
wr ought
Ġguard ians
supp orted
12 7
sol itary
Ġbri g
Ġbri be
Ġpardon ed
sy lvan
ĠPl an
ĠPl ato
Ġdisg usted
ral ia
Ġshr imps
fall ing
Ġdiscus sing
Ġdiscus sions
Ġcrit ics
Ġtit les
UT TON
Ġbab e
Ġexha ust
ĠGra vy
Ġrestless ness
gro ve
Ġequator ial
ĠRow e
Ġwicked ness
Never theless
Ġmax ims
agre ed
Ġprec incts
Ġimpr udence
Ġgla red
Ġaccommod ate
Ġdepos its
stri king
Ġpuzz le
Ġfest ivities
Ġprompt ed
Ġvibr ating
Ġparliament ary
Ġinsens ibly
Ġdeliber ation
Ġimpart ial
Ġawkward ness
Ġcontrad iction
roy alties
Ġstraw berries
OS KY
EW ED
viol ates
Ġdiver ted
ĠAdon is
grace ful
Christ ian
Ġfaire r
Ġoft ener
Ġscold ing
acknow ledge
sold ier
fif ty
ĠJen kison
avo id
Ġarcher s
En ough
depart ure
hosp itality
Ġferv ent
ĠHapp y
Ġquarre lling
inj ured
Ġmuff led
NT ABILITY
ĠLO VE
mot ives
Ġtheat rical
appre hension
ĠLiber al
sor ry
Ġimped iment
brand y
enem y
Ġavow al
weak ness
Ġconspir acy
Ġpy ram
ĠFL OSKY
pa used
Ġted ious
ĠMERCHA NTABILITY
Ġaz ure
Ġsom bre
comput ers
Dav id
Ġunutter able
Ġimple ments
adequ ate
Ġearthqu ake
B ur
B ank
D ick
D arcy
E ach
E ug
E arl
G ER
J oseph
L ight
M ind
M AR
M ansfield
P OR
P hilosop
R eynolds
S cythrop
T empl
U RE
W ash
b ills
b asket
c ottage
g ad
h ors
h unting
j ar
n ally
n ovel
p hant
s and
t ically
w i
Î ¹
Ġ ilk
Ġ icy
Ġt uck
Ġt aint
Ġt unic
in sp
re ly
Ġs iege
Ġw ins
Ġw ail
Ġw akened
Ġw intry
er a
er o
ha me
ha bits
it ching
Ġb at
on na
Ġm ul
Ġm ashed
Ġf ading
or um
Ġp ent
Ġd red
Ġd ates
ot ation
ot to
Ġth igh
Ġre ins
Ġre wards
Ġre bu
Ġfor cing
ad vert
ĠM A
ĠM ug
Ġst all
Ġst ab
Ġst ops
Ġsa ges
red uced
Ġmy r
ore r
ĠS ullivan
am iable
Ġse est
Ġor th
rom atic
pe el
ĠA way
ĠH ildebrand
ĠC ass
ac company
Ġr ides
ĠW isdom
Ġsh uff
ast rous
ĠL ina
Ġno ises
ol o
pt ive
Ġal tering
un ities
un conscious
ĠF ortun
ĠD om
ĠD iss
ĠHe avens
Ġj aw
ab or
ab ond
ĠR a
ĠR aven
Ġar ches
Ġar ithmet
own er
ru its
ĠN abbem
Ġen force
ran ks
Ġpre face
ack s
ack et
ĠJ am
right ly
Ġcont ended
Ġfl inging
Ġimp unity
Ġunder taking
Ġgl ide
Ġtr out
Ġra ins
con ve
Ġser pent
ret t
Ġlast ly
Ġgra ver
Ġgra pes
ang ry
ĠSt ay
ĠSt ilbro
Ġnat ives
vers es
Ġwat ches
rest ed
ER Y
Ġconf ed
Ġconf ided
ale nd
read able
Ġsur rendered
Ġsur viving
Ġsur plus
Ġinter rog
Ġinter nally
Ġte asp
Ġev ap
pr udent
Ġass umes
Ġhum bug
Ġpar ade
arm ing
Ġhard est
Ġve teran
att ened
Ġel igible
Ġfore bod
Ġmoney s
ident ity
ĠCh ronic
Ġreason ed
ev ident
ĠPen n
Ġmer ited
Ġcol ony
Ġunc outh
app lication
HE EP
Ġappro aches
sc orn
Ġlau nd
Ġ5 4
Ġbra very
Ġlist less
cell or
Ġri pp
Ġri bs
Ġsweet heart
Ġbook seller
ĠX IX
pre vious
Ġinqu is
Ġkn uckle
Ġdro oped
Ġsign ified
Ġdr um
ĠPr incedown
Ġfig ured
Ġhur led
rigin al
Ġstart s
Ġprep oss
IT ION
Ġfoot man
Ġattend s
race y
Not withstanding
Ġgall op
Ġsepar ating
dist urbed
ĠNot withstanding
Ġpract ices
off icer
Ġvill ages
Ġ7 3
11 3
ech o
Ġassoci ates
bel oved
rep are
15 3
Ġsick ening
Ġweight y
Ġfurn ace
ĠXX II
sol itude
Ġinj uries
ĠArch bishop
Ġutter ance
Ġbon ed
ĠCon sequently
oul ina
vent ure
Ġstro lled
Ġfac ing
Ġga un
Ġtwelve month
Ġtim ber
pon se
cr imin
Ch ild
Ġsin ner
Ġpick led
Ġpred icted
Ġbal anced
object ion
Ġimpl ore
Ġimpl oring
Ġrob ust
Ġhyp ocrite
ĠCam den
Ġsand y
utter buck
Ġimmense ly
Ġoak s
Ġfer ocity
speak able
Ġdiff ering
Ġintr ude
ĠMe antime
Ġded uced
Ġmend ed
Ġchamp ions
Ġrang ed
list ening
Ġchest nuts
Ġmoist ened
Ġconj ured
ĠPres ently
Ġstick ing
Ġiv ory
Ġadmin ister
Ġaim ed
Ġcombat ants
Ġbrid al
ĠMark leham
tender ness
immer ton
ĠChief tain
Ġthrong ed
ĠYoung est
commod ities
ĠPat rick
Ġbenef ited
Ġadvers ity
endeav oured
Ġlav ished
Ġrelinqu ish
Ã´ tel
trem bling
Ġanecd ote
Ġrenow ned
Ġplent ifully
ĠCent aur
partic ulars
!!!! !!!!
ĠCHA R
oresc ent
Ġbail iff
Ġloos ened
Ġduck s
ĠFul ke
cong rat
Ġoscill ations
Ġglim pses
Ġcogn izance
Ġpett ico
Ġslipp ers
ĠGa elic
Ġordin arily
ĠNazare ne
Ġinspir ation
Ġdole ful
ĠDal ry
Ġrall ied
Ġadvis able
ĠFran Ã§
atell ites
oubt less
ĠLIST LESS
udic rous
Ġirks ome
ienn a
ĠHON OURABLE
uckleback it
sylvan ia
1 18
7 3
C HE
C ourt
D ec
E urope
H Ã´tel
I d
N ed
O b
R ushworth
V OL
V incent
b ane
b aked
b olt
f ty
g rew
g over
k ish
l ocked
m ant
m ish
m ild
m ix
m ante
n i
n ur
p ill
p ubl
t Ãªte
Ġa ve
Ġa fresh
in var
Ġthe er
it ives
Ġb arn
Ġb attered
Ġb athed
Ġf ric
or id
Ġp ension
Ġp oorer
ar let
Ġd rying
as ide
Ġh yd
Ġl y
Ġhe y
om te
Ġha ts
Ġbe et
Ġbe ats
Ġbe aming
st rained
ly mp
id d
Ġre aches
Ġre liance
Ġwh iles
et on
ur a
ct ic
ad mitted
Ġst icks
ĠT aff
ĠT RA
ĠT resham
ke ley
ĠS ister
Ġde igned
Ġcon ceptions
ĠH ard
ĠH ast
ĠH icks
ble t
ĠC our
ĠC ary
ĠC oun
em p
ĠB rid
ĠB reak
Ġk ens
ĠW arden
ind ers
ĠL or
ĠL at
ĠL adies
ne arer
Ġal ms
Ġfe eding
ff lÃ©
ĠE aster
un ited
un iform
ĠF am
Ġle agues
ag itation
au nd
ĠD ec
ĠG et
ĠG ri
ab road
ĠR olls
Ġim pe
Ġim pelled
Ġdis ordered
Ġmay est
Ġhas n
age m
Ġch illed
Ġcha ps
Ġcha sed
Ġrem in
not ion
Ġsm elt
Ġlong est
Ġimp eded
Ġpres ervation
Ġap athy
Ġgl or
Ġgl ist
Ġra nd
Ġra ging
con ject
con cluded
ĠSt range
Ġappe nd
ĠK enn
Ġem inently
He ad
sel ton
Ġcour ted
Ġconf iding
Ġco vers
Ġgener ously
Ġfull est
Ġass isting
Ġinv itations
br id
ric ted
Ġmean ness
bed s
Ġ4 4
gr in
Ġgentleman like
medi um
Ġmis led
ush room
ĠBe hind
Ġprom ote
Ġdisp uted
Ġcal mer
Ġfellow ship
ĠAl so
che ap
Ġca resses
band s
Ġ8 3
Ġ8 5
Ġaccord ed
Ġbene fic
ism uth
ĠPr inci
comm ission
comp ared
sha me
Ġpriv acy
Ġstra it
Ġdem ure
Ġdri ves
ub arb
ĠNot es
Ġcou pled
off ic
char ity
Ġoffic ious
Ġ7 5
bur g
Ġhall oo
ĠInd ies
11 9
spe ed
Ġ9 8
Ġph osph
19 7
Ġrevol t
Ġminute ly
acc ident
hum ble
Ġsharp ened
Ġver b
Ġinno c
Ġprevent ing
Ġvict orious
Ġdecla res
Ġprefer ment
Ġflavour ing
ĠAb ra
Ġcivil ities
Ġmurm urs
Ġinvol ves
Ġmiss is
Ġasse m
AM IN
AM IL
ref ined
Ġdisturb ances
Ġga ol
Ġrepro b
Ġrepro of
Ġrude ly
Ġattack s
leg raph
Ġhosp ital
Ġrul ers
Ġspark le
Ġpred ict
Ġmix ing
Ġbab by
Ġcapt ivity
Ġbal m
Ġcontempl ating
nor th
Ġlat itudes
ipp ets
Ġprofound ly
pat ron
Ġunl imited
yl ie
Ġdisd ained
eff ort
Ġfatig ues
succ ession
Ġindifferent ly
Ġmanufact uring
Ġbla zed
occasion ed
ĠHay ter
Ġharmon ious
bread th
Ġsovereign s
affection ate
Ġobli vion
Ġz inc
ĠSim monds
Ġpropriet ors
ĠCont in
Char lotte
remark ed
Gl en
ĠDun naker
ĠTe acher
Ġped lar
ilgr ims
philosop her
ĠMil estone
exam ination
fell ows
conn ection
vill age
ĠGard ens
Ġta vern
Ġlap se
Ġshri eks
ĠGr assdale
Ġcoward ly
ĠSal isbury
frequ ent
Ġfoll ower
priv ile
dev otion
Ġgru ff
Ġcondescend ed
ĠFore st
aston ishment
Ġtrades man
rig id
treat ed
Ġarchit ect
Ġreced e
pict ures
ino ctial
Ġpatriot ic
revol ution
Ġinfirm ity
preced ing
hosp itable
Ġejac ulated
Ġora cle
Ġconsec rated
Ġrud eness
Ġspont aneous
descend ed
Ġrasp berries
abol ical
Clar a
Ġgild ed
Ġnomin al
Ġenhan ced
Ġstam mered
Ġcush ions
Ġpam ph
commer cial
risto pher
Ġvass als
Ġexplo its
Ġintrud er
Ġineff able
Ġbask ets
Ġapert ure
celebr ated
Ġinflex ible
A thelstane
B ennet
B OOK
C O
C redits
G arden
G reek
H art
L isten
M ark
M ix
M amma
N ature
P RE
S U
S us
S unday
U m
_ :
b ree
b ors
d ried
e cl
g ram
g ained
g rey
i at
m il
m ass
n umbers
p ounded
p raise
r imin
t rying
v ast
w ark
w isdom
z el
z ym
Ġ ."
Ġt res
Ġt ape
Ġt ipsy
Ġt ribute
Ġa vert
is ans
Ġm es
Ġf able
Ġf oster
Ġc asket
Ġp ence
Ġp als
Ġin compar
Ġd ough
Ġh ound
Ġn ag
st able
st ern
st arted
Ġg ae
im med
Ġy arn
Ġre dden
Ġre eled
Ġon erous
Ġis le
Ġher it
ĠM amma
Ġst ren
ĠT alk
and ias
ĠS undays
ĠH ome
ble ms
em et
ĠB oy
Ġall otted
ĠThe atre
Ġsh in
el oqu
Ġcom plied
Ġcom edy
ĠP apa
ĠE nt
un ed
ĠF ra
ĠF all
we eks
ag no
per ate
per mit
per mission
Ġam ply
Ġqu er
ĠD oll
ĠD avenport
ĠD udley
ĠG rosvenor
ĠG ordon
ĠR ound
Ġsome one
ud ently
be ck
ink er
ĠO pp
ĠO ften
Ġro oted
Ġen riched
Ġgo al
Ġcl ang
Ġch ickens
Ġcha os
oll en
Ġcomp osing
cl ing
cl oak
Ġoff ences
Ġfl ocks
Ġimp enet
li b
Ġgl ade
Ġgl ob
Ġgl ittered
Ġappe aling
Ġsl ope
sp r
Ġlo ite
Ġconf idently
Ġind escribable
Ġco ars
Ġsur mounted
Ġinter spersed
Ġint ricate
Ġte ase
Ġcur ates
pro of
Ġlaw suit
pr ice
ider y
ern ation
Ġget ten
Ġstr ide
Ġpar adox
Ġcr ushing
she ll
br inging
Ġpower less
arm es
Ġprop ensity
uc umber
Ġel bows
ash ire
Ġunt imely
Ġsw am
Ġeye ing
Ġmis chievous
Ġins cribed
Ġcap acities
.. .'
ug s
Ġlord ly
Ġappro ving
sc ru
Ġ5 1
Ġ5 2
Ġcor onet
Ġpat ch
Ġbar ouche
Ġdef ied
Ġconsequ ents
pre cisely
Ġmus cle
cont ented
Ġ8 9
Ġsix th
Ġslight ed
light ly
sha pe
Ġgall eries
Ġann ually
Ġtrans it
Ġdri ft
Ġcross es
Ġund ef
ĠPer th
Ġdom inion
good s
pass es
Ġcra ving
An ville
11 0
11 7
Ġmort ifying
Ġsor ce
Ġsal es
que ly
Ġpolit ician
10 3
10 4
Ġla unched
Ġmusic ian
Ġpra etor
ĠSte w
Ġliber ally
LE T
LE TS
LE CTURE
ING S
ina e
Ġwand erer
lar ger
por aries
Ġbank rupt
Ġimper ial
conf ident
vis ited
Ġsuit or
ref used
Ġmat ched
Ġtot tering
circ le
Ġpurcha ses
obser ving
ĠDick ie
const ruction
hon ourable
Ġpet ul
assion ed
Ġbill ows
Ġobserv ant
four th
Ġproduct ions
Ġspark s
inf inite
dep os
gen orth
Ġapprehen s
Ġvic ious
ĠGra ul
wa ist
Ġdesert ion
Ex actly
ĠFl osky
Ġpubl ish
Ġben ches
Ġcultiv ate
Ġequip age
prof ess
mount ains
Ġdisgrace ful
keep ers
ĠMer ville
Ġbree ches
sister s
Ġcongrat ulations
Ġpert in
sla ves
Ġprodig al
Ġsuggest ing
Ġunjust ly
miss ed
Ġta pped
Ġske wer
plan et
ĠBeaum anoir
Ġdeliver ance
ÂłÂłÂłÂł ÂłÂłÂłÂł
Ġhistor ian
Ġlan es
Ġdisgust ing
tri umph
Ġsequ est
Ġconquer or
Ġgru nt
ĠRom ance
Ġmanufacture rs
icer o
Ġsall ied
Ġemig rants
cry st
Ġyawn ing
Ġasp ire
ĠBer keley
Ġabolition ists
adm ire
wat ching
Ġchur ches
Ġvigil ance
Sm all
neg lected
Ġannihil ated
Ġvehement ly
ĠChild e
Par liament
Ġtheat res
Ġcanv as
oresc ence
Ġretro spect
Ġretro grade
Supp ose
Pres ently
Ġsymmet ry
Ġstif led
Ġperturb ation
MacG regor
Ġpheas ants
Ġoverpower ing
Ġtech nical
Ġmim ic
prim ary
ĠĠĠĠĠĠĠĠĠĠĠĠĠĠĠĠĠĠĠĠĠĠĠĠĠĠĠĠĠĠĠĠĠĠĠĠĠĠĠĠĠĠĠĠĠĠĠĠĠĠĠĠĠĠĠĠĠĠĠĠĠĠĠĠ ĠĠĠĠ
Ġatro cious
Ġash ore
ĠLE CTURE
Ġcontag ion
Ġlibert ies
Ġbeque athed
Ġnostri ls
Ġcomplet ion
Ġwalt z
Ġjell ies
Ġdisgra ced
Ġcontrovers y
inhabit ants
Ġninet een
ĠArist otle
Ġimmo vable
Ġrand om
zym andias
2 18
B arton
C al
G AR
J e
J uly
M ust
R oy
R ef
c ove
c apt
c ott
d les
e ars
g ither
h l
k ingly
l ately
l oud
m ers
n ic
s igh
t um
v ibr
w an
y onder
Ã ®
Ġt out
Ġt ire
Ġt ints
re ality
re ceiving
Ġw rang
it ches
Ġb our
en buck
Ġc ance
Ġp ha
Ġp are
Ġp igs
ar isto
Ġin herent
Ġd row
Ġh olly
Ġl umber
Ġl ectures
le isure
ĠI T
ot y
st raw
Ġg ud
Ġg ane
Ġg rooms
se vere
im age
Ġth riving
Ġre tains
Ġwh ipped
ir ting
âĢĿ .
ad o
ad ish
ri bly
ĠM oses
ĠM attern
il ary
ain e
th ine
ĠS a
Ġor bs
ul ph
the ory
Ġde ception
res erve
ĠH umph
ĠH annah
ĠH ertfordshire
Ġall ied
Ġk id
Ġr ushes
ĠW yn
ĠW IL
os er
ĠL ittimer
Ġdo cile
Ġdo zens
ĠP sy
un ct
ĠF if
ĠF IRST
Ġle ve
Ġle ague
ag itated
ag ara
Ġun quiet
Ġun availing
au g
pl ane
Ġsp un
ĠG rey
Ġad verse
Ġar ched
Ġdis respect
Ġdis closed
own ers
Ġper ist
ove ls
ĠO lymp
Ġhas h
ĠN ic
Ġpl aint
Ġpre aching
Ġcl ime
Ġcl atter
Ġch illing
ĠJ ELLY
ark en
Ġover grown
Ġover throw
Ġhow l
Ġres orted
Ġsm othered
Ġsc are
Ġsc ald
Ġfl aming
Ġdist orted
so oth
Ġret ract
Ġfriend less
iv ocal
Ġent angled
Ġapp alling
ser adish
Ġwr ing
ex act
ob ile
Ġlight ness
ĠV aux
Ġmen acing
Ġback ed
Ġlo om
Ġlo aves
av ail
Ġext orted
Ġcar ing
act ivity
Ġhome wards
pr ince
den ing
Ġste er
ern ity
Ġpar chment
Ġcr umb
Ġwa ur
Ġwater ing
Ġdisc redit
Ġaff able
Ġvar iously
gr ounds
Ġcond ensed
ĠAs ia
Ġunt ouched
Ġshort est
Ġmis eries
Ġdeep ened
Ġmo at
inci al
ĠSc udamore
Ġprev ents
ON G
Ġlay ers
Ġdev ise
Ġdev ices
Ġbar red
Ġmag ician
EN S
Ġblack s
rel ief
Ġsucc our
Ġdeg ener
Ġsoft ening
Ġresol ving
Ġprot racted
gu ided
Ġdep ortment
Ġhur ric
arri ages
ĠLe g
ĠLe igh
Ġsubst ant
Ġdem ol
St and
Ġtrans formed
18 9
RE AM
Ġdim med
val ued
So ciety
Ġdepart ments
Ġmad man
Ġdepend ing
Ġant i
Ġforget s
pass ions
every where
Ġschool room
Ġcra zy
ĠGe offrey
Ġhist ories
rep ublic
10 7
yd d
Ġbold ness
15 0
occ ur
Ġbow els
ĠWell ington
Ġver ily
Ġver bal
mind s
Ġdescend ants
Ġterri fic
Ġma ister
13 0
13 1
ĠEl more
Ġdestro ying
conf ess
ĠCon f
ĠCon ingsburgh
Ġvast ly
Ġstern ness
pur suit
Ġamount s
Ġfac il
opp osition
ĠAsh by
Ġbrave ly
Ġshr ine
ĠJul iet
contin ually
Ġven om
Ġ25 2
Ġawa its
Ġpick ing
person age
Ġtransm it
Com p
Ġple ading
Ġexha ustion
cor rect
pat ience
ĠGra eme
IC AL
De ath
effect s
Ġnae body
Ġble eding
Ġmerc enary
Ġben ign
Ġdiff ers
Ġcontro lled
Ġvague ly
Ġdawn ed
ĠSy lvia
meas ures
cut lets
Ġstamp ing
Ġren ounced
ĠBon iface
sal m
Ġaven ge
expl ained
ĠPal estine
conv iction
ĠGu y
roy al
Ġstalk ed
call ing
Ġinduce ment
Ġpul pit
viol ent
Ġprohib ited
Ġsem i
grand father
OW L
famil ies
ĠSar ac
Ġrhy mes
mem bers
Ġpian oforte
Ġspin ning
Ent remets
Ġinev itably
Ġsympt om
ĠHas lam
ĠBu ildings
Ġannounce ment
mort al
fif teen
Hel stone
Ġfascin ated
Ġadjust ing
Ġconsist ency
Ġcler ical
Ġeclips ed
Ġjun ior
Red law
Ġinser t
Ġvigil ant
Sm ith
partic les
build ing
hig hest
Ġmac kerel
Ġacceler ated
Ġtreacher ous
Ġfisher man
Ġimpost or
Ġmonop ol
ĠMount ains
Ġsuscept ibility
Ġinspect ion
Ġdart ing
impat ient
Brit ish
Ġath letic
Ġworsh ipped
Ġimagin ative
ĠSher wood
rolo is
Ġsurpri ze
Ġther m
ĠWall is
Ġpane gy
Ġbash ful
Ġalleg iance
Ġhover ing
ĠJeff erson
Ġconscient ious
Ġsubmiss ive
Ġverm icelli
fem ale
Ġreiter ated
fles h
chim ney
ĠPlantag enet
Ġlaund ress
ĠFranÃ§ aise
. ),
A pril
E sp
F our
H em
M as
M ine
O D
O u
P ark
P apa
R em
a im
c ot
c od
c rying
c orp
e au
g overn
h ugh
i k
i anc
i ors
m oor
n ce
n ings
p ity
p ices
r me
r ades
s ust
s now
s well
s combe
t reas
u ptuous
w atched
y ards
y olks
Î µ
Ï Ģ
Ġ á¼
Ġa ugust
in able
in ople
in bury
Ġo live
Ġw renched
ou rers
is a
Ġb au
Ġb aw
Ġb ordered
ed e
Ġf rat
Ġf ashions
Ġc ub
Ġc auld
Ġc ucumbers
Ġto w
ll e
at ers
Ġd aunt
Ġh ing
Ġh ilt
Ġl ain
Ġl ances
Ġl ids
Ġn ig
Ġha rang
ĠI ce
se ldom
id ate
Ġwas ting
Ġwith held
ĠM UTTON
ter rible
Ġst arl
ĠT racey
ill ness
Ġsa usage
qu iry
th orn
ĠS had
ĠS ky
ĠS teenie
Ġse wing
ĠA D
Ġde ity
Ġde jection
Ġcon cession
ĠH al
est ing
Ġex alt
us ation
us iness
ĠB lu
Ġk ite
ac ific
ant inople
ĠW enham
Ġsh iver
ist ency
han g
ĠL odge
ne eded
ĠE h
un common
itt al
ĠF at
ĠF ort
ĠF ahrenheit
od s
Ġun acquainted
Ġam ber
op inions
ish ments
ĠG reg
ĠHe art
Ġj ing
ab sent
Ġar gue
ame lled
be gg
Ġsha kes
ĠO l
ĠN iger
Ġen closure
Ġen amoured
Ġpre lim
Ġch ina
ĠJ es
ĠJ our
man if
Ġhow ling
Ġrem nant
Ġres ponse
Ġthink est
Ġsm ugg
Ġimp over
Ġimp uted
Ġpe al
Ġpres cribed
su ck
Ġwr ist
Ġlast s
ang les
ĠV ienna
ĠSt u
ĠSt and
ĠK ING
rest ing
Ġsl im
Ġsl umbers
ict ive
ĠU ntil
Ġche ers
Ġrel ied
cha mbers
Ġexc ursions
Ġcar ve
irc led
Ġdon key
pro sper
Ġass ass
Ġpar ap
Ġpar aly
Ġpar cels
Ġcountry man
Ġdiffe red
ric ally
Ġprop hes
Ġdark est
Ġdisc ons
Ġdisc rimin
Ġfore go
Ġsw ing
ĠCh inese
ew are
Ġhel ps
Ġprom oting
Ġdisp ense
sc rup
Ġlau d
dis appeared
dis agreeable
Ġdev iation
Ġpay able
Ġru bb
Ġpain ed
Ġpast ure
Ġpat ted
oe uv
Ġbar riers
add ressing
arl ow
pre fer
cent ury
some where
Ġreal ities
ĠQ ue
Ġconv ulsed
Ġsy ne
ĠPe ace
Ġquick ness
Ġmut ually
gu ilt
Ġdesp atch
than ks
Ġrepe l
ĠRe ine
sha de
sha king
des ign
des erved
des erted
Ġclass ic
Ġalong side
Ġesc apes
min able
imp ly
imp ress
Ġdri ly
IS E
Ġwarm est
Ġearn ings
kind s
Ġpract ising
Ġshad y
ĠMont rose
Ġvill ains
bur ton
Ġsorrow fully
Ġpath os
vi able
Ġfit ter
Ġfit ful
Ġcloud y
Be hold
10 2
ĠFair y
Ġliber ality
ĠXX III
ĠXX IV
Ġcat hed
Ġpure r
mod e
mod ern
Ġsn are
Ġfav ourably
13 3
ruct ions
Ġterm ination
Ġgro ves
Ġmess ages
Ġliqu ids
car rying
Ġrecomm ending
Ġasse mble
ĠBert rams
Ġamount ing
aud ible
zz i
Ġscorn fully
Ġpit ched
Ġwin na
Ġworst ed
Ġbid s
ais y
met ap
Ġspr inkle
Ġtro dden
ĠBr others
Ġmal icious
Ġsell ers
Ġdesper ation
Ġrenew ing
Ġgroup ed
Ġrul er
Ġrefer ring
rec overed
Ġbal con
Ġcloak s
29 2
prop osed
conven ient
utter ly
ann ounced
mark s
comple xion
Ex cellent
Ġgown s
ĠRus selton
qual ified
Ġcho king
Ġdoct ors
Ġrust ling
ĠPo em
Ġobjection able
Ġinstruct ed
Ġsteep ed
roll able
close ly
bon net
Ġheav ier
Ġruff ians
occup ation
Ġward er
ĠEn scombe
Ġtread ing
ĠRep ort
sla very
Ġsubsequ ently
ĠSw itzerland
Ġdishon oured
Tr oth
Ġacquies ced
mur der
Ġbind ing
super st
Ġimpert inence
Ġherd s
Ġtumult uous
Ġlegisl ation
witness ed
Ġcaval cade
correspond ence
stir red
Ġrecur rence
ĠKent ish
Ġwander ings
Ġfert ility
Ġrede emed
Ġbrood ing
Ġaffirm ative
Ġribb ons
Ġtrades men
Ġshudder ing
Ġunb ounded
Ġarcher y
represent ation
Ġtrop ical
Sha kspeare
wear ied
Ġdespond ency
ĠFle et
Ġrefrang ibility
Ġpunct ual
Ġchoo ses
liter ature
Ġting ed
PLE ASE
afford ed
ĠGeorg ia
improve ment
Ġinex haustible
Ġpremature ly
rapid ly
Ġrefract ing
Ġtick ets
Ġdyn asty
Ġunfold ed
Ġhyster ical
ez vous
Ġluxur iant
flo at
ĠTar iff
Ġrasc als
Ġleng thened
Ant iquary
ĠBraw ne
Forg ive
Hy perion
Ġfount ains
Ġwhir led
Buck law
Ġtom bs
Ġburd ens
REM ETS
ĠBuc han
ĠCentaur i
ĠTaff ril
Ġherit age
agno le
Ġperist yle
Ġprelim inary
" ;
% ,
1 20
A p
D an
F ACE
G ad
H areton
L ilburne
M ass
N ING
P at
P ri
S ou
S pir
U riah
W or
a ign
a que
c ad
f aint
f oil
h ills
h ounds
j e
l ift
m amma
o ks
p ars
p oke
r iding
s ie
v alley
z ie
Ï ģ
Ġ q
he av
in nat
Ġs ward
Ġw reat
Ġw retches
it als
Ġb iting
Ġm oust
Ġf ade
Ġc arn
Ġp inn
ar oons
at ham
Ġd ulness
an ned
Ġl ugg
Ġn inety
Ġbe ads
Ġbe verage
ĠI llust
Ġg ow
se m
im ore
id iron
Ġy ore
al ade
al ien
ir am
Ġon wards
ad opt
ro gen
her ry
Ġwe aken
ra il
ra pped
ĠT re
ĠT un
oo ped
ĠS it
am or
ĠA unt
ĠH ur
ĠH ol
ĠH ilary
ĠC ob
ĠC HE
est ate
em inent
ĠB roo
ĠB order
Ġv otes
Ġk irk
ind ifference
Ġdo ck
ĠP ress
ĠP olar
ĠE D
ĠE ight
ĠE AR
Ġli ly
Ġun happiness
per form
Ġqu o
Ġqu aff
ass er
ĠD et
ish ly
Ġsp urn
ĠG ib
Ġcan al
Ġj erk
Ġdis regard
Ġdis satisfied
Ġdis closure
Ġout stretched
Ġper ched
âĢĺ âĢľ
ru ed
ĠO THER
Ġen ables
Ġen sue
de fic
Ġbl amed
Ġbl ithe
cl amation
Ġthr ows
Ġgr ade
Ġgr inding
Ġacc idents
hen ce
Ġfl uttering
li br
Ġpe op
Ġspe lling
com er
Ġtr ussed
Ġday break
Ġdown ward
con clusion
ret reat
ex cell
ĠSt one
Ġhead ache
Ġhour ly
sp ent
Ġbeg one
Ġco asts
Ġnight ingale
aut iful
Ġfar thing
Ġint ending
rem ains
ia e
Ġev olved
pro fit
pro found
ĠĠĠĠĠĠĠĠĠĠĠĠĠĠĠĠ ĠĠĠĠĠĠĠĠĠĠĠ
Ġact uated
Ġhum ming
Ġhum orous
Ġinc umbent
ĠAr cher
Ġpar ley
Ġinv entions
par agus
wor st
Ġprop it
har t
har ine
att entive
Ġmod ification
gr ass
Ġgirl ish
Ġreason ings
Ġmis cellaneous
Ġprof ane
Ġtend erest
Ġcharacter istics
Ġappro val
ON E
Ġbra ke
Ġcal orific
Ġtri ple
Ġpast y
oc us
ec ch
Ġbar b
Ġca ressing
wood s
pre cious
Ġbur then
Ġ8 8
Ġlab orious
Ġbene ficial
Ġpurpose ly
chan ging
Ġaunt s
Ġconv ictions
Ġred ress
Ġsign ature
Ġdest ructive
Ġdest inies
comm itted
inter course
des p
ĠDe ity
Ġwarm ing
uff le
ĠTr ust
Ġemb od
Ġord ained
Ġchief tain
Ġknight hood
ub more
Ġund e
Ġmel ting
AN T
Ġvan illa
str ings
Ġcheer ily
set ting
bur ied
Ġcra g
Ġcra fty
Ġ9 3
Ġdeb au
Ġcoun cils
Ġball ads
Ġproud est
exp ensive
Ġbroad sword
oup ille
Ġ10 5
ENT REMETS
cal f
roo ked
Ġfruit less
Ġrock ing
ĠXX IX
Ġsympath ize
Ġsn atch
del ic
Ġpossess or
Ġpreced ence
enc ouragement
Ġeat ers
pur sued
Ġdouble t
Ġmour ners
Ġmour ned
pres erved
ref use
Ġmat ches
Ġtempt ations
36 2
Ġstation ary
Ġdimin ishing
Ġ* **
cr ime
Per dita
Ġcontempt ible
Ġcher ry
Ġcontent ment
AD E
Ġmild er
Ġmechan ics
Ġaut om
Ġsav ages
Ġvac ancy
ĠHam let
dep arted
Ġvers ion
Ġdu pe
cor rupt
Ġsimpl est
Ġfer ment
Ġnut s
Ġpin ched
tt ps
War ner
mel ted
ĠZ illah
Ġtum bling
Ġmerc antile
ĠXXX I
ĠXXX II
Ġstup idity
ĠGerman s
Ġgroan ing
mount ain
prob ability
arth ly
resist ibly
Ġsport ing
lay ing
neighbour ing
imag ined
Or leans
Ġdre ar
ĠCampbell s
ĠSy stem
jour ned
conduct ed
Ġblank et
Ġrapt ures
coll ar
ĠEn ough
conce al
ĠMark et
Ġclot he
fair ly
Ġprodig iously
mid st
Ġdefic iencies
determ ination
Ġembra cing
view s
whis per
Ġdraught s
ĠEug enie
Ġshew ing
ĠTra ve
Ġrail way
Ġscra ps
BER RY
hens ible
Ġgriev ous
Ġinstit uted
Ġdivers ion
Ġpomp ous
Ġvio lets
uv ius
Ġcoinc idence
ĠTurn er
propri ety
da ily
Ġturb ot
aston ished
Ġinsin uated
cloud s
Ġmoss y
Ġfr iction
Ġadjust ed
Ġagric ulture
Ġremonst rances
sum mon
Ġadvert isement
arrange ment
Ġinfam ous
nox ious
tend ency
crow d
Ġpew ter
Ġcircum ference
Ġspont aneously
Ġdefer red
Ġsoliloqu y
Wick ham
Ġunchan ged
Ġsimult aneously
Ġpite ous
WE EN
Bert ram
Ġsty led
ĠPriest ley
resem blance
Ġkenn el
ĠVes uvius
Ġcyl inder
ĠScript ure
ĠArgy le
ĠRa oul
alend ar
ĠPenn sylvania
ĠDalry mple
mante au
ĠAbra ham
inae um
ĠPsy che
Esp agnole
ianc ourt
ĠGreg ory
1 32
A ng
A IN
B reak
G G
G urth
H um
J une
M od
N ev
O ver
P shaw
P aris
R ose
R ice
R EN
S n
S it
S ure
T aylor
V Y
b en
c ke
c art
c ool
d il
d ain
d uties
e gg
f ol
f ailed
g rieved
h id
h ide
l an
l ric
l ater
m ates
p isto
p hysical
p apa
r t
r ide
s en
s wer
t aught
u ates
v ices
w reck
Ġt ack
Ġt ren
Ġt icket
Ġa kin
re lu
Ġw itt
Ġw ark
Ġb ough
Ġm os
Ġf ulness
Ġc od
Ġc ocked
Ġp as
Ġp iazz
Ġin ert
an a
Ġl udicrous
le af
ve rest
im per
Ġre very
Ġre ap
Ġre commenced
al ike
al ians
ir ms
ad ers
ĠM oody
ter ate
ter ror
Ġst rand
ra ine
ra gon
ĠT uck
ĠT ories
Ġsu cking
il ted
ke en
th irst
Ġmy th
Ġso ph
Ġde ll
Ġde composition
ĠH ermit
ĠC ast
ĠC UR
ĠC athedral
to ps
ĠB RO
Ġne c
Ġk ern
ac re
ĠW ine
ĠW his
ĠW oman
Ġsh ifting
ist ical
Ġcom ic
ĠL uck
ĠL ead
ol a
ĠP L
ĠP age
ĠP ER
Ġfe asts
un ner
ĠF ig
ĠF ool
ĠF ancy
Ġyour sell
Ġun civil
Ġun altered
Ġun successful
per sec
cc ane
pl ays
ĠHe ar
ĠR em
ĠR ue
ud geon
Ġdis similar
Ġout right
be hold
ĠN apoleon
Ġen o
Ġpl aster
Ġpre cession
Ġbr ist
ick er
Ġcha per
ap id
Ġbl asphe
wh olly
ue ville
Ġsc ow
Ġfl ask
li king
aw a
aw d
Ġtr ink
sh ook
Ġra ises
con ception
Ġsupp lying
Ġsupp lication
Ġ2 26
Ġac adem
ĠK itchen
ton ed
Ġbo ar
Ġem itted
Ġexp ort
Ġexp osing
Ġback ground
ib yl
Ġconf ound
Ġind ividually
Ġco g
Ġnight cap
Ġinde fatig
Ġinter change
Ġrel ieving
cha pter
Ġcar go
act ual
act orily
Ġte aring
Ġte aches
ia h
ĠTh ought
Ġequ alled
Ġinc ensed
ĠAr ound
Ġcr ash
Ġcop ious
wor ship
Ġsun ken
ets y
Ġchar coal
att ie
She pherd
Ġdisc ol
Ġmon sters
Ġsw ollen
Ġmer maid
Ġcol onel
Ġcold er
Ġunc overed
Ġeffect ive
Ġnecess ities
Ġprov incial
Ġdeath s
Ġson net
Ġbra wn
Ġcor k
Ġtem p
Ġpat ri
Ġmark ing
ĠJohn son
Ġed s
Ġlive lihood
ald in
Ġfin ery
ĠX LI
cont ents
ĠPro bably
Ġconv ulsion
Ġfra ught
wick ed
Ġglad es
inter val
Ġsto pt
rum p
sha ped
des ert
Ġesc orted
OU SE
Ġsleep y
Ġcommand er
Ġdem oc
Ġwood ed
iqu ity
Ġfla kes
Ġmot ley
Ġund aunted
tr oubles
arch y
Ġadvantage ously
Ġschool boy
Ġ7 9
11 2
11 5
ĠCha rolois
Ġ9 7
Ġpict ured
pri est
Ġrend ezvous
19 1
19 8
Ġciv illy
Ġstar ved
Ġdistingu ishable
jud ging
Ġburn s
Ġenter pr
Ġ10 9
Ã© r
12 4
12 6
Ġwid th
ĠWell s
Ġcapital ist
ĠXX V
ĠXX VI
Ġver tical
adv ance
quis ition
Ġsimilar ity
Ġgloom ily
Ġcheck ing
del iber
lo in
14 2
Ġmill iner
Ġess ay
Ġow l
34 7
reason ing
Ġ12 4
Ġaccompan iment
Ġbuy s
Ġnorth ward
bid den
Ġrepro ached
RO M
ĠEven ing
quar rel
ĠQu inion
poss ibility
compl aint
ĠChristian ity
pret ending
Ġho ary
point ing
Ġconceal ing
mis ery
Ġindic ation
Ġpill ar
bu y
princi pled
ĠGlen ny
inqu iries
Ġheir s
Ġpubl isher
consequ ences
ĠTempl ars
Ġmir acle
Ġfain ting
Ġwest ward
Ġhaz arded
ĠWor cester
ĠPo et
ĠPo ems
OO SE
ronom y
Ġtid al
Ġbull et
Ġrefresh ments
Ġemer gency
Ġsimmer ing
Ġcoo per
rog ative
Ġcred ulity
Ġgoss ips
Ġscore s
Ġta en
Ġslee ves
Ġremon strated
Ġquot ations
ĠSal ad
Ġornament al
Ġcavern s
Ġexagger ation
Ke ep
Ġthirst y
ĠNi agara
Ġcove t
Ġmast ered
olph us
Ġfet ched
hur ried
Ġdexter ous
access ible
Ġpeep ed
ĠLancast rians
Ã´ te
Ġoverwhel ming
Ġengra ved
pardon able
inno cence
Ġwink ed
sle e
ĠMir abel
Acc ording
Ġcurt sey
persu aded
Ġintox icated
Ġintox ication
result s
fool ish
Ġmatrim onial
Ġdispar ity
tim ed
Ġrip ened
ĠJer usalem
Ġaggra vated
ĠTax ation
Ġmathemat ical
ĠAra b
eleg ant
Ġagon izing
Ġinco herent
ĠVic omte
fright ened
ĠHot el
ĠAtt ie
Ġanom aly
parent s
Ġumbrell a
Happ y
Ġsalut ary
Ġamend ment
Ġdwar f
cru el
ĠHoll and
Ġencoun tering
vary ing
Ġpav ilion
Ġruth less
Ġcrav at
complac ency
Ġsult ry
interv als
Sever al
Ġhilar ity
ĠBET WEEN
Ġtruff les
Head long
Ã® tre
Ġrubb ish
lric a
relu ct
. *
A men
C ro
D uke
E llen
F ive
I mp
L ion
M E
M el
O G
P are
V er
V ernon
c us
c ote
c ule
d in
d rive
f ight
f asc
m ong
m ace
n onsense
p ike
r oused
s umm
t rain
t ouching
u a
u ir
x ham
y sm
Ġ urn
Ġ ........
Ġt enth
re venge
Ġs ow
Ġw ary
Ġw ailing
er ver
er don
ha ck
Ġb a
Ġb ass
Ġb ias
Ġf ills
Ġf ray
Ġf ritters
Ġc hatter
Ġto ll
es ies
Ġp orts
ar ity
Ġin ducing
at i
Ġd ome
Ġd wind
Ġh overed
Ġha n
Ġbe e
Ġe ats
st rang
st rain
Ġg ut
Ġg ull
ut most
im proved
Ġre igned
Ġre eling
Ġwh irling
ir resistible
et ra
Ġas ylum
ro bor
ĠM ack
Ġst ove
Ġst ations
ich o
Ġsa lly
ĠS il
ĠS ound
ĠS ong
ĠA ir
ĠA sp
our y
ĠH u
ĠH es
ĠH and
ĠH old
-- '
ĠC icero
em ing
em otions
ĠB uff
ĠB road
ĠW r
ĠW ight
ĠW orm
Ġsh ivered
ind ignation
Ġcom ments
ĠL ost
Ġup dated
ig ently
ig ration
end om
ĠF ire
ĠF ISH
Ġle apt
we ary
Ġun iting
Ġun ites
Ġun feeling
Ġun gracious
per y
Ġqu ote
pl anted
ĠD ist
ĠD ire
Ġag ility
Ġsp urred
ĠG re
ĠG immerton
ĠHe brew
Ġj er
ĠR ad
ĠR oll
ĠR ec
Ġdis astrous
be it
Ġsha fts
Ġgo blin
Ġgo blet
Ġpre tern
fe ars
Ġover came
de le
Ġbl ighted
Ġcomp ounded
Ġres ented
Ġsay ings
Ġgr otes
Ġgr umbling
Ġimp otent
Ġpe ach
Ġcons um
Ġret ribution
Ġlet t
Ġser f
su es
Ġsupp oses
air y
Ġever more
Ġpers ist
Ġ2 28
ob ol
Ġlight est
ĠSt ubmore
Ġappe ased
Ġfound ations
Ġbo ards
ĠIn quiry
He y
He ading
Ġhead long
Ġhouse keeping
Ġsl oping
sp oon
Ġconf ection
Ġinter l
Ġmar quis
Ġgu ile
But ter
by ter
rem ove
Ġround s
Ġtra its
Ġtra verse
par ish
ym our
arm ains
Ġel ucid
Ġaff lict
Ġ4 1
ank ind
ĠAs k
Ġconst raint
Ġsing er
Ġremem bers
peri ors
Ġ18 30
ĠBe au
sc attered
Ġ5 9
vel ocity
Ġplay er
Ġdra gging
Ġclear ness
Ġtem pers
Ġsecond ed
where ver
oc ations
Ġmil itia
Ġ6 2
ĠAl ways
more over
Ġir ons
ĠCl utterbuck
Ġsweet er
Ġimag ining
ĠWh inbury
Ġdraw back
Ġfig ur
Ġdep uty
Ġcoll ops
Ġbright ly
Ġbright ening
Ġwhis ky
light ened
Ġdescri ptions
Ġstra ining
na e
Ġtrem or
Ġstud ded
18 7
inc innat
Ġast ray
aff air
Ġvan ishes
has es
sec ured
sec urity
AL E
Ġschool master
Ġ7 6
bur nt
ĠKnight s
Ġoccur rences
Ġtreat ise
bel ieving
Ġpress es
Ġ9 5
Ġ9 9
Ġsal oon
ration al
ĠOld enbuck
Ġeight eenth
appoint ed
Ġrevol ted
exp osed
Ġsugg ests
Ġsick ened
ĠHar vey
Ġspeech less
Ġfurn ishes
Ġaston ish
Ġaccompl ice
Ġinterv ention
del ay
Ġprefer able
Ġstock s
Ġentertain ments
lo ves
Ġdism ount
Ġcivil ised
Ġevent ful
Ġmour ner
wind s
Ġ16 0
ĠPl ay
Ġamount ed
Ġprospect ive
Ġtall er
po etry
hel tenham
col ours
Ġbuy ers
Ġ14 2
mist ake
37 5
bar red
Ġtreas ury
Ġretreat ing
leg s
appro bation
tra vel
Ġdi abolical
respect ing
Ġfan atic
Ġmild ness
rec ord
Ġeconom ic
Ġcelebr ity
sus pect
pat ient
Ġanticip ating
ĠIrish man
ĠâĢĶâĢĶ .
wa ited
Ġvulgar ity
ĠFitz hugh
soon er
Ġcorrect ly
inqu ired
Ġdissol ution
Ġstead iness
Ġ35 7
Ġdiff idence
Ġinquire r
Ġard ently
Ġingen uous
rim ony
Ġfain ter
sa fety
Ġaccommod ations
ĠWor ks
anim ated
fin est
Ġdece ase
Ġfid dle
Ġfest ive
Ġinsult ing
fig ured
Ġgun powder
expl anation
Ġemer ging
mut ual
Ġped igree
Ġfret ting
Ġvap ours
human ity
Ġbetray ing
Ġdazz le
spo onsful
pract ical
deep ly
communic ated
ĠAlas co
ĠTra gedy
Ġtermin ate
Ġhistor ians
cipl ined
asse mbled
ĠCons erv
Ġexult ing
Ġfors aken
Ġenv oy
trave lling
Ġrebell ious
Ġlegisl ature
âĢĶ- "
Ġenlight en
ĠAust ralia
Ġcomplac ent
Mart ha
cloud ed
entertain ed
Ġpi geons
ĠAng lo
Ġfug itives
Ġancho vy
Ġtact ual
Ġpatriot ism
Ġpenit ence
prepar ations
Ġannihil ation
magnet ic
Ġbuff et
Adrian a
ĠPrecept ory
Ġpeevish ly
Ġawaken ing
Ġconver ts
prev ented
Ġemphat ic
breat hed
origin ally
ĠPleas ure
virt ue
Ġbatt les
ĠTax es
Ġconstitu ent
Ġmathemat ics
Ġprel ude
Ġinsect s
relig ious
Ġbou quet
ĠJor am
Ox ford
Ġbair n
Ġpil ot
wond ered
ĠEff orts
splend id
Ġgloss y
chand ise
myster ious
Ġexasper ated
ĠWel sh
Ġgram mar
ugn ance
TRODU CTION
ĠTor quil
toler ably
civ ility
Ġcarbon ate
Ġsinew y
Ġappell ation
ĠCOR POR
Ġpropos als
Row ena
Ġinsepar able
ĠLen nox
Ġpyram id
ĠBrid genorth
offic ers
Hart field
Ġsequest ered
Ġdiscons olate
' .
A g
A mory
B ed
C am
C all
C opyright
D is
D aw
F ine
G en
H ur
H out
M ER
R us
S w
S oon
a ust
e lder
f el
f itted
f ires
g iv
i kes
i enne
k ill
l ocks
m ings
n ants
n amed
s au
s outh
t all
t ious
t ired
t ete
u pp
u let
u eless
v iz
v ia
w ad
y rs
z ard
Ġt ents
Ġt ub
Ġt ension
Ġt arts
in ternal
Ġo m
Ġo re
Ġo ct
re conc
Ġs ippets
er ic
ou ri
is man
Ġb asted
on ic
Ġm it
Ġm ills
Ġf ie
Ġc ripp
es dale
Ġp otion
Ġp iles
Ġin du
Ġin most
Ġin expl
at um
at tain
Ġd up
Ġd oun
Ġl unch
Ġl yre
Ġhe eded
ic hes
le v
Ġbe re
Ġbe acon
Ġbe fallen
st ained
st uff
st yle
Ġg ill
Ġg ushed
Ġg ases
Ġg arnish
Ġth undered
Ġre e
al wart
Ġwas na
ay e
Ġas paragus
Ġhis sing
ro lling
ro asted
Ġwe ave
Ġan ce
ĠM ix
ĠM ucklebackit
Ġst ays
ĠT illy
ess ential
Ġme ats
th under
ĠS H
ĠS la
ĠS olar
ĠS ummer
ĠS ciences
ĠA P
ĠA ut
ĠA ch
Ġde acon
ĠB arlow
Ġne ared
Ġv ous
Ġv ist
Ġv ocation
nt y
Ġr asped
ĠW ild
ĠW ilt
.âĢĿ ]
ĠL akes
ie ces
Ġdo d
Ġdo se
ĠP ay
ĠP ra
ĠP rom
ĠP antaloon
out her
ne red
Ġfe at
ord in
ord ering
ven geance
ff ield
ĠF ur
ĠF aith
od d
ies cent
Ġun accustomed
Ġun speakable
Ġqu od
op ard
ass ist
ĠD um
ĠD ale
ĠD ante
Ġsp le
Ġsp ouse
Ġsp onge
ĠG landers
Ġad roit
Ġar du
Ġdis sent
Ġdis regarded
other mal
be arer
be held
ĠO cc
Ġob liter
Ġbr ougham
ĠJ u
ĠJ enn
ĠJ ean
int r
oll ey
?âĢĿ âĢĶ
Ġbl u
Ġbl unders
Ġgr ants
Ġgr idiron
ath s
ren cy
li ant
li keness
aw ett
aw ares
com pelled
Ġcons istence
bl ies
Ġcomm une
Ġcomm itting
Ġcomm union
con j
con ceive
ract icable
ener gy
su red
su itable
ĠV IS
Ġmen aced
ib ed
Ġsl ugg
Ġsl oven
sp ite
Ġend ing
Ġend ow
Ġco vert
Ġext ricate
co ast
Ġreg al
Ġreg ister
any where
Ġadv iser
Ġcur b
pro ducing
pr it
pr udence
Ġinf ected
Ġtra versing
Ġsuff erers
cri bing
ĠLord ship
Ġrec urred
Ġsim ile
ning ton
og s
part ed
ung ing
Ġsw ind
Ġsw oon
az ed
app et
Ġins ight
ĠSc arlet
Ġ18 35
Ġgre edy
sc arce
ON DON
dis hes
Ġbra vest
ĠFor give
Ġcor al
Ġcor rection
Ġpurp ort
Ġpa ved
ec ided
Ġpat ting
add ock
ĠAl ready
Ġbu zz
Ġremark ing
Ġsweet bread
Ġ8 1
Ġsoft est
ĠPro gress
ĠWh it
Ġcast s
Ġcompan ies
Ġsla p
Ġvol uptuous
Ġfur iously
rit able
should ers
bo ats
IT E
Ġfoot ball
Wh om
imp ulse
Ġstud ious
âĢĶâĢĶ ,
18 0
Ġspo ilt
inc ident
Ġdepend ant
Ġforget ful
ĠMac beth
Ġ7 4
see king
An n
Ġ9 2
Ġfirm ament
Ġport ly
Ġport manteau
ĠHigh gate
Ġimm ersed
Ġpleasant est
Ġdrink s
19 0
19 2
rep ent
rep ose
Ġpra irie
inst it
15 8
17 5
ĠHar old
Ġod orous
Ġweight s
Ġprepar atory
12 1
Ġpersu ading
ĠXX VII
ĠSm all
Ġrid den
Ġhero ism
Ġma ist
Ġexceed s
Ġbank ing
RA M
16 2
cur ious
Ġcool ing
ĠHarriet t
ox ysm
RI ED
van ished
fam ous
Ġcab b
ĠMan or
Ġcloth s
ĠIN TER
Ġadvent urous
oqu y
Ġrad ii
Ġluck less
Ġbill et
sent ence
Ġsli pping
Ġunf air
hast e
Ġsubs ist
Ġsubs cribed
Ġcomposed ly
ange red
question ed
Ġcapt ure
esc aped
Ġ27 1
Com mons
ĠVal ues
ĠVal uable
Ġprejud iced
Ġstrict est
Ġrestless ly
Ġspecul ative
Ġstout ly
Ġassist ants
ĠFitz william
Ġswell s
Ġadmire rs
Ex cept
Ġleisure ly
Ġjest ing
Ġkins men
consequ ent
Ġpack ed
pert ies
Nor th
Ġstup or
ĠMe g
proper ly
stri pped
Ġsadd ened
ĠLanc ashire
Ġwhist led
dest ro
Ġshed ding
Ġharsh ly
lim ited
cip ient
post s
Ġinsens ibility
Ġfil m
prov ision
Ġtort ures
sk irts
Ġprofess ing
Ġprofess ors
mut tered
Ġshru bbery
Ġcred ulous
bod ied
Ġsen ate
subst antial
Ġchimney s
ca used
Ġhem med
class es
Ġchival rous
plan ets
Ġwoo llen
Ġchat tering
Ġlob sters
soft ened
Har ry
Ġbaff le
Ġaccum ulation
Ġneigh bors
ĠBu ying
Ġrecur ring
Ġmole cular
Ġpeasant ry
Ġaccus er
Ġchallen ged
Ġsanct ity
Ġquad rangle
Ġetern ally
Ġhypoc ritical
Ġasp iring
Ġtransl ation
Ġparam ount
Ġtransport ation
ĠEve lyn
Ġforfe ited
Ġvind ictive
distinct ly
Ġvi ands
ĠMa ister
ĠChan cellor
ĠLock hard
Ġnegl igent
Ġmonot ony
Ġju ices
Ġperse vered
ĠGeorg iana
Ġdissip ated
Ã¢ te
Ġfag got
Ġvag abond
ĠDiv ine
ĠCovent ry
gaz e
ĠRuth ven
rolo ger
Ġsurpri zed
Ġinterpret ation
Ġdenomin ated
ĠSlow boy
Ġintu itive
Ġvolcan ic
dwell ing
Ġillum ination
transm itted
ĠSl udge
Ġalche mist
maj or
Ġwither ing
beha viour
ĠBarn es
Ġalt ars
ĠRuss ia
enthus iasm
ĠMos chus
indust ry
disco very
Mus grove
ĠProtection ism
perman ent
Ġaus pices
ĠSold ier
Ġscre ened
ĠIntell ect
clergy man
Ġorth odox
Ġconfed er
ĠChronic le
ĠCoun cil
Ġapprehens ive
ĠWyn ne
Ġbalcon y
Ġlugg age
REN CH
Ġindefatig able
obol ant
ĠCORPOR AL
, ]
2 39
3 00
A TO
B u
B en
B ring
F riend
G r
J AMIN
L OW
N O
O ff
P OT
P repare
R ich
R os
S y
T ENTS
V ittie
a gh
a illes
b ust
b owed
b rief
b augh
c ies
e get
f id
f ated
f ited
g ust
g un
i ators
k ened
n ically
p oured
p uddings
r atch
s ons
t it
t was
w et
z er
Ġt amed
Ġa il
Ġa right
Ġa float
in i
Ġo val
re v
re fra
Ġw ain
ou x
it ates
Ġb ir
Ġb ard
Ġb itt
Ġb ismuth
on a
Ġm um
Ġf ost
Ġf rust
Ġc ess
Ġc ran
Ġc ope
Ġc yp
Ġto ol
Ġp ith
Ġp aw
Ġin sufficient
Ġin adequate
Ġd ancers
an agan
as hamed
Ġh ose
Ġl oth
Ġl uc
Ġl ank
Ġhe al
Ġhe eding
Ġbe fall
Ġbe fell
Ġe bb
Ġe got
Ġg ush
Ġg rop
Ġg ushing
Ġg aming
ut ting
im us
Ġre viving
al arm
ir ons
ay ing
ro de
âĢĻ -
Ġwe aver
ri ev
ĠM ust
ĠM ol
ĠM ister
ĠM aple
Ġst ile
Ġsa mple
il ated
qu itted
th red
ĠS oul
am en
Ġse ating
Ġse vered
Ġor b
pe as
ĠA ction
the ning
ĠH ist
ĠH ann
ĠC old
ĠC ustom
ĠC ynthia
est owe
ĠB A
ĠB rand
ĠB ray
ĠB astard
Ġall ev
Ġk ingly
ac han
Ġcom forter
ĠL u
ĠL ectures
ĠL iancourt
ive rer
Ġdo ff
ĠP ale
ong ru
Ġfe asted
ord an
la ke
un able
ĠF OWL
we ighed
Ġab ject
Ġun ison
Ġun familiar
Ġun willingly
are l
pl enty
ĠD omin
ĠG E
ĠG ay
ĠG ene
ĠG aunt
Ġad oration
ab rupt
ĠR ing
Ġdis close
fore head
Ġout set
Ġfa ulty
Ġtw ist
for cing
iss ors
Ġpl umes
Ġpre fers
ves sel
Ġpr one
Ġch ops
int ensity
Ġcha ined
Ġcha ste
Ġover took
Ġover shad
Ġbl asted
Ġhand ling
Ġdid na
Ġres ounded
Ġres pite
Ġsm itten
Ġcont ention
Ġfl ank
Ġfl ickering
Ġpres iding
Ġcons ume
Ġap ost
bl oom
Ġear ning
Ġwhere by
Ġsupp orters
ser ving
Ġadd icted
Ġ2 23
Ġlight ened
ĠV an
ĠSt ory
ĠSt aff
ĠSt rat
ĠK ar
Ġfound er
rest rained
Ġhar assed
ict itious
Ġchan nels
sp ur
Ġlo it
Ġlo vest
av al
read ily
Ġ3 44
Ġche ery
Ġrest ra
Ġgu ise
Ġhon ourably
Ġreg ener
Ġte legraph
ĠĠĠĠĠĠĠĠĠĠĠĠĠĠĠĠ ĠĠĠĠĠĠĠĠĠĠĠĠĠĠĠĠĠ
Ġbest owing
Ġinf inity
Ġequ inoctial
Ġhum ili
Ġinc ense
Ġcirc ulating
Ġbro om
br ic
Ġart fully
stand ard
Ġdec ently
Ġmod ifications
og ne
gr ate
mon op
Ġsk irm
Ġsens ual
Ġconst able
Ġcommon est
Ġmis pr
ific antly
ĠBe hold
Ġdev oured
Ġpurp osed
oc ities
uct ive
ĠMar ley
ĠWar lock
Ġchange ful
Ġpat rons
Ġbar ley
Ġ6 8
Ġ6 9
add y
ĠAl most
cell ency
ĠCl ass
Ġsoci eties
Ġsweet en
ĠAd v
Ġ8 6
law ful
Th orn
Th row
Ġanx ieties
vol ume
ĠPe el
Ġbutter fly
Ġthick er
Ġfur row
Ġlaugh ingly
Ġeff em
Ġemploy ments
Ġclass ed
ĠBl en
Wh ose
OU T
Ġdut iful
Ġgreen backs
Ġimpro ves
St ate
St rip
18 1
Ġfla x
Ġund ulatory
dist ress
ception able
kind ly
Ġdepart ing
Ġast rologer
Ġinstant aneous
ĠCom p
char ming
AL F
Ġbound aries
Ġpeace able
Ġoccur ring
Ġgrat uitous
think s
Ġphys icians
IL E
cle ver
Ġdemand ing
rep utation
Be ing
ĠCount y
20 1
20 8
Ġmusic ians
Ġwitness ing
inst inct
LE Y
12 2
12 9
ĠXX VIII
Ġqual ifications
Ġrid dle
sol id
Ġcat alogue
rie ve
sing ing
whe el
Ġfill ets
bell s
fit ure
13 5
13 6
del icious
Let ter
Ġyield s
Ġstock ing
Ġserious ness
vis itor
Ġinn ate
Ġbirth day
Ġexper t
reason ably
Ġstro lling
van ity
Ġsuspect ing
35 9
Ġrepresent atives
wo ven
37 4
Ġillust rations
Ġgle aming
26 5
mean while
ĠQu in
ĠQu ite
Ġ19 0
Mar ion
Ġpred ile
bus y
tem porary
brother s
erk shire
Ġbehold ing
ĠVal uables
ĠGra hame
Ġnarr ation
Ġestablish ments
ĠLaw s
care er
yl on
Ġ36 3
Ġextrem es
strong ly
Ġloose ly
pir ation
Ġdiff usion
Ġdismiss al
mo ving
cross ing
Ġreject ion
Ġadventure rs
Ġflo ors
Ġgla ze
ĠAthen ians
Ġhal ting
dest ruction
Ġ37 0
Ġharsh ness
Ġbag gage
Ġabund antly
Ġz est
Ġcompet itors
Ġhun ters
Ġhed ges
Ġautumn al
ĠRos so
Every thing
Every body
ĠDan iel
Ġimperfect ion
philosop h
tar iff
Ġshrewd ness
Ġtext ure
Ġfel on
Ġwing ed
employ ment
Ġresc ued
AK ED
aver ley
ĠMat thew
Fair fax
Fair oaks
need le
mur m
ĠBed os
BER T
gold en
Ġdiss olute
Ġpersec uted
Ġscept re
Ġcourte ously
Ġfors ook
enjoy ed
65 42
Ġsul ph
Ġsine ws
Ġcondescend ing
depend ence
Ġscold ed
Ġhighway man
Ġrav ine
Ġminstrel s
Ġconvuls ions
Ġconvuls ively
Ġextract s
fold ed
Ġtram pled
Ġmoan ing
Ġparam agnetic
Ġachieve ment
accept ed
Ġbond age
Ġferv ently
liqu id
ĠCOM MON
Ġign omin
strugg le
Ġaspir ations
Ġspar ingly
Ġapric ots
NE Y
OLD S
Ġcommend ation
Ġinex orable
Ġmiser ably
iast ical
disturb ing
pos itive
Ġarrog ant
Ġsimult aneous
Ġcompens ate
relig ion
Ġpiqu ed
Ġswim ming
Ġstealth y
Ġmultip ly
Ġgips y
Ġdespot ism
Ġremot est
ĠVis count
ĠBac chus
extrem ity
ĠBene ath
Ġinduct ive
Ġerrone ous
Dou sterswivel
decla red
Ġurch in
ĠBEN JAMIN
Ġbuoy ant
Ġjourn als
Ġinnoc ently
Ġimpenet rable
Ġharang ue
Ġdiscol oured
ĠWorm wood
giv ings
Ġardu ous
? )
A W
A c
A weel
B read
B ah
F in
F ill
G old
G laucus
J ack
K S
L abor
M al
M ean
N ight
R od
S ally
T em
T ilney
V ENT
W ater
W OR
W ARRAN
b ought
b bling
c ab
c rew
d ise
d ict
d arling
e at
e aten
f o
f ering
f illing
f ailing
f iend
g or
g ling
h urst
i pper
i ards
l ust
l ard
l ane
m ast
m akers
m asses
n ob
n ative
o onsful
p ion
p ull
p rem
p apers
p olic
p overty
r d
s in
s ar
s ne
s ky
t al
w ants
Ġt ab
Ġt ank
Ġa qu
[...]
