{"<s>":0,"<pad>":1,"</s>":2,"<unk>":3,"<mask>":4,"!":5,"\"":6,"#":7,"$":8,"%":9,"&":10,"'":11,"(":12,")":13,"*":14,"+":15,",":16,"-":17,".":18,"/":19,"0":20,"1":21,"2":22,"3":23,"4":24,"5":25,"6":26,"7":27,"8":28,"9":29,":":30,";":31,"<":32,"=":33,">":34,"?":35,"@":36,"A":37,"B":38,"C":39,"D":40,"E":41,"F":42,"G":43,"H":44,"I":45,"J":46,"K":47,"L":48,"M":49,"N":50,"O":51,"P":52,"Q":53,"R":54,"S":55,"T":56,"U":57,"V":58,"W":59,"X":60,"Y":61,"Z":62,"[":63,"\\":64,"]":65,"^":66,"_":67,"`":68,"a":69,"b":70,"c":71,"d":72,"e":73,"f":74,"g":75,"h":76,"i":77,"j":78,"k":79,"l":80,"m":81,"n":82,"o":83,"p":84,"q":85,"r":86,"s":87,"t":88,"u":89,"v":90,"w":91,"x":92,"y":93,"z":94,"{":95,"|":96,"}":97,"~":98,"¡":99,"¢":100,"£":101,"¤":102,"¥":103,"¦":104,"§":105,"¨":106,"©":107,"ª":108,"«":109,"¬":110,"®":111,"¯":112,"°":113,"±":114,"²":115,"³":116,"´":117,"µ":118,"¶":119,"·":120,"¸":121,"¹":122,"º":123,"»":124,"¼":125,"½":126,"¾":127,"¿":128,"À":129,"Á":130,"Â":131,"Ã":132,"Ä":133,"Å":134,"Æ":135,"Ç":136,"È":137,"É":138,"Ê":139,"Ë":140,"Ì":141,"Í":142,"Î":143,"Ï":144,"Ð":145,"Ñ":146,"Ò":147,"Ó":148,"Ô":149,"Õ":150,"Ö":151,"×":152,"Ø":153,"Ù":154,"Ú":155,"Û":156,"Ü":157,"Ý":158,"Þ":159,"ß":160,"à":161,"á":162,"â":163,"ã":164,"ä":165,"å":166,"æ":167,"ç":168,"è":169,"é":170,"ê":171,"ë":172,"ì":173,"í":174,"î":175,"ï":176,"ð":177,"ñ":178,"ò":179,"ó":180,"ô":181,"õ":182,"ö":183,"÷":184,"ø":185,"ù":186,"ú":187,"û":188,"ü":189,"ý":190,"þ":191,"ÿ":192,"Ā":193,"ā":194,"Ă":195,"ă":196,"Ą":197,"ą":198,"Ć":199,"ć":200,"Ĉ":201,"ĉ":202,"Ċ":203,"ċ":204,"Č":205,"č":206,"Ď":207,"ď":208,"Đ":209,"đ":210,"Ē":211,"ē":212,"Ĕ":213,"ĕ":214,"Ė":215,"ė":216,"Ę":217,"ę":218,"Ě":219,"ě":220,"Ĝ":221,"ĝ":222,"Ğ":223,"ğ":224,"Ġ":225,"ġ":226,"Ģ":227,"ģ":228,"Ĥ":229,"ĥ":230,"Ħ":231,"ħ":232,"Ĩ":233,"ĩ":234,"Ī":235,"ī":236,"Ĭ":237,"ĭ":238,"Į":239,"į":240,"İ":241,"ı":242,"Ĳ":243,"ĳ":244,"Ĵ":245,"ĵ":246,"Ķ":247,"ķ":248,"ĸ":249,"Ĺ":250,"ĺ":251,"Ļ":252,"ļ":253,"Ľ":254,"ľ":255,"Ŀ":256,"ŀ":257,"Ł":258,"ł":259,"Ń":260,"Ġt":261,"he":262,"Ġa":263,"in":264,"Ġthe":265,"Ġo":266,"re":267,"Ġs":268,"Ġw":269,"nd":270,"er":271,"ou":272,"ĠĠ":273,"ha":274,"it":275,"is":276,"Ġb":277,"on":278,"ed":279,"Ġm":280,"en":281,"Ġof":282,"Ġf":283,"âĢ":284,"Ġc":285,"Ġand":286,"Ġto":287,"or":288,"es":289,"ing":290,"Ġp":291,"ar":292,"ll":293,"Ġin":294,"at":295,"Ġd":296,"an":297,"as":298,"Ġh":299,"Ġl":300,"Ġhe":301,"Ġn":302,"om":303,"Ġha":304,"ic":305,"le":306,"Ġbe":307,"ĠI":308,"ot":309,"hat":310,"Ġe":311,"st":312,"ion":313,"ve":314,"Ġg":315,"se":316,"ut":317,"ow":318,"ly":319,"ĠĠĠĠ":320,"ce":321,"ent":322,"ld":323,"im":324,"Ġth":325,"id":326,"Ġy":327,"gh":328,"Ġre":329,"al":330,"Ġit":331,"ith":332,"Ġwh":333,"ver":334,"Ġthat":335,"ir":336,"et":337,"Ġwas":338,"ay":339,"Ġyou":340,"Ġon":341,"Ġas":342,"Ġwith":343,"ur":344,"Ġfor":345,"Ġhis":346,"ct":347,"âĢľ":348,"Ġu":349,"âĢĿ":350,"ad":351,"ro":352,"her":353,"ght":354,"Ġis":355,"âĢĻ":356,"Ġwe":357,"ri":358,"Ġnot":359,"Ġher":360,"Ġan":361,"ĠM":362,"ter":363,"ch":364,"Ġst":365,"ra":366,"ould":367,"ĠT":368,"ĠĠĠĠĠ":369,"Ġat":370,"ich":371,"ill":372,"oo":373,"if":374,"Ġsa":375,"Ġhad":376,"ess":377,"Ġme":378,"Ġsu":379,"red":380,"and":381,"il":382,"Ġwhich":383,"ain":384,"ke":385,"qu":386,"th":387,"âĢĶ":388,"Ġmy":389,"ore":390,"ĠS":391,"am":392,"Ġse":393,"Ġor":394,"rom":395,"pe":396,"Ġso":397,"Ġby":398,"Ġhave":399,"ul":400,"ĠA":401,"the":402,"ation":403,"our":404,"all":405,"Ġhim":406,"Ġde":407,"ge":408,"Ġcon":409,"res":410,"ĠH":411,"ight":412,"--":413,"Ġbut":414,"Ġshe":415,"Ġfrom":416,"ble":417,"ome":418,"ĠC":419,"est":420,"pp":421,"Ġex":422,"to":423,"ĠâĢľ":424,"us":425,"em":426,"ĠB":427,"art":428,"very":429,"Ġall":430,"Ġne":431,"Ġv":432,"ĠThe":433,"Ġk":434,"nt":435,"Ġthis":436,"ac":437,"ant":438,"ate":439,"lf":440,"Ġsaid":441,"ous":442,"Ġwhe":443,"Ġr":444,"ust":445,"ĠW":446,"Ġsh":447,"ist":448,"ind":449,"han":450,"ers":451,"Ġwho":452,"Ġare":453,"um":454,"os":455,"ard":456,"ect":457,"ast":458,"el":459,".âĢĿ":460,"Ġcom":461,"ĠL":462,"Ġno":463,"Ġwere":464,"ort":465,"ol":466,"Ġup":467,"ie":468,"ood":469,"ive":470,"Ġman":471,"ity":472,"ound":473,"Ġdo":474,"ĠP":475,"one":476,"out":477,"pt":478,"ong":479,"ne":480,"Ġal":481,",âĢĿ":482,"Ġthey":483,"ure":484,"Ġone":485,"Ġthem":486,"Ġwill":487,"ĠMr":488,"Ġpro":489,"Ġfe":490,"ord":491,"ough":492,"self":493,"Ġwould":494,"la":495,"ak":496,"ven":497,"ost":498,"Ġbeen":499,"Ġtheir":500,"ff":501,"ĠE":502,"ig":503,"un":504,"itt":505,"ine":506,"end":507,"ther":508,"ance":509,"ry":510,"Ġmore":511,"Ġli":512,"Ġwhen":513,"ĠF":514,"ence":515,"Ġle":516,"od":517,"now":518,"able":519,"ved":520,"Ġyour":521,"we":522,"ook":523,"Ġab":524,"ies":525,"Ġvery":526,"reat":527,"ag":528,"Ġif":529,"Ġun":530,"Ġany":531,"per":532,"au":533,"ose":534,"cc":535,"Ġam":536,"Ġthere":537,"Ġthan":538,"Ġqu":539,"are":540,"op":541,"ck":542,"ass":543,"pl":544,"The":545,"ice":546,"ĠD":547,"of":548,"ment":549,"ond":550,"hed":551,"ish":552,"Ġag":553,"Ġwor":554,"ress":555,"ide":556,"Ġsp":557,"ĠĊ":558,"ĠG":559,"Ġcould":560,"Ġad":561,"ĠHe":562,"Ġcan":563,"ake":564,"Ġj":565,"ab":566,"ĠR":567,"Ġwhat":568,"ci":569,"Ġother":570,"Ġsome":571,"ud":572,"Ġim":573,"Ġar":574,"Ġinto":575,"me":576,"Ġdis":577,"'s":578,"other":579,"fore":580,"ire":581,"Ġus":582,"own":583,"ame":584,"urn":585,"Ġout":586,"wn":587,"be":588,"te":589,"Ġper":590,"ions":591,"ng":592,"ime":593,"Ġknow":594,"ove":595,"âĢĺ":596,"ite":597,"ather":598,"uch":599,"Ġsha":600,"Ġour":601,"ink":602,"ought":603,"ally":604,"ĠĠĠĠĠĠĠĠ":605,"ary":606,"ber":607,"ru":608,"Ġpart":609,"Ġfa":610,"Ġmay":611,"ount":612,"ĠO":613,"Ġshould":614,"Ġhas":615,"ittle":616,"ree":617,"Ġnow":618,"Ġro":619,"ful":620,"age":621,"ĠN":622,"Ġits":623,"ep":624,"ated":625,"ade":626,"Ġtw":627,"Ġen":628,"ings":629,"ays":630,"Ġmust":631,"ving":632,"for":633,"iss":634,"ran":635,"ile":636,"hing":637,"Ġgo":638,"ars":639,"Ġlittle":640,"Ġpl":641,"ied":642,"Ġ1":643,"Ġpre":644,"Ġupon":645,"ady":646,"ious":647,"fter":648,"Ġtime":649,"ness":650,"Ġcl":651,"tain":652,"ves":653,"ack":654,"ell":655,"Ġob":656,"Ġbr":657,"Ġlike":658,"Ġthen":659,"Ġpr":660,"Ġsuch":661,"Ġmuch":662,"Ġtoo":663,"Ġgood":664,"nder":665,"Ġgreat":666,"ach":667,"Ġsee":668,"Ġch":669,"Ġonly":670,"Ġown":671,"Ġpo":672,"ick":673,"ĠJ":674,"int":675,"Ġlook":676,"man":677,"fe":678,"Ġcha":679,"ark":680,"Ġover":681,"Ġhow":682,"his":683,"de":684,"ĠIt":685,"oll":686,"ap":687,"?âĢĿ":688,"Ġbl":689,"wh":690,"Ġhand":691,"ty":692,"old":693,"Ġcomp":694,"!âĢĿ":695,"Ġrem":696,"Ġabout":697,"ise":698,"Ġbefore":699,"led":700,"ife":701,"Ġagain":702,"ull":703,"Ġwell":704,"ward":705,"ily":706,"ons":707,"Ġdid":708,"Ġbet":709,"that":710,"not":711,"Ġtwo":712,"cl":713,"anc":714,"Ġres":715,"Ġnever":716,"Ġsay":717,"Ġthink":718,"Ġ(":719,"You":720,"Ġsm":721,"Ġdes":722,"oy":723,"ue":724,"Ġafter":725,"Ġthr":726,"pect":727,"Ġmade":728,"Ġthese":729,"Ġsc":730,"ĠBut":731,"irst":732,"Ġgr":733,"ens":734,"Ġmight":735,"Ġacc":736,"ps":737,"ject":738,"ĠĠĠ":739,"right":740,"ouse":741,"Ġevery":742,"Ġlong":743,"Ġoff":744,"hen":745,"Ġeven":746,"but":747,"ild":748,"Ġcont":749,"ath":750,"ations":751,"Ġfl":752,"ren":753,"Ġimp":754,"orn":755,"Ġold":756,"li":757,"Ġpe":758,"Ġdist":759,"Ġye":760,"riend":761,"aw":762,"igh":763,"Ġmost":764,"so":765,"Ġspe":766,"less":767,"Ġthought":768,"Ġatt":769,"ave":770,"oss":771,"com":772,"Ġpres":773,"Ġunder":774,"Ġbeing":775,"leas":776,"ever":777,"Ġhimself":778,"Ġcons":779,"Ġpass":780,"Ġfirst":781,"Ġap":782,"ced":783,"Ġgl":784,"Ġtr":785,"ign":786,"Ġseem":787,"Ġey":788,"ction":789,",--":790,"Ġday":791,"Ġaw":792,"ft":793,"bl":794,"alk":795,"ĠShe":796,"Ġ\"":797,"ition":798,"med":799,"ĠAnd":800,"Ġwork":801,"Ġear":802,"Ġwithout":803,"sh":804,"Ġcomm":805,"with":806,"ible":807,"Ġdown":808,".\"":809,"Ġra":810,"con":811,"oth":812,"Ġshall":813,"Ġret":814,"ip":815,"Ġyoung":816,"Ġfriend":817,"lace":818,"Ġthose":819,"Ġ'":820,"ried":821,"Ġwhere":822,"Ġlet":823,"iv":824,"ffect":825,"Ġent":826,"ted":827,"Ġapp":828,"Ġsame":829,"gg":830,"Ġbel":831,"Ġ_":832,"Ġser":833,"Ġgent":834,"ract":835,"ause":836,"Ġmind":837,"ener":838,"omet":839,"ined":840,"Ġthrough":841,"ret":842,"les":843,"ertain":844,"ans":845,"ner":846,"ened":847,"ĠâĢĺ":848,"Ġthough":849,"ĠMiss":850,"su":851,"ered":852,"Ġmake":853,"Ġlife":854,"ited":855,"ory":856,"Ġyet":857,"Ġfeel":858,"ĠMrs":859,"ix":860,"ms":861,"Ġsupp":862,"Ġsub":863,"air":864,"Ġway":865,"Ġmany":866,"Ġheart":867,"Ġcount":868,"Ġever":869,"Ġcome":870,"Ġbec":871,"ser":872,"Ġadd":873,"ither":874,"Ġwr":875,"Ġlast":876,"get":877,"ical":878,"ual":879,"ex":880,"ared":881,"Ġpers":882,"ult":883,"ince":884,"row":885,"its":886,"mer":887,"land":888,"cept":889,"du":890,"ock":891,"ished":892,"Ġpleas":893,"ower":894,"Ġword":895,"Ġgra":896,"ase":897,"Ġturn":898,"iz":899,"Ġlove":900,"atter":901,"ang":902,"Ġstill":903,"ates":904,"Ġ2":905,"you":906,"hes":907,"ob":908,"Ġlight":909,"ĠV":910,"ways":911,"Ġop":912,"ents":913,"Ġcall":914,"Ġac":915,"Ġke":916,"ĠSt":917,"Ġrep":918,"Ġmen":919,"ular":920,"ple":921,"Ġappe":922,"Ġdif":923,"ĠK":924,"Ġhere":925,"Ġnat":926,"ces":927,"Ġfound":928,"ton":929,"cei":930,"Ġjust":931,"Ġhalf":932,"Ġbo":933,"Ġinst":934,"Ġfather":935,"Ġem":936,"vers":937,"ace":938,"ĠIn":939,"Ġwat":940,"Ġexp":941,"Ġsec":942,"And":943,"aking":944,"aid":945,"He":946,"Ġwhile":947,"Ġhead":948,"aster":949,"up":950,"Ġreturn":951,"ors":952,"It":953,"Ġhouse":954,"rest":955,"Ġplace":956,"cess":957,"Ġhar":958,"Ġhapp":959,"ian":960,"Ġback":961,"ib":962,"osed":963,"ial":964,"Ġset":965,"ER":966,"Ġtake":967,"Ġcame":968,"Ġans":969,"ody":970,"which":971,"Ġgentle":972,"sel":973,"Ġmin":974,"Ġeyes":975,"Ġsl":976,"ĠYou":977,"Ġnew":978,"here":979,"ope":980,"ollow":981,"Ġhour":982,"hy":983,"ict":984,"ged":985,"was":986,"Ġchan":987,"ked":988,"most":989,"sp":990,"Ġcour":991,"imes":992,"Ġsomet":993,"Ġkind":994,"ten":995,"ently":996,"fort":997,"Ġbeg":998,"Ġaway":999,"Ġworld":1000,"Ġlo":1001,"lect":1002,"Ġocc":1003,"Ġalways":1004,"Ġgive":1005,"cy":1006,"Ġwhom":1007,"und":1008,"Ġconf":1009,"Ġpur":1010,"Ġter":1011,"Ġnothing":1012,"av":1013,"Ġend":1014,"Ġput":1015,"Ġind":1016,"Ġco":1017,"iness":1018,"ins":1019,"wards":1020,"Ġref":1021,"Ġeach":1022,"ale":1023,"Ġnight":1024,"Ġonce":1025,"Ġseemed":1026,"read":1027,"Ġbetter":1028,"Ġmom":1029,"Ġsaw":1030,"ense":1031,"Ġ3":1032,"Ġthree":1033,",âĢĻ":1034,"unt":1035,"ĠU":1036,"ired":1037,"Ġext":1038,"Ġinde":1039,"Ġsoon":1040,"Ġanother":1041,"oice":1042,"Ġinte":1043,"Ġless":1044,"Ġsmall":1045,"Ġsur":1046,"Ġinter":1047,"Ġche":1048,"co":1049,"Ġgener":1050,"Ġthou":1051,"Ġleft":1052,"ween":1053,"aut":1054,"ield":1055,"ron":1056,"rent":1057,"Ġpresent":1058,"Ġgi":1059,"aught":1060,"Ġrel":1061,"Ġfar":1062,"Ġrest":1063,"ĠIf":1064,"Ġread":1065,"ks":1066,"ason":1067,"cha":1068,"Ġmar":1069,"Ġgu":1070,"Ġdel":1071,"ople":1072,"Ġint":1073,"Ġposs":1074,"Ġexc":1075,"ail":1076,"Ġdear":1077,"Ġwant":1078,"arn":1079,"Ġtell":1080,"Ġhon":1081,"rew":1082,"Ġfam":1083,"thing":1084,"Ġwom":1085,"Ġchild":1086,"ised":1087,"new":1088,"elt":1089,"ety":1090,"Ġright":1091,"Mr":1092,"Ġface":1093,"Ġcar":1094,"ately":1095,"act":1096,"ĠWe":1097,"Ġreg":1098,"Ġbelie":1099,"ister":1100,"Ġte":1101,"Ġname":1102,"der":1103,"Ġquite":1104,"Ġmoment":1105,"my":1106,"Ġsil":1107,"Ġwent":1108,"But":1109,"Ġfew":1110,"haps":1111,"by":1112,"Ġwhole":1113,"irc":1114,"rem":1115,"Ġcertain":1116,"ia":1117,"any":1118,"Ġadv":1119,"Ġhome":1120,"Ġev":1121,"Ġvis":1122,"Ġpoor":1123,"Ġheard":1124,"uth":1125,"ute":1126,"Ġfollow":1127,"Ġcur":1128,"night":1129,"Ġsir":1130,"ax":1131,"ude":1132,"ĠY":1133,"Ġdon":1134,"pro":1135,"ĠĠĠĠĠĠĠĠĠĠĠĠĠĠĠĠ":1136,"Ġroom":1137,"men":1138,"ments":1139,"ny":1140,"raw":1141,"Ġmyself":1142,"Ġlooked":1143,"ene":1144,"Ġlaw":1145,"Ġcle":1146,"Ġcare":1147,"ting":1148,"oub":1149,"ating":1150,"ool":1151,"Ġfell":1152,"ances":1153,"Ġdone":1154,"ĠSir":1155,"ĠTh":1156,"pr":1157,"Ġboth":1158,"Ġbetween":1159,"Ġbest":1160,"ressed":1161,"den":1162,"Ġseen":1163,"Ġthy":1164,"Ġrather":1165,"ss":1166,"ĠThere":1167,"oon":1168,"Ġinf":1169,"ures":1170,"Ġact":1171,"Ġperson":1172,"Ġfull":1173,"Ġagainst":1174,"Ġfind":1175,"Ġhaving":1176,"Ġste":1177,"Ġmother":1178,"Ġround":1179,"selves":1180,"ney":1181,"Ġform":1182,"Ġnear":1183,"Ġhear":1184,"ling":1185,"Ġherself":1186,"Ġequ":1187,"ider":1188,"Ġsat":1189,"gether":1190,"ched":1191,"Ġcannot":1192,"ĠEng":1193,"ĠThey":1194,"Ġtook":1195,"ities":1196,"Ġhope":1197,"Ġthing":1198,"Ġindeed":1199,"Ġass":1200,"Ġwhose":1201,"Ġpeople":1202,"Ġobser":1203,"ern":1204,"ention":1205,"Ġget":1206,"ph":1207,"Ġstr":1208,"Ġtra":1209,"orning":1210,"fect":1211,"Ġtru":1212,"plied":1213,",\"":1214,"Ġsince":1215,"ger":1216,"Ġtill":1217,"Ġdoor":1218,"Ġsuff":1219,"Ġhum":1220,"Ġpoint":1221,"Ġnor":1222,"cri":1223,"Ġaffect":1224,"Ġhowever":1225,"Ġinc":1226,"ably":1227,"Ġhands":1228,"ane":1229,"ĠAr":1230,"rence":1231,"ceed":1232,"aken":1233,"oney":1234,"what":1235,"ices":1236,"Ġsure":1237,"Ġrecei":1238,"uck":1239,"Ġpar":1240,"Ġvoice":1241,"eth":1242,"ier":1243,"Ġside":1244,".âĢĻ":1245,"Ġcr":1246,"Ġcountry":1247,"ĠLord":1248,"HA":1249,"she":1250,"Ġdiffe":1251,"Ġfelt":1252,"Ġyears":1253,"Ġlar":1254,"Ġcop":1255,"oud":1256,"ley":1257,"Ġinv":1258,"Ġcirc":1259,"Ġuse":1260,"Ġwalk":1261,".âĢĶ":1262,"Ġstate":1263,"Ġamong":1264,"ĠThis":1265,"Ġbro":1266,"apt":1267,"Ġenough":1268,"par":1269,"wor":1270,"br":1271,"Ġpower":1272,"TER":1273,"had":1274,"Ġhigh":1275,"utes":1276,"Ġsomething":1277,"Ġlady":1278,"Ġspeak":1279,"aven":1280,"owed":1281,"ream":1282,"ric":1283,"ym":1284,"Ġalso":1285,"Ġadm":1286,"),":1287,"oun":1288,"Ġdire":1289,"oke":1290,"Ġart":1291,"Ġkeep":1292,"xt":1293,"ully":1294,"Ġletter":1295,"ows":1296,"Ġbre":1297,"ility":1298,"arm":1299,"Ġprop":1300,"Ġsun":1301,"Ġwind":1302,"uc":1303,"Ġrec":1304,"iled":1305,"Ġalmost":1306,"ured":1307,"use":1308,"Ġreplied":1309,"ets":1310,"Ġchar":1311,"Ġmean":1312,"Ġtalk":1313,"Ġknew":1314,"Ġair":1315,"ery":1316,"irl":1317,"wered":1318,"Ġhard":1319,"Ġmorning":1320,"har":1321,"no":1322,"wer":1323,"Ġsim":1324,"aint":1325,"Ġdark":1326,"Ġwoman":1327,"Ġobject":1328,"Ġhor":1329,"laim":1330,"ient":1331,"ott":1332,"ken":1333,"pped":1334,"'t":1335,"Ġwa":1336,"ross":1337,"Ġsent":1338,"well":1339,"bed":1340,"Ġremain":1341,"form":1342,"Ġill":1343,"Ġmatter":1344,"Ġdoub":1345,"Ġopp":1346,"have":1347,"ually":1348,"riv":1349,"Ġthings":1350,"Ġleast":1351,"Ġthee":1352,"Ġdays":1353,"Ġwater":1354,"bs":1355,"Ġdet":1356,"him":1357,"Ġcontin":1358,"Ġcalled":1359,"Ġve":1360,"used":1361,"eng":1362,"att":1363,"Ġrequ":1364,"She":1365,"ee":1366,"Ġel":1367,"ribut":1368,"Ġdisc":1369,"tern":1370,"hil":1371,"ages":1372,"Ġanswered":1373,"Ġaff":1374,"Ġspir":1375,"Ġwish":1376,"Ġ4":1377,"Ġinterest":1378,"stand":1379,"ning":1380,"Ġdec":1381,"Ġvar":1382,"Ġmod":1383,"oured":1384,"Ġtold":1385,"og":1386,"ubl":1387,"onder":1388,"tered":1389,"ring":1390,"Ġgoing":1391,"Ġperhaps":1392,"What":1393,"cul":1394,"ants":1395,"iff":1396,"Ġbeaut":1397,"Ġfamily":1398,"Ġfire":1399,"day":1400,"Ġlarge":1401,"ert":1402,"Ġbecause":1403,"ided":1404,"Ġdoes":1405,"fully":1406,"Ġwords":1407,"ief":1408,"?\"":1409,"Ġserv":1410,"gr":1411,"pend":1412,"Ġgave":1413,"Ġmanner":1414,"vour":1415,"empt":1416,"ught":1417,"HAP":1418,"HAPTER":1419,"from":1420,"Ġthus":1421,"mon":1422,"ash":1423,"ingly":1424,"Ġfore":1425,"iew":1426,"Ġbrother":1427,"racter":1428,"gar":1429,"Ġgentleman":1430,"part":1431,"Ġfine":1432,"Ġsubject":1433,"let":1434,"Ġnature":1435,"Ġes":1436,"ĠLady":1437,"Ġoften":1438,"Ġappear":1439,"Ġstran":1440,"itted":1441,"ĠĠĠĠĠĠĠ":1442,"uring":1443,"ides":1444,"Ġcourse":1445,"ank":1446,"orrow":1447,"ĠWhat":1448,"bit":1449,"ĠWhen":1450,"Ġcond":1451,"oh":1452,"Ġsk":1453,"asion":1454,"Ġsou":1455,"ement":1456,"Ġtowards":1457,"ready":1458,"Ġabs":1459,"Ġturned":1460,"ont":1461,"ĠAs":1462,"Ġpartic":1463,"Ġbus":1464,"Ġacqu":1465,"!âĢĻ":1466,"ĠEd":1467,"Ġland":1468,"Ġconsider":1469,"als":1470,"ĠHis":1471,"ung":1472,"Ġminutes":1473,"osition":1474,"iting":1475,"Ġmoney":1476,"Ġalone":1477,"No":1478,"Ġleave":1479,"medi":1480,"otion":1481,"Ġunt":1482,"room":1483,"ative":1484,"Ġshort":1485,".'":1486,"ying":1487,"ident":1488,"there":1489,"lish":1490,"Ġnext":1491,"Ġfear":1492,"Ġswe":1493,"Ġdoubt":1494,"Ġmon":1495,"ued":1496,"une":1497,"Ġearth":1498,"Ġboy":1499,"Ġsens":1500,"king":1501,"alt":1502,"Ġpassed":1503,"Ġsister":1504,"Ġopen":1505,"Ġsw":1506,"Ġasked":1507,"pper":1508,"oot":1509,"Ġeye":1510,"Ġconst":1511,"My":1512,"Ġcried":1513,"Ġgirl":1514,"ĠCh":1515,"Ġused":1516,"II":1517,"Ġtrue":1518,"will":1519,"Ġsing":1520,"Ġmeans":1521,"umst":1522,"Ġgiven":1523,"Ġreason":1524,"Ġwithin":1525,"00":1526,"body":1527,"Ġmet":1528,"Ġpret":1529,"ev":1530,"ew":1531,"iet":1532,"ended":1533,"Ġremem":1534,"estion":1535,"Ġrespect":1536,"Ġbelieve":1537,"ohn":1538,"ham":1539,"Ġstrong":1540,"oura":1541,"Ġcommon":1542,"sequ":1543,"Ġsol":1544,"Ġprodu":1545,"cious":1546,"Ġmis":1547,"Ġtogether":1548,"Ġdeep":1549,"ĠPen":1550,"anny":1551,"In":1552,"Ġmer":1553,"bour":1554,"Ġpol":1555,"ature":1556,"akes":1557,"Ġdifferent":1558,"Ġgot":1559,"ĠAn":1560,"fic":1561,"Ġhel":1562,"ison":1563,"Ġtran":1564,"ush":1565,"az":1566,"Ġtaken":1567,"aughter":1568,"ublic":1569,"Ġcol":1570,"Ġplac":1571,"Ġcold":1572,"Ġunc":1573,"peri":1574,"Ġbrought":1575,"app":1576,"Ġeffect":1577,"Ġmo":1578,"enn":1579,"Ġreturned":1580,"aptain":1581,"ĠMy":1582,"ef":1583,"inci":1584,"Ġgeneral":1585,"Ġins":1586,"Ġhast":1587,"ific":1588,"alth":1589,"ution":1590,"ĠSc":1591,"they":1592,"Ġprof":1593,"HE":1594,"Ġfour":1595,"Ġ18":1596,"ĠBe":1597,"Ġprom":1598,"Ġnecess":1599,"CHAPTER":1600,"Ġprov":1601,"ural":1602,"oint":1603,"Ġtend":1604,"Ġneed":1605,"Ġcap":1606,"Ġdisp":1607,"Ġfair":1608,"itude":1609,"Ġcharacter":1610,"Ġelect":1611,"..":1612,"Ġstand":1613,"Ġitself":1614,"Ġeas":1615,"Ġbegan":1616,"Ġsound":1617,"Ġgre":1618,"Ġprev":1619,"ached":1620,"ection":1621,"over":1622,"ug":1623,"Ġlord":1624,"ek":1625,"Ġthemselves":1626,"Ġappro":1627,"sc":1628,"Ġhonour":1629,"ĠUn":1630,"Ġexpect":1631,"Ġsort":1632,"Ġeither":1633,"ON":1634,"Ġmeet":1635,"ey":1636,"Ġfall":1637,"Ġstre":1638,"Ġhold":1639,"Ġgone":1640,"Ġdirect":1641,"Ġtable":1642,"Ġperfect":1643,"Ġlau":1644,",âĢĶ":1645,"We":1646,"Ġmaster":1647,"ĠGod":1648,"Ġtherefore":1649,"Ġstood":1650,"Ġothers":1651,"do":1652,"Ġhappy":1653,"Ġuntil":1654,"dis":1655,"Ġmere":1656,"Ġ5":1657,"gin":1658,"like":1659,"Ġwhether":1660,"Ġlay":1661,"Ġexpress":1662,"ship":1663,"iar":1664,"Ġdeath":1665,"Ġproper":1666,"Ġlooking":1667,"ĠTo":1668,"Ġevening":1669,"Ġalready":1670,"There":1671,"this":1672,"dden":1673,"Ġson":1674,"ering":1675,"overed":1676,"Ġbra":1677,"Ġcopy":1678,"ury":1679,"Ġdev":1680,"lu":1681,"riage":1682,"?âĢĻ":1683,"ination":1684,"Ġpay":1685,"ĠFor":1686,"ĠDo":1687,"Ġlad":1688,"Ġabove":1689,"enty":1690,"Ġ|":1691,"Ġcal":1692,"vel":1693,"Ġru":1694,"resh":1695,"Ġtimes":1696,"Ġdin":1697,"Ġcor":1698,"Ġplay":1699,"Ġdra":1700,"Ġpleasure":1701,"Ġclear":1702,"This":1703,"Ġtri":1704,"who":1705,"Ġfort":1706,"Ġfriends":1707,"ges":1708,"Ġfree":1709,"Ġpain":1710,"Ġide":1711,"Oh":1712,"Ġlist":1713,"Ġtem":1714,"ength":1715,"Ġwife":1716,"ceive":1717,"Ġforth":1718,"Ġbody":1719,"ondon":1720,"Ġnum":1721,"Ġsecond":1722,"ma":1723,"Ġpurp":1724,"Ġcircumst":1725,"Ġsle":1726,"ality":1727,"Ġsum":1728,"where":1729,"Ġpast":1730,"ird":1731,"Ġanything":1732,"Ġoccasion":1733,"iter":1734,"ession":1735,"antly":1736,"them":1737,"ster":1738,"Ġknown":1739,"Ġanswer":1740,"Ġfeelings":1741,"idence":1742,"field":1743,"Ġest":1744,"Ġcase":1745,"Ġpa":1746,"ising":1747,"Ġadded":1748,"Ġsudden":1749,"would":1750,"ater":1751,"ĠAt":1752,"Ġbeh":1753,"Ġwhite":1754,"when":1755,"oc":1756,"uct":1757,"ledge":1758,"ixed":1759,"ĠMar":1760,"Ġhelp":1761,"ec":1762,"ĠWar":1763,"Ġcause":1764,"Ġchange":1765,"Ġpat":1766,"aj":1767,"asp":1768,"house":1769,"Ġmil":1770,"iam":1771,"urch":1772,"Ġimmedi":1773,"Ġten":1774,"arce":1775,"oe":1776,"Ġmark":1777,"To":1778,"Ġbed":1779,"ĠJohn":1780,"Ġed":1781,"Ġreceived":1782,"Ġbar":1783,"ead":1784,"Ġ6":1785,"erm":1786,"Ġview":1787,"Ġfellow":1788,"ĠFanny":1789,"Ġtruth":1790,"reas":1791,"Ġlearn":1792,"add":1793,"Ġaccount":1794,"iling":1795,"ler":1796,"Ġparty":1797,"Ġlive":1798,"were":1799,"_,":1800,"ote":1801,"ented":1802,"though":1803,"Ġterms":1804,"Âł":1805,"Ġwonder":1806,"isf":1807,"Ġlength":1808,"ized":1809,"ĠAl":1810,"Ġce":1811,"Ġorder":1812,"ortion":1813,"iful":1814,"know":1815,"Ġmag":1816,"pan":1817,"cell":1818,"uten":1819,",'":1820,"Pg":1821,"more":1822,"Ġri":1823,"Ġspoke":1824,"Well":1825,"Ġir":1826,"Ġsense":1827,"ĠEngland":1828,"Ġyear":1829,"ats":1830,"Ġworth":1831,"airs":1832,"Ġparticular":1833,"che":1834,"ĠThat":1835,"Ġexist":1836,"Ġval":1837,"Ġclose":1838,"ĠIs":1839,"Ġca":1840,"Ġsit":1841,"itation":1842,"Ġbear":1843,"Ġaccom":1844,"Ġincl":1845,"Ġconc":1846,"lled":1847,"iously":1848,"Ġprinci":1849,"ony":1850,"ĠLondon":1851,"ounded":1852,"Ġhorse":1853,"EN":1854,"Ġfeeling":1855,"iment":1856,"Ġcut":1857,"ĠNo":1858,"Ġbu":1859,"Ġpublic":1860,"Ġvisit":1861,"Ġcourt":1862,"ĠHow":1863,"rupt":1864,"ĠHer":1865,"ald":1866,"wood":1867,"owing":1868,"ram":1869,"Ġblack":1870,"Ġpossible":1871,"Ġstru":1872,"Ġreally":1873,"come":1874,"ĠCl":1875,"ines":1876,"ĠAll":1877,"Ġsuppose":1878,"Ġremark":1879,"Ġmine":1880,"Ġsoci":1881,"their":1882,"Ġdef":1883,"Ġquar":1884,"Yes":1885,"Ġdaughter":1886,"Ġelse":1887,"gn":1888,"thur":1889,"ĠMary":1890,"rel":1891,"Ġworks":1892,"----":1893,"Ġeng":1894,"Ġut":1895,"Ġmist":1896,"Ġquestion":1897,"Ġhuman":1898,"Ġbusiness":1899,"ES":1900,"Ġlow":1901,"Ġking":1902,"Ġarm":1903,"Ġstep":1904,"Ġdelight":1905,"mber":1906,"Ġsweet":1907,"band":1908,"Ġbook":1909,"ils":1910,"IN":1911,"itting":1912,"amp":1913,"Ġconsequ":1914,"Ġfin":1915,"Ġhours":1916,"Ġcompl":1917,"mb":1918,"your":1919,"ĠX":1920,"arl":1921,"pre":1922,"Ġmus":1923,"Ġjud":1924,"Ġprob":1925,"ĠAd":1926,"Ġdead":1927,"arent":1928,"cont":1929,"owers":1930,"Ġsucc":1931,"Ġdiffic":1932,"Ġopin":1933,"vo":1934,"Ġbur":1935,"Ġfavour":1936,"Ġ8":1937,"Ġbecome":1938,"!âĢĶ":1939,"Ġbit":1940,"Ġlab":1941,"ference":1942,"sm":1943,"Ġspirit":1944,"cent":1945,"Ġsix":1946,"Ġaccord":1947,"ained":1948,"Ġfre":1949,"atherine":1950,"Ġbring":1951,"arr":1952,"ĠEnglish":1953,"Ġwhy":1954,"ching":1955,"Ġregard":1956,"ĠWill":1957,"Ġground":1958,"Ġbes":1959,"Ġdeg":1960,"Ġinqu":1961,"Ġfact":1962,"law":1963,"Ġimag":1964,"Ġbene":1965,"Ġpretty":1966,"vering":1967,"irm":1968,"Ġforg":1969,"Ġunderstand":1970,"reg":1971,"Ġsoft":1972,"usion":1973,"Ġsecret":1974,"Ġpurpose":1975,"Ġscarce":1976,"enance":1977,"Ġlonger":1978,"Ġwild":1979,"ĠPro":1980,"Ġconvers":1981,"If":1982,"some":1983,"ĠWh":1984,"anger":1985,"Ġcontinued":1986,"berg":1987,"Ġsometimes":1988,"Ġtown":1989,"oor":1990,"Ġcomfort":1991,"Ġreal":1992,"Ġquiet":1993,"chan":1994,"ts":1995,"tained":1996,"Ġaffection":1997,"Ġele":1998,"Ġforce":1999,"rying":2000,"!'":2001,"Ġhus":2002,"ĠOF":2003,"ified":2004,"ĠOn":2005,"Ġtou":2006,"Ġmed":2007,"vere":2008,"Ġready":2009,"worth":2010,"ĠQ":2011,"AR":2012,"look":2013,"rand":2014,"Ġgold":2015,"Ġdraw":2016,"Ġaunt":2017,"Ġlost":2018,"Ġconv":2019,"Ġresol":2020,"Th":2021,"ighbour":2022,"Ġself":2023,"ctor":2024,"Ġanx":2025,"ĠSo":2026,"ploy":2027,"Ġask":2028,"ters":2029,"utenberg":2030,"Ġcast":2031,"Ġsuffic":2032,"ging":2033,"vol":2034,"then":2035,"Ġagre":2036,"Ġentered":2037,"Ġdiv":2038,"ĠMaster":2039,"ected":2040,"Ġkn":2041,"Ġimport":2042,"gl":2043,"Ġred":2044,"Ġbehind":2045,"Ġwit":2046,"Ġplan":2047,"hood":2048,"essed":2049,"ames":2050,"aged":2051,"ission":2052,"Ġrich":2053,"Ġchildren":2054,"Ġsoul":2055,"Ġdro":2056,"never":2057,"Ġappeared":2058,"outh":2059,"ouble":2060,"Ġlead":2061,"how":2062,"ĠĠĠĠĠĠ":2063,"Ġcompan":2064,"under":2065,"Ġsign":2066,"Ġsy":2067,"ism":2068,"Ġfra":2069,"When":2070,"That":2071,"Ġmaking":2072,"Ġfive":2073,"Ġdest":2074,"Ġformer":2075,"Ġexcept":2076,"Ġslow":2077,"gy":2078,"joy":2079,"wick":2080,"ĠPe":2081,"Ġnatural":2082,"Ġbad":2083,"liz":2084,"Ġcomple":2085,"!\"":2086,"ening":2087,"ilt":2088,"oly":2089,"inct":2090,"Ġheld":2091,"Ġleg":2092,"ford":2093,"Ġought":2094,"Ġquick":2095,"cons":2096,"inary":2097,"ĠStates":2098,"Ġproceed":2099,"Ġglad":2100,"illed":2101,"Ġsla":2102,"Ġsalt":2103,"Ġdr":2104,"rank":2105,"Ġbecame":2106,"hand":2107,"Ġstri":2108,"ĠArthur":2109,"Ġmut":2110,"Ġobserved":2111,"Ġdinner":2112,"Ġbutter":2113,"Ġprot":2114,"angu":2115,"Ġtender":2116,"gu":2117,"Ġduring":2118,".,":2119,"rench":2120,"Ġslight":2121,"ĠPr":2122,"Ġroad":2123,"Ġpound":2124,"Ġbreak":2125,"Ġthick":2126,"Ġyouth":2127,"Ġlate":2128,"Ġfig":2129,"cend":2130,"Ġvol":2131,"aces":2132,"Ġcreat":2133,"Ġsatisf":2134,"count":2135,"Ġfur":2136,"Ġsays":2137,"Ġdep":2138,"Ġdesp":2139,"lizab":2140,"Ġintell":2141,"comm":2142,"Ġmid":2143,"Ġtrust":2144,"Ġsight":2145,"Ġlea":2146,"Ġdistribut":2147,"OR":2148,"rees":2149,"Ġexpl":2150,"Ġidea":2151,"ror":2152,"Ġlaugh":2153,"Ġcoll":2154,"Ġperi":2155,"ancy":2156,"ronic":2157,"Ġdeterm":2158,"Ġlaws":2159,"Ġbright":2160,"Ġkept":2161,"undred":2162,"Ġsurpr":2163,"Ġcolour":2164,"yond":2165,"Ġnoble":2166,"lizabeth":2167,"rit":2168,"iding":2169,"Ġdeal":2170,"ousand":2171,"osop":2172,"ĠEm":2173,"bert":2174,"inter":2175,"Ġagree":2176,"ajor":2177,"As":2178,"spect":2179,"Ġhur":2180,"ries":2181,"laimed":2182,"Ġarms":2183,"Ġtone":2184,"ustom":2185,"ches":2186,"Ġyourself":2187,"Ġeff":2188,"face":2189,"than":2190,"Ġlim":2191,"ĠCaptain":2192,"ĠNor":2193,"Ġseems":2194,"iety":2195,"Ġperm":2196,"Ġcoming":2197,"ĠUnited":2198,"itions":2199,"Ġhop":2200,"rigin":2201,"Ġnearly":2202,"Ġwhis":2203,"ament":2204,"Ġstrange":2205,"Ġcircumstances":2206,"ics":2207,"Ġrepe":2208,"Ġsend":2209,"Ġremember":2210,"net":2211,"Ġstart":2212,"aste":2213,"Ġknowledge":2214,"ear":2215,"Ġusual":2216,"could":2217,"ossible":2218,"Ġjo":2219,"Ġage":2220,"Ġhusband":2221,"ience":2222,"arri":2223,"Ġsto":2224,"ĠTHE":2225,"Ġdistance":2226,"Ġequal":2227,"fer":2228,"ze":2229,"uthor":2230,"ius":2231,"Ġcent":2232,"irt":2233,"ĠRe":2234,"Ġprep":2235,"comp":2236,"Ġsmile":2237,"Ġsett":2238,"rum":2239,"Ġrose":2240,"Ġapart":2241,"Ġappearance":2242,"should":2243,"ivers":2244,"oved":2245,"Ġnecessary":2246,"can":2247,"Ġsch":2248,"org":2249,"Ġblood":2250,"Ġmur":2251,"light":2252,"sha":2253,"ĠLe":2254,"Ġemploy":2255,"Ġplaced":2256,"Ġdanger":2257,"ceived":2258,"Ġsociety":2259,"Ġexam":2260,"ager":2261,"Ġcontr":2262,"des":2263,"Ġfat":2264,"orm":2265,"ards":2266,"Ġdescri":2267,"bo":2268,"Ġinflu":2269,"Ġthoughts":2270,"Why":2271,"Ġclass":2272,"Ġorigin":2273,"peci":2274,"'ll":2275,"IT":2276,"Ġcompany":2277,"Ġuncle":2278,"ennis":2279,"lig":2280,"been":2281,"Ġdress":2282,"Ġalong":2283,"Ġesc":2284,"ĠMic":2285,"Ġneither":2286,"appe":2287,"Ġfoot":2288,"reme":2289,"atch":2290,"ivid":2291,"Ġsuccess":2292,"Ġgrave":2293,"min":2294,"uce":2295,"ork":2296,"Ġpriv":2297,"Ġshow":2298,"Ġattend":2299,"Ġfresh":2300,"race":2301,"antage":2302,"How":2303,"Ġaround":2304,"Ġearly":2305,"endennis":2306,"Ġentire":2307,"ushed":2308,"ining":2309,"rief":2310,"ize":2311,"Ġperiod":2312,"ĠBl":2313,"Ġneighbour":2314,"ires":2315,"happ":2316,"aded":2317,"Ġexcell":2318,"iece":2319,"Not":2320,"Ġbreat":2321,"lli":2322,"They":2323,"ĠGl":2324,"Ġgall":2325,"Ġcountenance":2326,"ille":2327,"aring":2328,"ots":2329,"Ġimmediately":2330,"Ġstra":2331,"Ġtemper":2332,"lt":2333,"Ġrun":2334,"Wh":2335,"erve":2336,"Ġbeautiful":2337,"Ġsever":2338,"Ġmonth":2339,"Ġled":2340,"Ġheat":2341,"Ġconversation":2342,"ium":2343,"Ġfeet":2344,"Ġnumber":2345,"idered":2346,"Ġfollowed":2347,"stone":2348,"ayed":2349,"Ġbegin":2350,"Ġladies":2351,"ding":2352,"wise":2353,"Ġwall":2354,"Ġann":2355,"ĠWith":2356,"ume":2357,"Ġopinion":2358,"!--":2359,"Ġhair":2360,"Ġsugar":2361,"pid":2362,"tw":2363,"Ġtaking":2364,"Ġable":2365,"Ġmain":2366,"culiar":2367,"Ġconcern":2368,"Ġgreater":2369,"Ġsubst":2370,"OU":2371,"Ġsleep":2372,"ND":2373,"ital":2374,"rist":2375,"Ġdut":2376,"cience":2377,"Ġpaid":2378,"arden":2379,"Ġcommand":2380,"Ġsea":2381,"formation":2382,"Ġthousand":2383,"ues":2384,"Ġexact":2385,"cient":2386,"while":2387,"Ġhundred":2388,"Ġdem":2389,"na":2390,"Ġperfectly":2391,"Ġsqu":2392,"way":2393,"imp":2394,"Ġsole":2395,"ables":2396,"itten":2397,"Ġattention":2398,"Ġoccup":2399,"oral":2400,"Ġbeyond":2401,"ĠĠĠĠĠĠĠĠĠ":2402,"ĠEdward":2403,"Ġmount":2404,"avens":2405,"ners":2406,"Ġtrem":2407,"Ġwood":2408,"Ġgreen":2409,"rived":2410,"ask":2411,"Ġstud":2412,"ously":2413,"ones":2414,"orts":2415,"Ġscarcely":2416,"âĢĶâĢĶ":2417,"range":2418,"rance":2419,"acy":2420,"alter":2421,"Ġoblig":2422,"Ġwine":2423,"enry":2424,"vern":2425,"Ġenjoy":2426,"Ġmotion":2427,"ency":2428,"Ġstir":2429,"Ġimpro":2430,"St":2431,"omen":2432,"sion":2433,"side":2434,"hys":2435,"uture":2436,"fra":2437,"anced":2438,"vy":2439,"soci":2440,"hilosop":2441,"Ġtrans":2442,"Ġpen":2443,"oundation":2444,"Ġmeas":2445,"ĠThen":2446,"Ġdri":2447,"Ġvarious":2448,"ape":2449,"Ġbeauty":2450,"ĠDe":2451,"IS":2452,"Ġer":2453,"ĠCatherine":2454,"unity":2455,"Ġdelic":2456,"fl":2457,"Ġaction":2458,"Ġpint":2459,"Ġdream":2460,"Ġsepar":2461,"uke":2462,"stem":2463,"Ġsupposed":2464,"hard":2465,"Ġpaper":2466,"Ġlaid":2467,"Ġpersons":2468,"redit":2469,"ester":2470,"Ġgentlemen":2471,"18":2472,"ises":2473,"ples":2474,"oom":2475,"resent":2476,"iol":2477,"ĠLet":2478,"ĠFoundation":2479,"Ġjoy":2480,"Ġwindow":2481,"bet":2482,"Ġwarm":2483,"bling":2484,"RE":2485,"Ġmention":2486,"Ġreco":2487,"Ġline":2488,"avy":2489,"ives":2490,".--":2491,"rown":2492,"Ġpost":2493,"Ġpresence":2494,".;":2495,"uff":2496,"Ġcost":2497,"lling":2498,"ills":2499,"osp":2500,"umed":2501,"don":2502,"Ġoun":2503,"Ġloved":2504,"pers":2505,"Ġcertainly":2506,"Ġelectronic":2507,"ingu":2508,"ĠTr":2509,"Ġconduct":2510,"Ġdim":2511,"after":2512,"kes":2513,"._":2514,"rs":2515,"Ġemb":2516,"Ġtax":2517,"raph":2518,"Ġsaying":2519,"Ġpassion":2520,"Ġaccept":2521,"iqu":2522,"Ġord":2523,"Ġseveral":2524,"Ġsym":2525,"Ġspo":2526,"Ġchief":2527,"duced":2528,"Ġfla":2529,"together":2530,"ĠCla":2531,"Ġsilence":2532,"Ġcross":2533,"ĠFrench":2534,"Ġattempt":2535,"Ġdegree":2536,"into":2537,"Ġmot":2538,"Ġenc":2539,"Ġang":2540,"oose":2541,"Ġafterwards":2542,"val":2543,"Ġhot":2544,"Ġknight":2545,"pecially":2546,"ub":2547,"eness":2548,"unic":2549,"oonful":2550,"Ġinfluence":2551,"Ġund":2552,"ĠElizabeth":2553,"ris":2554,"Ġmel":2555,"Ġwhatever":2556,"eed":2557,"Ġauthor":2558,"awber":2559,"Ġopened":2560,"tr":2561,"ator":2562,"Ġwalked":2563,"Ġinstead":2564,"Ġfollowing":2565,"dist":2566,"ĠPendennis":2567,"Do":2568,"idge":2569,"Ġsauce":2570,"inc":2571,"So":2572,"Ġwar":2573,"Ġtwenty":2574,"Ġwomen":2575,"Ġglass":2576,"Ġsingle":2577,"ker":2578,"lic":2579,"arch":2580,"ception":2581,"ĠPer":2582,"Ġhealth":2583,"Ġexclaimed":2584,"Ġsuddenly":2585,"Ġdish":2586,"ĠWarwick":2587,"ences":2588,"ression":2589,"Ġet":2590,"ively":2591,"Ġwis":2592,"Ġdread":2593,"Ġearn":2594,"Ġextreme":2595,"rop":2596,"ĠBy":2597,"Ġplain":2598,"Ġscene":2599,"aintance":2600,"Ġchair":2601,"Ġtears":2602,"ĠEarl":2603,"before":2604,"ĠNot":2605,"kind":2606,"Ġpeculiar":2607,"Ġwrong":2608,"Ġsold":2609,"nat":2610,"ased":2611,"ĠMad":2612,"Ġcopyright":2613,"Ġ[":2614,"ndym":2615,"ndymion":2616,"Ġdepart":2617,"Ġagreement":2618,"long":2619,"little":2620,"Ġfuture":2621,"Ġcous":2622,"Ġhappiness":2623,"dle":2624,"ls":2625,"Ġhonest":2626,"ption":2627,"go":2628,"Ġphilosop":2629,"Ġnone":2630,"ours":2631,"ulty":2632,"Ġdisco":2633,"aur":2634,"Ġast":2635,"Ġmad":2636,"Ġcrow":2637,"ashion":2638,"OT":2639,"imate":2640,"ists":2641,"Ġinstant":2642,"Ġdom":2643,"Ġhardly":2644,"Ġprobably":2645,"ĠCo":2646,"ump":2647,"good":2648,"again":2649,"Ġeasily":2650,"Ġmoon":2651,"Ġlips":2652,"ividual":2653,"Ġwanted":2654,"time":2655,"otty":2656,"Ġdesire":2657,"ĠWilliam":2658,"?'":2659,"AN":2660,"ye":2661,"head":2662,"Ġvain":2663,"mory":2664,"ĠHenry":2665,"Ġseeing":2666,"ggotty":2667,"aff":2668,"just":2669,"Ġvan":2670,"Ġpray":2671,"ggs":2672,"ED":2673,"may":2674,"pleas":2675,"urb":2676,"has":2677,"Ġforward":2678,"Ġsimple":2679,"attle":2680,"olute":2681,"Ġparts":2682,"ĠNow":2683,"Ġbelow":2684,"Ġpale":2685,"Ġdepend":2686,"Ġfaith":2687,"Ġpursu":2688,"ĠPhil":2689,"great":2690,"Ġpract":2691,"els":2692,"Ġbread":2693,"Ġsupport":2694,"Ġ.":2695,"Ġstay":2696,"even":2697,"uded":2698,"Ġeverything":2699,"For":2700,"Ġwon":2701,"Ġadvantage":2702,"Ġcharge":2703,"uation":2704,"cing":2705,"Ġant":2706,"cise":2707,"ĠCom":2708,";--":2709,"Ġfast":2710,"Ġlangu":2711,"ĠMajor":2712,"Ġspirits":2713,"verse":2714,"ĠCar":2715,"vation":2716,"heart":2717,"ned":2718,"Ġforget":2719,"Ġstreng":2720,"fast":2721,"pass":2722,"Mrs":2723,"Ġcomes":2724,"Ġbroken":2725,"Ġcou":2726,"orge":2727,"Ġlikely":2728,"Ġexcellent":2729,"ĠMac":2730,"Ġshad":2731,"Ġpride":2732,"Ġsilver":2733,"Ġexpression":2734,"off":2735,"Ġfond":2736,"urd":2737,"Ġservice":2738,"str":2739,"Ġfurther":2740,"ĠKing":2741,"ternal":2742,"Miss":2743,"sec":2744,"ĠMont":2745,"char":2746,"Ġran":2747,"Ġrapid":2748,"?âĢĶ":2749,"oman":2750,"ested":2751,"osing":2752,"eks":2753,"ases":2754,"Ġhig":2755,"Ġsomewhat":2756,"ourage":2757,"ii":2758,"Ġconsidered":2759,"road":2760,"Ġcheer":2761,"Ġmakes":2762,"Ġcorn":2763,"ĠMicawber":2764,"morrow":2765,"Ġstory":2766,"ĠHouse":2767,"Ġvill":2768,"formed":2769,"Ġfortune":2770,"Ġnote":2771,"Ġsilent":2772,"Ġsystem":2773,"gent":2774,"Ġweek":2775,"Ġchurch":2776,"ision":2777,"ucy":2778,"Ġune":2779,"Ġeasy":2780,"Ġlatter":2781,"umb":2782,"Ġserved":2783,"Ġgaz":2784,"ift":2785,"ains":2786,"gged":2787,"ville":2788,"Ġtaste":2789,"Ġhost":2790,"uted":2791,"son":2792,"inte":2793,"ora":2794,"AL":2795,"every":2796,"set":2797,"Ġrecoll":2798,"Ġcalm":2799,"Ġschool":2800,"Ġbod":2801,"Ġoffic":2802,"iently":2803,"osite":2804,"Ġmarriage":2805,"fraid":2806,"mn":2807,"Ġbound":2808,"orough":2809,"Ġliving":2810,"rian":2811,"such":2812,"Ġban":2813,"Ġ7":2814,"Ġpop":2815,"Ġexpected":2816,"TI":2817,"action":2818,"eav":2819,"Ġpri":2820,"Ġfee":2821,"Ġlived":2822,"Ġpeace":2823,"bur":2824,"said":2825,"see":2826,"Ġanim":2827,"Ġwritten":2828,"ĠKnight":2829,"Ġknows":2830,"only":2831,"Ġhall":2832,"ah":2833,"Ġhath":2834,"Ġexperi":2835,"Ġentirely":2836,"ike":2837,"Ġdry":2838,"ieve":2839,"Ġoccur":2840,"pter":2841,"Ġeager":2842,"ext":2843,"yn":2844,"Ġmove":2845,"Ġcrowd":2846,"'d":2847,"ĠInd":2848,"certain":2849,"Ġguest":2850,"Ġcry":2851,"Ġda":2852,"Ġserve":2853,"Ġplease":2854,"Ġremained":2855,"place":2856,"Ġsad":2857,"must":2858,"rough":2859,"ĠRob":2860,"pping":2861,"Ġpoet":2862,"Ġadmir":2863,"ites":2864,"Ġimpossible":2865,"Ġfool":2866,"Ġdare":2867,"ĠOne":2868,"Ġgently":2869,"Ġstruck":2870,"bb":2871,"sed":2872,"Ġcra":2873,"Ġdoing":2874,"Ġslowly":2875,"An":2876,"Ġfield":2877,"arer":2878,"Ġwrite":2879,"ĠVar":2880,"At":2881,"11":2882,"ech":2883,"spe":2884,"Ġgrand":2885,"ront":2886,"Ġtor":2887,"ĠOh":2888,"Ġpleased":2889,"Ġassoci":2890,"Ġweak":2891,"emed":2892,"ortunity":2893,"Ġformed":2894,"Ġspot":2895,"ĠGe":2896,"Ġgovern":2897,"ww":2898,"Ġforgot":2899,"uous":2900,"Ġmort":2901,"Ġcompanion":2902,"Ġtreat":2903,"Ġsor":2904,"ĠDr":2905,"Ġmerely":2906,"ĠChrist":2907,"dom":2908,"Ġwished":2909,"Ġden":2910,"Ġreceipt":2911,"bel":2912,"Ġoz":2913,"ishing":2914,"ability":2915,"oes":2916,"Ġthinking":2917,"Ġfamil":2918,"Ġstew":2919,"ior":2920,"Ġpress":2921,"oore":2922,"Ġseason":2923,"Ġindividual":2924,"agraph":2925,"Ġfrequ":2926,"Ġdrew":2927,"Ġsake":2928,"Ġconn":2929,"mond":2930,"Ġsorrow":2931,"upon":2932,"Ġsufficient":2933,"Ġfru":2934,"ĠCha":2935,"ardon":2936,"ray":2937,"ÂłÂł":2938,"Ġ9":2939,"Ġfixed":2940,"iction":2941,"Ġgrat":2942,"Ġbelong":2943,"Ġfirm":2944,"ux":2945,"ĠRo":2946,"Ġmiles":2947,"atures":2948,"ips":2949,"thought":2950,"isted":2951,"iance":2952,"Book":2953,"itable":2954,"ĠChar":2955,"Ġmarried":2956,"Ġespecially":2957,"On":2958,"Ġwi":2959,"Ġquant":2960,"ĠJane":2961,"Ġaccording":2962,"avenswood":2963,"Ġfal":2964,"Ġstranger":2965,"Ġobliged":2966,"Ġpict":2967,"irth":2968,"Ġacquaintance":2969,"pri":2970,"Ġport":2971,"empl":2972,"Ġallow":2973,"Ġresult":2974,"Ġwatch":2975,"ĠPeggotty":2976,"Ġdetermined":2977,"llen":2978,"Ġdeb":2979,"ĠDoctor":2980,"Ġbecom":2981,"rival":2982,"yed":2983,"Ġph":2984,"Ġsave":2985,"Ġaddress":2986,"Ġprepared":2987,"Ġearnest":2988,"ically":2989,"Ġboil":2990,"Ġcomplete":2991,"Ġcoun":2992,"aled":2993,"ilar":2994,"Ġunless":2995,"ĠEmma":2996,"Gutenberg":2997,"Ġsal":2998,"Ġearl":2999,"Ġaddition":3000,"perior":3001,"?--":3002,"Is":3003,"Ġafford":3004,"ourable":3005,"âĢĶâĢľ":3006,"ĠAnne":3007,"ĠVarney":3008,"mp":3009,"Ġsusp":3010,"Ġlooks":3011,"path":3012,"ĠSp":3013,"Ġjour":3014,"Ġgrace":3015,"orses":3016,"Ġdifficult":3017,"pond":3018,"ĠSh":3019,"about":3020,"ĠWest":3021,"erved":3022,"--âĢľ":3023,"que":3024,"Ġrequire":3025,"riar":3026,"think":3027,"Ġcomb":3028,"ration":3029,"Ġball":3030,"ilian":3031,"Ġcarried":3032,"aul":3033,"Ġproperty":3034,"ming":3035,"Ġsmo":3036,"father":3037,"aura":3038,"Ġancient":3039,"ĠOld":3040,"aching":3041,"Ġletters":3042,"friend":3043,"Ġmass":3044,"Ġphys":3045,"Ġrend":3046,"Ġconcl":3047,"Ġgenerally":3048,"Ġpolit":3049,"Ġcousin":3050,"IL":3051,"Ġid":3052,"Ġbless":3053,"Ġblue":3054,"Ġincreas":3055,"Ġconsequence":3056,"Ġafraid":3057,"osity":3058,"ĠLove":3059,"ixt":3060,"ibility":3061,"Ġchance":3062,"teen":3063,"without":3064,"Ġsafe":3065,"ancing":3066,"ichard":3067,"Ġflour":3068,"Ġworthy":3069,"Ġpath":3070,"ĠHigh":3071,"cle":3072,"Ġconce":3073,"ĠProject":3074,"Ġexactly":3075,"ĠPhilip":3076,"Ġder":3077,"Ġeight":3078,"Ġviol":3079,"Ġcommunic":3080,"retched":3081,"With":3082,"athe":3083,"arest":3084,"Ġspace":3085,"Ġraised":3086,"eneral":3087,"Ġanxious":3088,"Ġsurface":3089,"himself":3090,"Ġpal":3091,"uding":3092,"Ġnews":3093,"Ġduty":3094,"stood":3095,"iles":3096,"ressilian":3097,"ĠNew":3098,"Ġproud":3099,"Ġturning":3100,"Ġrepeated":3101,"reet":3102,"Ġhat":3103,"ourse":3104,"Ġneg":3105,"Ġparagraph":3106,"Ġsitting":3107,"iments":3108,"Ġvirt":3109,"Ġspeaking":3110,"much":3111,"Ġago":3112,"Ġfigure":3113,"enced":3114,"anch":3115,"lend":3116,"Ġkne":3117,"ĠEndymion":3118,"Ġchamber":3119,"Ġacross":3120,"hib":3121,"Ġlie":3122,"Ġbrown":3123,"Ġinterrupt":3124,"vi":3125,"Ġspect":3126,"Ġtop":3127,"Ġarrived":3128,"Ġgiving":3129,"hold":3130,"Ġfif":3131,"Ġdie":3132,"Ġsuper":3133,"itary":3134,"Ġprison":3135,"Ġintro":3136,"Ġevil":3137,"Ġvalue":3138,"happy":3139,"Ġreceive":3140,"ĠWalter":3141,"Ġimm":3142,"ueen":3143,"Ġcarriage":3144,"rawford":3145,"Ġdemand":3146,"ify":3147,"oline":3148,"ĠPar":3149,"appoint":3150,"Ġstrength":3151,"cceed":3152,"Then":3153,"Ġendeav":3154,"Ġlearned":3155,"raction":3156,"Ġexistence":3157,"Ġfit":3158,"Ġhist":3159,"iffe":3160,"Ġmeant":3161,"Ġkiss":3162,"Ġcloud":3163,"Ġsorry":3164,"pet":3165,"Ġpleasant":3166,"ĠTressilian":3167,"Ġconscious":3168,"ĠYork":3169,"Ġquarter":3170,"istance":3171,"Ġspec":3172,"Ġdrink":3173,"ĠCra":3174,"Ġworse":3175,"Ġere":3176,"ĠLucy":3177,"19":3178,"Ġcredit":3179,"Ġopposite":3180,"rep":3181,"fortun":3182,"Ġequally":3183,"cher":3184,"somet":3185,"Ġfancy":3186,"Ġstates":3187,"Ġobjects":3188,"half":3189,"Ġbott":3190,"Ġciv":3191,"iced":3192,"ĠBar":3193,"might":3194,"alled":3195,"Ġexchan":3196,"Be":3197,"Ġrevol":3198,"pered":3199,"ĠCount":3200,"aret":3201,"forth":3202,"10":3203,"20":3204,"gress":3205,"Ġmaid":3206,"ĠFair":3207,"taining":3208,"Ġoffice":3209,"Ġstopped":3210,"Ġla":3211,"Ġlem":3212,"Ġrese":3213,"ĠCol":3214,"Ġaccess":3215,"Ġhandsome":3216,"lected":3217,"Ġdirection":3218,"Ġmusic":3219,"Ġapartment":3220,"these":3221,"Ġbreast":3222,"ians":3223,"made":3224,"Ġtried":3225,"erv":3226,"Ġpour":3227,"Ġhabit":3228,"ibly":3229,"Ġgen":3230,"henomen":3231,"Ah":3232,"Ġstar":3233,"Ġdog":3234,"Ġdonations":3235,"estic":3236,"igned":3237,"bles":3238,"Ġpra":3239,"Ġthin":3240,"exp":3241,"known":3242,"garet":3243,"Ġthird":3244,"uses":3245,"Ġneck":3246,"aced":3247,"Ġtrave":3248,"Ġshut":3249,"meric":3250,"Ġproportion":3251,"Ġmonths":3252,"Ġmoved":3253,"Ġinquir":3254,"Ġconstit":3255,"Ġclaim":3256,"arily":3257,"ulation":3258,"bered":3259,"Ġminute":3260,"Ġbroad":3261,"Ġounces":3262,"ainted":3263,"Ġseat":3264,"Ġtruly":3265,"CE":3266,"sub":3267,"Ġstars":3268,"Ġdistingu":3269,"arriet":3270,"Ġreply":3271,"Ġbreath":3272,"Sir":3273,"Ġchanged":3274,"yd":3275,"ĠeBook":3276,"ĠThese":3277,"Ġshar":3278,"Ġabsolute":3279,"Ġquantity":3280,"Ġav":3281,"rease":3282,"Ġcand":3283,"gment":3284,"Ġsugg":3285,"Ġotherwise":3286,"Ġburst":3287,"Now":3288,"ĠQueen":3289,"Ġwitness":3290,"Ġreached":3291,"ĠRavenswood":3292,"Ġlines":3293,"acc":3294,"Ġdifficulty":3295,"Ġintellect":3296,"Ġfate":3297,"gan":3298,"inst":3299,"itated":3300,"ocked":3301,"ricity":3302,"jud":3303,"ĠSte":3304,"iable":3305,"Ġnotice":3306,"ĠHere":3307,"Ġgrad":3308,"Ġliked":3309,"Ġshare":3310,"Ġopportunity":3311,"Ġimportant":3312,"Ġlanguage":3313,"wr":3314,"Ġbold":3315,"Ġheavy":3316,"Ġgarden":3317,"Ġburn":3318,"Ġdied":3319,"ĠWhy":3320,"Ġguard":3321,"Ġdiscovered":3322,"oup":3323,"Ġcook":3324,"ignor":3325,"Ġsummer":3326,"Ġtouch":3327,"ĠSome":3328,"play":3329,"Ġpassing":3330,"Ġengaged":3331,"15":3332,"Ġaware":3333,"Ġdrawn":3334,"Ġcaught":3335,"oted":3336,"Ġliber":3337,"Ġenter":3338,"Ġapparent":3339,"Ġwriting":3340,"Ġboiled":3341,"aly":3342,"Ġsick":3343,"lly":3344,"eter":3345,"amed":3346,"supp":3347,"Ġsword":3348,"Ġprivate":3349,"Ġsolemn":3350,"ergy":3351,"Ġinstantly":3352,"ounced":3353,"Ġbitter":3354,"jo":3355,"ouses":3356,"orted":3357,"Ġourselves":3358,"Ġglance":3359,"Ġtrad":3360,"ĠGeorge":3361,"Ġsuperior":3362,"Ġ10":3363,"ĠHeaven":3364,"Ġdistinct":3365,"Ġdifference":3366,"ification":3367,"LE":3368,"Ġbelieved":3369,"erable":3370,"Ġwel":3371,"respond":3372,"Ġtrouble":3373,"Ġclean":3374,"ENT":3375,"ancholy":3376,"Ġtry":3377,"asted":3378,"Ã©":3379,"inced":3380,"Ġhorses":3381,"tering":3382,"cal":3383,"eal":3384,"Ġcre":3385,"Ġdam":3386,"Ġrank":3387,"ĠLaura":3388,"Ġsituation":3389,"yll":3390,"aked":3391,"Ġmarry":3392,"Ġjourney":3393,"17":3394,"rey":3395,"Ġmouth":3396,"Ġfashion":3397,"roo":3398,"Ġfeatures":3399,"Ġfruit":3400,"hor":3401,"ĠHar":3402,"occ":3403,"rate":3404,"Ġod":3405,"Ġbow":3406,"cause":3407,"Ġweight":3408,"ĠMoore":3409,"ĠDora":3410,"ĠRichard":3411,"Ġprepar":3412,"feel":3413,"icester":3414,"ĠScot":3415,"Ġetc":3416,"through":3417,"ĠCrawford":3418,"Ġexer":3419,"Ġbeneath":3420,"12":3421,"uice":3422,"Ġwid":3423,"Ġhang":3424,"ING":3425,"back":3426,"Ġfier":3427,"Ġportion":3428,"racted":3429,"Ġeggs":3430,"Ġspeech":3431,"Ġpersu":3432,"Ġhappened":3433,"Ġrequired":3434,"Your":3435,"buck":3436,"Ġfing":3437,"being":3438,"conom":3439,"ĠWell":3440,"aufort":3441,"serv":3442,"000":3443,"ĠClavering":3444,"Ġmemory":3445,"Ġsucceed":3446,"Ġcapital":3447,"Ġsettled":3448,"Ġsuspic":3449,"Ġhung":3450,"Ġrock":3451,"rant":3452,"ina":3453,"Ġwand":3454,"Ġposition":3455,"Ġhither":3456,"ulous":3457,"Ġrise":3458,"Ġboiling":3459,"Ġfro":3460,"Ġfurn":3461,"Ġjustice":3462,"Ġservant":3463,"ĠXX":3464,"ĠLeicester":3465,"ĠHel":3466,"Ġdrawing":3467,"hum":3468,"uf":3469,"Ġfish":3470,"Ġthank":3471,"ishment":3472,"Ġroy":3473,"pperfield":3474,"Ġsteps":3475,"phe":3476,"Ġmixed":3477,"Ġpap":3478,"Ġallowed":3479,"Ġbodies":3480,"ifferent":3481,"Ġsharp":3482,"32":3483,"lauc":3484,"cial":3485,"Ġwise":3486,"Ġcreature":3487,"Ġhae":3488,"ifted":3489,"Ġescape":3490,"Ġfalse":3491,"laucus":3492,"ĠOf":3493,"ĠYet":3494,"Ġqual":3495,"olly":3496,"Ġresolved":3497,"Ġsong":3498,"lection":3499,"ĠSm":3500,"ĠKe":3501,"gra":3502,"Ġbeat":3503,"Ġrid":3504,"cliff":3505,"Ġgravy":3506,"Ġbroke":3507,"oak":3508,"Ġinformation":3509,"Ġavo":3510,"fered":3511,"Ġpromise":3512,"sol":3513,"hend":3514,"arrow":3515,"ett":3516,"Ġmeat":3517,"Ġsurprise":3518,"Ġ15":3519,"Ġver":3520,"Ġinno":3521,"Ġaltogether":3522,"looking":3523,"Ġcat":3524,"Ġpure":3525,"ĠAram":3526,"olog":3527,"Ġdirectly":3528,"Ġdevil":3529,"ĠRobert":3530,"Ġpun":3531,"Ġtalked":3532,"Ġforeign":3533,"addles":3534,"Ġfilled":3535,"arther":3536,"oses":3537,"Ġprocess":3538,"Ġprevent":3539,"pal":3540,"rie":3541,"chief":3542,"ĠOR":3543,"Ġrender":3544,"adv":3545,"amb":3546,"Ġlean":3547,"Ġ17":3548,"Ġoffer":3549,"Ġ20":3550,"Ġmagn":3551,"Ġbooks":3552,"Al":3553,"ories":3554,"Ġvict":3555,"Ġblind":3556,"anche":3557,"gentle":3558,"bits":3559,"did":3560,"mind":3561,"hall":3562,"ĠTom":3563,"Ġdescend":3564,"Ġconfidence":3565,"Ġjudge":3566,"Ġspoken":3567,"Ġcity":3568,"Ġphenomen":3569,"sell":3570,"onel":3571,"Ġvent":3572,"astle":3573,"Ġtea":3574,"Ġleaving":3575,"ember":3576,"Ġpock":3577,"By":3578,"hest":3579,"quis":3580,"ĠOr":3581,"Ġgrew":3582,"ational":3583,"ellow":3584,"Ġpassage":3585,"Ġtalking":3586,"Ġsimilar":3587,"ĠDon":3588,"Here":3589,"Ġhopes":3590,"lar":3591,"Ġhero":3592,"urally":3593,"Ġamb":3594,"Ġterri":3595,"Ġstrugg":3596,"sing":3597,"Ġrays":3598,"Ġrecogn":3599,"ole":3600,"ses":3601,"Ġheaven":3602,"ĠGlaucus":3603,"Ġstanding":3604,"Ġbreakfast":3605,"whe":3606,"Ġma":3607,"Ġloud":3608,"Ġkindness":3609,"Ġaffected":3610,"Ġaston":3611,"Ġalthough":3612,"'m":3613,"Ġtrees":3614,"Ġfill":3615,"Ġexceed":3616,"Ġgreatest":3617,"ĠĠĠĠĠĠĠĠĠĠĠĠĠĠĠĠĠĠĠĠĠĠĠĠĠĠĠĠĠĠĠĠ":3618,"ghed":3619,"Ġgloom":3620,"SE":3621,"lv":3622,"mod":3623,"Ġfol":3624,"Ġinj":3625,"Ġdecl":3626,"Ġshook":3627,"Ġextra":3628,"Ġpoints":3629,"Ġproduced":3630,"Ġmilk":3631,"two":3632,"een":3633,"lied":3634,"Ġdign":3635,"Ġlod":3636,"lying":3637,"Ġcustom":3638,"ibyll":3639,"Ġcentre":3640,"Ġsympath":3641,"io":3642,"Ġloss":3643,"Ġgay":3644,"illy":3645,"Ġrising":3646,"Ġspring":3647,"nothing":3648,"aterial":3649,"Ġextremely":3650,"Ġexperience":3651,"Ġsought":3652,"Ġring":3653,"Ġthrown":3654,"Ġimpat":3655,"Ġquickly":3656,"iers":3657,"Ġsn":3658,"Ġeld":3659,"ĠAmeric":3660,"ourt":3661,"Ġmiddle":3662,"Ġlemon":3663,").":3664,"rase":3665,"those":3666,"bell":3667,"Ġgrow":3668,"gnes":3669,"Ġintellig":3670,"ored":3671,"anted":3672,"Ġfav":3673,"dered":3674,"Ġappre":3675,"Ġagreeable":3676,"equ":3677,"Ġing":3678,"ĠWood":3679,"Ġarrange":3680,"Ġseek":3681,"Ġflowers":3682,"say":3683,"rer":3684,"umber":3685,"Ġlabour":3686,"rid":3687,"ĠAfter":3688,"Ġrate":3689,"Ġthrow":3690,"work":3691,"All":3692,"Ġcru":3693,"Ġtwice":3694,"Ġmatters":3695,"iterary":3696,"Ġexample":3697,"_.âĢĶ":3698,"Ġpity":3699,"ĠMargaret":3700,"Ġaccompl":3701,"Ġinterv":3702,"Ġdecla":3703,"reen":3704,"Ġbattle":3705,"Ġlose":3706,"Ġforms":3707,"Ġwear":3708,"Ġstream":3709,"Ġenem":3710,"Ġiron":3711,"Ġmedium":3712,".]":3713,"Ġbri":3714,"Ġmeth":3715,"Ġmanners":3716,"Ġdistant":3717,"Ġtrade":3718,"III":3719,"Ġmeeting":3720,"Ġparticularly":3721,"por":3722,"Ġtal":3723,"Ġpage":3724,"omas":3725,"Ġaffairs":3726,"ae":3727,"fit":3728,"first":3729,"Ġstone":3730,"ĠBeaufort":3731,"Ġmelancholy":3732,"ĠCaroline":3733,"13":3734,"TO":3735,"ĠArch":3736,"low":3737,"Ġgate":3738,"Ġreading":3739,"Ġutter":3740,"Ġoriginal":3741,"ĠEl":3742,"ĠEx":3743,"Ġcheck":3744,"Ay":3745,"del":3746,"eper":3747,"irley":3748,"Ġstat":3749,"ĠFrom":3750,"Ġshadow":3751,"Ġcorner":3752,"Ġcovered":3753,"ĠNe":3754,"Ġwrote":3755,"Ġcarry":3756,"itive":3757,"Ġbank":3758,"Ġpardon":3759,"ending":3760,"aped":3761,"Ġdestro":3762,"Let":3763,"Ġthorough":3764,"Ġyield":3765,"Ġproduce":3766,"Ġprinciple":3767,"Ġbon":3768,"ĠSee":3769,"athcliff":3770,"Ġpounds":3771,"turn":3772,"Ġignor":3773,"Ġoffered":3774,"standing":3775,"ĠChurch":3776,"ĠScott":3777,"othes":3778,"iver":3779,"Ġdue":3780,"irty":3781,"ĠMort":3782,"Ġunivers":3783,"Ġprefer":3784,"Ġplaces":3785,"Ġbeginning":3786,"Ġrendered":3787,"ruct":3788,"Ġmeasure":3789,"RA":3790,"mund":3791,"Ġpause":3792,"Ġstock":3793,"ailed":3794,"Ġheight":3795,"Ġthrew":3796,"umn":3797,"astings":3798,"Ġentertain":3799,"Ġestab":3800,"Ġimmediate":3801,"Ġtong":3802,"Ġimper":3803,"Ġsecure":3804,"mit":3805,"using":3806,"Ġpossess":3807,"lo":3808,"held":3809,"udding":3810,"Ġusually":3811,"Ġgives":3812,"Ġmentioned":3813,"'ve":3814,"Ġmode":3815,"Ġbesides":3816,"uge":3817,"word":3818,"hern":3819,"ĠJew":3820,"Ġhearing":3821,"Ġprovide":3822,"Ġhistory":3823,"lour":3824,"Ġmoral":3825,"Ġdism":3826,"ensive":3827,"Ġfem":3828,"rang":3829,"icked":3830,"Ġgetting":3831,"Ġfavourite":3832,"ĠCopperfield":3833,"16":3834,"affect":3835,"bre":3836,"atic":3837,"Ġwealth":3838,"Ġpreced":3839,"Ġwalking":3840,"Ġwait":3841,"Ġshowed":3842,"Ġproceeded":3843,"cur":3844,"Ġfarther":3845,"Ġnur":3846,"cknow":3847,"Ġstreet":3848,"Ġacknow":3849,"antic":3850,"axon":3851,"Ġhighly":3852,"Ġwalls":3853,"Ġflavour":3854,"interest":3855,"Ġgar":3856,"Ġreve":3857,"Ġappears":3858,"Ġgrief":3859,"common":3860,"take":3861,"Ġsize":3862,"Ġshame":3863,"Ġreader":3864,"Ġlaughed":3865,"Ġimprove":3866,"14":3867,"ean":3868,"isk":3869,"Ġexcl":3870,"Ġrace":3871,"Ġsurr":3872,"Ġkeeping":3873,"Ġgirls":3874,"Ġtakes":3875,"inite":3876,"eds":3877,"enne":3878,"acity":3879,"ops":3880,"Ġclosed":3881,"Ġcheek":3882,"Ġcondition":3883,"ustomed":3884,"Ġ&":3885,"Ġoper":3886,"Ġdressed":3887,"Ġterm":3888,"Ġprogress":3889,"Ġsplend":3890,"Ġpossessed":3891,"Ġsurprised":3892,"ydia":3893,"_.":3894,"aving":3895,"Ġcool":3896,"Ġpiece":3897,"ental":3898,"Ġreach":3899,"ĠHarriet":3900,"Ġrare":3901,"Ġserious":3902,"Ġconstant":3903,"hus":3904,"22":3905,"sur":3906,"ashed":3907,"ĠAND":3908,"estions":3909,"elly":3910,"Ġsensible":3911,"yp":3912,"Ġcott":3913,"Ġdisappoint":3914,"Ġregular":3915,"Ġmarked":3916,"Ġpermission":3917,"ĠTraddles":3918,"Ġfamiliar":3919,"His":3920,"mosp":3921,"Ġbent":3922,"Ġbeside":3923,"Ġwide":3924,"attered":3925,"ĠAb":3926,"Ġamid":3927,"duce":3928,"Ġforest":3929,"Ġemployed":3930,"Ġur":3931,"enc":3932,"another":3933,"necess":3934,"Ġyours":3935,"Ġbrow":3936,"ĠJem":3937,"Ġdelicate":3938,"ox":3939,"utation":3940,"Ġgreatly":3941,"Ġcompar":3942,"Ġeffort":3943,"Ġordinary":3944,"conf":3945,"Ġlaughing":3946,"Ġhigher":3947,"Ġforgotten":3948,"iation":3949,"err":3950,"Ġgro":3951,"Ġorgan":3952,"aleb":3953,"Ġmess":3954,"Ġcivil":3955,"ST":3956,"ĠCon":3957,"Ġproof":3958,"Ġchanges":3959,"Ġwaiting":3960,"Ġgovernment":3961,"Ġgradually":3962,"yet":3963,"Ġpowers":3964,"icense":3965,"Ġgod":3966,"Ġspite":3967,"Ġextent":3968,"chant":3969,"Ġevents":3970,"Ġwelcome":3971,"ky":3972,"oul":3973,"Ġbird":3974,"Ġbell":3975,"ĠAgnes":3976,"Ġspread":3977,"ĠThomas":3978,"Ġcastle":3979,"Ġmurm":3980,"bes":3981,"Ġliqu":3982,"Ġknowing":3983,"Ġspeed":3984,"young":3985,"Ġbelief":3986,"Ġsuffer":3987,"Ġsingular":3988,"One":3989,"sy":3990,"vis":3991,"zen":3992,"Ġvast":3993,"Ġinvol":3994,"rington":3995,"Ġdiscover":3996,"isto":3997,"idney":3998,"Ġcompre":3999,"Ġmeaning":4000,"Ġmistress":4001,"Ġpopular":4002,"Ġsmooth":4003,"Ġstern":4004,"Ġlower":4005,"ĠIone":4006,"elve":4007,"irect":4008,"Ġfault":4009,"many":4010,"Ġloc":4011,"Ġslave":4012,"Ġhoped":4013,"mar":4014,"Ġsigh":4015,"arcy":4016,"lley":4017,"Ġindul":4018,"Ġcircumstance":4019,"Ġmill":4020,"Ġeat":4021,"aunt":4022,"Ġsche":4023,"Ġmoder":4024,"THE":4025,"Ġfold":4026,"Ġcup":4027,"Ġalarm":4028,"aper":4029,"down":4030,"rong":4031,"oned":4032,"Ġinn":4033,"ĠHall":4034,"Ġunhappy":4035,"Ġeduc":4036,"Ġphenomena":4037,"iosity":4038,"Ġess":4039,"ĠKee":4040,"Ġevent":4041,"randon":4042,"car":4043,"Ġmiss":4044,"Ġartic":4045,"Ġconsiderable":4046,"aspoonful":4047,"mbers":4048,"LI":4049,"gue":4050,"Ġbirth":4051,"Ġpot":4052,"Ġexper":4053,"ounds":4054,"Ġcorrespond":4055,"Ġdwell":4056,"Ġaside":4057,"ushing":4058,"umph":4059,"Ġremoved":4060,"ocks":4061,"Ġnaturally":4062,"Ġsensation":4063,"Ġcontrary":4064,"Ġroyal":4065,"course":4066,"Ġow":4067,"inton":4068,"esterday":4069,"pur":4070,"Ġbrief":4071,"Ġrecomm":4072,"ĠGree":4073,"suff":4074,"Ġinstance":4075,"Ġrelation":4076,"TION":4077,"mother":4078,"ayenne":4079,"thou":4080,"Ġacquainted":4081,"Ġprovided":4082,"appear":4083,"Ġrom":4084,"Ġdouble":4085,"Ġunderstood":4086,"return":4087,"Ġexpressed":4088,"ĠMay":4089,"osom":4090,"ĠPaul":4091,"Ġproved":4092,"Ġabsence":4093,"Ġcheerful":4094,"CT":4095,"ially":4096,"ouis":4097,"Ġmour":4098,"icity":4099,"Ġasse":4100,"Ġincrease":4101,"shall":4102,"Ġphrase":4103,"gain":4104,"oker":4105,"ugh":4106,"ldom":4107,"Ġthine":4108,"eline":4109,"ĠJob":4110,"Ġcouple":4111,"RI":4112,"umm":4113,"Ġriver":4114,"Ġbuild":4115,"Ġremarkable":4116,"Ġoccupied":4117,"phew":4118,"ĠKeats":4119,"34":4120,"AM":4121,"wind":4122,"Ġwinter":4123,"Ġming":4124,"Ġfight":4125,"Ġseven":4126,"conc":4127,"Ġregret":4128,"Ġpromised":4129,"xion":4130,"Ġcream":4131,"Ġwithd":4132,"rose":4133,"Ġweather":4134,"Ġprove":4135,"Ġperform":4136,"ĠJames":4137,"Ġcarefully":4138,"Ġpersonal":4139,"Ġcrown":4140,"Ġlistened":4141,"gutenberg":4142,"vent":4143,"Ġscience":4144,"Ġears":4145,"ĠSuch":4146,"bey":4147,"inks":4148,"Ġparties":4149,"Ġ16":4150,"Ġdescribed":4151,"ĠMontfort":4152,"same":4153,"ĠSibyll":4154,"ĠBert":4155,"ateful":4156,"ĠPl":4157,"pton":4158,"Ġamount":4159,"Ġintim":4160,"ealous":4161,"iest":4162,"unning":4163,"agement":4164,"pected":4165,"ĠThor":4166,"Ġcalcul":4167,"Ġax":4168,"Ġaid":4169,"Ġpan":4170,"Ġbeef":4171,"aud":4172,"overn":4173,"Ġmagnet":4174,"Ġcompanions":4175,"ĠArchive":4176,"Ġparent":4177,"omin":4178,"Ġlives":4179,"Ġsufficiently":4180,"Ġwhispered":4181,"Ġrecollect":4182,"Ġpicture":4183,"reason":4184,"ĠBrit":4185,"Ġprospect":4186,"Ġfortun":4187,"ĠWeston":4188,"pres":4189,"zz":4190,"Ġsuit":4191,"Ġchoice":4192,"Ġsatisfied":4193,"chen":4194,"Ġbore":4195,"Ġweeks":4196,"Ġstro":4197,"Ġconve":4198,"Ġdistress":4199,"Ġvisible":4200,"ĠIsab":4201,"bers":4202,"van":4203,"vert":4204,"Ġsuspect":4205,"ĠRoy":4206,"Ġbecomes":4207,"ĠOldbuck":4208,"Ġnarrow":4209,"icated":4210,"Ġscorn":4211,"Ġgallant":4212,"gum":4213,"pic":4214,"Ġfac":4215,"Ġ12":4216,"Ġpossession":4217,"AT":4218,"Her":4219,"bly":4220,"Ġtall":4221,"Ġshout":4222,"agree":4223,"ensity":4224,"liament":4225,"Ġgrey":4226,"Ġincluding":4227,"Ġleaves":4228,"fam":4229,"Ġhint":4230,"iring":4231,"Ġassu":4232,"ĠRE":4233,"Ġsmiled":4234,"Ġlisten":4235,"Ġfreed":4236,"something":4237,"Come":4238,"too":4239,"itchen":4240,"Ġcases":4241,"ĠCastle":4242,"ordinary":4243,"Ġcommer":4244,"duction":4245,"ades":4246,"ieved":4247,"Ġgoes":4248,"Ġharm":4249,"Ġsky":4250,"Ġmarket":4251,"Ġexternal":4252,"Ġnobody":4253,"Ġarch":4254,"Ġobtained":4255,"shire":4256,"came":4257,"ref":4258,"Ġcourage":4259,"Ġapplic":4260,"ifford":4261,"Ġaccompan":4262,"Ġjoined":4263,"book":4264,"host":4265,"uable":4266,"Ġsour":4267,"erforth":4268,"Ġfaint":4269,"Ġgame":4270,"Ġinterrupted":4271,"After":4272,"stairs":4273,"hers":4274,"ĠDarcy":4275,"arson":4276,"Ġindepend":4277,"Ġsuffered":4278,"Ġdespair":4279,"Ġfun":4280,"still":4281,"Ġprinciples":4282,"Ġpocket":4283,"isp":4284,"Ġpit":4285,"ulated":4286,"esty":4287,"acqu":4288,"Ġadvanced":4289,"Ġcurrent":4290,"Ġpowerful":4291,"Ġvariety":4292,"Ġpriest":4293,"life":4294,"opp":4295,"habit":4296,"Ġmaterial":4297,"always":4298,"Ġdisturb":4299,"Ġintended":4300,"ĠThus":4301,"appeared":4302,"noon":4303,"Ġtables":4304,"Ġpos":4305,"Ġsacri":4306,"rue":4307,"Ġprince":4308,"Ġbox":4309,"Ġefforts":4310,"35":4311,"Ġmat":4312,"Ġtot":4313,"Ġhes":4314,"ĠAsh":4315,"Ġconven":4316,"Ġexhib":4317,"usted":4318,"oster":4319,"tains":4320,"Ġhearts":4321,"Ġwants":4322,"Ġsympathy":4323,"circ":4324,"po":4325,"yle":4326,"inent":4327,"Ġfright":4328,"Ġfriar":4329,"asions":4330,"Ġnotion":4331,"Ġorbit":4332,"Ġexec":4333,"ems":4334,"acon":4335,"Ġproc":4336,"Ġrepresent":4337,"ĠYour":4338,"Ġdomestic":4339,"rot":4340,"Ġtempt":4341,"hel":4342,"ĠHastings":4343,"eping":4344,"Ġangry":4345,"Ġmethod":4346,"rors":4347,"Ġident":4348,"Ġband":4349,"child":4350,"emark":4351,"Ġrefund":4352,"Ġpaused":4353,"Ġcruel":4354,"Eng":4355,"erves":4356,"ĠSe":4357,"Ġlover":4358,"Ġcopies":4359,"ĠAdrian":4360,"fortunate":4361,"errars":4362,"Ġwad":4363,"aker":4364,"Ġdelighted":4365,"rict":4366,"asons":4367,"ĠOur":4368,"clock":4369,"Ġconsideration":4370,"Ġfallen":4371,"Ġseparate":4372,"Ġadmiration":4373,"ĠMorton":4374,"Ġtongue":4375,"col":4376,"yr":4377,"requ":4378,"Ġga":4379,"ĠMart":4380,"ĠWhere":4381,"Ġpurcha":4382,"Ġsooner":4383,"Ġobservation":4384,"Ġremembered":4385,"rooge":4386,"lva":4387,"Ġwin":4388,"Ġpressed":4389,"atory":4390,"unk":4391,"Ġdisg":4392,"Ġroof":4393,"Ind":4394,"Ġcab":4395,"ĠMan":4396,"Ġship":4397,"ĠEvery":4398,"Ġaddressed":4399,"Ġ30":4400,"Ġcircle":4401,"Ġbrave":4402,"--------":4403,"36":4404,"ral":4405,"Ġforced":4406,"ulse":4407,"Ġdidn":4408,"Ġbuy":4409,"iven":4410,"urbed":4411,"cho":4412,"Ġstation":4413,"Ġquality":4414,"bro":4415,"found":4416,"ias":4417,"mas":4418,"orp":4419,"Ġdull":4420,"Ġhill":4421,"ĠDuke":4422,"Ġworst":4423,"ĠShirley":4424,"Ġgenius":4425,"Ġthoroughly":4426,"Ar":4427,"lin":4428,"Ġfrank":4429,"icular":4430,"ĠHeathcliff":4431,"Ġobserve":4432,"ĠEdmund":4433,"hampton":4434,"Ġvillage":4435,"Ġbid":4436,"Ġpla":4437,"ĠBrandon":4438,"Ġwholly":4439,"ruction":4440,"Ġrain":4441,"lets":4442,"Ġapproached":4443,"give":4444,"Ġnephew":4445,"Ġrough":4446,"Ġcloth":4447,"Ġmoments":4448,"Ġprincipal":4449,"ading":4450,"Ġnearer":4451,"ais":4452,"bbed":4453,"ped":4454,"Ġoven":4455,"aymond":4456,"gel":4457,"Ġtwelve":4458,"Ġgrav":4459,"ails":4460,"cond":4461,"Ġbosom":4462,"Ġatmosp":4463,"key":4464,"Ġstarted":4465,"Ġdignity":4466,"Ġassured":4467,"fax":4468,"wo":4469,"Ġcayenne":4470,"eless":4471,"ĠFrance":4472,"Ġarrival":4473,"Ġdisplay":4474,"Ġsolitary":4475,"Ġimagine":4476,"Ġconcerning":4477,"ĠCountess":4478,"Ġpu":4479,"Ġmyster":4480,"ĠOlva":4481,"Ġpepper":4482,"Ġveal":4483,"Ġqualities":4484,"idently":4485,"Ġshr":4486,"Ġspent":4487,"Ġplate":4488,"Ġeverybody":4489,"obser":4490,"ĠStreet":4491,"Ġnorth":4492,"Ġwhisper":4493,"Ġmountain":4494,"Ġstudy":4495,"fall":4496,"Ã¦":4497,"ales":4498,"--âĢĿ":4499,"achment":4500,"Ġbusy":4501,"Ġelectricity":4502,"Ġphysical":4503,".)":4504,"24":4505,";âĢĶ":4506,"ĠCan":4507,"ĠTheir":4508,"ĠFoker":4509,"Ġcapable":4510,"ĠChapter":4511,"esh":4512,"asy":4513,"spir":4514,"Ġframe":4515,"consider":4516,"Who":4517,"Ġassociated":4518,"God":4519,"bid":4520,"Ġlux":4521,"perhaps":4522,"Ġfail":4523,"Ġ14":4524,"Ġemotion":4525,"Ġmuttered":4526,"Ġdimin":4527,"bled":4528,"ois":4529,"Ġ*":4530,"Ġcaptain":4531,"Ġreven":4532,"ĠAnt":4533,"inds":4534,"Ġamuse":4535,"Ġsmiling":4536,"Ġpresented":4537,"Ġteaspoonful":4538,"Ġaffections":4539,"Ġinteresting":4540,"ugust":4541,"Good":4542,"met":4543,"Ġtale":4544,"Ġsate":4545,"Ġborn":4546,"ĠIN":4547,"inda":4548,"astic":4549,"ĠDick":4550,"udent":4551,"Ġshape":4552,"Ġadvent":4553,"Ġdiscus":4554,"ĠAdam":4555,"Lord":4556,"Ġlately":4557,"Ġgain":4558,"entions":4559,"Ġvo":4560,"const":4561,"Ġboard":4562,"Ġassure":4563,"Ġadmitted":4564,"Ġskin":4565,"Ġvolunt":4566,"country":4567,"Ġthreat":4568,"Ġspr":4569,"ĠJul":4570,"Ġattached":4571,"ival":4572,"Ġcuriosity":4573,"Ġceased":4574,"oqu":4575,"ĠCaleb":4576,"Ġrad":4577,"Ġfloor":4578,"Ġreflection":4579,"Ġhastily":4580,"Ġprofession":4581,"baces":4582,"hon":4583,"Ġfood":4584,"ranged":4585,"ĠShelley":4586,"Ġamongst":4587,"Ġmerry":4588,"against":4589,"ĠCharles":4590,"Ġsnow":4591,"ingley":4592,"anation":4593,"Ġhate":4594,"ension":4595,"Ġexcited":4596,"Ġsentiment":4597,"Ġideas":4598,"ĠPrince":4599,"Ġhouses":4600,"Ġseated":4601,"Ġseldom":4602,"Ġdeli":4603,"Ġactive":4604,"Ġsubstance":4605,"Ġincreased":4606,"Ġbrilli":4607,"eral":4608,"rain":4609,"Ġmighty":4610,"Ġwatched":4611,"Ġcover":4612,"Ġjudgment":4613,"verer":4614,"CH":4615,"Ġmor":4616,"Ġstairs":4617,"Ġlies":4618,"Ġjealous":4619,"Ġperceived":4620,"Ġchoose":4621,"Ġboat":4622,"Ġcoach":4623,"Ġstreets":4624,"Ġneighbourhood":4625,"athered":4626,"sue":4627,"Ġpair":4628,"Ġluck":4629,"rive":4630,"cca":4631,"Ġentrance":4632,"Ġrepro":4633,"Ġconfess":4634,"Ġcrit":4635,"Ġdarkness":4636,"Ġrequest":4637,"ennet":4638,"Ġimportance":4639,"ĠRobin":4640,"fety":4641,"Ġtim":4642,"Ġtest":4643,"Ġtoler":4644,"Ġpet":4645,"Ġquart":4646,"assion":4647,"Ġrelations":4648,"ĠYOU":4649,"Ġanxiety":4650,"Ġfierce":4651,"mist":4652,"orne":4653,"otions":4654,"ĠAm":4655,"Ġjoint":4656,"Ġperception":4657,"ranc":4658,"ĠWho":4659,"Ġambition":4660,"aries":4661,"three":4662,"Ġminister":4663,"Ġnecessity":4664,"Ġconvinced":4665,"Ġintellectual":4666,"37":4667,"Of":4668,"sat":4669,"ilton":4670,"ighed":4671,"Ġanyone":4672,"Ġusing":4673,"because":4674,"ĠStrong":4675,"Ġempt":4676,"Ġabsolutely":4677,";âĢĿ":4678,"got":4679,"mons":4680,"pon":4681,"Ġbill":4682,"Ġmult":4683,"Ġfront":4684,"seen":4685,"racy":4686,"illa":4687,"ĠLinton":4688,"Ġgenerous":4689,"Ġfully":4690,"brance":4691,"Ġsoup":4692,"ixture":4693,"ĠColonel":4694,"John":4695,"Lady":4696,"Nay":4697,"RO":4698,"Ġyesterday":4699,"Ġaccustomed":4700,"Ġimagination":4701,"ĠElton":4702,"Ġtro":4703,"heard":4704,"Ġnames":4705,"Ġyes":4706,"Ġabroad":4707,"ĠĠĠĠĠĠĠĠĠĠĠĠĠĠ":4708,"Ġdesired":4709,"Ġguide":4710,"Ġboys":4711,"Ġtouched":4712,"ĠScotland":4713,"ĠSmith":4714,"quite":4715,"Ġshown":4716,"Ġoccurred":4717,"Very":4718,"case":4719,"last":4720,"Ġease":4721,"Ġstop":4722,"Ġlightly":4723,"Ġrelig":4724,"Ġsensations":4725,"Ġprevious":4726,"Ġdropped":4727,"Will":4728,"pit":4729,"iny":4730,"inction":4731,"itor":4732,"entworth":4733,"igan":4734,"Ġputting":4735,"Ġfinding":4736,"Ġsolic":4737,"Ġbaron":4738,"contin":4739,"bar":4740,"ipe":4741,"power":4742,"ishes":4743,"order":4744,"becca":4745,"Ġjoin":4746,"LA":4747,"fa":4748,"urs":4749,"ĠTO":4750,"ĠBr":4751,"ĠWick":4752,"Ġnovel":4753,"udes":4754,"ella":4755,"Ġobtain":4756,"Ġabsor":4757,"Ġpermitted":4758,"Ġguests":4759,"ĠHighland":4760,"vious":4761,"ller":4762,"Ġdiam":4763,"Ġham":4764,"Ġones":4765,"pelled":4766,"ĠChe":4767,"olit":4768,"ĠFerrars":4769,"Ġattended":4770,"Ġheads":4771,"Ġhurried":4772,"Ġrapidly":4773,"Ġliberty":4774,"cr":4775,"erous":4776,"aule":4777,"Ġterror":4778,"Ġwonderful":4779,"Ġresem":4780,"38":4781,"Ch":4782,"IV":4783,"ded":4784,"edric":4785,"Ġpull":4786,"Ġhen":4787,"Ġwhenever":4788,"Ġrude":4789,"ĠLouis":4790,"Ġquestions":4791,"Ġshoulder":4792,"Ġopening":4793,"ĠWarrington":4794,"asped":4795,"Ġtrembling":4796,"ĠAshton":4797,"armed":4798,"Ġseized":4799,"why":4800,"Ġfriendship":4801,"ĠArbaces":4802,"Ġdisposition":4803,"Thou":4804,"ĠMadeline":4805,"ĠKnightley":4806,"ĠMon":4807,"Ġstorm":4808,"ĠWay":4809,"Ġprecise":4810,"Ġkindly":4811,"Ġillust":4812,"Ġservants":4813,"Ġagreed":4814,"Ġfrequently":4815,"Ġcomprehend":4816,"Ġassemb":4817,"bury":4818,"opt":4819,"sent":4820,"Ġtreas":4821,"sters":4822,"urity":4823,"Ġshore":4824,"Ġprice":4825,"Ġretreat":4826,"Ġyounger":4827,"Ġexcuse":4828,"Ġvel":4829,"Ġdeeply":4830,"ĠHowever":4831,"organ":4832,"ĠParis":4833,"Ġdistinguished":4834,"auleverer":4835,"Per":4836,"water":4837,"Ġbran":4838,"Ġgle":4839,"ential":4840,"Ġperceive":4841,"Ġflesh":4842,",--âĢľ":4843,"Ġreflect":4844,"Ġadvice":4845,"Ġapproach":4846,"ĠClar":4847,"Ġinquired":4848,"between":4849,"ĠSteerforth":4850,"ĠSaxon":4851,"Ġbride":4852,"Ġevidence":4853,"Ġdirected":4854,"Ġdegrees":4855,"Ġslaves":4856,"While":4857,"Ġdaily":4858,"Ġodd":4859,"cap":4860,"Ġwond":4861,"Ġcaut":4862,"Ġexert":4863,"These":4864,"Ġobst":4865,"Ġprint":4866,"Ġearli":4867,"Ġpainful":4868,"Ġsatisfaction":4869,"Ġfemale":4870,"Ġmoderate":4871,"Ġfle":4872,"Ġgained":4873,"isting":4874,"Ġdesir":4875,"Ġcrime":4876,"Ġtrif":4877,"Sc":4878,"boy":4879,"rect":4880,"Ġven":4881,"ĠEven":4882,"ĠGeneral":4883,"Ġ25":4884,"Ġpaste":4885,"Ġuttered":4886,"26":4887,":--":4888,"Ġwretched":4889,"ators":4890,"ashing":4891,"Ġblow":4892,"Ġinstrum":4893,"Ġbrain":4894,"Ġauthority":4895,"Ġexchange":4896,"Ġinnocent":4897,"Ġtar":4898,"Ġau":4899,"Ġsides":4900,"Ġoutside":4901,"away":4902,"Ġmodern":4903,"Ġmoving":4904,"Ġruin":4905,"ĠClifford":4906,"Ġaffectionate":4907,"Ġconnected":4908,"27":4909,"30":4910,"iner":4911,"Ġcontempt":4912,"Ġpreserve":4913,"Ġobserv":4914,"Ġparlour":4915,"better":4916,"Ġavoid":4917,"'re":4918,"table":4919,"Ġtask":4920,"Ġaud":4921,"erted":4922,"Ġkitchen":4923,"Ġanybody":4924,"Ġowner":4925,"Ġrelative":4926,"Ġforgive":4927,"Ġvirtue":4928,"Ġhitherto":4929,"Ġaccompanied":4930,"NOT":4931,"Ġtit":4932,"orious":4933,"Ġhaught":4934,"oused":4935,"ĠĠĠĠĠĠĠĠĠĠĠĠĠ":4936,"Ġaccur":4937,"Ġattack":4938,"Ġawa":4939,"Ġsentence":4940,"oehampton":4941,"Ġregarded":4942,"ET":4943,"woman":4944,"Â·":4945,"Ġsin":4946,"hant":4947,"Ġdate":4948,"seemed":4949,"world":4950,"arrass":4951,"Ġtemperature":4952,"Ġwishes":4953,"Ġsli":4954,"Ġsafety":4955,"ĠRev":4956,"Ġpresently":4957,"Ġactually":4958,"Ġeffects":4959,"Ġdivided":4960,"28":4961,"Ġtur":4962,"orous":4963,"leg":4964,"quar":4965,"mean":4966,"Ġuseful":4967,"ĠQu":4968,"Un":4969,"Ġways":4970,"Ġhabits":4971,"ĠCome":4972,"Ġunf":4973,"ĠGer":4974,"Ġimpression":4975,"Ġseries":4976,"Ġminds":4977,"Ġdisposed":4978,"Ġlegal":4979,"Ġprotect":4980,"urdstone":4981,"Fanny":4982,"present":4983,"Ġbare":4984,"quire":4985,"people":4986,"Ġdesign":4987,"Ġhumour":4988,"Ġplayed":4989,"glass":4990,"Where":4991,"itz":4992,"Ġcord":4993,"Ġlot":4994,"nton":4995,"inking":4996,"Ġpartly":4997,"Ġpointed":4998,"Ġmiserable":4999,"Ġaccordingly":5000,"gypt":5001,"Ġsettle":5002,"Ġpraise":5003,"four":5004,"follow":5005,"Ġmal":5006,"lebr":5007,"Ġaspect":5008,"Ġ19":5009,"Ġresumed":5010,"Ġpassions":5011,"Ġentreat":5012,"Ġproposed":5013,"Ġstraight":5014,"ĠLovel":5015,"line":5016,"hast":5017,"Ġpick":5018,"arse":5019,"arewell":5020,"Ġspare":5021,"udd":5022,"Ġcoat":5023,"Ġremains":5024,"appro":5025,"Ġutmost":5026,"ĠWhile":5027,"Ġdistributing":5028,"Ġdistribution":5029,"Ġexplanation":5030,"pany":5031,"Ġlone":5032,"leep":5033,"Ġsell":5034,"pel":5035,"Ġdesper":5036,"Ġsenses":5037,"change":5038,"since":5039,"Ġpoured":5040,"Ġsevere":5041,"ĠRaymond":5042,"Ġguess":5043,"Ġinfer":5044,"Ġdecided":5045,"Ġsubjects":5046,"Ġsisters":5047,"Ġselfish":5048,"Ġprisoner":5049,"Em":5050,"enes":5051,"ĠCHAPTER":5052,"ivered":5053,"ĠFOR":5054,"Ġimage":5055,"Ġobsc":5056,"Ġdirections":5057,"velop":5058,"Ġconsequently":5059,"iquary":5060,"love":5061,"Ġhosp":5062,"ĠĠĠĠĠĠĠĠĠĠ":5063,"Ġafternoon":5064,"Ġcontinue":5065,"person":5066,"Ġfifty":5067,"af":5068,"cence":5069,"pher":5070,"poss":5071,"tra":5072,"Ġdi":5073,"aches":5074,"comfort":5075,"Ġconfusion":5076,"Ġsouth":5077,"Ġviews":5078,"25":5079,"Obs":5080,"UT":5081,"Ġtree":5082,"Ġmental":5083,"Ġpie":5084,"Ġrenew":5085,"Ġdefect":5086,"ĠBingley":5087,"Ġride":5088,"Ġperman":5089,"izing":5090,"ĠScrooge":5091,"looked":5092,"Ġaccepted":5093,"Ġpolitical":5094,":âĢĶ":5095,"xed":5096,"inn":5097,"Ġwilling":5098,"inegar":5099,"rup":5100,"ĠNature":5101,"Ġcareless":5102,"Ġplanet":5103,"Mar":5104,"fice":5105,"Ġwarn":5106,"ifference":5107,"ĠEgypt":5108,"ĠFrank":5109,"ode":5110,"ĠRed":5111,"ĠNev":5112,"Ġgroup":5113,"Ġindign":5114,"Ġdelightful":5115,"Ġwidow":5116,"Pro":5117,"esides":5118,"imin":5119,"iform":5120,"respect":5121,"Ġarise":5122,"Ġvision":5123,"Ġquietly":5124,"Ġsucceeded":5125,"Ġwore":5126,"Ġmould":5127,"Ġcher":5128,"Ġstyle":5129,"Ġ24":5130,"myself":5131,"Ġsoldier":5132,"ĠMacG":5133,"bald":5134,"make":5135,"Ġfan":5136,"Ġdance":5137,"leigh":5138,"Ġstage":5139,"ĠSat":5140,"ĠColl":5141,"Ġrul":5142,"Ġroast":5143,"rences":5144,"Ġsubs":5145,"Ġcalling":5146,"Ġproduct":5147,"Ġclosely":5148,"Ġexercise":5149,"Ġenemy":5150,"Ġatmosphere":5151,"sim":5152,"owl":5153,"Ġappoint":5154,"Ġservices":5155,"Ġcauses":5156,"Ġintelligence":5157,"Ġlocated":5158,"Ed":5159,"nal":5160,"nature":5161,"tran":5162,"Ġtired":5163,"Ġwages":5164,"Ġbeheld":5165,"Ġmyst":5166,"ulf":5167,"ĠDou":5168,"Ġspark":5169,"compl":5170,"ounce":5171,"grat":5172,"Ġquarrel":5173,"Ġorders":5174,"Ġwisdom":5175,"ĠChristian":5176,"pret":5177,"ĠTH":5178,"Ġconqu":5179,"Ġunfortunate":5180,"Ġargum":5181,"Ġcomposed":5182,"aughters":5183,"Ġrooms":5184,"Ġlawy":5185,"Ġhighest":5186,"rancis":5187,"ere":5188,"mitted":5189,"having":5190,"oms":5191,"ĠSidney":5192,"Ġsearch":5193,"ĠHad":5194,"ĠBennet":5195,"ague":5196,"Ġrode":5197,"Ġevident":5198,"ernon":5199,"Ġwindows":5200,"Ġendeavour":5201,"Don":5202,"ege":5203,"ĠâĢĻ":5204,"Ġpred":5205,"Ġreck":5206,"ĠSu":5207,"Ġshop":5208,"Ġfever":5209,"ĠGood":5210,"Ġcomply":5211,"Ġcontent":5212,"Ġtriumph":5213,"AD":5214,"Pen":5215,"bus":5216,"lord":5217,"Ġmild":5218,"ange":5219,"Ġthro":5220,"acle":5221,"Ġjuice":5222,"Ġoccasions":5223,"Ġelder":5224,"Ġmingled":5225,"zy":5226,"Ġtrying":5227,"alley":5228,"Ġshel":5229,"osen":5230,"ĠElli":5231,"agu":5232,"Ġrefer":5233,"unting":5234,"Ġreadily":5235,"Ġfinished":5236,"Ġresolution":5237,"Ġcrossed":5238,"ĠWoodhouse":5239,"AG":5240,"aves":5241,"cil":5242,"kins":5243,"rish":5244,"sil":5245,"Ġmix":5246,"Ġling":5247,"Ġyonder":5248,"Ġascertain":5249,"urope":5250,"Ġrot":5251,"Ġalike":5252,"Ġadopt":5253,"Ġlovely":5254,"Ġwatching":5255,"Ġconstantly":5256,"Ġpatron":5257,"Ġinquiry":5258,"Ġdeclared":5259,"Ġuniversal":5260,"rated":5261,"zed":5262,"question":5263,"asts":5264,"olation":5265,"Ġabrupt":5266,"Ġunknown":5267,"Ġretired":5268,"small":5269,"Ġmidst":5270,"ĠBlanche":5271,"Ġterrible":5272,"Ġsurrounded":5273,"ĠJulia":5274,"rather":5275,"Ġho":5276,"Ġrejo":5277,"ĠMany":5278,"acher":5279,"olar":5280,"Ġalive":5281,"Ġthinks":5282,"withstanding":5283,"Ġraise":5284,"Ġkey":5285,"Ġleading":5286,"Ġadditional":5287,"Ġidle":5288,"Ġfingers":5289,"inity":5290,"aduke":5291,"ĠCedric":5292,"ĠBath":5293,"ieur":5294,"armaduke":5295,"Ġholding":5296,"Ġbrand":5297,"Ġdangerous":5298,"Ġextraordinary":5299,"rec":5300,"itution":5301,"Ġmatch":5302,"cean":5303,"ĠAp":5304,"Ġshake":5305,"Ġsurely":5306,"Ġmasters":5307,"gentleman":5308,"overnment":5309,"Ġmach":5310,"essel":5311,"Ġanger":5312,"---":5313,"meat":5314,"Ġplane":5315,"whom":5316,"Ġaccident":5317,"Ġskill":5318,"Ġcomfortable":5319,"Ġfatal":5320,"natural":5321,"Ġconsciousness":5322,"Ġexceedingly":5323,"Ġain":5324,"hamed":5325,"Ġcit":5326,"ĠBel":5327,"Ġshot":5328,"Ġfreely":5329,"ĠAllen":5330,"Ġopinions":5331,"however":5332,"born":5333,"far":5334,"rat":5335,"Ġbab":5336,"essor":5337,"Ġsus":5338,"Ġexcess":5339,"ĠLong":5340,"onsieur":5341,"Ġsupper":5342,"Ġpropri":5343,"....":5344,"ĠRebecca":5345,"Re":5346,"tem":5347,"inf":5348,"Ġcapt":5349,"ilities":5350,"Ġsoot":5351,"ulate":5352,"ulgar":5353,"Ġmisery":5354,"Ġmotions":5355,"Ġunex":5356,"Ġsuspicion":5357,"97":5358,"OM":5359,"gers":5360,"iant":5361,"mom":5362,"Ġtheory":5363,"Ġbal":5364,"Ġeconom":5365,"ĠLam":5366,"Ġcloak":5367,"Ġtransm":5368,"Ġoccasionally":5369,"Ġmutual":5370,"point":5371,"Ġtaught":5372,"Ġfly":5373,"Ġmechan":5374,"Ġvig":5375,"Ġfears":5376,"Ġnative":5377,"Ġexpense":5378,"cribed":5379,"Ġlarger":5380,"Ġcerem":5381,"Ġacknowled":5382,"agreeable":5383,"yard":5384,"ĠRoehampton":5385,"brother":5386,"Ġtrial":5387,"Ġcaused":5388,"Ġprotection":5389,"Ġconcerned":5390,"Ġspecies":5391,"ufact":5392,"mir":5393,"mag":5394,"itement":5395,"Ġmixture":5396,"Ġlying":5397,"ids":5398,"ĠBur":5399,"istone":5400,"Ġdoors":5401,"Ġaltern":5402,"Ġperpet":5403,"Ġcurious":5404,"Ġbearing":5405,"Ġanimal":5406,"Ġgratitude":5407,"Ġcompletely":5408,"Ġlater":5409,"ĠAugust":5410,"alls":5411,"ĠLiterary":5412,"Ġattachment":5413,"Ġconscience":5414,"object":5415,"Ġstriking":5416,"Ġlimited":5417,"ĠPerhaps":5418,"Ġconceal":5419,"necessary":5420,"Ġaut":5421,"erk":5422,"Ġbas":5423,"Ġnice":5424,"utions":5425,"Ġdearest":5426,"Ġplenty":5427,"Ġassumed":5428,"Ġveget":5429,"Ġtransp":5430,"Ġfalling":5431,"master":5432,"sbald":5433,"Åĵ":5434,"Ġmood":5435,"Ġhom":5436,"owards":5437,"Ġthirty":5438,"ĠMauleverer":5439,"Ġsav":5440,"Ġvac":5441,"ization":5442,"ashleigh":5443,"worthy":5444,"Ġvanity":5445,"Ġfrequent":5446,"Ġcottage":5447,"LL":5448,"mat":5449,"put":5450,"prom":5451,"esc":5452,"ĠMurdstone":5453,"ĠPeter":5454,"agger":5455,"oft":5456,"Ġ27":5457,"Ġwaters":5458,"Ġnewsp":5459,"Ġrelief":5460,"uckle":5461,"Ġadmit":5462,"door":5463,"Ġpoetry":5464,"Ġintroduced":5465,"VI":5466,"XX":5467,"mis":5468,"port":5469,"ĠBen":5470,"ishop":5471,"Ġcontempl":5472,"Ġvaluable":5473,"poor":5474,"het":5475,"Ġpor":5476,"Ġdine":5477,"immedi":5478,"Ġasser":5479,"things":5480,"ĠCal":5481,"osal":5482,"ĠFoster":5483,"Ġawful":5484,"unday":5485,"ĠThou":5486,"Ġfairly":5487,"Ġlordship":5488,"Ġbehold":5489,"Ġsquare":5490,"Ġamidst":5491,"circumst":5492,"Indeed":5493,"each":5494,"nor":5495,"Ġi":5496,"Ġty":5497,"asc":5498,"Ġholy":5499,"herself":5500,"ĠCost":5501,"Ġspend":5502,"ultiv":5503,"Ġassistance":5504,"Ġhorror":5505,"Ġlands":5506,"Ġdepth":5507,"ply":5508,"once":5509,"Ġfaces":5510,"throp":5511,"umin":5512,"Ġnod":5513,"Ġimpl":5514,"Ġshaking":5515,"Ġemp":5516,"Ġstrongly":5517,"Ġpaying":5518,"sbaldistone":5519,"Ġlat":5520,"Ġbeha":5521,"ĠHam":5522,"ĠPark":5523,"Ġpolic":5524,"Ġapproaching":5525,"Ġannounced":5526,"Ġounce":5527,"Ġgazed":5528,"Ġdestroy":5529,"cred":5530,"dep":5531,"gen":5532,"hip":5533,"matter":5534,"var":5535,"Ġbig":5536,"lls":5537,"Ġgathered":5538,"etter":5539,"Ġanaly":5540,"ifying":5541,"ĠSha":5542,"amma":5543,"ĠBuck":5544,"Ġgoods":5545,"Ġgrowing":5546,"Ġreturning":5547,"arns":5548,"Ġevidently":5549,"ĠNorth":5550,"Ġapparently":5551,"Ġfreedom":5552,"orporal":5553,"Ġinch":5554,"istribut":5555,"indeed":5556,"lease":5557,"Ġkeen":5558,"ilson":5559,"Ġkissed":5560,"ita":5561,"alone":5562,"illing":5563,"ĠST":5564,"acious":5565,"Ġabst":5566,"Ġglo":5567,"ibr":5568,"Ġaffair":5569,"Ġcelebr":5570,"Ġprepare":5571,"Ġdreadful":5572,"Ġgaze":5573,"29":5574,"Mary":5575,"ipp":5576,"name":5577,"Â°":5578,"Ġwilt":5579,"isure":5580,"Ġinhabit":5581,"Ġdying":5582,"icip":5583,"Ġsaved":5584,"quet":5585,"ĠCourt":5586,"Ġnoise":5587,"uns":5588,"Ġrob":5589,"Ġindic":5590,"Ġhumble":5591,"Ġpolar":5592,"Ġinclined":5593,"Ġhence":5594,"gs":5595,"Ġvers":5596,"Ġhollow":5597,"Ġlifted":5598,"ĠMor":5599,"Ġvessel":5600,"udden":5601,"ĠNed":5602,"Ġprim":5603,"fortune":5604,"bridge":5605,"Ġremembrance":5606,"arrant":5607,"Ġphilosophy":5608,"ĠeBooks":5609,"Ġscheme":5610,"Com":5611,"wixt":5612,"Ġnine":5613,"almost":5614,"Ġsail":5615,"Ġlibr":5616,"auce":5617,"Ġglory":5618,"racters":5619,"Ġadvance":5620,"Ġtrain":5621,"Ġeleg":5622,"cannot":5623,"ĠHelstone":5624,"eer":5625,"Ġflower":5626,"ĠVal":5627,"Ġexped":5628,"Ġdelay":5629,"prop":5630,"Ġsolitude":5631,"Ġdescription":5632,"Ġescaped":5633,"satisf":5634,"ault":5635,"money":5636,"Ġwed":5637,"Ġhyp":5638,"osure":5639,"ĠVernon":5640,"Ġrefused":5641,"rooms":5642,"Ġfearful":5643,"bourne":5644,"Ġdiscovery":5645,"subject":5646,"Ġpapers":5647,"Ġborne":5648,"Ġpudding":5649,"Ġbegg":5650,"Ġclothes":5651,"Ġgrown":5652,"Ġhappen":5653,"Ġsteady":5654,"Ġreceiving":5655,"Ġinterested":5656,"Ġprofound":5657,"Ġsounds":5658,"Ġmistake":5659,"Ġelements":5660,"Ġrunning":5661,"Ġdeparture":5662,"Ġeducation":5663,"Ġempty":5664,"Ġauld":5665,"ule":5666,"Ġcatch":5667,"atre":5668,"ĠSaint":5669,"ĠCam":5670,"weet":5671,"Ġclergy":5672,"coming":5673,"Ġbeloved":5674,"Ġsupply":5675,"Ġabsent":5676,"Ġnumbers":5677,"Ġexplain":5678,"Ġpursued":5679,"Ġknees":5680,"whether":5681,"ĠGreek":5682,"ĠWayland":5683,"ĠElliot":5684,"best":5685,"gone":5686,"liness":5687,"orse":5688,"Ġbew":5689,"rill":5690,"Ġgrateful":5691,"Ġloves":5692,"ĠThough":5693,"Ġgloomy":5694,"33":5695,"Ġ$":5696,"ste":5697,"umes":5698,"Ġnose":5699,"Ġarranged":5700,"ĠNever":5701,"ĠJan":5702,"Ġflatter":5703,"Ġfollows":5704,"Ġclever":5705,"Ġactual":5706,"Ġsoftly":5707,"www":5708,"Ġmaiden":5709,"ĠThornton":5710,"UR":5711,"doub":5712,"Ġbones":5713,"anville":5714,"ician":5715,"ĠIV":5716,"Ġyellow":5717,"Ġweary":5718,"Ġuniform":5719,"Ġparted":5720,"Ġremove":5721,"Ġapplied":5722,"character":5723,"Ġsquire":5724,"Ġembarrass":5725,"intell":5726,"sus":5727,"took":5728,"Ġple":5729,"Ġpill":5730,"Ġdu":5731,"Ġdust":5732,"Ġgather":5733,"Ġforty":5734,"Ġweap":5735,"Ġsand":5736,"ĠAN":5737,"antages":5738,"ĠEurope":5739,"Ġconsent":5740,"Ġimagined":5741,"Ġcontrast":5742,"Ġmortal":5743,"Ġrecommend":5744,"fav":5745,"foot":5746,"lished":5747,"idity":5748,"Ġult":5749,"Ġexha":5750,"Ġwaves":5751,"Ġwaited":5752,"Ġuncons":5753,"Ġclearly":5754,"ocity":5755,"Ġhurt":5756,"Ġstrain":5757,"large":5758,"Ġignorant":5759,"Ġpreceding":5760,"ĠLambourne":5761,"cor":5762,"eers":5763,"ien":5764,"Ãł":5765,"Ġbought":5766,"ĠId":5767,"ims":5768,"Ġreward":5769,"Ġashamed":5770,"Ġupper":5771,"arded":5772,"ĠFrancis":5773,"berry":5774,"Ġcontact":5775,"Ġstirred":5776,"Ġstewed":5777,"Ġtrademark":5778,"Ġapprehen":5779,"Ġbrilliant":5780,"leness":5781,"pat":5782,"enough":5783,"Ġcla":5784,"Ġreasons":5785,"Ġvic":5786,"ĠPlace":5787,"Ġaltered":5788,"Ġdistinction":5789,"Ġ28":5790,"Ġlistening":5791,"Ġlegs":5792,"==":5793,"det":5794,"round":5795,"sens":5796,"hered":5797,"Ġbills":5798,"Ġhuge":5799,"owder":5800,"ldar":5801,"ĠGra":5802,"conven":5803,"Ġsimpl":5804,"therefore":5805,"Ġmurder":5806,"Ġduties":5807,"Ġburning":5808,"ology":5809,"From":5810,"ients":5811,"sper":5812,"Ġdaughters":5813,"Ġnarr":5814,"Ġhaunt":5815,"utter":5816,"thy":5817,"ĠCorporal":5818,"ĠWentworth":5819,"ĠNydia":5820,"Ġenergy":5821,"Ġprejud":5822,"Ġstrict":5823,"uches":5824,"Ġsolar":5825,"Ġtaxes":5826,"Ġanticip":5827,"Ġestablish":5828,"Ġsplendid":5829,"Ġmysterious":5830,"RAN":5831,"bu":5832,"general":5833,"lady":5834,"uated":5835,"Ġbowed":5836,"Ġmace":5837,"Ġinformed":5838,"Ġniece":5839,"ĠAh":5840,"Ġworn":5841,"Ġrestless":5842,"ĠYes":5843,"Ġcareer":5844,"ground":5845,"eyes":5846,"Ġdevoted":5847,"hearted":5848,"Ġimmense":5849,"either":5850,"gate":5851,"kin":5852,"vest":5853,"âĦ":5854,"ann":5855,"Ġhid":5856,"Ġrushed":5857,"unch":5858,"ender":5859,"Ġunl":5860,"Ġthanks":5861,"opy":5862,"Ġflung":5863,"Ġspecul":5864,"Ġsummon":5865,"Ġfaithful":5866,"ÂłÂłĊ":5867,"Ġcommercial":5868,"Bl":5869,"Our":5870,"uit":5871,"Ġlb":5872,"Ġreference":5873,"ĠPort":5874,"Ġremind":5875,"Ġintention":5876,"Ġeste":5877,"ĠIsabella":5878,"ĠAntiquary":5879,"âĦ¢":5880,"Captain":5881,"Have":5882,"IC":5883,"nut":5884,"Ġlicense":5885,"ĠIrish":5886,"irmed":5887,"theless":5888,"ĠBE":5889,"ector":5890,"Ġcouldn":5891,"Ġrecovered":5892,"Ġneighbours":5893,"ĠChristmas":5894,"Ġbecoming":5895,"called":5896,"kb":5897,"sure":5898,"eding":5899,"Ġfoe":5900,"Ġecl":5901,"ĠWald":5902,"Ġcompared":5903,"Ġsincere":5904,"Ġpenet":5905,"Ġbottom":5906,"Section":5907,"gro":5908,"ĠâĢĶâĢĶ":5909,"Ġoak":5910,"Ġwound":5911,"Ġfellows":5912,"Ġcoloured":5913,"...":5914,"Ġclasses":5915,"burne":5916,"Ġdebt":5917,"appearance":5918,"Ġbuilding":5919,"NOTE":5920,"Catherine":5921,"mark":5922,"morning":5923,"pen":5924,"wa":5925,"walk":5926,"Ġcell":5927,"Ġstout":5928,"thus":5929,"ĠSus":5930,"Ġsex":5931,"olid":5932,"fulness":5933,"icks":5934,"Ġcommod":5935,"princi":5936,"Ġassist":5937,"Ġcharm":5938,"themselves":5939,"Ġcolours":5940,"pleasant":5941,"Ġconstitution":5942,"Ġunconscious":5943,"De":5944,"TH":5945,"esy":5946,"step":5947,"ilburne":5948,"Ġorn":5949,"ighted":5950,"usual":5951,"Ġthrone":5952,"Ġtranqu":5953,"Ġendeavoured":5954,");":5955,"Ad":5956,"Are":5957,"hael":5958,"Ġvinegar":5959,"Ġunable":5960,"Ġagony":5961,"abs":5962,"Ġperil":5963,"retch":5964,"Ġbegun":5965,"Ġequator":5966,"disc":5967,"Ġproperly":5968,"Ġremarked":5969,"ESS":5970,"Ġbenefit":5971,"Ġvolume":5972,"Ġcollection":5973,"Ġsacrifice":5974,"maid":5975,"Ġfer":5976,"Ġfolly":5977,"Ġinsp":5978,"Ġdared":5979,"Ġlest":5980,"verted":5981,"Ġordered":5982,"Ġvulgar":5983,"Ġwouldn":5984,"ĠFitz":5985,"Ġresent":5986,"soon":5987,"Ġattraction":5988,"comple":5989,"Ġcorrect":5990,"ITY":5991,"ĠGlen":5992,"Ġdrive":5993,"pleasure":5994,"ĠBertram":5995,"moment":5996,"AS":5997,"diff":5998,"elect":5999,"och":6000,"inqu":6001,"Ġswell":6002,"Ġmile":6003,"Ġfed":6004,"ĠMarmaduke":6005,"Ġsacred":6006,"Ġamaz":6007,"udence":6008,"Ġprecious":6009,"Ġdesert":6010,"awt":6011,"Ġadmire":6012,"whole":6013,"Ġquarters":6014,"bing":6015,"wyn":6016,"isen":6017,"Ġfix":6018,"Ġdancing":6019,"ilty":6020,"ĠLaw":6021,"Ġmankind":6022,"Ġfailed":6023,"Ġscenes":6024,"sole":6025,"Ġrespectable":6026,"care":6027,"Ġhide":6028,"ĠSunday":6029,"olt":6030,"Ġfeared":6031,"ĠRow":6032,"force":6033,"Ġattract":6034,"Ġexcitement":6035,"Ġtelling":6036,"ĠMyra":6037,"Ġestate":6038,"ĠAlice":6039,"Ġaccompany":6040,"Ġmadam":6041,"EM":6042,"Pe":6043,"Sh":6044,"yl":6045,"Ġnut":6046,"geon":6047,"Ġconne":6048,"account":6049,"hank":6050,"Ġcomet":6051,"Ġproject":6052,"Ġdissol":6053,"Ġshoulders":6054,"Ġdisturbed":6055,"Ġrepose":6056,"Ġcoff":6057,"coat":6058,"Ġmercy":6059,"Ġplanets":6060,"ĠBlack":6061,"Ġchiefly":6062,"going":6063,"speak":6064,"Ġobservations":6065,"gener":6066,"Ġpin":6067,"Ġrice":6068,"Ġchosen":6069,"Ġsmoke":6070,"Ġgrasp":6071,"Ġimpulse":6072,"ĠAndrew":6073,"Ġ36":6074,"Ġhastened":6075,"mes":6076,"tt":6077,"taken":6078,"iture":6079,"ĠII":6080,"ressing":6081,"exc":6082,"inson":6083,"Ġremaining":6084,"Ġgolden":6085,"Ġstrike":6086,"Ġprotected":6087,"Ġdistribute":6088,"Ġlimbs":6089,"twenty":6090,"Ġeagerly":6091,"Ġclouds":6092,"Ġinterview":6093,"Ġlibrary":6094,"Ex":6095,"Yet":6096,"bor":6097,"hour":6098,"Ġlbs":6099,"Ġheir":6100,"stead":6101,"ilney":6102,"Ġenthus":6103,"Ġemotions":6104,"Ġrefuse":6105,"Ġextrem":6106,"Ġhonourable":6107,"willing":6108,"Ġappropri":6109,"Ġrule":6110,"Ġplaying":6111,"Ġmotive":6112,"Ġpractice":6113,"Ġweakness":6114,"Ġfamilies":6115,"OL":6116,"onet":6117,"Ġfame":6118,"Ġlake":6119,"state":6120,"Ġrev":6121,"ĠFl":6122,"Ġagitation":6123,"Ġdisd":6124,"Ġacquired":6125,"Ġpatient":6126,"Ġknife":6127,"Ġsubstances":6128,"Ġfinger":6129,"Ġleaning":6130,"Ġaxis":6131,"awtrey":6132,"eff":6133,"fessor":6134,"ived":6135,"incent":6136,"Ġbend":6137,"Ġnotes":6138,"Ġhers":6139,"rap":6140,"rained":6141,"Ġneat":6142,"acles":6143,"ĠOx":6144,"ĠOsbaldistone":6145,"Ġbetwixt":6146,"Ġpossibly":6147,"Ġfatig":6148,"45":6149,"War":6150,"five":6151,"zing":6152,"Ġwicked":6153,"ends":6154,"perfect":6155,"ĠRod":6156,"Ġworked":6157,"Ġcountries":6158,"Ġreplace":6159,"Ġconsidering":6160,"Ġreasonable":6161,"Ġunderstanding":6162,"Ġerror":6163,"natured":6164,"Ġcounsel":6165,"Ġmagnific":6166,"eanwhile":6167,"Never":6168,"done":6169,"different":6170,"effect":6171,"tle":6172,"incl":6173,"Ġoath":6174,"itating":6175,"Ġmax":6176,"inging":6177,"Ġnae":6178,"Ġken":6179,"cked":6180,"Ġagitated":6181,"Ġcompassion":6182,"onsful":6183,"Ġrights":6184,"Ġvisited":6185,"Ġacted":6186,"Ġsuffering":6187,"Ġpurposes":6188,"Ġdefence":6189,"Ġfields":6190,"Ġpersuaded":6191,"Ġfolk":6192,"Ġnurse":6193,"Ġii":6194,"Ġtail":6195,"ouch":6196,"Ġhills":6197,"aming":6198,"peare":6199,"Ġvary":6200,"ĠWilson":6201,"Ġaloud":6202,"onsense":6203,"Ġgrass":6204,"Ġpeas":6205,"Ġkinds":6206,"ailing":6207,"Ġteeth":6208,"Ġinvest":6209,"Ġcharming":6210,"Ġabsurd":6211,"Ġsolid":6212,"Ġpatience":6213,"Ġcompliance":6214,"Ġwoods":6215,"Ġtreated":6216,"Ġviolence":6217,"kbarns":6218,"40":6219,"talk":6220,"Ġgown":6221,"Ġleisure":6222,"agre":6223,"Ġdischar":6224,"Ġpron":6225,"ĠJust":6226,"succ":6227,"Ġinfinite":6228,"cript":6229,"Ġhaste":6230,"Ġ50":6231,"Ġinclination":6232,"Ġfifteen":6233,"ĠKeeldar":6234,"Ġpermanent":6235,"mel":6236,"Ġ-":6237,"rell":6238,"edy":6239,"Ġgri":6240,"Ġrent":6241,"alog":6242,"ights":6243,"olks":6244,"near":6245,"Ġqueen":6246,"ĠRus":6247,"Ġblessed":6248,"Ġindust":6249,"Ġindifferent":6250,"Ġinvited":6251,"Ġsocial":6252,"regular":6253,"Such":6254,"Ġpipe":6255,"ams":6256,"Ġvalley":6257,"Ġmanufact":6258,"Ġwhence":6259,"Ġanywhere":6260,"Ġamiable":6261,"ĠGrace":6262,"compan":6263,"Ġhousehold":6264,"Ġobserving":6265,"Ġcorp":6266,"Ġdivine":6267,"direct":6268,"eb":6269,"home":6270,"rants":6271,"ĠZ":6272,"ĠIII":6273,"riah":6274,"rawn":6275,"ulations":6276,"Ġray":6277,"placed":6278,"Ġjest":6279,"Ġinvitation":6280,"Ġprobable":6281,"Ġtenderness":6282,"Ġrecollection":6283,"Ġsuggested":6284,"ĠEgyptian":6285,"39":6286,"Gu":6287,"saw":6288,"Ġarose":6289,"arling":6290,"Ġstair":6291,"Ġpartner":6292,"closed":6293,"lands":6294,"Ġgracious":6295,"Ġstead":6296,"Ġoccasioned":6297,"Ġlearning":6298,"Ġlively":6299,"Ġdrop":6300,"Ġformerly":6301,"strong":6302,"Ġbanks":6303,"feelings":6304,"went":6305,"inet":6306,"Ġloose":6307,"Ġreduced":6308,"qual":6309,"Ġric":6310,"orthern":6311,"Ġfriendly":6312,"Ġillness":6313,"zeal":6314,"Ġenjoyed":6315,"Ġdescended":6316,"family":6317,"Ġpieces":6318,"See":6319,"dita":6320,"rust":6321,"Ġrival":6322,"llin":6323,"âĢľâĢĺ":6324,"ĠMonsieur":6325,"Ġkins":6326,"others":6327,"Ġcontents":6328,"particular":6329,"ajesty":6330,"Ġslightly":6331,"ĠNothing":6332,"Ġbottle":6333,"ĠHelen":6334,"Ġindependent":6335,"Ġhaughty":6336,"Cl":6337,"both":6338,"Ġpubl":6339,"sey":6340,"Ġascend":6341,"ĠLester":6342,"Ġalter":6343,"consequ":6344,"Ġ35":6345,"prise":6346,"ernal":6347,"Ġ40":6348,"Ġnumerous":6349,"bbing":6350,"ĠCraven":6351,"Ġpapa":6352,"IM":6353,"Ġfulf":6354,"Ġpounded":6355,"ĠSomet":6356,"agon":6357,"ĠDid":6358,"Ġages":6359,"Ġpled":6360,"Ġcho":6361,"Ġtear":6362,"Ġparticles":6363,"regor":6364,"Ġsubstit":6365,"Ġdriven":6366,"ĠMontagu":6367,"Ġconcealed":6368,"Ġviolent":6369,"Ġvoices":6370,"Ġlonely":6371,"Ġsed":6372,"Ġpack":6373,"etch":6374,"urance":6375,"ĠTempl":6376,"Ġsust":6377,"arton":6378,"arted":6379,"ofty":6380,"ĠRashleigh":6381,"Ġshade":6382,"Ġcommitted":6383,"ieties":6384,"Ġpreviously":6385,"Ġcompliment":6386,"minutes":6387,"Ġenjoyment":6388,"Ġofficer":6389,"Ġaccomplished":6390,"Ġpreferred":6391,"Ġcomparison":6392,"ĠNevile":6393,"Ġargument":6394,"Ġble":6395,"Ġbla":6396,"Ġfo":6397,"Ġghost":6398,"orers":6399,"Ġconceive":6400,"ĠHave":6401,"ĠBesides":6402,"Ġriding":6403,"abled":6404,"Ġprec":6405,"Ġprem":6406,"Ġcharacters":6407,"Ġended":6408,"Ġ39":6409,"Ġconviction":6410,"Ġprivile":6411,"Ġpursuit":6412,"Ġdifficulties":6413,"occasion":6414,"Ġgods":6415,"Ġsource":6416,"ĠCostigan":6417,"Did":6418,"Elizabeth":6419,"lot":6420,"wed":6421,"Ġtum":6422,"isc":6423,"Ġinduced":6424,"ulating":6425,"ĠAre":6426,"Ġmansion":6427,"Ġdoll":6428,"ording":6429,"pert":6430,"Ġworship":6431,"tell":6432,"ĠĠĠĠĠĠĠĠĠĠĠĠ":6433,"Ġcontribut":6434,"Ġimpress":6435,"Ġreluct":6436,"Ġtravel":6437,"Ġmerc":6438,"ushworth":6439,"Ġengagement":6440,"ĠGlanville":6441,"Ġrevolution":6442,"ĠHarry":6443,"pherd":6444,"Ġcitiz":6445,"80":6446,"Nor":6447,"Take":6448,"fashion":6449,"mor":6450,"pir":6451,"Ġben":6452,"Ġcultiv":6453,"orke":6454,"âĢĶâĢĿ":6455,"istence":6456,"Ġdoct":6457,"bear":6458,"ĠStill":6459,"Ġdiff":6460,"upiter":6461,"Ġcheeks":6462,"Ġnecessarily":6463,"Ġmutton":6464,"Ġdreams":6465,"kerchief":6466,"ĠMadame":6467,"Ġdeparted":6468,"Ġvanished":6469,"passed":6470,"Ġblessing":6471,"Ġdismiss":6472,"Ġdesperate":6473,"Emma":6474,"ĠBucklaw":6475,"47":6476,"till":6477,"Ġtide":6478,"hare":6479,"Ġcard":6480,"Ġnerv":6481,"alty":6482,"Ġcomr":6483,"Ġdisgu":6484,"beaut":6485,"Ġresidence":6486,"Ġflat":6487,"Ġimpr":6488,"bler":6489,"spoonful":6490,"cribe":6491,"verend":6492,"Ġofficial":6493,"\"'":6494,".:":6495,"Car":6496,"full":6497,"mo":6498,"wife":6499,"itate":6500,"verty":6501,"Ġasking":6502,"quiet":6503,"Ġalarmed":6504,"Ġpoverty":6505,"whose":6506,"Ġworking":6507,"Ġpurse":6508,"Ġintr":6509,"Ġsteel":6510,"Ġsimply":6511,"Ġneeded":6512,"Ġdispleas":6513,"Ġholder":6514,"does":6515,"Ġpains":6516,"Ġinquire":6517,"Ġhurry":6518,"ĠMichael":6519,"years":6520,"ĠXXX":6521,"Ġrevenge":6522,"Ġprecisely":6523,"sis":6524,"uity":6525,"yre":6526,"Ġbust":6527,"rial":6528,"Ġantiqu":6529,"Ġmystery":6530,"21":6531,"cest":6532,"cross":6533,"girl":6534,"Ġtower":6535,"Ġnation":6536,"left":6537,"Ġstup":6538,"Ġrust":6539,"ĠLilburne":6540,"Ġprosper":6541,"Ġquit":6542,"Ġsetting":6543,"Ġuncertain":6544,"Ġmistaken":6545,"Ġbringing":6546,"Ġstruggle":6547,"Ġliquid":6548,"Qu":6549,"UD":6550,"inations":6551,"Ġocean":6552,"Ġwave":6553,"itality":6554,"Ġnamed":6555,"Ġard":6556,"Ġrolled":6557,"enses":6558,"Ġequip":6559,"ĠEdie":6560,"Ġdrove":6561,"ĠAmerican":6562,"Ġunexpected":6563,",)":6564,"wers":6565,"Ġsighed":6566,"Ġmir":6567,"enger":6568,"Ġpup":6569,"ĠPri":6570,"berries":6571,"Ġblush":6572,"Ġconsult":6573,"Ġloving":6574,"Ġreflected":6575,"Ġrestored":6576,"uchat":6577,"Ġforehead":6578,"Ġcease":6579,"Ġexplained":6580,"Nothing":6581,"Ġpictures":6582,"ĠFairfax":6583,"Ġridic":6584,"Ġpace":6585,"Ġnerves":6586,"Ġsovere":6587,"ĠCrown":6588,"Ġneb":6589,"outhern":6590,"cks":6591,"pless":6592,"Ġreport":6593,"Ġintimate":6594,"remain":6595,"Ġdisclaim":6596,"Ġprevented":6597,"Ġphilosopher":6598,"viour":6599,"quisite":6600,"Ġingen":6601,"posed":6602,"rim":6603,"towards":6604,"inate":6605,"Ġborrow":6606,"Ġfain":6607,"llust":6608,"omed":6609,"Ġegg":6610,"ĠTilney":6611,"ĠHay":6612,"ĠJack":6613,"Ġcontro":6614,"ĠState":6615,"Ġharmon":6616,"prot":6617,"Ġencoura":6618,"Ġgraceful":6619,"Ġinquiries":6620,"Ġastonishment":6621,"Ġconvenient":6622,"ĠGerman":6623,"cra":6624,"Ġnay":6625,"Ġecho":6626,"Ġreject":6627,"ulars":6628,"ardour":6629,"Ġabode":6630,"Ġsomebody":6631,"Ġparting":6632,"olds":6633,"Ġsecured":6634,"Ġdelivered":6635,"prof":6636,"Ġbreaking":6637,"Ġeloqu":6638,"Ġedge":6639,"shaw":6640,"Ġmountains":6641,"Ġavail":6642,"Ġintervals":6643,"break":6644,"Ġparents":6645,"Ġsne":6646,"isions":6647,"Ġliter":6648,"lemen":6649,"Ġwaste":6650,"ĠEllen":6651,"ĠGreat":6652,"Ġshalt":6653,"Ġreputation":6654,"Ġgravely":6655,"Ġconcluded":6656,"doubt":6657,"high":6658,"sa":6659,"Ġsons":6660,"Ġpars":6661,"Ġlofty":6662,"Ġyard":6663,"ads":6664,"chool":6665,"ĠAmory":6666,"ĠHart":6667,"umption":6668,"Ġinfant":6669,"ounter":6670,"Ġwaist":6671,"Ġtendency":6672,"Ġslept":6673,"Ġdressing":6674,"porary":6675,"Ġgroan":6676,"Ġessential":6677,"Ġgravity":6678,"Ġadventure":6679,"bra":6680,"mount":6681,"enus":6682,"Ġgrie":6683,"essert":6684,"allow":6685,"cles":6686,"prob":6687,"Ġprofit":6688,"Ġpermit":6689,"asket":6690,"Ġdomain":6691,"Ġafforded":6692,"Ġfavourable":6693,"Ġarticles":6694,"uddenly":6695,"AB":6696,"Ġwet":6697,"Ġwest":6698,"Ġmajor":6699,"Ġinten":6700,"aling":6701,"ĠMorgan":6702,"Ġdevelop":6703,"Ġcompelled":6704,"often":6705,"ĠNOT":6706,"Ġflo":6707,"Ġwrit":6708,"Ġ38":6709,"Ġsunk":6710,"Ġcommonly":6711,"Ġstands":6712,"Ġslightest":6713,"Ġsoldiers":6714,"burgh":6715,"Ġknee":6716,"suffic":6717,"Ġdisgrace":6718,"Ġinhabitants":6719,"llinor":6720,"Ġintense":6721,"46":6722,"juice":6723,"making":6724,"ping":6725,"rous":6726,"Ġzeal":6727,"reak":6728,"erving":6729,"âĢĿ--":6730,"ĠMe":6731,"Ġsae":6732,"Ġdozen":6733,"ĠPoor":6734,"Ġlip":6735,"cied":6736,"Ġarrow":6737,"Ġpoem":6738,"ĠIts":6739,"soever":6740,"blance":6741,"ivity":6742,"Ġentering":6743,"sued":6744,"ocking":6745,"Ġinterval":6746,"Ġremarks":6747,"ART":6748,"Ġseparated":6749,"ĠClarence":6750,"Ġfoolish":6751,"feeling":6752,"Ġimprovement":6753,"Ġthroat":6754,"hoe":6755,"mal":6756,"rine":6757,"ena":6758,"arth":6759,"keeper":6760,"Ġunited":6761,"Ġamused":6762,"ĠRome":6763,"manner":6764,"Ġhonoured":6765,"Ġhasty":6766,"ĠNorman":6767,"box":6768,"ĠTrot":6769,"sometimes":6770,"Ġcandle":6771,"service":6772,"ĠAmerica":6773,"Ġtreasure":6774,"Perhaps":6775,"Ġtitle":6776,"Ġceremony":6777,"Åĵuf":6778,"Ġsavage":6779,"pes":6780,"atin":6781,"Ġded":6782,"Ġgla":6783,"Ġreality":6784,"alian":6785,"uries":6786,"ĠAthen":6787,"ecture":6788,"Ġplans":6789,"Ġbrisk":6790,"iana":6791,"Ġacting":6792,"Ġcopying":6793,"brought":6794,"Ġmodest":6795,"letter":6796,"ampbell":6797,"board":6798,"Ġlawyer":6799,"ĠIdris":6800,"Ġsilly":6801,"ĠTem":6802,"Ġmember":6803,"Ġsullen":6804,"resented":6805,"ershare":6806,"elham":6807,"Ġuncommon":6808,"ceiving":6809,"Ġinstinct":6810,"Ġfamous":6811,"proper":6812,"Ġcareful":6813,"Ġaccommod":6814,"Ġtrembled":6815,"turned":6816,"Ġignorance":6817,"Ġestablished":6818,"Ġbirds":6819,"ĠMartin":6820,"Ġcelebrated":6821,"48":6822,"cast":6823,"greg":6824,"iving":6825,"linson":6826,"ugg":6827,"anz":6828,"Ġhal":6829,"Ġforces":6830,"Ġforbid":6831,"rier":6832,"Ġmend":6833,"ilbert":6834,"keep":6835,"Ġconject":6836,"ĠJupiter":6837,"Ġchamp":6838,"ĠInformation":6839,"Ġendure":6840,"Ġparish":6841,"Ġrecord":6842,"Ġinterests":6843,"Ġencourage":6844,"Ġrequirements":6845,"Ġcommunication":6846,"Mad":6847,"bow":6848,"Ġfund":6849,"Ġstore":6850,"among":6851,"Ġvener":6852,"uming":6853,"Ġquitted":6854,"Ġdeserted":6855,"Ġtermed":6856,"Ġsurve":6857,"cription":6858,"pended":6859,"Ġexpectation":6860,"Ġcourtesy":6861,"Ġdepos":6862,"believe":6863,"Ġderived":6864,"Ġimpatient":6865,"Ġexperiment":6866,"ares":6867,"daughter":6868,"free":6869,"Ġapt":6870,"Ġwoe":6871,"Ġwounded":6872,"Ġpisto":6873,"stri":6874,"ĠTwo":6875,"Ġrisk":6876,"Ġroused":6877,"ĠLy":6878,"ptic":6879,"ĠVincent":6880,"chair":6881,"Ġwanting":6882,"Ġromantic":6883,"past":6884,"piece":6885,"Ġnon":6886,"Ġhaz":6887,"lemy":6888,"Ġsoil":6889,"ĠCath":6890,"ĠBracy":6891,"played":6892,"Ġarrest":6893,"apers":6894,"Ġflight":6895,"Ġ26":6896,"cester":6897,"Ġbegins":6898,"Ġgreet":6899,"Ġfinest":6900,"hands":6901,"Ġerrors":6902,"ĠIndeed":6903,"Ġdisappointed":6904,"Ġurged":6905,"uchess":6906,"BÅĵuf":6907,"creat":6908,"ease":6909,"vil":6910,"Ġobe":6911,"Ġsadd":6912,"itudes":6913,"Ġgard":6914,"Ġthunder":6915,"Ġmembers":6916,"Ġdeed":6917,"Ġrang":6918,"ĠWor":6919,"ĠWas":6920,"ĠLanc":6921,"ĠPo":6922,"Ġscru":6923,"ĠUriah":6924,"Ġdoubtless":6925,"Ġsinging":6926,"Ġdevotion":6927,"words":6928,"Ġinferior":6929,"Ġshelter":6930,"mission":6931,"tax":6932,"Ġbaked":6933,"anim":6934,"ĠMus":6935,"Ġsees":6936,"olate":6937,"Ġadapt":6938,"Ġcounty":6939,"Ġ29":6940,"Ġfarm":6941,"ailie":6942,"ĠYorke":6943,"Ġobjection":6944,"Ġimproved":6945,"Ġsaucepan":6946,"Ġofficers":6947,"Ġbonnet":6948,"Ġinstrument":6949,"ĠANY":6950,"dig":6951,"list":6952,"icious":6953,"Ġancest":6954,"Ġcontaining":6955,"resist":6956,"ĠBrown":6957,"Ġrind":6958,"olk":6959,"Ġsport":6960,"ĠRoman":6961,"ceptible":6962,"Ġpleasures":6963,"Ġcalls":6964,"Ġminced":6965,"Ġopposition":6966,"ĠAlwyn":6967,"ARRAN":6968,"Ġcreated":6969,"ĠChurchill":6970,"bread":6971,"lay":6972,"voice":6973,"Ġoh":6974,"Ġwont":6975,"Ġcrying":6976,"Ġwhist":6977,"neighbour":6978,"pled":6979,"Ġjelly":6980,"Ġbloom":6981,"Ġremote":6982,"Ġoffence":6983,"Ġcoarse":6984,"Ġguilty":6985,"Ġfinally":6986,"Ġmounted":6987,"States":6988,"IST":6989,"Ġfeeble":6990,"Ġcounter":6991,"Ġbeaten":6992,"Ġarrangement":6993,"ĠMonkbarns":6994,"Ġmaxim":6995,"Ġnervous":6996,"Cha":6997,"fin":6998,"rayed":6999,"Ġwra":7000,"Ġcas":7001,"ata":7002,"Ġcontained":7003,"ĠLook":7004,"Ġunion":7005,"Ġarmy":7006,"Ġends":7007,"Ġhoriz":7008,"ĠPerdita":7009,"Ġtalents":7010,"Ġdwelling":7011,"Ġmourn":7012,"Ġtimid":7013,"Ġassembled":7014,"Ġearlier":7015,"Ġbrandy":7016,"OO":7017,"Some":7018,"Ġela":7019,"ĠMer":7020,"Ġsuited":7021,"Ġdemon":7022,"emand":7023,"ieu":7024,"ĠGawtrey":7025,"Ġresour":7026,"Ġchest":7027,"Ġfigures":7028,"Ġcrowded":7029,"ĠNeuchat":7030,"circumstances":7031,"diffic":7032,"VE":7033,"Ġtour":7034,"Ġsme":7035,"eded":7036,"Ġdried":7037,"Ġlaughter":7038,"imag":7039,"Ġnoticed":7040,"Ġstretched":7041,"Ġsale":7042,"âĢĶ\"":7043,"uls":7044,"thelemy":7045,"Ġexposed":7046,"Ġindifference":7047,"Ġextended":7048,"Ġhearth":7049,"Ġdining":7050,"Ġattempted":7051,"Ġconnection":7052,"Ġutterly":7053,"audem":7054,"Ġfrightened":7055,"Ġdisdain":7056,"Ġsovereign":7057,"Poor":7058,"inger":7059,"Ġpir":7060,"athed":7061,"Ġdil":7062,"Ġasleep":7063,"ĠMore":7064,"ĠMoney":7065,"Ġdece":7066,"ĠCON":7067,"Ġdoctor":7068,"onds":7069,"Ġgray":7070,"convers":7071,"Ġpleasing":7072,"Ġlights":7073,"Ġconfused":7074,"Ġinternal":7075,"Ġlandlord":7076,"atively":7077,"Ġdrain":7078,"Ġsuccession":7079,"Ġleader":7080,"Ġmeasures":7081,"50":7082,"Or":7083,"dest":7084,"Ġbree":7085,"Ġcow":7086,"llers":7087,"Ġdame":7088,"Ġnorthern":7089,"rif":7090,"ĠMS":7091,"udge":7092,"Ġbroth":7093,"Ġchose":7094,"Ġscattered":7095,"Ġwrath":7096,"Ġinstruct":7097,"Ġ37":7098,"Ġrelieved":7099,"Ġsteep":7100,"Ġincap":7101,"Ġmerchant":7102,"Ġoccupation":7103,"Ġapplicable":7104,"English":7105,"Ġamusement":7106,"Ġacknowledged":7107,"audemont":7108,"ATION":7109,"aac":7110,"pose":7111,"wit":7112,"inner":7113,"Ġbase":7114,"Ġinform":7115,"Ġnational":7116,"leton":7117,"Ġgift":7118,"sex":7119,"Ġweel":7120,"rious":7121,"Ġshoot":7122,"Ġchambers":7123,"Ġrage":7124,"Ġteach":7125,"Ġinside":7126,"Ġbenevol":7127,"Ġtouching":7128,"Ġsending":7129,"Ġsuccessful":7130,"import":7131,"Ġangle":7132,"Ġpeculiarly":7133,"Ġconclusion":7134,"Ġincreasing":7135,"affection":7136,"observed":7137,"Ġabruptly":7138,"AU":7139,"IR":7140,"ese":7141,"Ġpier":7142,"Ġhorn":7143,"ilk":7144,"Ġshed":7145,"Ġnearest":7146,"Ġrum":7147,"istent":7148,"ounding":7149,"oseph":7150,"Ġperple":7151,"Ġapply":7152,"ansfield":7153,"Ġadmired":7154,"Ġmerit":7155,"iversity":7156,"Ġknights":7157,"Ġdemanded":7158,"Ġconnexion":7159,"23":7160,"ipped":7161,"kward":7162,"oil":7163,"pot":7164,"Ġaught":7165,"Ġfled":7166,"Ġtoss":7167,"Ġmeal":7168,"akened":7169,"udder":7170,"Ġharsh":7171,"iality":7172,"ĠThose":7173,"Ġdistributed":7174,"Ġmelted":7175,"Ġpressure":7176,"Ġastonished":7177,"ĠScottish":7178,"Ġsuspected":7179,"Ġidentity":7180,"fire":7181,"gments":7182,"iverse":7183,"lain":7184,"lict":7185,"rical":7186,"Ġwarrant":7187,"Ġreign":7188,"already":7189,"âĢĻ,":7190,"thony":7191,"ulted":7192,"Ġvague":7193,"Ġupstairs":7194,"ĠRushworth":7195,"Ġpreserved":7196,"Ġglanced":7197,"Ġtrim":7198,"except":7199,"Ġconfident":7200,"ronom":7201,"Ġguilt":7202,"Ġparall":7203,"Ġstrangers":7204,"Ġmoist":7205,"Ġestim":7206,"Ġpreparing":7207,"ĠKeeper":7208,"Ġexperiments":7209,"business":7210,"find":7211,"hind":7212,"Ġsan":7213,"hal":7214,"Ġdre":7215,"least":7216,"Ġbeings":7217,"Ġthread":7218,"Ġconj":7219,"igation":7220,"ĠDaw":7221,"ĠGarden":7222,"mere":7223,"Ġblame":7224,"Ġwriter":7225,"ĠĠĠĠĠĠĠĠĠĠĠĠĠĠĠĠĠĠĠ":7226,"Ġcleared":7227,"Ġinvar":7228,"Ġwalks":7229,"Ġexperienced":7230,"Ġvictim":7231,"Ġpuzz":7232,"Ġcaution":7233,"Ġfancied":7234,"fact":7235,"hope":7236,"nie":7237,"Ġtid":7238,"Ġbag":7239,"Ġdessert":7240,"urred":7241,"Ġsober":7242,"Ġabund":7243,"few":7244,"Ġlighted":7245,"Ġconfirmed":7246,"Ġadvantages":7247,"Ġthyself":7248,"ĠNorris":7249,"Ġmotives":7250,"Ġdawn":7251,"ĠBritain":7252,"Ġreligion":7253,"cold":7254,"inion":7255,"itself":7256,"Ġmush":7257,"Ġfid":7258,"Ġdarling":7259,"Ġrela":7260,"roll":7261,"ili":7262,"Ġdeemed":7263,"ĠCampbell":7264,"ĠBell":7265,"ĠLittle":7266,"ĠLuc":7267,"Ġchim":7268,"Ġdeserve":7269,"Ġflow":7270,"obody":7271,"Ġconfined":7272,"Ġbestowed":7273,"Ġvisitor":7274,"Ġcentury":7275,"Ġconducted":7276,"Ġbelonged":7277,"Ġtravelling":7278,"Ġventure":7279,"Ġfolded":7280,"**":7281,"div":7282,"draw":7283,"yes":7284,"Ġice":7285,"Ġcel":7286,"utor":7287,"Ġony":7288,"ortun":7289,"ĠEllinor":7290,"ĠFoll":7291,"Ġaband":7292,"Ġarmed":7293,"Ġobli":7294,"Ġobvious":7295,"Ġcomput":7296,"Ġattribut":7297,"reshold":7298,"Ġrarely":7299,"ĠBritish":7300,"iasm":7301,"Ġdisplaying":7302,"success":7303,"Illust":7304,"iott":7305,"received":7306,"Ġfest":7307,"ĠMars":7308,"Ġstated":7309,"Ġstrew":7310,"ĠSy":7311,"ĠBunning":7312,"Ġkilled":7313,"ĠWardour":7314,"Ġshone":7315,"istory":7316,"iend":7317,"ĠRose":7318,"meas":7319,"Ġgoodness":7320,"close":7321,"Ġthroughout":7322,"Ġnamely":7323,"Ġtrace":7324,"Ġwinds":7325,"ĠWarner":7326,"Ġdepends":7327,"Ġbelonging":7328,"Ġneglect":7329,"ĠTomlinson":7330,"Ġmurmured":7331,"Ġobscure":7332,"Ġbehaviour":7333,"Go":7334,"cut":7335,"mical":7336,"Ġz":7337,"itche":7338,"Ġpark":7339,"atives":7340,"atoes":7341,"Ġyon":7342,"Ġretain":7343,"Ġstiff":7344,"Ġstones":7345,"Ġdew":7346,"ĠBarton":7347,"Ġrat":7348,"ĠDes":7349,"Ġeditions":7350,"ĠScotch":7351,"Ġimpatience":7352,"Ġdisappointment":7353,"England":7354,"aum":7355,"lor":7356,"sister":7357,"uced":7358,"Ġlif":7359,"Ġlift":7360,"Ġlinks":7361,"urth":7362,"Ġconceived":7363,"ĠLicense":7364,"Ġnoon":7365,"olic":7366,"ĠPres":7367,"ĠGo":7368,"ĠĠĠĠĠĠĠĠĠĠĠĠĠĠĠ":7369,"Ġclerk":7370,"icken":7371,"Ġcompet":7372,"Ġpasses":7373,"Ġspeaks":7374,"Ġprompt":7375,"eyn":7376,"Ġprayer":7377,"Ġpopulation":7378,"Ġcryst":7379,"Ġspectrum":7380,"vanhoe":7381,"olitical":7382,"ĠFolliott":7383,"French":7384,"lim":7385,"lest":7386,"vated":7387,"erity":7388,"Ġhun":7389,"Ġstick":7390,"ĠPelham":7391,"Ġunw":7392,"dear":7393,"Ġremorse":7394,"Ġgranted":7395,"Ġdistrict":7396,"Ġ\"_":7397,"within":7398,"ceptions":7399,"anything":7400,"grad":7401,"Ġproduction":7402,"ĠUnion":7403,"friends":7404,"Ġclaims":7405,"advantage":7406,"Ġsummoned":7407,"May":7408,"bon":7409,"cular":7410,"tm":7411,"Ġbull":7412,"arc":7413,"otes":7414,"stru":7415,"stane":7416,"Ġstamp":7417,"Ġvibr":7418,"ĠEach":7419,"cip":7420,"Ġroll":7421,"Ġobtaining":7422,"Ġresistance":7423,"Ġworldly":7424,"Ġintercourse":7425,"Ġdelicacy":7426,"horse":7427,"oaks":7428,"Arthur":7429,"Ġassert":7430,"ĠNeuchatel":7431,"mail":7432,"possible":7433,"rers":7434,"Ġbatter":7435,"Ġheavens":7436,"urious":7437,"ĠSim":7438,"geance":7439,"ests":7440,"ĠBows":7441,"ĠWould":7442,"Ġperformed":7443,"Ġreserve":7444,"Ġappet":7445,"until":7446,"Ġsteed":7447,"Ġinsult":7448,"Ġgrounds":7449,"Ġelement":7450,"Ġsignal":7451,"Ġslavery":7452,"ĠHouseman":7453,"Ġvillain":7454,"Ġresults":7455,"Ġpreparation":7456,"Ġeldest":7457,"Ġenemies":7458,"encies":7459,"Ġvelocity":7460,"Ġclergyman":7461,"Dear":7462,"fellow":7463,"post":7464,"Ġiv":7465,"Ġsieve":7466,"Ġlam":7467,"Ġlamp":7468,"sever":7469,"rible":7470,"ĠCr":7471,"ositions":7472,"Ġlevel":7473,"areton":7474,"ĠDav":7475,"dec":7476,"white":7477,"Ġvisits":7478,"Ġparliament":7479,"Ġrequires":7480,"Ġprobability":7481,"Ġsupported":7482,"Ġvolunteers":7483,"Ġtolerably":7484,"ĠJanet":7485,"dark":7486,"felt":7487,"public":7488,"hem":7489,"Ġmant":7490,"entered":7491,"Ġren":7492,"Ġorange":7493,"ĠBon":7494,"Ġagent":7495,"Ġpole":7496,"Ġresist":7497,"ensions":7498,"cythrop":7499,"Ġfollowers":7500,"Ġincons":7501,"Ġmilitary":7502,"Ġcares":7503,"Ġbuilt":7504,"Thus":7505,"Ġdetermine":7506,"Ġstartled":7507,"Ġpressing":7508,"Ġpropriet":7509,"Ġparsley":7510,"fig":7511,"given":7512,"jour":7513,"nel":7514,"wen":7515,"Ġay":7516,"inence":7517,"Ġeating":7518,"Ġstuff":7519,"ĠAG":7520,"ums":7521,"oles":7522,"igence":7523,"ĠGrant":7524,"ountain":7525,"Ġawake":7526,"Ġtells":7527,"Ġsilk":7528,"Ġmagist":7529,"Ġwandering":7530,"Ġplague":7531,"conduct":7532,"Ġadopted":7533,"Ġverses":7534,"Ġelegant":7535,"57":7536,"VIII":7537,"tis":7538,"Ġdined":7539,"Ġliterary":7540,"Ġhed":7541,"Ġherbs":7542,"Ġstately":7543,"redients":7544,"eman":7545,"Ġsphere":7546,"Ġappeal":7547,"Ġlog":7548,"Ġcheap":7549,"rewd":7550,"Ġcurse":7551,"Ġrecall":7552,"Ġpainted":7553,"cellent":7554,"Ġfacts":7555,"Ġapartments":7556,"Ġdescribe":7557,"Ġdeny":7558,"etta":7559,"Ġsplendour":7560,"Ġconvey":7561,"Ġrules":7562,"immediately":7563,"Ġpolicy":7564,"opyright":7565,"hic":7566,"sal":7567,"ĠâĢĶ":7568,"Ġmamma":7569,"Ġfanc":7570,"arms":7571,"Ġlun":7572,"Ġthither":7573,"peak":7574,"acob":7575,"istic":7576,"ĠLight":7577,"Ġdisappeared":7578,"Ġenorm":7579,"Ġcontented":7580,"comb":7581,"Ġslice":7582,"Ġrelated":7583,"chamber":7584,"Ġmarch":7585,"Ġcharity":7586,"Ġmeanwhile":7587,"Ġdecor":7588,"Ġcondem":7589,"ĠAnthony":7590,"Ġinsens":7591,"Ġstrained":7592,"Ġadmirable":7593,"ĠCollins":7594,"Ġautumn":7595,"Ġbeggar":7596,"!!":7597,"!)":7598,";\"":7599,"Endymion":7600,"houses":7601,"Ġach":7602,"eries":7603,"itations":7604,"Ġfil":7605,"Ġfrown":7606,"Ġheav":7607,"utch":7608,"also":7609,"illings":7610,"Ġvir":7611,"ĠWARRAN":7612,"icket":7613,"Ġthrust":7614,"Ġraising":7615,"Ġexpenses":7616,"Ġrefresh":7617,"prov":7618,"Ġarts":7619,"Ġwishing":7620,"ĠBefore":7621,"ĠMarquis":7622,"Ġcomplain":7623,"Ġwarmth":7624,"Ġmovement":7625,"Ġdrinking":7626,"Ġarticle":7627,"children":7628,"Ġpurchase":7629,"Ġabsorbed":7630,"Guilbert":7631,"Ġkinsman":7632,"Con":7633,"ĠÎ":7634,"Ġawe":7635,"Ġafore":7636,"inv":7637,"Ġsore":7638,"erick":7639,"verage":7640,"Ġnotwithstanding":7641,"Ġangel":7642,"ĠTower":7643,"ĠBet":7644,"ĠRos":7645,"mered":7646,"Ġsmiles":7647,"ĠVI":7648,"Ġintensity":7649,"Ġpossibility":7650,"Ġvex":7651,"scape":7652,"Ġlists":7653,"ĠIsaac":7654,"Ġmidnight":7655,"Ġtort":7656,"Ġcreation":7657,"Ġfortunes":7658,"ĠBelinda":7659,"Ġcoffee":7660,"ĠTemplar":7661,"Illustration":7662,"Can":7663,"bene":7664,"Ġaven":7665,"Ġowe":7666,"Ġwings":7667,"Ġdw":7668,"Ġdrank":7669,"Ġgun":7670,"Ġgude":7671,"enth":7672,"entive":7673,"ements":7674,"Ġshowing":7675,"Ġunwilling":7676,"ĠDavy":7677,"ĠGovernment":7678,"ĠNove":7679,"Ġchain":7680,"expl":7681,"Ġrested":7682,"Ġproviding":7683,"Ġelectric":7684,"ĠProt":7685,"Ġcreating":7686,"Ġrepeat":7687,"Ġmaintained":7688,"amba":7689,"Ġfortunate":7690,"Ġrobber":7691,"complete":7692,"ĠTemple":7693,"London":7694,"crum":7695,"gon":7696,"real":7697,"Ġfried":7698,"Ġstor":7699,"ĠCont":7700,"ĠBailie":7701,"Ġnois":7702,"Ġfees":7703,"Ġunworthy":7704,"resses":7705,"Ġdislike":7706,"ferences":7707,"Ġblank":7708,"ensed":7709,"black":7710,"experi":7711,"phil":7712,"azz":7713,"Ġruff":7714,"knowledge":7715,"Ġconsequences":7716,"Ġsigns":7717,"Ġplainly":7718,"evening":7719,"Ġstewpan":7720,"monds":7721,"Ġpolitics":7722,"Ġluxury":7723,"indsor":7724,"Ġwondered":7725,"comfortable":7726,"ĠSupp":7727,"Ġsimplicity":7728,"Ġresentment":7729,"Every":7730,"Pr":7731,"_;":7732,"olf":7733,"Ġbade":7734,"Ġmart":7735,"otted":7736,"Ġemer":7737,"ctions":7738,"Ġnotions":7739,"Ġstoo":7740,"ander":7741,"amation":7742,"Ġcongrat":7743,"ĠHunt":7744,"ĠCf":7745,"Ġshows":7746,"Ġunlike":7747,"Ġsprang":7748,"ĠGrand":7749,"ĠĠĠĠĠĠĠĠĠĠĠ":7750,"Ġclock":7751,"Ġchapter":7752,"note":7753,"Ġrapt":7754,"Ġretire":7755,"versed":7756,"Ġchildhood":7757,"bye":7758,"Ġfortnight":7759,"Ġcomplaint":7760,"Ġsoftened":7761,"Ġfragr":7762,"conscious":7763,"inguished":7764,"Ġsafely":7765,"Ġcommunicated":7766,"occup":7767,"Ġfuneral":7768,"Ġdeliber":7769,"ĠWickham":7770,"ĠWickfield":7771,"Ġanalysis":7772,"awn":7773,"coll":7774,"days":7775,"iel":7776,"lstane":7777,"mine":7778,"times":7779,"Ġward":7780,"Ġfarewell":7781,"Ġcot":7782,"Ġlack":7783,"icism":7784,"thelstane":7785,"ĠPal":7786,"aneous":7787,"evil":7788,"Ġsatisfy":7789,"Ġmeasured":7790,"Ġacknowledge":7791,"Ġexhausted":7792,"ĠOxford":7793,"eynolds":7794,"Char":7795,"fine":7796,"gence":7797,"mouth":7798,"rend":7799,"oucester":7800,"Ġbay":7801,"Ġeast":7802,"ĠSouth":7803,"allowed":7804,"Ġexquisite":7805,"ĠPom":7806,"ĠDan":7807,"Ġbridge":7808,"Ġremo":7809,"Ġimpart":7810,"Ġincident":7811,"Ġsimmer":7812,"Ġbrothers":7813,"Ġcomplexion":7814,"Ġtrusted":7815,"ĠCommons":7816,"Ġsuperst":7817,"Ġtraveller":7818,"Ġmessage":7819,"Ġmagnificent":7820,"49":7821,"eg":7822,"Ġtight":7823,"Ġinconven":7824,"Ġlink":7825,"Ġbehalf":7826,"separ":7827,"Ġthreshold":7828,"idable":7829,"ections":7830,"ĠEn":7831,"ryor":7832,"oped":7833,"Ġadorn":7834,"Ġplun":7835,"Ġgrim":7836,"Ġflame":7837,"shine":7838,"answer":7839,"ulties":7840,"Ġsmallest":7841,"remark":7842,"Ġadmin":7843,"ungay":7844,"Ġlaborers":7845,"Ġdestined":7846,"Ġmaintain":7847,"Ġwooden":7848,"Ġearnestly":7849,"humour":7850,"Ġdestroyed":7851,"Ġmagnetic":7852,"ĠWaldershare":7853,"EL":7854,"Gl":7855,"sk":7856,"vag":7857,"Ġspl":7858,"Ġwww":7859,"oubles":7860,"Ġeternal":7861,"riot":7862,"Ġsubl":7863,"Ġmanage":7864,"Ġmoreover":7865,"Ġawkward":7866,"Ġsupplied":7867,"Ġsubdu":7868,"actory":7869,"Ġactions":7870,"Ġassume":7871,"Ġinval":7872,"Ġparticulars":7873,"Ġcollected":7874,"Ġcontrad":7875,"ITED":7876,"increas":7877,"sett":7878,"Ã©e":7879,"Ġimperfect":7880,"Ġwithdrew":7881,"Ġtotally":7882,"Ġbranches":7883,"bation":7884,"kn":7885,"Ġaim":7886,"Ġhy":7887,"Ġlock":7888,"Ġante":7889,"ifully":7890,"ĠSn":7891,"ĠAcc":7892,"blem":7893,"Ġshining":7894,"death":7895,"Ġcomplying":7896,"short":7897,"Ġfounded":7898,"alties":7899,"Ġstronger":7900,"Ġirregular":7901,"Ġelsewhere":7902,"justice":7903,"Ġtreatment":7904,"Ġderiv":7905,"Ġwithdraw":7906,"Ġcalculated":7907,"Ġdesirous":7908,"Ġhospitality":7909,"Ġcommodities":7910,"Look":7911,"Thank":7912,"jac":7913,"sauce":7914,"voured":7915,"arv":7916,"ĠIvanhoe":7917,"ĠServ":7918,"Ġvice":7919,"ĠFront":7920,"agnet":7921,"Ġpert":7922,"Ġenabled":7923,"Ġpoison":7924,"Ġconsolation":7925,"conv":7926,"Ġlightning":7927,"Ġnights":7928,"Ġcarrying":7929,"Ġincome":7930,"Ġdecent":7931,"Ġproducing":7932,"Ġprofess":7933,"Ġexisting":7934,"Ġfirmly":7935,"Ġdebts":7936,"Ġpalace":7937,"Ġromance":7938,"Ġpulled":7939,"Ġappointed":7940,"mble":7941,"Ġsank":7942,"itious":7943,"Ġfought":7944,"Ġcared":7945,"Ġholid":7946,"Ġgang":7947,"ĠTake":7948,"ilight":7949,"Ġsofa":7950,"Ġrings":7951,"ĠDun":7952,"Ġplant":7953,"Ġcoin":7954,"remember":7955,"Ġfalls":7956,"Ġburied":7957,"company":7958,"Ġattendance":7959,"ĠParliament":7960,"Ġventured":7961,"yrrell":7962,"quarters":7963,"Ġnewspaper":7964,"Ġequipment":7965,"aired":7966,"dy":7967,"mut":7968,"wonder":7969,"Ġale":7970,"Ġcoo":7971,"Ġcav":7972,"ĠIm":7973,"ĠTe":7974,"Ġdeeper":7975,"Ġmanaged":7976,"neither":7977,"ĠEconom":7978,"ĠGu":7979,"ĠGreen":7980,"abb":7981,"meg":7982,"Ġclim":7983,"Ġseeming":7984,"Ġcommenced":7985,"Ġrepresented":7986,"Ġjustly":7987,"Ġboast":7988,"oubled":7989,"ucky":7990,"Ġsentiments":7991,"Ġfourth":7992,"arcely":7993,"Ġproceeding":7994,"Ġsleeping":7995,"Ġprize":7996,"Ġfurnished":7997,"Ġyielded":7998,"interested":7999,"Ġliquor":8000,"Ġconveyed":8001,"Ġtheatre":8002,"reng":8003,"Ġped":8004,"lean":8005,"aylor":8006,"roy":8007,"ĠBank":8008,"ĠWhe":8009,"Ġshru":8010,"ĠLydia":8011,"Ġfeast":8012,"Ġuniverse":8013,"Ġspared":8014,"Ġoutward":8015,"Ġthrowing":8016,"Ġconfirm":8017,"Ġproposal":8018,"Ġoccasional":8019,"Ġemployment":8020,"express":8021,"Ġfolks":8022,"Ġjealousy":8023,"Ġdesirable":8024,"Ġdefective":8025,"ĠAugustus":8026,"conversation":8027,"itchey":8028,"CTION":8029,"pence":8030,"Ê¹":8031,"icted":8032,"learn":8033,"rog":8034,"Ġane":8035,"top":8036,"told":8037,"ĠLife":8038,"ĠLatin":8039,"unless":8040,"Ġolder":8041,"Ġreturns":8042,"Ġextensive":8043,"Ġcharms":8044,"Ġcosts":8045,"Ġintimacy":8046,"Ġsatell":8047,"Ġdiscussion":8048,"Ġrenewed":8049,"temper":8050,"Ġestablishment":8051,"fla":8052,"mus":8053,"tic":8054,"ties":8055,"Ġfoul":8056,"omer":8057,"hatter":8058,"irk":8059,"urst":8060,"Ġconvert":8061,"usions":8062,"ante":8063,"igs":8064,"mention":8065,"Ġdesires":8066,"Ġflu":8067,"Ġglorious":8068,"Ġheartily":8069,"Ġslices":8070,"Ġpursue":8071,"Ġveil":8072,"Ġdiscern":8073,"Ġmischief":8074,"Ġpayments":8075,"Ġmarks":8076,"chance":8077,"Ġscholar":8078,"Ġpractical":8079,"Ġshadows":8080,"Ġcombat":8081,"Ġparagraphs":8082,"Ġdistinguish":8083,"Ġrocks":8084,"Ġowing":8085,"Ġapplication":8086,"continued":8087,"Ġrotation":8088,"VII":8089,"iate":8090,"uly":8091,"Ġfitted":8092,"Ġcred":8093,"anx":8094,"Ġhunt":8095,"Ġlion":8096,"Ġhell":8097,"Ġstalk":8098,"Ġstraw":8099,"ilgr":8100,"ĠCarson":8101,"ĠBook":8102,"Ġwillingly":8103,"Ġbrid":8104,"Ġprime":8105,"arkis":8106,"Ġovercome":8107,"Ġreserved":8108,"Ġrepent":8109,"Ġfathers":8110,"spring":8111,"ĠWere":8112,"Ġuseless":8113,"Ġyouthful":8114,"Ġoriginally":8115,"Ġattendants":8116,"Ġvirtues":8117,"Ġwitnessed":8118,"Ġinjury":8119,"ĠMacGregor":8120,"Ġbaby":8121,"uminous":8122,"Ġweapon":8123,"Ġapprehension":8124,"Ġcitizens":8125,"anza":8126,"58":8127,"IG":8128,"bod":8129,"late":8130,"position":8131,"rich":8132,"adies":8133,"ĠEX":8134,"itty":8135,"rances":8136,"Ġgrin":8137,"Ġattentions":8138,"Ġentit":8139,"Ġseriously":8140,"Ġboots":8141,"party":8142,"Ġrespects":8143,"Ġruined":8144,"chet":8145,"ITH":8146,"Ġthousands":8147,"equal":8148,"spirit":8149,"Ġtariff":8150,"philosop":8151,"Int":8152,"sir":8153,"year":8154,"isible":8155,"Ġmair":8156,"Ġfret":8157,"estern":8158,"Ġnonsense":8159,"vet":8160,"ĠMansfield":8161,"ĠAny":8162,"ĠCap":8163,"Ġexempt":8164,"Ġrush":8165,"Ġshock":8166,"ummer":8167,"ĠLike":8168,"olent":8169,"Ġfeather":8170,"ordingly":8171,"Ġdisagreeable":8172,"former":8173,"Ġdistances":8174,"conce":8175,"Ġsecurity":8176,"Ġcopper":8177,"Ġrestrict":8178,"Ġformat":8179,"Ġhopeless":8180,"engers":8181,"Ġswear":8182,"ĠMarion":8183,"Ġcollege":8184,"Ġattendant":8185,"Ġposted":8186,"second":8187,"Ġingredients":8188,"favour":8189,"ĠSometimes":8190,"Ġincapable":8191,"44":8192,"Le":8193,"ban":8194,"bishop":8195,"iency":8196,"Ġtread":8197,"isin":8198,"Ġfires":8199,"Ġdaring":8200,"Ġlament":8201,"cel":8202,"Ġwash":8203,"riving":8204,"Ġvap":8205,"ĠWamba":8206,"olence":8207,"ĠFather":8208,"ĠRy":8209,"Ġours":8210,"Ġbrings":8211,"ĠJoseph":8212,"ints":8213,"ĠVaudemont":8214,"Ġhereafter":8215,"Ġmisfortune":8216,"Ġexpressions":8217,"Ġengage":8218,"Ġexception":8219,"Ġdrunk":8220,"Ġanimated":8221,"Ġexerc":8222,"Ġhanging":8223,"ĠAbbey":8224,"Ġinvolved":8225,"coloured":8226,"Ġreflections":8227,"Ġproducts":8228,"etterby":8229,"ĠValue":8230,"Ġenthusiasm":8231,"Ġobeyed":8232,"Ġappetite":8233,"60":8234,"Ha":8235,"ION":8236,"Upon":8237,"call":8238,"corn":8239,"gave":8240,"taking":8241,"Ġtied":8242,"reland":8243,"Ġsink":8244,"Ġcake":8245,"Ġnations":8246,"ĠMark":8247,"ifies":8248,"ĠSince":8249,"uss":8250,"Ġlikes":8251,"Ġunpleasant":8252,"Ġclot":8253,"elle":8254,"Ġscream":8255,"Ġglow":8256,"Ġappar":8257,"ertainly":8258,"astern":8259,"Ġsmaller":8260,"Ġaffecting":8261,"HAT":8262,"Ġdoubts":8263,"Ġruins":8264,"added":8265,"Ġperiodic":8266,"ILITY":8267,"suppose":8268,"human":8269,"Ġdeclare":8270,"Ġstatus":8271,"Ġowed":8272,"Ġpositive":8273,"Ġreproach":8274,"ĠTHIS":8275,"agreement":8276,"crumbs":8277,"HER":8278,"OS":8279,"gow":8280,"green":8281,"iations":8282,"non":8283,"uary":8284,"Ġsen":8285,"Ġsher":8286,"isher":8287,"Ġbone":8288,"Ġblend":8289,"Ġlass":8290,"ĠMal":8291,"Ġstaff":8292,"ĠAmy":8293,"Ġrisen":8294,"ĠWilton":8295,"Ġunusual":8296,"ĠRep":8297,"begin":8298,"forward":8299,"Ġlikewise":8300,"aps":8301,"Ġscar":8302,"Ġgrant":8303,"Ġimpressed":8304,"restrial":8305,"Ġirrit":8306,"Ġsecrets":8307,"Ġmurde":8308,"Ġgazing":8309,"Ġcombined":8310,"subst":8311,"Ġmurmur":8312,"Ġprinted":8313,"trans":8314,"Ġchimney":8315,"ca":8316,"ivering":8317,"knew":8318,"pons":8319,"Ġpowder":8320,"Ġinduce":8321,"Ġlit":8322,"Ġna":8323,"imately":8324,"Ġrevel":8325,"Ġwheel":8326,"ĠWindsor":8327,"Ġqueer":8328,"ĠGurth":8329,"Ġdisease":8330,"Ġouter":8331,"ovel":8332,"Ġchin":8333,"attention":8334,"Ġprovision":8335,"Ġhonours":8336,"ocr":8337,"Ġviewed":8338,"Ġexisted":8339,"anguage":8340,"Ġerrand":8341,"Ġdelicious":8342,"Ġcousins":8343,"ĠIndian":8344,"Ġ90":8345,"Ġaddressing":8346,"Ġshouted":8347,"Ġindignation":8348,"Ġesteem":8349,"Ġextremity":8350,"Ro":8351,"fair":8352,"number":8353,"sw":8354,"tar":8355,"headed":8356,"Ġfasc":8357,"oring":8358,"asked":8359,"Ġissue":8360,"Ġshrewd":8361,"orting":8362,"ĠPryor":8363,"Ġeverywhere":8364,"Ġglancing":8365,"Ġchemical":8366,"Ġsteam":8367,"Ġdoubtful":8368,"Ġreasoning":8369,"Ġtemporary":8370,"Ġsadly":8371,"purpose":8372,"ĠIsabel":8373,"Ġmultitude":8374,"influ":8375,"Ġperpetual":8376,"Ġglobe":8377,"Ġreplacement":8378,"Jane":8379,"sla":8380,"Ġtext":8381,"Ġwept":8382,"ĠMil":8383,"Ġvale":8384,"Ġshillings":8385,"Ġmanif":8386,"ĠField":8387,"Ġcanst":8388,"Ġuser":8389,"Ġcomposition":8390,"Ġoffended":8391,"Ġapples":8392,"Ġinstances":8393,"version":8394,"ĠMaria":8395,"countenance":8396,"Ġneighbouring":8397,"Ġannoy":8398,"Ġneglected":8399,"Ġpreparations":8400,"Ġentertained":8401,"AMAG":8402,"Ġappropriate":8403,"Ġstupid":8404,"ĠAGRE":8405,"ĠPompe":8406,"Ab":8407,"IX":8408,"Old":8409,"Tis":8410,"dinner":8411,"lers":8412,"Ġ...":8413,"Ġtu":8414,"Ġsouthern":8415,"Ġfaded":8416,"Ġcree":8417,"Ġhem":8418,"Ġyolks":8419,"Ġrecess":8420,"Ġweigh":8421,"ĠTer":8422,"oof":8423,"Ġsavour":8424,"ilful":8425,"âĢĶâĢĻ":8426,"allan":8427,"olution":8428,"ongress":8429,"open":8430,"Ġdisplayed":8431,"Ġshared":8432,"Ġprey":8433,"Ġchase":8434,"Ġblushed":8435,"Ġdeserved":8436,"Ġspecial":8437,"Ġwherever":8438,"Ġsubsequ":8439,"exam":8440,"Ġacts":8441,"Ġshortly":8442,"Ġ1818":8443,"Ġdivision":8444,"ferred":8445,"pecial":8446,"âĢĶâĢĶâĢĿ":8447,"distance":8448,"Ġcouch":8449,"Ġimmort":8450,"ĠBarthelemy":8451,"Ġoperation":8452,"Ġexhibited":8453,"honour":8454,"Ġhorizon":8455,"Ġderivative":8456,"31":8457,"Ste":8458,"Ye":8459,"gings":8460,"pool":8461,"sit":8462,"isl":8463,"oni":8464,"Ġtomb":8465,"Ġpul":8466,"asgow":8467,"Ġbeast":8468,"Ġbegged":8469,"Ġonions":8470,"riages":8471,"ifts":8472,"ama":8473,"Ġselected":8474,"Ġcontain":8475,"ĠHareton":8476,"acing":8477,"Ġjew":8478,"ĠJacob":8479,"Ġbetray":8480,"Ġdesk":8481,"Ġthoughtful":8482,"chal":8483,"Ġgets":8484,"Ġvarieties":8485,"Ġappearing":8486,"Ġneeds":8487,"Ġperfection":8488,"Ġmusical":8489,"earth":8490,"minster":8491,"Ġmasses":8492,"Ġguardian":8493,"Ġperforming":8494,"Ġvengeance":8495,"Ġdreary":8496,"bad":8497,"nes":8498,"render":8499,"Ġwip":8500,"Ġfel":8501,"leave":8502,"Ġstories":8503,"ĠSE":8504,"ĠSw":8505,"usive":8506,"astes":8507,"elcome":8508,"Ġprodig":8509,"ĠEs":8510,"Ġjar":8511,"ĠJune":8512,"cover":8513,"Ġcontinually":8514,"Ġswept":8515,"Ġswift":8516,"Ġedition":8517,"guish":8518,"Ġencounter":8519,"Ġdishon":8520,"uxter":8521,"ĠSpir":8522,"Ġsuggest":8523,"writing":8524,"Ġpersuade":8525,"Ġfurniture":8526,"affected":8527,"Ġbranch":8528,"Bec":8529,"EW":8530,"erer":8531,"fell":8532,"iber":8533,"sight":8534,"tender":8535,"Ġtre":8536,"Ġbake":8537,"immer":8538,"third":8539,"Ġtwilight":8540,"Ġconfession":8541,"Ġcertainty":8542,"proceed":8543,"Ġspeaker":8544,"Ġvaried":8545,"bitious":8546,"Ġrespecting":8547,"Ġlaying":8548,"Ġcorrupt":8549,"Ġanxiously":8550,"Ġleaf":8551,"arrier":8552,"ĠBaronet":8553,"husband":8554,"visit":8555,"window":8556,"Ġwarning":8557,"Ġenormous":8558,"Because":8559,"AST":8560,"Master":8561,"viously":8562,"viol":8563,"Ġwing":8564,"Ġpages":8565,"Ġpushed":8566,"Ġdazz":8567,"Ġhated":8568,"Ġgest":8569,"Ġgates":8570,"thren":8571,"odius":8572,"cile":8573,"Ġenvy":8574,"conn":8575,"Ġhearty":8576,"Ġstepped":8577,"Ġdefend":8578,"laws":8579,"understand":8580,"Ġdrown":8581,"Ġphilosophers":8582,"Ġhatred":8583,"vived":8584,"Ġdistinctly":8585,"Ġmessenger":8586,"Ġexecution":8587,"Ġexertion":8588,"Ġflew":8589,"Ġwedding":8590,"Ġinspired":8591,"Phil":8592,"SC":8593,"aec":8594,"court":8595,"live":8596,"pain":8597,"vill":8598,"Ġwretch":8599,"Ġdamp":8600,"ico":8601,"Ġgig":8602,"urday":8603,"employ":8604,"ĠBois":8605,"Ġvest":8606,"Ġample":8607,"cloth":8608,"Ġgrate":8609,"Ġconfer":8610,"actions":8611,"Ġmomentary":8612,"Ġholds":8613,"Ġdogs":8614,"fashioned":8615,"Ġdisguise":8616,"ĠPrior":8617,"Ġnebul":8618,"Ġsmell":8619,"dated":8620,"mid":8621,"Ġwarri":8622,"itch":8623,"especially":8624,"aris":8625,"Ġlocked":8626,"Ġreception":8627,"Ġwholes":8628,"next":8629,"ĠFar":8630,"Ġunjust":8631,"oping":8632,"ĠHead":8633,"ciety":8634,"Ġdishes":8635,"ranger":8636,"Ġchapel":8637,"comes":8638,"ceipt":8639,"tenance":8640,"Ġinterference":8641,"Ġpolite":8642,"Ġhelped":8643,"Ġlabor":8644,"ĠGloucester":8645,"Ġangles":8646,"Ġhotel":8647,"Anne":8648,"Ġdiminished":8649,"Ġreligious":8650,"Ġsolicit":8651,"Ġrejoined":8652,"ĠRussell":8653,"55":8654,"True":8655,"six":8656,"inently":8657,"reck":8658,"itively":8659,"Ġfiend":8660,"Ġgoss":8661,"idents":8662,"Ġstayed":8663,"ĠTyrrell":8664,"ĠScythrop":8665,"ĠGard":8666,"Ġknowest":8667,"itional":8668,"Ġfeels":8669,"Ġturns":8670,"Ġhappier":8671,"spo":8672,"Ġpersonage":8673,".âĢĻâĢĿ":8674,"Ġcrust":8675,"Ġartific":8676,"Ġkeeps":8677,"Ġrecalled":8678,"Ġtriump":8679,"Ġbanquet":8680,"ĠFairoaks":8681,"Ġfrost":8682,"Ġreverence":8683,"Ġfaults":8684,"Ġmissed":8685,"returned":8686,"concern":8687,"Ġreminded":8688,"ĠMusgro":8689,"arvie":8690,"Pendennis":8691,"US":8692,"bal":8693,"miss":8694,"rice":8695,"hear":8696,"incess":8697,"Ġwire":8698,"oups":8699,"orig":8700,"ato":8701,"uting":8702,"ĠSquire":8703,"Ġdeer":8704,"Ġdeceived":8705,"Ġkill":8706,"ersed":8707,"else":8708,"Ġsomewhere":8709,"Ġplants":8710,"Ġ11":8711,"Ġresc":8712,"Ġscore":8713,"Ġlonged":8714,"Ġattracted":8715,"Ġentity":8716,"rows":8717,"ducing":8718,"Ġacute":8719,"Ġindirect":8720,"Ġrestore":8721,"Ġreaders":8722,"Ġevils":8723,"Ġassurance":8724,"Ġfinely":8725,"Ġcolumn":8726,"Ġregarding":8727,"Ġdestruction":8728,"ĠPrice":8729,"happiness":8730,"Ġexcellence":8731,"umbled":8732,"Ġaccomplish":8733,"Ġcorresponding":8734,"acquaintance":8735,"Ġdissolved":8736,"Ġpupil":8737,"IRE":8738,"bri":8739,"ele":8740,"iary":8741,"nay":8742,"pract":8743,"want":8744,"Ġ--":8745,"Ġta":8746,"Ġaug":8747,"Ġobey":8748,"atus":8749,"icate":8750,"Ġgross":8751,"Ġnoted":8752,"Ġsage":8753,"Ġdefic":8754,"ĠLoch":8755,"agg":8756,"meet":8757,"Ġpreference":8758,"Ġthence":8759,"class":8760,"Ġgrated":8761,"Ġimposed":8762,"ĠUpon":8763,"Ġforming":8764,"Ġpointing":8765,"grown":8766,"Ġaccounts":8767,"chel":8768,"Ġincluded":8769,"Ġkingdom":8770,"Ġburden":8771,"ĠProfessor":8772,"countered":8773,"Ġseparation":8774,"Ġpassionate":8775,"Ġballs":8776,"Ġarrangements":8777,"Ġtotal":8778,"ĠDougl":8779,"determ":8780,"ĠSnitchey":8781,"AK":8782,"Harriet":8783,"rind":8784,"tree":8785,"Ġtie":8786,"inery":8787,"ouched":8788,"onies":8789,"Ġmorn":8790,"Ġanguish":8791,"Ġdefe":8792,"Ġnobles":8793,"ols":8794,"ĠPre":8795,"urely":8796,"Ġprohib":8797,"igen":8798,"ĠĠĠĠĠĠĠĠĠĠĠĠĠĠĠĠĠ":8799,"Ġclam":8800,"Ġchival":8801,"Ġdescent":8802,"izzy":8803,"Ġadvise":8804,"Ġformal":8805,"engaged":8806,"Ġcreatures":8807,"Ġexamined":8808,"boiled":8809,"Ġattending":8810,"Ġcommanded":8811,"Ġembra":8812,"Ġuneasy":8813,"umbers":8814,"Ġpunishment":8815,"Ġtalent":8816,"Ġporter":8817,"Ġbewild":8818,"Ġencouraged":8819,"Ġsubdued":8820,"aecides":8821,"Mac":8822,"aver":8823,"sions":8824,"inal":8825,"Ġoy":8826,"rene":8827,"Ġfry":8828,"aten":8829,"urate":8830,"cto":8831,"âĢĿâĢĶ":8832,"Ġsag":8833,"amont":8834,"ulsion":8835,"ciences":8836,"Ġsomehow":8837,"Ġobed":8838,"retion":8839,"Ġindisp":8840,"Ġcoast":8841,"Ġgenerations":8842,"Ġgenerosity":8843,"Ġprofits":8844,"Ġcapacity":8845,"Ġlords":8846,"Ġwondering":8847,"Ġripe":8848,"ĠClodius":8849,"Ġdestiny":8850,"considered":8851,"Ġdespite":8852,"trad":8853,"Ġseasoning":8854,"Ġavoided":8855,"Ġrecognized":8856,"Ġsprung":8857,"Ġdiameter":8858,"ĠRowena":8859,"Ġdoctrine":8860,"resistible":8861,"UM":8862,"inburgh":8863,"Ġbuck":8864,"Ġbased":8865,"Ġcards":8866,"Ġlust":8867,"Ġlosing":8868,"icable":8869,"Ġreconc":8870,"Ġmemor":8871,"ĠBates":8872,"ĠBarkis":8873,"arts":8874,"ptember":8875,"othering":8876,"Ġclos":8877,"Ġclung":8878,"deep":8879,"Ġrefuge":8880,"actly":8881,"remem":8882,"Ġopposed":8883,"grateful":8884,"ĠChief":8885,"scot":8886,"yourself":8887,"regard":8888,"changed":8889,"Ġcollect":8890,"Ġindividuals":8891,"Ġinvolunt":8892,"Ġreferred":8893,"9732":8894,"Ġadapted":8895,"Ġcotton":8896,"Ġrestrictions":8897,"ctober":8898,"Cla":8899,"fresh":8900,"oves":8901,"sl":8902,"sun":8903,"view":8904,"Ġske":8905,"Ġsang":8906,"Ġfury":8907,"Ġlap":8908,"Ġelli":8909,"Ġyards":8910,"Ġwhit":8911,"ĠTetterby":8912,"ĠLow":8913,"ords":8914,"become":8915,"prove":8916,"keness":8917,"Ġslee":8918,"eches":8919,"mbled":8920,"contr":8921,"Ġknock":8922,"truth":8923,"chard":8924,"Ġeagerness":8925,"pril":8926,"Ġintroduce":8927,"Ġwandered":8928,"Ġextravag":8929,"Caroline":8930,"ĠNovember":8931,"41":8932,"Tr":8933,"].":8934,"slow":8935,"wish":8936,"inces":8937,"inement":8938,"reci":8939,"Ġheated":8940,"Ġgoose":8941,"seem":8942,"ĠMat":8943,"ĠAthelstane":8944,"Ġvivid":8945,"Ġrout":8946,"plan":8947,"Ġaristo":8948,"Ġdiscont":8949,"ĠOwen":8950,"Ġcliff":8951,"Ġthrong":8952,"Ġpassages":8953,"Ġwrought":8954,"ials":8955,"Ġlovers":8956,"Ġreads":8957,"arnshaw":8958,"Ġsunshine":8959,"Ġpretend":8960,"ĠBeaum":8961,"Ġdeadly":8962,"Ġknave":8963,"Ġknocked":8964,"Ġwitch":8965,"Ġrecover":8966,"Before":8967,"Ġinnocence":8968,"Ġcommerce":8969,"Ġearliest":8970,"ĠApaecides":8971,"Ġhaunted":8972,"Ġfederal":8973,"Ġpronounced":8974,"Ġstaircase":8975,"ortunities":8976,"Ġentitled":8977,"lies":8978,"pay":8979,"sweet":8980,"whis":8981,"Ġmission":8982,"Ġtoil":8983,"lex":8984,"peculiar":8985,"ĠCity":8986,"ĠBRE":8987,"ĠBungay":8988,"ĠWITH":8989,"ortions":8990,"Ġdost":8991,"aging":8992,"Ġclan":8993,"ackleton":8994,"Ġchap":8995,"Ġremon":8996,"Ġspell":8997,"Ġsupposing":8998,"Ġconfounded":8999,"Ġexcite":9000,"Ġcopied":9001,"Ġdiscourse":9002,"Ġconditions":9003,"Ġinsisted":9004,"Ġ188":9005,"Ġdraught":9006,"Ġcutting":9007,"Ġcompliments":9008,"Ġroads":9009,"ĠSpen":9010,"fortunes":9011,"Ġexchanged":9012,"Ġcandid":9013,"Ġfiery":9014,"gentlemen":9015,"Ġgrowth":9016,"Ġappreci":9017,"Ġchecked":9018,"Ġspeedily":9019,"Ġmachine":9020,"intellect":9021,"Ġprecaut":9022,"ĠDouglas":9023,"//":9024,"96":9025,"://":9026,"Su":9027,"iated":9028,"uine":9029,"Ġower":9030,"really":9031,"Ġmock":9032,"Ġpang":9033,"Ġinher":9034,"Ġretained":9035,"Ġreaching":9036,"Ġanalog":9037,"Ġsem":9038,"antine":9039,"Ġshoes":9040,"ument":9041,"ĠLake":9042,"ĠEug":9043,"Ġjump":9044,"ĠReynolds":9045,"Ġarrive":9046,"Ġclasped":9047,"Ġseeking":9048,"def":9049,"Ġcontract":9050,"Ġpropose":9051,"Ġsounded":9052,"Ġrig":9053,"Ġcompleted":9054,"Ġportra":9055,"Ġmeantime":9056,"ĠMartha":9057,"Ġresemblance":9058,"Ġnutmeg":9059,"ĠDavid":9060,"ĠSpenlow":9061,"Bel":9062,"grand":9063,"hire":9064,"hours":9065,"true":9066,"Ġwake":9067,"orter":9068,"atched":9069,"Ġdun":9070,"Ġdiver":9071,"Ġlic":9072,"ication":9073,"ĠIreland":9074,"iry":9075,"ĠMen":9076,"raint":9077,"ĠTHAT":9078,"ĠHuxter":9079,"Ġshew":9080,"Ġrises":9081,"inder":9082,"erschel":9083,"ĠGent":9084,"Ġimplied":9085,"apart":9086,"Ġblade":9087,"Ġattitude":9088,"ipse":9089,"Ġwhereas":9090,"gging":9091,"ĠVII":9092,"ĠYoung":9093,"Ġartist":9094,"Ġmetap":9095,"Ġtowns":9096,"Ġresolute":9097,"communic":9098,"Ġglasses":9099,"Ġcivility":9100,"Ġrecognised":9101,"Ġlodging":9102,"ĠThorpe":9103,"rotchet":9104,"Ġvacant":9105,"ĠSussex":9106,"Fair":9107,"OW":9108,"pop":9109,"pite":9110,"school":9111,"Ġbark":9112,"Ġbacon":9113,"Ġcu":9114,"escend":9115,"Ġbears":9116,"Ġweep":9117,"chilt":9118,"ĠTell":9119,"ands":9120,"quick":9121,"ĠSall":9122,"Ġshri":9123,"ptical":9124,"laid":9125,"laugh":9126,"endous":9127,"behind":9128,"Ġpartial":9129,"Ġbetrayed":9130,"butter":9131,"fts":9132,"ĠUnder":9133,"Ġinterior":9134,"ĠYe":9135,"ĠAlas":9136,"Ġbreathe":9137,"impse":9138,"afterwards":9139,"Ġmoonlight":9140,"thoughts":9141,"Ġderive":9142,"Ġdeclined":9143,"Ġindulgence":9144,"ummie":9145,"Ġmaterials":9146,"hastly":9147,"Ġultimate":9148,"ĠGlenallan":9149,"Ġdischarge":9150,"Ġindustry":9151,"Ġeloquence":9152,"ĠHartfield":9153,"Ġtidings":9154,"56":9155,"ID":9156,"Rob":9157,"Ġmob":9158,"Ġmute":9159,"Ġmirth":9160,"Ġpom":9161,"ashes":9162,"Ġheed":9163,"adise":9164,"Ġstag":9165,"rage":9166,"ĠSec":9167,"emember":9168,"Ġdoom":9169,"need":9170,"ago":9171,"Ġprudent":9172,"ĠItalian":9173,"excellent":9174,"ĠInn":9175,"Ġmarrying":9176,"Ġcurtain":9177,"Ġmodel":9178,"ograph":9179,"Ġacquies":9180,"ĠEdgar":9181,"Ġpoles":9182,"Ġstandard":9183,"Ġbargain":9184,"Ġjudged":9185,"ĠAdon":9186,"Ġsyrup":9187,"Ġnobleman":9188,"ĠGlasgow":9189,"ĠDeath":9190,"Ġastronom":9191,"Ġcalmly":9192,"Another":9193,"Ġgrandfather":9194,"Ġnegro":9195,"Ġintroduction":9196,"ĠAbout":9197,"Ġpotatoes":9198,"broken":9199,"considerable":9200,"Ġnarrative":9201,"Ġbustle":9202,"Ġhedge":9203,"settled":9204,"Ġmurderer":9205,"Even":9206,"New":9207,"QU":9208,"dro":9209,"dam":9210,"gest":9211,"pest":9212,"poonful":9213,"town":9214,"uously":9215,"xx":9216,"Ġoil":9217,"receive":9218,"Ġbasket":9219,"Ġlance":9220,"irke":9221,"ĠTra":9222,"ĠTaylor":9223,"ths":9224,"Ġquot":9225,"Their":9226,"onday":9227,"Ġclar":9228,"ĠJarvie":9229,"lessly":9230,"compar":9231,"Ġrail":9232,"Ġreported":9233,"Ġchanced":9234,"Ġguine":9235,"Ġinvention":9236,"Ġvexed":9237,"Ġrequis":9238,"Ġlandscape":9239,"Ġlimitation":9240,"Ġcommands":9241,"Ġhundreds":9242,"Ġoccupy":9243,"Ġtorn":9244,"Ġliberal":9245,"Ġmagnitude":9246,"anchester":9247,"Ġmourning":9248,"uddings":9249,"Ġpublished":9250,"Bar":9251,"Certainly":9252,"EAT":9253,"Two":9254,"pine":9255,"âĢ¢":9256,"Ġcure":9257,"ascal":9258,"andal":9259,"quin":9260,"aments":9261,"Ġorg":9262,"Ġsheet":9263,"Ġunnecessary":9264,"Ġamusing":9265,"Ġthanked":9266,"above":9267,"deg":9268,"Ġnevertheless":9269,"Ġscra":9270,"Ġglit":9271,"expect":9272,"duct":9273,"Ġcurrants":9274,"Ġbestow":9275,"Ġrequested":9276,"ogene":9277,"Ġ60":9278,"prep":9279,"Ġlabours":9280,"Ġlimits":9281,"Ġresearch":9282,"written":9283,"Ġvictory":9284,"Ġdisturbing":9285,"Ġhesitation":9286,"Ġdeliver":9287,"Ġcritical":9288,"Ġaudience":9289,"Ġbending":9290,"Ġfatigue":9291,"ĠTrotwood":9292,"Ġanteced":9293,"Meanwhile":9294,"Was":9295,"mur":9296,"wild":9297,"Ġtutor":9298,"Ġwoo":9299,"Ġbul":9300,"ench":9301,"Ġcust":9302,"Ġpant":9303,"Ġrear":9304,"Ġwhites":9305,"Ġonion":9306,"ĠMind":9307,"ilst":9308,"Ġalliance":9309,"odes":9310,"ĠGr":9311,"Ġimages":9312,"ĠNay":9313,"onson":9314,"Ġdesigned":9315,"Ġpeer":9316,"Ġtrick":9317,"cession":9318,"Ġdecide":9319,"Ġdecision":9320,"ogue":9321,"Ġforever":9322,"Ġacquire":9323,"Ġmonarch":9324,"disappoint":9325,"Ġarmour":9326,"Ġforcemeat":9327,"Ġsyll":9328,"Ġdetermination":9329,"Ġembrace":9330,"Ġbodily":9331,"certainly":9332,"thinking":9333,"Ġerect":9334,"poonsful":9335,"ĠLouisa":9336,"Ġtrifling":9337,"Ġpledge":9338,"probably":9339,"sufficient":9340,"Ġvenerable":9341,"Ġdessertspoonful":9342,"Ġadminist":9343,"ĠSallust":9344,"HT":9345,"Henry":9346,"iptic":9347,"pock":9348,"shad":9349,"Êº":9350,"Ġsinking":9351,"oration":9352,"arnt":9353,"Ġloo":9354,"thousand":9355,"ĠHaving":9356,"Ġsheep":9357,"ĠCongress":9358,"olved":9359,"Ġambitious":9360,"Ġshaw":9361,"Ġenchant":9362,"fear":9363,"ĠItaly":9364,"Ġdidst":9365,"Ġcommission":9366,"ĠVir":9367,"Ġchanging":9368,"Ġtermin":9369,"Ġinterposed":9370,"Ġproposition":9371,"Ġmodes":9372,"Ġconsiderably":9373,"Ġmagic":9374,"Ġexists":9375,"Ġremarkably":9376,"Ġstopping":9377,"Ġexamine":9378,"Ġperiods":9379,"Ġattempts":9380,"Ġcombination":9381,"Ġschemes":9382,"Ġcorrespondence":9383,"famil":9384,"ĠMorland":9385,"perfectly":9386,"Ġprosperity":9387,"reakle":9388,"chiltree":9389,"Co":9390,"House":9391,"length":9392,"oons":9393,"Ġmorrow":9394,"Ġchat":9395,"Ġheath":9396,"Ġnic":9397,"Ġghastly":9398,"imony":9399,"Ġattained":9400,"ĠBed":9401,"Ġrow":9402,"umerable":9403,"ĠFriar":9404,"Ġquoth":9405,"ĠDemand":9406,"Ġarising":9407,"aping":9408,"Ġhandkerchief":9409,"Ġoffers":9410,"Ġpurple":9411,"Ġcrimin":9412,"Ġearthly":9413,"Ġplacing":9414,"Ġdispute":9415,"Ġlowest":9416,"Ġaccordance":9417,"Ġgallery":9418,"donate":9419,"passion":9420,"secret":9421,"ÂłÂłÂłÂł":9422,"Ġgratified":9423,"Ġdismal":9424,"Ġmethods":9425,"Ġbasin":9426,"steps":9427,"Ġmaximum":9428,"otheringay":9429,"fied":9430,"obl":9431,"Ġtin":9432,"Ġtap":9433,"Ġbind":9434,"Ġlou":9435,"Ġnought":9436,"entire":9437,"idian":9438,"uration":9439,"ĠSar":9440,"ĠSam":9441,"ĠSally":9442,"Ġdeeds":9443,"gend":9444,"ushes":9445,"Ġrhy":9446,"ĠLa":9447,"Ġabol":9448,"ĠDart":9449,"ensation":9450,"Ġtroubles":9451,"super":9452,"Ġextension":9453,"pendicular":9454,"ificant":9455,"ĠAlt":9456,"society":9457,"Only":9458,"Ġhistor":9459,"Ġstreams":9460,"delight":9461,"iveness":9462,"recoll":9463,"ĠRodney":9464,"Ġcomrades":9465,"Ġechoed":9466,"Ġmagistrate":9467,"Ġdwelt":9468,"42":9469,"BER":9470,"RY":9471,"Walter":9472,"mem":9473,"ok":9474,"oven":9475,"sym":9476,"Ġfetch":9477,"Ġcrest":9478,"Ġcattle":9479,"Ġlan":9480,"Ġlob":9481,"owls":9482,"rily":9483,"illity":9484,"gelt":9485,"estab":9486,"Ġrash":9487,"Ġshield":9488,"elesc":9489,"Ġfeud":9490,"unction":9491,"Ġabide":9492,"reath":9493,"Ġshaken":9494,"Ġplates":9495,"Ġoffices":9496,"Ġcontrived":9497,"Ġadding":9498,"Ġeminent":9499,"Ġterrestrial":9500,"Ġlesson":9501,"Ġguided":9502,"Ġbrethren":9503,"Ġrecent":9504,"Ġremainder":9505,"Ġvisitors":9506,"Ġbreathed":9507,"Ġcrossing":9508,"Ġassociation":9509,"Ġeighteen":9510,"Ġlawn":9511,"Ġsuperiority":9512,"Ġbowl":9513,"Ġsongs":9514,"grave":9515,"ĠSaturday":9516,"Ġdismissed":9517,"Ġsaddle":9518,"Ġgardens":9519,"ilgrim":9520,"ĠSpirit":9521,"igengelt":9522,"+--------":9523,"87":9524,"dish":9525,"flu":9526,"gal":9527,"women":9528,"Ġtune":9529,"Ġtones":9530,"oult":9531,"Ġbru":9532,"Ġrever":9533,"Ġrect":9534,"alf":9535,"Ġashes":9536,"cture":9537,"Ġsear":9538,"oughs":9539,"Ġunto":9540,"cipl":9541,"means":9542,"Ġencountered":9543,"ĠJoe":9544,"pson":9545,"Ġawakened":9546,"suit":9547,"Ġboot":9548,"gedy":9549,"Ġmarble":9550,"Ġregions":9551,"Ġadvancing":9552,"Ġtraced":9553,"works":9554,"ifications":9555,"Ġneedle":9556,"Ġtenant":9557,"Ġpursuits":9558,"ĠYorkshire":9559,"Ġtravelled":9560,"Ġsuggestion":9561,"Ġimpert":9562,"Ġharmless":9563,"books":9564,"Ġdisgust":9565,"William":9566,"====":9567,"Ġhidden":9568,"lotte":9569,"Ġliterature":9570,"Ġresources":9571,"Ġcoward":9572,"Ġvibrations":9573,"ĠAltamont":9574,"Tell":9575,"gold":9576,"hundred":9577,"lock":9578,"tri":9579,"txt":9580,"uction":9581,"vidence":9582,"Ġton":9583,"health":9584,"Ġsits":9585,"asse":9586,"stra":9587,"sect":9588,"Ġreferences":9589,"ĠTime":9590,"ĠTackleton":9591,"Ġattain":9592,"iliation":9593,"ĠSal":9594,"ĠCons":9595,"ousin":9596,"auld":9597,"Ġclust":9598,"Ġprices":9599,"Ġprudence":9600,"Ġowns":9601,"Ġblushing":9602,"hens":9603,"Ġflashed":9604,"Ġglimpse":9605,"Ġtrump":9606,"Ġcurate":9607,"Ġfinds":9608,"Ġmetal":9609,"Ġfrae":9610,"Ġstudies":9611,"Ġmadness":9612,"Ġprayers":9613,"Ġstrengthen":9614,"Ġfashionable":9615,"Ġinjured":9616,"Ġrecommended":9617,"reasonable":9618,"Ġhesitated":9619,"Ġtempted":9620,"pretty":9621,"Ġpillow":9622,"Ġvicinity":9623,"Ġornament":9624,"Ġharmony":9625,"Ġmajority":9626,"Ġdemonstr":9627,"Ġpirates":9628,"Ġholiday":9629,"VER":9630,"aic":9631,"bright":9632,"during":9633,"frequ":9634,"iably":9635,"rating":9636,"sense":9637,"Ġcamp":9638,"Ġcunning":9639,"Ġpau":9640,"aration":9641,"Ġwhither":9642,"ether":9643,"Ġmeek":9644,"ĠCarrier":9645,"ĠCrotchet":9646,"Ġvow":9647,"umps":9648,"Ġcomets":9649,"Ġupright":9650,"ivel":9651,"Ġmanly":9652,"Ġaged":9653,"Ġdiss":9654,"Ġpersec":9655,"inkled":9656,"Ġflood":9657,"ĠShepherd":9658,"Ġappla":9659,"Ġ21":9660,"ĠVIII":9661,"Ġrepublic":9662,"Ġresting":9663,"Ġsilently":9664,"Ġproportions":9665,"Ġhorrible":9666,"Ġstarting":9667,"Ġtremendous":9668,"âĢĶâĢĶ\"":9669,"Ġdreaded":9670,"Ġrange":9671,"clear":9672,"supposed":9673,"Ġsuspicions":9674,"Ġindependence":9675,"Ġalternate":9676,"Ġvegetables":9677,"Ġnewspapers":9678,"Ġindicate":9679,"Ġdollars":9680,"Ġwaistcoat":9681,"ĠWorld":9682,"Ġorgans":9683,"Am":9684,"gall":9685,"gla":9686,"mixed":9687,"reed":9688,"Ġbeard":9689,"irling":9690,"ilke":9691,"Ġdeaf":9692,"Ġexult":9693,"ĠBoth":9694,"Ġships":9695,"aks":9696,"ĠFirst":9697,"ĠOut":9698,"Ġroar":9699,"ĠJuly":9700,"Ġoffering":9701,"Ġpresume":9702,"Ġapology":9703,"oubted":9704,"Ġformidable":9705,"Ġmerits":9706,"Ġproperties":9707,"Ġrub":9708,"Ġdinners":9709,"Ġfinal":9710,"commod":9711,"kespeare":9712,"Ġranks":9713,"Alas":9714,"Ġlodgings":9715,"ructed":9716,"CTU":9717,"Ġinstruments":9718,"Ġendeavouring":9719,"Ġgathering":9720,"Ġsincerely":9721,"Ġfulfil":9722,"Ġabandoned":9723,"ĠPompeii":9724,"DING":9725,"Just":9726,"trees":9727,"Ġscept":9728,"Ġmaj":9729,"Ġflying":9730,"Ġlane":9731,"icit":9732,"owry":9733,"imson":9734,"lfred":9735,"ĠWolf":9736,"Ġshy":9737,"orders":9738,"ĠGive":9739,"beyond":9740,"became":9741,"fere":9742,"Ġindicated":9743,"author":9744,"kspeare":9745,"Ġrubbed":9746,"Ġtemple":9747,"Ġsixteen":9748,"anguine":9749,"gues":9750,"Ġpenny":9751,"Ġstaying":9752,"Ġcrack":9753,"Ġportions":9754,"Ġspecim":9755,"ĠCraggs":9756,"expression":9757,"ĠSmirke":9758,"Ġfavoured":9759,"Ġtablespoonsful":9760,"Ġprocured":9761,"Ġtemptation":9762,"Ġtrifle":9763,"Ġtyran":9764,"Ġgriev":9765,"Ġprivilege":9766,"beautiful":9767,"lemency":9768,"TY":9769,"bless":9770,"grow":9771,"iot":9772,"paper":9773,"Ġtastes":9774,"Ġox":9775,"Ġmuckle":9776,"Ġfowl":9777,"Ġcart":9778,"Ġdus":9779,"stan":9780,"Ġthri":9781,"Ġug":9782,"ĠMed":9783,"quare":9784,"Ġseal":9785,"Ġorbits":9786,"Ġcontains":9787,"Ġbutcher":9788,"antial":9789,"ĠOctober":9790,"ĠNO":9791,"ignant":9792,"Ġawoke":9793,"Ġcommence":9794,"sup":9795,"Ġinstit":9796,"Ġcourte":9797,"Ġcoins":9798,"Ġcharges":9799,"Ġpromises":9800,"scarcely":9801,"eye":9802,"ginald":9803,"Ġmedic":9804,"Ġproceedings":9805,"Ġstole":9806,"Ġstudent":9807,"ĠCarfax":9808,"Ġanimals":9809,"Ġbelongs":9810,"Ġcrept":9811,"ettle":9812,"ĠExcept":9813,"opportunity":9814,"oiselle":9815,"Ġlingered":9816,"miral":9817,"Ġnodded":9818,"Ġprimary":9819,"Ġembarrassed":9820,"Ġprejudice":9821,"Ġbreeze":9822,"Ġheavily":9823,"Ġwholesome":9824,"ACH":9825,"FOR":9826,"OSE":9827,"Pray":9828,"grace":9829,"soft":9830,"inth":9831,"itors":9832,"Ġfoes":9833,"orial":9834,"enter":9835,"imer":9836,"Ġwashed":9837,"urse":9838,"Ġfors":9839,"Ġissued":9840,"Ġselling":9841,"ĠCreakle":9842,"erson":9843,"eling":9844,"aux":9845,"Ġsports":9846,"Ġarises":9847,"Ġclub":9848,"Ġdistressed":9849,"Ġserving":9850,"ulture":9851,"attern":9852,"Ġ200":9853,"Ġslumber":9854,"ĠUse":9855,"Ġintend":9856,"Ġassent":9857,"Ġinvisible":9858,"Ġdetail":9859,"Ġveins":9860,"Ġpretended":9861,"ĠAnother":9862,"ĠOnly":9863,"Ġdivide":9864,"Ġstrangely":9865,"cientific":9866,"Ġstirring":9867,"distribut":9868,"Ġchairs":9869,"kindness":9870,"office":9871,"ĠIndia":9872,"Ġphysician":9873,"Ġtravellers":9874,"Ġfurnish":9875,"Ġlodge":9876,"Ġconvenience":9877,"Ġprocure":9878,"ĠSeptember":9879,"Ġslip":9880,"followed":9881,"Ġascertained":9882,"Ġeconomy":9883,"proportion":9884,"Ġcorpse":9885,"Ġmirror":9886,"Ġpuzzled":9887,"Ġsubsequent":9888,"Philip":9889,"UN":9890,"drawn":9891,"eur":9892,"sound":9893,"wart":9894,"warm":9895,"Â£":9896,"Ġwax":9897,"Ġcens":9898,"orus":9899,"asing":9900,"Ġnaked":9901,"Ġisn":9902,"ĠMajesty":9903,"ĠShall":9904,"Ġsequ":9905,"ĠAy":9906,"ĠHector":9907,"Ġrascal":9908,"ĠLIM":9909,"Ġspoon":9910,"Ġjolly":9911,"Ġroot":9912,"Ġresign":9913,"Ġattentive":9914,"Ġreports":9915,"Ġhappily":9916,"Ġrefined":9917,"Ġassigned":9918,"Ġladyship":9919,"Ġcontinu":9920,"Ġskim":9921,"Ġexpecting":9922,"Ġcavern":9923,"INE":9924,"Ġhushed":9925,"Ġannual":9926,"Ġcommanding":9927,"impossible":9928,"valier":9929,"greater":9930,"Ġdenied":9931,"Ġbitterly":9932,"Ġmaun":9933,"Ġtablespoonful":9934,"Ġreckon":9935,"Ġbalance":9936,"Ġvarying":9937,"Ġsatellites":9938,"Hush":9939,"motion":9940,"Ġcries":9941,"Ġtoken":9942,"Ġpian":9943,"Ġdig":9944,"Ġdivers":9945,"Ġlocks":9946,"ĠIND":9947,"strel":9948,"Ġreci":9949,"Ġweeping":9950,"Ġherd":9951,"ĠTur":9952,"iller":9953,"ĠAgain":9954,"ĠHerschel":9955,"ĠCould":9956,"Ġexagger":9957,"Ġnob":9958,"ĠEscot":9959,"Ġliable":9960,"Ġspin":9961,"Ġwhatsoever":9962,"began":9963,"Ġperf":9964,"Ġcounting":9965,"Ġsets":9966,"Ġsliced":9967,"ĠThree":9968,"Ġcrum":9969,"Ġmoor":9970,"Ġdefiance":9971,"Ġelevated":9972,"handon":9973,"Ġdeprived":9974,"Ġpractised":9975,"TIES":9976,"Ġsuspicious":9977,"Ġprocession":9978,"Ġcruelty":9979,"Christ":9980,"Edward":9981,"Warwick":9982,"ĠJustice":9983,"Ġimprison":9984,"Ġdispleasure":9985,"Ġridiculous":9986,"ĠHaydon":9987,"Ġcontrol":9988,"Ġchampion":9989,"Ġhazard":9990,"Chapter":9991,"influence":9992,"Author":9993,"Har":9994,"York":9995,"danger":9996,"eight":9997,"lass":9998,"sign":9999,"uel":10000,"xter":10001,"Ġtang":10002,"Ġaverage":10003,"Ġmale":10004,"enjoy":10005,"Ġfoll":10006,"Ġcro":10007,"orable":10008,"Ġdoth":10009,"Ġhit":10010,"Ġlend":10011,"Ġnest":10012,"Ġgifts":10013,"season":10014,"Ġreb":10015,"Ġwasn":10016,"Ġherald":10017,"Ġseats":10018,"Ġserene":10019,"ĠHen":10020,"olis":10021,"Ġalas":10022,"ĠDummie":10023,"Ġ13":10024,"Ġclasp":10025,"dead":10026,"Ġrespons":10027,"psed":10028,"ĠKen":10029,"Heaven":10030,"ĠUran":10031,"active":10032,"Ġdonate":10033,"Ġinches":10034,"Ġcrimson":10035,"Ġoppress":10036,"Ġprevailed":10037,"ĠMarch":10038,"IND":10039,"ĠWhite":10040,"command":10041,"interrupt":10042,"Ġmaintenance":10043,"Ġjoyous":10044,"Ġburned":10045,"Ġpockets":10046,"Ġstruggling":10047,"Ġsnuff":10048,"Ġgarments":10049,"RIB":10050,"ummidge":10051,"Ġlucky":10052,"IVE":10053,"ĠClara":10054,"Ġsuspended":10055,"Ġembarrassment":10056,"Ġsublime":10057,"Intyre":10058,"ĠRyder":10059,"Ġpomp":10060,"ĠLIMITED":10061,"Ent":10062,"Mic":10063,"giving":10064,"phan":10065,"priv":10066,"sized":10067,"wivel":10068,"Ġcakes":10069,"Ġinev":10070,"strange":10071,"street":10072,"irts":10073,"ĠMass":10074,"ĠMeanwhile":10075,"ilence":10076,"ilworth":10077,"Ġvio":10078,"ĠDi":10079,"ĠDune":10080,"Ġjoke":10081,"Ġenv":10082,"Ġenable":10083,"Ġremedy":10084,"Ġflushed":10085,"Ġyoungest":10086,"Ġhousekeeper":10087,"Ġlocal":10088,"Ġdarkened":10089,"Ġvariation":10090,"Ġpolice":10091,"Ġbedroom":10092,"Ġirre":10093,"ĠClay":10094,"Ġdefin":10095,"ĠReid":10096,"OUR":10097,"ique":10098,"Ġsympt":10099,"speaking":10100,"according":10101,"Ġfighting":10102,"Ġtolerable":10103,"Ġlatitude":10104,"ĠShakespeare":10105,"ĠCamilla":10106,"Ġtranquil":10107,"Peggotty":10108,"nearly":10109,"freely":10110,"Ġperplex":10111,"Ġparallel":10112,"Ġfragrance":10113,"65":10114,"Ke":10115,"Plain":10116,"dress":10117,"ihil":10118,"lam":10119,"hero":10120,"hable":10121,"Ġdensity":10122,"Ġlur":10123,"Ġloy":10124,"icing":10125,"Ġthirst":10126,"Ġwebs":10127,"Ġmead":10128,"thick":10129,"throw":10130,"ĠSU":10131,"ĠCro":10132,"usal":10133,"ĠBab":10134,"istry":10135,"igent":10136,"Ġleather":10137,"Ġlearnt":10138,"plain":10139,"dev":10140,"Ġscandal":10141,"Ġglowing":10142,"Ġapple":10143,"Ġrelieve":10144,"Ġregion":10145,"Ġprovisions":10146,"utenant":10147,"Ġfinish":10148,"ĠWhich":10149,"changes":10150,"Ġsatisfactory":10151,"Ġtremble":10152,"Ġstudied":10153,"Ġearnestness":10154,"servant":10155,"Ġentertainment":10156,"Ġcabin":10157,"Ġthreatened":10158,"Ġradiant":10159,"Ġtroops":10160,"sterswivel":10161,"trave":10162,"istribution":10163,"Ġtumult":10164,"UDDING":10165,"Ġpistol":10166,"Col":10167,"burn":10168,"cand":10169,"dr":10170,"rates":10171,"vity":10172,"repe":10173,"Ġwig":10174,"Ġmars":10175,"Ġdict":10176,"Ġginger":10177,"Ġwhilst":10178,"urg":10179,"Ġisland":10180,"church":10181,"Ġsul":10182,"ĠHas":10183,"emb":10184,"Ġvoy":10185,"Ġkings":10186,"Ġshrill":10187,"ĠEarnshaw":10188,"ĠRu":10189,"liked":10190,"Ġapolog":10191,"blood":10192,"Ġhappens":10193,"Ġcarved":10194,"rawler":10195,"Ġstring":10196,"Ġcircular":10197,"ĠEdinburgh":10198,"Ġhelpless":10199,"Ġsorts":10200,"Ġslender":10201,"ĠSociety":10202,"Ġcomplex":10203,"Ġthickly":10204,"Ġcollar":10205,"early":10206,"Ġrevolving":10207,"Ġenterprise":10208,"Ġwidest":10209,"Ġhungry":10210,"Ġimpatiently":10211,"iverpool":10212,"ĠClarke":10213,"Ġmachinery":10214,"Ġultimately":10215,"Ġencouragement":10216,"Ġarrested":10217,"Ġbenevolent":10218,"Me":10219,"WN":10220,"Would":10221,"eel":10222,"rise":10223,"uv":10224,"war":10225,"Ġmien":10226,"Ġdirty":10227,"Ġluminous":10228,"ston":10229,"vered":10230,"Ġgains":10231,"Ġreleas":10232,"Ġrebell":10233,"Ġforbear":10234,"Ġselect":10235,"Ġbutler":10236,".âĢĿ[":10237,"ortune":10238,"ĠPat":10239,"ptuous":10240,"iger":10241,"agle":10242,"mented":10243,"ĠGhost":10244,"ĠRO":10245,"Ġsubmit":10246,"ĠVenus":10247,"Ġcoinc":10248,"Ġintentions":10249,"Ġchildish":10250,"Ġtrack":10251,"whatever":10252,"Ġdecay":10253,"Ġ187":10254,"Ġfairy":10255,"Ġsweetness":10256,"Ġfiner":10257,"Ġresolve":10258,"Ġlegisl":10259,"everything":10260,"Ġrenders":10261,"Ġcommunicate":10262,"Ġcatching":10263,"Ġstruggled":10264,"Ġpositively":10265,"ashington":10266,"Ġpropriety":10267,"Ġanticipated":10268,"ĠAthenian":10269,"witness":10270,"rendered":10271,"Ġplunged":10272,"Ġblended":10273,"ĠKenilworth":10274,"Adon":10275,"TRA":10276,"ridge":10277,"suddenly":10278,"Ġ---":10279,"Ġbaff":10280,"Ġmas":10281,"enet":10282,"Ġcave":10283,"Ġdanced":10284,"stew":10285,"urable":10286,"ĠTurn":10287,"Ġsuitable":10288,"âĢĶ-":10289,"romise":10290,"ĠWil":10291,"ordered":10292,"ĠDiana":10293,"ĠDutch":10294,"Ġjob":10295,"Ġfaire":10296,"Ġener":10297,"Ġenlight":10298,"deal":10299,"Ġresigned":10300,"Ġscum":10301,"Ġscale":10302,"Ġaccum":10303,"ilda":10304,"lessness":10305,"Ġglen":10306,"answered":10307,"sugar":10308,"existence":10309,"Ġgrain":10310,"Ġconfessed":10311,"Ġgiant":10312,"Ġcurtains":10313,".âĢĶâĢľ":10314,"Ġopportunities":10315,"Ġdetails":10316,"uedy":10317,"Ġpolished":10318,"Ġexpressive":10319,"Ġirresistible":10320,"Ġeleven":10321,"Ġfragments":10322,"Ġstrife":10323,"Ġmuttering":10324,"Ġexamination":10325,"Ġsuccessive":10326,"Ġdriving":10327,"Ġsorrows":10328,"Ġdamsel":10329,"Ġverd":10330,"Ġwealthy":10331,"ĠConst":10332,"Ġvenison":10333,"Ġhomage":10334,"Ġinfinitely":10335,"Ġsteadily":10336,"particularly":10337,"ĠBetsey":10338,"GE":10339,"Mont":10340,"Se":10341,"ULL":10342,"fat":10343,"Ġbred":10344,"Ġpork":10345,"Ġhue":10346,"Ġnaught":10347,"othe":10348,"ĠManchester":10349,"ĠSop":10350,"ĠAust":10351,"ĠASC":10352,"Ġconception":10353,"Ġneigh":10354,"Ġdoc":10355,"Ġtheme":10356,"Ġlikeness":10357,"ĠHeep":10358,"civil":10359,"ĠOmer":10360,"ĠOchiltree":10361,"Ġpoets":10362,"cluded":10363,"Ġharp":10364,"Ġanswers":10365,"Ġputs":10366,"Ġlessons":10367,"Ġcarriages":10368,"Ġvisiting":10369,"propri":10370,"Ġmodified":10371,"Ġproduces":10372,"Ġwilder":10373,"Ġprotest":10374,"uesday":10375,"Ġsolely":10376,"Ġpeaceful":10377,"seeing":10378,"extreme":10379,"bbers":10380,"Ġrevenue":10381,"possession":10382,"Margaret":10383,"Ġconquer":10384,"suspic":10385,"ĠSusan":10386,"Ġsubstituted":10387,"Ġcaval":10388,"ĠCapital":10389,"intellectual":10390,"Ġugly":10391,"Most":10392,"fish":10393,"hot":10394,"sort":10395,"Ã¨":10396,"reco":10397,"Ġsine":10398,"isis":10399,"enched":10400,"Ġoft":10401,"Ġtoast":10402,"Ġparson":10403,"Ġlard":10404,"lequin":10405,"Ġepit":10406,"Ġgru":10407,"uty":10408,"ĠMag":10409,"ĠMuse":10410,"ĠMilton":10411,"quer":10412,"ĠHistory":10413,"ĠBu":10414,"ache":10415,"istinct":10416,"ĠPUDDING":10417,"ĠFotheringay":10418,"ĠRom":10419,"Ġoutline":10420,"Ġperceiving":10421,"ĠOther":10422,"forms":10423,"Ġdesolate":10424,"Ġaccent":10425,"liest":10426,"Ġyeoman":10427,"Ġtroubled":10428,"Ġcommunity":10429,"Ġrepair":10430,"Ġinterfere":10431,"Ġguessed":10432,"Ġcarr":10433,"aneously":10434,"Ġdoubted":10435,"Ġcondescend":10436,"ficial":10437,"Ġexpressing":10438,"Ġtruths":10439,"lerable":10440,"Ġlabou":10441,"licted":10442,"Ġphilosoph":10443,"ĠShould":10444,"ILL":10445,"Ġlieu":10446,"Ġbottles":10447,"Ġdecline":10448,"Ġindulge":10449,"Ġmillions":10450,"Ġmagnetism":10451,"Ġgaiety":10452,"Ġvelvet":10453,"Ġexertions":10454,"Ġweapons":10455,"correspond":10456,"Ġmanufacture":10457,"taxes":10458,"Ġwrapped":10459,"struck":10460,"Ġinsensible":10461,"beginning":10462,"Ġrescue":10463,"Ġshawl":10464,"oblig":10465,"Ge":10466,"Having":10467,"bby":10468,"vous":10469,"Ġomitted":10470,"Ġwert":10471,"Ġcities":10472,"Ġinm":10473,"Ġdumb":10474,"Ġdashed":10475,"Ġlang":10476,"Ġrecon":10477,"Ġwasted":10478,"ĠMother":10479,"kept":10480,"ores":10481,"ĠSection":10482,"Ġconverted":10483,"ĠHoly":10484,"uscript":10485,"ĠBacon":10486,"Ġvault":10487,"Ġrational":10488,"elia":10489,"Ġalmonds":10490,"ĠRock":10491,"Ġspeeches":10492,"compre":10493,"Ġacid":10494,"herent":10495,"Ġrefres":10496,"arnished":10497,"Ġcrushed":10498,"ĠWhatever":10499,"Ġlanded":10500,"Ġsweep":10501,"Ġprovo":10502,"Ġneedful":10503,"Ġcorpor":10504,"Ġsummons":10505,"Ġconcent":10506,"Ġcomplac":10507,"Ġmusing":10508,"ĠAdd":10509,"ĠQuedy":10510,"Though":10511,"hysical":10512,"Ġwiser":10513,"Ġmovements":10514,"Ġcouncil":10515,"Ġidol":10516,"Ġgenuine":10517,"Ġthankful":10518,"ĠOrder":10519,"married":10520,"Ġpitch":10521,"Ġcabinet":10522,"Ġjoints":10523,"Ġsoothing":10524,"immediate":10525,"Ġecliptic":10526,"Ġtranquillity":10527,"consequence":10528,"ĠMarshall":10529,"Ġhunger":10530,"mentioned":10531,"Ġartificial":10532,"Ġwebsite":10533,"59":10534,"MON":10535,"aith":10536,"da":10537,"dread":10538,"iog":10539,"none":10540,"sac":10541,"uations":10542,"Ġturb":10543,"Ġsire":10544,"ithe":10545,"Ġbount":10546,"Ġpony":10547,"Ġduchess":10548,"Ġbeating":10549,"stir":10550,"stud":10551,"Ġreverse":10552,"ros":10553,"rium":10554,"ĠMonday":10555,"Ġstared":10556,"ĠSto":10557,"ĠApril":10558,"Ġconference":10559,"ĠHill":10560,"ĠBol":10561,"Ġviv":10562,"eled":10563,"olas":10564,"Ġwouldst":10565,"augh":10566,"ĠDilke":10567,"Ġperpendicular":10568,"Ġroses":10569,"ĠNi":10570,"Ġpluck":10571,"ĠJonson":10572,"depend":10573,"Ġscant":10574,"Ġscold":10575,"lier":10576,"avement":10577,"suing":10578,"Ġcheese":10579,"Ġrightly":10580,"Ġcursed":10581,"Ġassisted":10582,"Ġrecur":10583,"Ġhorrid":10584,"Ġdiscretion":10585,"Ġmole":10586,"Ġthickness":10587,"ĠReceipt":10588,"Ġannounce":10589,"Ġwarmly":10590,"persons":10591,"Ġdepended":10592,"Ġprospects":10593,"Ġfaculties":10594,"colour":10595,"ĠBrother":10596,"Ġexpedition":10597,"Ġgrieved":10598,"Ġlinked":10599,"Ġadorned":10600,"Ġvalet":10601,"IRECT":10602,"Give":10603,"ICE":10604,"Right":10605,"ait":10606,"bound":10607,"bable":10608,"claim":10609,"dra":10610,"groom":10611,"lost":10612,"ns":10613,"oir":10614,"pie":10615,"salt":10616,"tts":10617,"ys":10618,"Ġsic":10619,"Ġsnat":10620,"Ġsarc":10621,"hab":10622,"Ġfitting":10623,"Ġcove":10624,"Ġinner":10625,"Ġdang":10626,"Ġlin":10627,"Ġheels":10628,"cember":10629,"Ġwearing":10630,"Ġhermit":10631,"Ġanon":10632,"Ġstable":10633,"ilib":10634,"ĠScience":10635,"ulously":10636,"ĠAlfred":10637,"Ġdegr":10638,"Ġalluded":10639,"accompl":10640,"lfare":10641,"Ġshine":10642,"Ġshirt":10643,"ĠEast":10644,"Ġarc":10645,"ĠON":10646,"acknow":10647,"inted":10648,"Ġhanded":10649,"clusion":10650,"Ġimpet":10651,"Ġconsists":10652,"Ġram":10653,"Ġ22":10654,"ĠVolt":10655,"Ġdiffer":10656,"Ġharvest":10657,"Ġhighway":10658,"usetts":10659,"forming":10660,"Ġdetained":10661,"Ġswore":10662,"Ġ1819":10663,"Ġcalf":10664,"Ġrichly":10665,"Ġtenderly":10666,"longer":10667,"Ġtales":10668,"Ġrevealed":10669,"Ġcomparatively":10670,"Ġsmoothly":10671,"Ġtestimony":10672,"Ġtroop":10673,"Ġaccurate":10674,"Ġgloves":10675,"Ġiii":10676,"Ġpeasant":10677,"ĠDawson":10678,"Ġsavoury":10679,"ĠMusgrove":10680,"Belinda":10681,"ĠASCII":10682,"Lucy":10683,"nets":10684,"powder":10685,"Ġtelesc":10686,"Ġwives":10687,"Ġmast":10688,"Ġmail":10689,"Ġcig":10690,"Ġpious":10691,"Ġpuff":10692,"Ġduke":10693,"anilla":10694,"asily":10695,"Ġhunting":10696,"Ġeve":10697,"celer":10698,"Ġreverend":10699,"adle":10700,"Ġstuck":10701,"Ġate":10702,"emoiselle":10703,"ortense":10704,"olph":10705,"ĠFore":10706,"ĠDAMAG":10707,"forget":10708,"Ġprecip":10709,"achusetts":10710,"Ġcomposure":10711,"aws":10712,"Ġpresents":10713,"Ġcoal":10714,"ĠĠĠĠĠĠĠĠĠĠĠĠĠĠĠĠĠĠĠĠĠĠ":10715,"ĠThorn":10716,"Ġcrisis":10717,"Ġcharitable":10718,"Ġskull":10719,"Ġprofessed":10720,"Ġ64":10721,"cheon":10722,"END":10723,"Ġhumanity":10724,"Ġspiritual":10725,"Ġconvince":10726,"Ġdrops":10727,"Ġleads":10728,"Ġmurdered":10729,"Ġbreathing":10730,"ĠByron":10731,"Ġchurchyard":10732,"Ġhabitual":10733,"Ġsickness":10734,"Ġleaned":10735,"whel":10736,"Ġintelligent":10737,"Ġpositions":10738,"satisfaction":10739,"Ġprejudices":10740,"Shirley":10741,"ttp":10742,"Ġsustain":10743,"Ġardent":10744,"property":10745,"ĠCathy":10746,"Robert":10747,"About":10748,"ĠTerms":10749,"Ġgesture":10750,"ĠHeadlong":10751,"CON":10752,"Mart":10753,"earn":10754,"gown":10755,"mort":10756,"sold":10757,"Ġtart":10758,"inmail":10759,"Ġbath":10760,"Ġfet":10761,"Ġpicked":10762,"icer":10763,"Ġbeck":10764,"ĠMost":10765,"ĠTill":10766,"Ġseize":10767,"thee":10768,"ĠChatter":10769,"ĠBun":10770,"aston":10771,"ittee":10772,"ĠFULL":10773,"assistance":10774,"ĠDot":10775,"ĠDIST":10776,"ĠGummidge":10777,"ilyard":10778,"Ġaccus":10779,"Ġevenings":10780,"lived":10781,"Ġcommit":10782,"Ġrav":10783,"Ġminstrel":10784,"Ġcharged":10785,"harp":10786,"Ġinsin":10787,"Ġanswering":10788,"Ġconvuls":10789,"ĠPray":10790,"Ġvols":10791,"Ġmotionless":10792,"ISH":10793,"Ġaccepting":10794,"Ġantagon":10795,"Ġconstitute":10796,"Ġbreathless":10797,"accustomed":10798,"Ġcooks":10799,"Ġbanker":10800,"encer":10801,"Ġessence":10802,"Ġrecollections":10803,"Ġvoid":10804,"Ġquarts":10805,"Ġturf":10806,"Ġlingering":10807,"Ġmechanical":10808,"Ġpolarized":10809,"companion":10810,"Ġdisclaimer":10811,"safe":10812,"Ġancestors":10813,"Ġglittering":10814,"90":10815,"Moore":10816,"Shall":10817,"epend":10818,"fif":10819,"fric":10820,"filled":10821,"iress":10822,"rut":10823,"wing":10824,"Ġtyp":10825,"Ġwan":10826,"Ġwestern":10827,"educ":10828,"Ġfare":10829,"Ġhole":10830,"Ġecc":10831,"star":10832,"vell":10833,"quant":10834,"âĢĶ'":10835,"ĠSpan":10836,"ĠShandon":10837,"Ġdeceive":10838,"ĠBa":10839,"ĠPG":10840,"Ġabuse":10841,"opes":10842,"ĠDE":10843,"Ġdisorder":10844,"ruly":10845,"ruary":10846,"ĠJen":10847,"Ġcomputed":10848,"cloud":10849,"Ġflash":10850,"Ġconsol":10851,"Ġ23":10852,"ĠKent":10853,"Ġsecre":10854,"Ġconflict":10855,"Ġextract":10856,"Ġsurv":10857,"cules":10858,"Ġcalam":10859,"Ġvalour":10860,"ĠAdmiral":10861,"smith":10862,"ĠOnce":10863,"Ġdreamed":10864,"Ġelectronically":10865,"Ġdares":10866,"Ġaddresses":10867,"ĠFairport":10868,"Ġlemons":10869,"Ġswords":10870,"Ġsolemnly":10871,"Ġwander":10872,"ĠDonations":10873,"ĠGreece":10874,"picuous":10875,"Ġhints":10876,"Ġarchbishop":10877,"Ġsources":10878,"Ġillustrious":10879,"Ġindignant":10880,"Ġdepths":10881,"istributing":10882,"satisfied":10883,"Ġhypothes":10884,"ebruary":10885,"Ġsustained":10886,"hemence":10887,"ĠWARRANTY":10888,"Ġrefreshment":10889,"IGHT":10890,"Ġvapour":10891,"ĠAGREE":10892,"trademark":10893,"prepared":10894,"Ġrecipro":10895,"ĠDAMAGES":10896,"ĠDISTRIB":10897,"43":10898,"Again":10899,"Foot":10900,"Man":10901,"RESS":10902,"fold":10903,"hur":10904,"oci":10905,"riment":10906,"hae":10907,"Ġfert":10908,"Ġpile":10909,"Ġhut":10910,"ette":10911,"ĠMills":10912,"Ġsall":10913,"keeping":10914,"ĠSever":10915,"usually":10916,"abilities":10917,"ĠRef":10918,"Ġsharing":10919,"Ġrolling":10920,"forced":10921,"intro":10922,"Ġchallen":10923,"Ġbloss":10924,"Ġblunt":10925,"Ġgroups":10926,"ships":10927,"ggy":10928,"youth":10929,"Heathcliff":10930,"Ġminor":10931,"ictions":10932,"reading":10933,"Ġgeneration":10934,"Ġintri":10935,"Ġregiment":10936,"Ġparcel":10937,"Ġcountrymen":10938,"Ġcharmed":10939,"attend":10940,"Ġdeepest":10941,"Ġsixty":10942,"ĠReginald":10943,"Ġbreadth":10944,"Ġsuspense":10945,"ĠHighbury":10946,"Ġpraised":10947,"Ġhanged":10948,"Ġpunch":10949,"Ġapprehend":10950,"Ġindulged":10951,"presence":10952,"Ġcordial":10953,"Ġricher":10954,"Ġrejected":10955,"Ġdeceased":10956,"Ġjewels":10957,"Ġwiped":10958,"Ġchivalry":10959,"ĠBREACH":10960,"ĠEugene":10961,"Ġrequisite":10962,"ĠDISTRIBUT":10963,"CHA":10964,"dem":10965,"main":10966,"wine":10967,"Ġtides":10968,"Ġsanguine":10969,"Ġwaking":10970,"Ġcam":10971,"Ġeh":10972,"etry":10973,"Ġforci":10974,"hering":10975,"ĠMid":10976,"Ġdexter":10977,"ĠHence":10978,"ĠCru":10979,"ĠBay":10980,"access":10981,"olen":10982,"Ġupwards":10983,"Ġprolong":10984,"Ġproblem":10985,"ĠFull":10986,"Ġbrows":10987,"shot":10988,"Ġemig":10989,"Ġhumility":10990,"Ġcircuit":10991,"Ġmeridian":10992,"Ġhorseman":10993,"Ġbuying":10994,"Ġlimb":10995,"Ġmaintaining":10996,"Ġenjoying":10997,"Ġfastened":10998,"Ġcheerfully":10999,"Ġcraft":11000,"Ġtopic":11001,"ĠCraigengelt":11002,"joined":11003,"Ġroyalties":11004,"Ġfavor":11005,"Ġstroke":11006,"Ġadventures":11007,"Ġpetty":11008,"ĠAmong":11009,"electronic":11010,"Ġalteration":11011,"Ġcomrade":11012,"Ġborrowed":11013,"Ġlunar":11014,"experience":11015,"Ġscarlet":11016,"Ġimmortal":11017,"Ġgossip":11018,"Ġtriumphant":11019,"pocket":11020,"Ġmajestic":11021,"Had":11022,"Hel":11023,"bird":11024,"dling":11025,"folk":11026,"ĠÂ£":11027,"Ġbunch":11028,"Ġcrew":11029,"Ġlent":11030,"Ġrede":11031,"ameless":11032,"Ġconverse":11033,"ĠHa":11034,"ĠClu":11035,"ĠCredit":11036,"estim":11037,"ĠPut":11038,"Ġaltar":11039,"ĠEarth":11040,"igible":11041,"Ġje":11042,"ĠRand":11043,"Ġpoems":11044,"ĠJove":11045,"Ġchaise":11046,"apa":11047,"Ġconsisted":11048,"aird":11049,"Ġrepaired":11050,"Ġrefraction":11051,"Ġbrood":11052,"Ġrecently":11053,"Ġelbow":11054,"Ġ48":11055,"Ġprett":11056,"Ġdrained":11057,"Ġcutlets":11058,"Ġbenef":11059,"Ġleaders":11060,"ĠEmily":11061,"Ġstored":11062,"ĠWithout":11063,"ĠChainmail":11064,"clean":11065,"instant":11066,"Ġcooked":11067,"humoured":11068,"advent":11069,"Ġterrified":11070,"Ġinnumerable":11071,"Ġcritic":11072,"gotten":11073,"Ġgleam":11074,"Ġawaited":11075,"ĠCollege":11076,"Ġappointment":11077,"silver":11078,"Ġabstract":11079,"Ġunlucky":11080,"Ġesteemed":11081,"ĠRoderick":11082,"Ġascended":11083,"Ġsubstitute":11084,"Ġsneer":11085,"creature":11086,"Ġratio":11087,"Ġindirectly":11088,"Ġbewildered":11089,"Ġcloser":11090,"Adonais":11091,"Ġcarrots":11092,"cry":11093,"fur":11094,"maker":11095,"Ġaye":11096,"Ġost":11097,"itimate":11098,"Ġmajesty":11099,"enob":11100,"Ġinjustice":11101,"iron":11102,"Ġascribed":11103,"admir":11104,"Ġhadn":11105,"ĠSAU":11106,"Ġdeck":11107,"ĠHon":11108,"Ġshocked":11109,"ĠLiverpool":11110,"Ġmanagement":11111,"ĠPudding":11112,"Ġungrateful":11113,"Ġthereby":11114,"Ġquoted":11115,"Ġadvers":11116,"ĠNight":11117,"Ġcompare":11118,"Ġsmart":11119,"Ġgrows":11120,"jected":11121,"comed":11122,"Ġpreserving":11123,"Ġletting":11124,"Ġkindred":11125,"Ġfarmer":11126,"Ġexclaim":11127,"Ġsteal":11128,"Ġtram":11129,"Ġsuffice":11130,"Ġwaved":11131,"eef":11132,"Ġaffirm":11133,"Ġvariations":11134,"parts":11135,"Ġrespected":11136,"Ġapproved":11137,"Ġribb":11138,"Ġ80":11139,"Ġsouls":11140,"Ġvolumes":11141,"Ġdelicately":11142,"Ġtrades":11143,"equally":11144,"Ġshadowy":11145,"turning":11146,"visible":11147,"Ġsternly":11148,"LIAB":11149,"ĠAdriana":11150,"ĠAmelia":11151,"meaning":11152,"Ġpickle":11153,"similar":11154,"Ġlawyers":11155,"Ġinstructions":11156,"Ġinvariably":11157,"Ġinconvenience":11158,"Clavering":11159,"ĠBolton":11160,"Dora":11161,"Richard":11162,"Whe":11163,"aved":11164,"bted":11165,"easy":11166,"faces":11167,"joice":11168,"loved":11169,"slight":11170,"wanted":11171,"Ãª":11172,"onial":11173,"asiness":11174,"icant":11175,"utive":11176,"uttered":11177,"entertain":11178,"rig":11179,"Ġange":11180,"ooh":11181,"Ġsuld":11182,"ĠHind":11183,"ĠBob":11184,"ĠBrian":11185,"achel":11186,"Ġshudder":11187,"ĠLab":11188,"Ġfeed":11189,"lab":11190,"endeav":11191,"Ġliking":11192,"ĠFin":11193,"Ġunite":11194,"Ġunnatural":11195,"Ġuncomfortable":11196,"idea":11197,"ĠHeights":11198,"Ġperish":11199,"Ġroasted":11200,"Ġclay":11201,"Ġowned":11202,"athy":11203,"enery":11204,"ometer":11205,"izes":11206,"Ġindebted":11207,"Ġrelish":11208,"Ġcarpet":11209,"brown":11210,"ounces":11211,"ottage":11212,"Ġpretence":11213,"Ġmoan":11214,"Ġprofitable":11215,"Ġedges":11216,"Ġengross":11217,"Ġconsequent":11218,"ĠProvidence":11219,"ĠGlowry":11220,"ropolis":11221,"Ġforgetting":11222,"Ġfondly":11223,"Ġspectators":11224,"instead":11225,"Ġfalsehood":11226,"Ġregularly":11227,"fallen":11228,"Ġassembly":11229,"hantom":11230,"Ġcherished":11231,"ĠSaturn":11232,"Ġvegetable":11233,"ĠLawrence":11234,"Ġinvestigation":11235,"Ġmournful":11236,"Ġsanct":11237,"Ġcondemned":11238,"Ġfascin":11239,"Ġmanifest":11240,"Ġobedience":11241,"Footnote":11242,"FF":11243,"Laura":11244,"MR":11245,"Ravenswood":11246,"Somet":11247,"_,--":11248,"bag":11249,"bott":11250,"dale":11251,"ios":11252,"ladies":11253,"moved":11254,"rad":11255,"Ġties":11256,"Ġwoke":11257,"Ġbits":11258,"Ġmoss":11259,"Ġfountain":11260,"Ġpi":11261,"Ġbeams":11262,"Ġgam":11263,"Ġwelfare":11264,"ĠTuesday":11265,"Ġshun":11266,"Ġquad":11267,"opinion":11268,"assad":11269,"Ġmaybe":11270,"Ġcontest":11271,"blest":11272,"Ġsupposition":11273,"ĠVery":11274,"ibus":11275,"avo":11276,"Ġcovering":11277,"Ġbelieving":11278,"Ġactivity":11279,"Ġbrook":11280,"Ġdetain":11281,"attempt":11282,"Ġ45":11283,"Ġmodesty":11284,"Ġmony":11285,"Ġopenly":11286,"Ġstrongest":11287,"although":11288,"Ġfourteen":11289,"Ġpayment":11290,"Ġtempest":11291,"ocation":11292,"Ġdefined":11293,"ĠPeople":11294,"Which":11295,"Still":11296,"Ġrecovering":11297,"Ġfools":11298,"Ġpaths":11299,"Ġspectacles":11300,"Alice":11301,"ĠRoyalty":11302,"Ġpurchased":11303,"Ġfrankly":11304,"Ġpetition":11305,"Ġcautious":11306,"nuts":11307,"Ġmushroom":11308,"drawing":11309,"cracy":11310,"liction":11311,"pgla":11312,"treat":11313,"win":11314,"Ġfr":11315,"Ġfile":11316,"Ġclaimed":11317,"ĠIX":11318,"stock":11319,"Ġge":11320,"Ġgroom":11321,"Ġgird":11322,"Ġonline":11323,"ĠMess":11324,"ĠThy":11325,"illac":11326,"âĢĶâĢĺ":11327,"Ġorphan":11328,"Ġdemean":11329,"Ġcongreg":11330,"Ġbutt":11331,"Ġknot":11332,"Ġshilling":11333,"igo":11334,"unken":11335,"Ġunb":11336,"ĠDev":11337,"Ġjack":11338,"Ġarcher":11339,"ruit":11340,"Ġchill":11341,"Ġblast":11342,"Ġthrice":11343,"Ġscreen":11344,"subs":11345,"Ġintent":11346,"ĠBeing":11347,"Ġwithered":11348,"guard":11349,"Ġacceptable":11350,"trust":11351,"Ġrapidity":11352,"believed":11353,"Ġincreases":11354,"Ġconstitutes":11355,"Ġboldly":11356,"Ġpersuasion":11357,"Ġsingularly":11358,"carriage":11359,"Ġexecuted":11360,"ivalent":11361,"Ġfiercely":11362,"Ġentreated":11363,"market":11364,"Ġreluctance":11365,"Ġgroaned":11366,"Ġmushrooms":11367,"Ġnoisy":11368,"occupied":11369,"entirely":11370,"Micawber":11371,"pglaf":11372,"76":11373,"Fig":11374,"Wood":11375,"lorn":11376,"language":11377,"uables":11378,"Ġverse":11379,"rese":11380,"itute":11381,"isation":11382,"Ġdata":11383,"Ġbeam":11384,"Ġep":11385,"Ġetern":11386,"streng":11387,"Ġgie":11388,"owered":11389,"Ġyawn":11390,"eturn":11391,"etition":11392,"icholas":11393,"Ġsobbed":11394,"ĠAng":11395,"ĠClemency":11396,"Ġvices":11397,"Ġratt":11398,"individual":11399,"ĠLie":11400,"ĠLob":11401,"ĠLane":11402,"ieves":11403,"ĠPart":11404,"ĠEst":11405,"assed":11406,"beaten":11407,"Ġperceptions":11408,"Ġclosing":11409,"Ġprayed":11410,"Ġpeep":11411,"izard":11412,"aleigh":11413,"Ġinfancy":11414,"Ġwinding":11415,"Ġwaiter":11416,"Ġoppressed":11417,"bitter":11418,"Ġmetals":11419,"Ġeffected":11420,"Ġdrag":11421,"Ġinclude":11422,"ampstead":11423,"Ġrealm":11424,"Ġbloody":11425,"However":11426,"Ġruns":11427,"flour":11428,"license":11429,"passing":11430,"Ġaffords":11431,"Ġconclude":11432,"Ġbitterness":11433,"Ġdamage":11434,"ĠNeither":11435,"Ġroyalty":11436,"Ġfaculty":11437,"isphere":11438,"Ġprofessional":11439,"Ġmorals":11440,"Ġaccuracy":11441,"Ġturkey":11442,"United":11443,"ĠBurg":11444,"Ġhypoc":11445,"absolute":11446,"Ġlifting":11447,"agnetic":11448,"ĠAdonais":11449,"bank":11450,"copyright":11451,"dog":11452,"iator":11453,"knight":11454,"mill":11455,"uces":11456,"Ġbonds":11457,"Ġfug":11458,"Ġpall":11459,"aria":11460,"Ġlav":11461,"icians":11462,"ira":11463,"Ġasp":11464,"ĠMin":11465,"terior":11466,"Ġsung":11467,"ĠCle":11468,"ĠCham":11469,"ĠBer":11470,"Ġwheels":11471,"ĠWed":11472,"Ġupward":11473,"Ġlegend":11474,"ĠDuchess":11475,"ĠGold":11476,"Ġadjust":11477,"Ġdismay":11478,"Ġconsist":11479,"Ġadditions":11480,"Ġexpensive":11481,"spoke":11482,"Ġrelate":11483,"Ġsimmered":11484,"Ġdetect":11485,"Ġvehemence":11486,"Ġparticle":11487,"altry":11488,"Ġ1820":11489,"ugal":11490,"Ġcourts":11491,"Ġdefinite":11492,"Ġmuslin":11493,"smile":11494,"somewhat":11495,"Ġcomforts":11496,"Ġexcepting":11497,"Ġcolouring":11498,"Ġconcerns":11499,"Ġtransl":11500,"Ġpints":11501,"Ġpractically":11502,"Ġunequal":11503,"Ġhostess":11504,"Ġwipe":11505,"Isab":11506,"Ġsmoked":11507,"Ġsmoking":11508,"Ġspecified":11509,"Ġtradition":11510,"Ġdignified":11511,"Ġbells":11512,"Ġcalculate":11513,"Ġgallantry":11514,"Ġarchit":11515,"Ġgravitation":11516,"faith":11517,"capital":11518,"boys":11519,"Ġhospitable":11520,"ĠMacGrawler":11521,"Ġtransmitted":11522,"Ġvigour":11523,"objects":11524,"ĠPortman":11525,"generally":11526,"Ġpistols":11527,"ĠBeaumaris":11528,"Ġprecaution":11529,"Ġnobility":11530,"Ġreleased":11531,"enobia":11532,",_":11533,"High":11534,"Long":11535,"bred":11536,"crown":11537,"ipping":11538,"matic":11539,"oper":11540,"pally":11541,"repro":11542,"Ġwist":11543,"isance":11544,"Ġfant":11545,"anity":11546,"Ġhare":11547,"Ġhaven":11548,"lead":11549,"ĠInt":11550,"Ġreced":11551,"verb":11552,"Ġstaring":11553,"ĠTw":11554,"andy":11555,"Ġsevent":11556,"ĠHope":11557,"acco":11558,"Ġwheat":11559,"Ġrans":11560,"ĠWOR":11561,"uments":11562,"ĠEv":11563,"ittance":11564,"otherwise":11565,"Ġshapes":11566,"Ġhandle":11567,"Ġaccused":11568,"Ġconsulted":11569,"blue":11570,"undy":11571,"Ġconfid":11572,"Ġrelinqu":11573,"prison":11574,"Ġobserver":11575,"Ġparam":11576,"noble":11577,"Ġobjections":11578,"Ġdetected":11579,"evish":11580,"Ġdifferently":11581,"eyed":11582,",âĢĶâĢľ":11583,"Ġdragged":11584,"Ġcasting":11585,"glantine":11586,"Ġdespise":11587,"Ġdespised":11588,"Ġsquee":11589,"Ġobliging":11590,"Ġobligation":11591,"Ġrecollected":11592,"Ġpoliteness":11593,"Ġinterruption":11594,"fortunately":11595,"Ġexchanges":11596,"Ġimprovements":11597,"Ġexclamation":11598,"Ġoperations":11599,"system":11600,"acquainted":11601,"ĠSea":11602,"Ġmysteries":11603,"Ġwhispering":11604,"Ġcaptive":11605,"Ġperpetually":11606,"Ġvessels":11607,"Ġduly":11608,"Ġcellar":11609,"Ġdeveloped":11610,"Ġconjecture":11611,"ĠLancast":11612,"important":11613,"Ġcomputer":11614,"measure":11615,"Ġwarrior":11616,"ĠGardiner":11617,"Ġsyllable":11618,"ĠVirgin":11619,"Ġabolition":11620,"cipline":11621,"Ġcourteous":11622,"Ġvoyage":11623,"ilibrium":11624,"AY":11625,"Che":11626,"IES":11627,"TS":11628,"dire":11629,"dream":11630,"garden":11631,"kers":11632,"pict":11633,"rons":11634,"rÃ©e":11635,"wall":11636,"zes":11637,"Ã´":11638,"hement":11639,"reign":11640,"Ġsifted":11641,"Ġwha":11642,"Ġbund":11643,"Ġfog":11644,"Ġtoward":11645,"orney":11646,"ington":11647,"Ġpine":11648,"Ġdice":11649,"Ġhues":11650,"Ġepic":11651,"Ġthief":11652,"Ġancho":11653,"ĠSay":11654,"ĠSol":11655,"ĠSauce":11656,"Ġseasons":11657,"Ġconcept":11658,"ĠCross":11659,"ĠBo":11660,"Ġvib":11661,"Ġrushing":11662,"elity":11663,"oundrel":11664,"Ġowners":11665,"Ġoverwhel":11666,"Ġblows":11667,"Ġflowed":11668,"Ġpearl":11669,"Ġpassengers":11670,"Ġdownstairs":11671,"Ġraw":11672,"Ġhappiest":11673,"Ġendured":11674,"arning":11675,"ĠĠĠĠĠĠĠĠĠĠĠĠĠĠĠĠĠĠ":11676,"Ġvehic":11677,"Ġsworn":11678,"Ġapprobation":11679,"Ġtribe":11680,"Ġbarbar":11681,"Ġengra":11682,"Ġ84":11683,"handkerchief":11684,"Doctor":11685,"Ġfirmness":11686,"Ġdemands":11687,"Ġguarded":11688,"minded":11689,"Ġpreceded":11690,"Ġsurrounding":11691,"Ġurge":11692,"Ġeaten":11693,"Ġrepresentative":11694,"Ġdiscussed":11695,"Ġglee":11696,"Ġsusceptible":11697,"Ġtransport":11698,"Ġreview":11699,"Ġneatly":11700,"Ġblaze":11701,"Ġimpressions":11702,"Ġcultivated":11703,"Ġingenious":11704,"craft":11705,"Ġconfidential":11706,"Ġachieve":11707,"Ġsplit":11708,"Ġexercised":11709,"Ġcriminal":11710,"habited":11711,"70":11712,"DON":11713,"En":11714,"Gra":11715,"IP":11716,"James":11717,"Knight":11718,"PH":11719,"Sibyll":11720,"horses":11721,"lie":11722,"latter":11723,"moon":11724,"ws":11725,"heat":11726,"ino":11727,"hair":11728,"iser":11729,"Ġlamb":11730,"Ġnap":11731,"Ġyell":11732,"alse":11733,"Ġfork":11734,"ĠTown":11735,"estial":11736,"accept":11737,"ĠLamb":11738,"Ġtheirs":11739,"ĠEve":11740,"associ":11741,"beg":11742,"Ġpartially":11743,"Ġplays":11744,"hension":11745,"Ġflattered":11746,"Ġapron":11747,"Ġlasted":11748,"Ġacres":11749,"Ġincred":11750,"Ġairs":11751,"Ġskies":11752,"bourn":11753,"Ġelevation":11754,"understood":11755,"Does":11756,"Ġpoetical":11757,"Ġconnect":11758,"ĠCharley":11759,"Ġallowance":11760,"Ġsalad":11761,"Ġverge":11762,"Ġcatsup":11763,"Ġphenomenon":11764,"Ġfilling":11765,"Scot":11766,"uddy":11767,"Professor":11768,"simple":11769,"questionably":11770,"Ġstrictly":11771,"Ġpinch":11772,"raphy":11773,"neighbourhood":11774,"several":11775,"Ġtorture":11776,"increasing":11777,"ĠEconomy":11778,"leanor":11779,"determined":11780,"Ġclarified":11781,"Major":11782,"Since":11783,"bot":11784,"cun":11785,"ees":11786,"fred":11787,"furn":11788,"iastic":11789,"jam":11790,"ta":11791,"tre":11792,"trem":11793,"á½":11794,"Ġtact":11795,"Ġhaw":11796,"oting":11797,"imm":11798,"alted":11799,"adm":11800,"ĠMas":11801,"Ġsack":11802,"thorough":11803,"ĠSOU":11804,"Ġbuttered":11805,"ĠCur":11806,"emn":11807,"Ġshops":11808,"umer":11809,"ĠLion":11810,"ĠPall":11811,"Ġfeature":11812,"ĠEle":11813,"Ġyourselves":11814,"opened":11815,"Ġagric":11816,"ĠRaleigh":11817,"Ġarray":11818,"Ġshades":11819,"Ġrobbers":11820,"Ġcler":11821,"ĠJip":11822,"Ġaccents":11823,"Ġlonging":11824,"Ġragged":11825,"contain":11826,"Ġfoundation":11827,"Ġdelayed":11828,"Ġdoubly":11829,"pending":11830,"thereal":11831,"ecd":11832,"Ġhorseback":11833,"Ġstructure":11834,"ĠLetters":11835,"Ġflavoured":11836,"Ġanimation":11837,"Ġgrandeur":11838,"ĠCharlotte":11839,"Ġviolently":11840,"Ġvirtuous":11841,"Ġspectacle":11842,"Ġprisoners":11843,"represent":11844,"Ġdescending":11845,"Ġbonny":11846,"Ġuniversally":11847,"Ġpopularity":11848,"ĠRoyal":11849,"Ġpuir":11850,"Ġwonders":11851,"Project":11852,"Edmund":11853,"Ġspeculation":11854,"Ġblew":11855,"Ġscruple":11856,"Ġscruples":11857,"Ġinvariable":11858,"figure":11859,"chalots":11860,"Ġremonst":11861,"familiar":11862,"Ġlinen":11863,"ĠChatteris":11864,"CK":11865,"OIL":11866,"dess":11867,"fed":11868,"pin":11869,"press":11870,"pardon":11871,"uate":11872,"vies":11873,"Ġriv":11874,"inno":11875,"Ġlecture":11876,"sto":11877,"seems":11878,"Ġrector":11879,"Ġforfe":11880,"Ġanecd":11881,"Ġseed":11882,"ĠHor":11883,"Ġvind":11884,"antal":11885,"Ġrouse":11886,"ĠFer":11887,"ĠGrange":11888,"ounted":11889,"iley":11890,"Ġcounted":11891,"Ġexpose":11892,"alem":11893,"ĠUpper":11894,"acted":11895,"Ġhomely":11896,"ĠĠĠĠĠĠĠĠĠĠĠĠĠĠĠĠĠĠĠĠĠĠĠ":11897,"Ġwaving":11898,"Ġacquaint":11899,"apparent":11900,"Ġbrains":11901,"Ġlads":11902,"Ġrugged":11903,"Ġpatriot":11904,"Ġsituated":11905,"Ġcomplicated":11906,"composed":11907,"boiling":11908,"Ġerr":11909,"value":11910,"Ġliege":11911,"Ġcheerfulness":11912,"Ġcurrents":11913,"Ġcoachman":11914,"Ġcarelessly":11915,"Ġeconomical":11916,"depart":11917,"ĠShakspeare":11918,"Ġeclips":11919,"Ġbench":11920,"Ġaccommodation":11921,"OOD":11922,"Ġelabor":11923,"Ġtossed":11924,"oultry":11925,"Ġdefinition":11926,"Americ":11927,"TON":11928,"Wentworth":11929,"ball":11930,"cre":11931,"cook":11932,"diss":11933,"pair":11934,"rusted":11935,"Ġtrop":11936,"revol":11937,"Ġwag":11938,"Ġbond":11939,"Ġpink":11940,"around":11941,"Ġnerve":11942,"Ġgorge":11943,"Ġrenow":11944,"etary":11945,"Ġweighed":11946,"ĠMalone":11947,"Ġstim":11948,"Ġsturd":11949,"Ġstolen":11950,"ĠSym":11951,"ĠSweet":11952,"ourselves":11953,"ĠHollow":11954,"istle":11955,"ĠEss":11956,"pling":11957,"ĠGutenberg":11958,"Ġuses":11959,"inkle":11960,"Ġrogue":11961,"Ġcompound":11962,"Ġflies":11963,"ignity":11964,"Ġlighter":11965,"isters":11966,"Ġinfirm":11967,"Ġinvite":11968,"Ġsunny":11969,"Ġtalks":11970,"Ġlandlady":11971,"Ġswamp":11972,"Ġconstruction":11973,"Ġrespectful":11974,"Ġeasier":11975,"ĠDoes":11976,"Ġcourtier":11977,"Ġquestioned":11978,"preted":11979,"Ġimaginary":11980,"ĠPepper":11981,"ĠReverend":11982,"distinct":11983,"extra":11984,"116":11985,"Ġfruits":11986,"Ġnegative":11987,"Ġstatesman":11988,"ĠBaron":11989,"Ġsharply":11990,"Ġexceeding":11991,"umnor":11992,"besides":11993,"Ġdisturbance":11994,"ĠChevalier":11995,"Ġshores":11996,"Ġtransmission":11997,"penny":11998,"Ġunconsciously":11999,"Ġfulfilled":12000,"Ġelapsed":12001,"Ġoblige":12002,"Ġvexation":12003,"Ġstalks":12004,"Ġdrowned":12005,"Ġgigantic":12006,"Ġembraced":12007,"ĠMatilda":12008,"Ġportrait":12009,"ĠSarah":12010,"ĠCrupp":12011,"Cra":12012,"Sha":12013,"Speak":12014,"Tom":12015,"hole":12016,"won":12017,"Ġtended":12018,"information":12019,"Ġscientific":12020,"erman":12021,"Ġfowls":12022,"Ġpaced":12023,"Ġpavement":12024,"Ġheap":12025,"omach":12026,"Ġbeer":12027,"hattered":12028,"start":12029,"Ġrelease":12030,"along":12031,"Ġstool":12032,"ĠSen":12033,"Ġseas":12034,"ĠApp":12035,"ĠHilyard":12036,"ĠCard":12037,"ĠCumnor":12038,"Ġexile":12039,"ĠWater":12040,"ĠWashington":12041,"ĠLand":12042,"olina":12043,"akers":12044,"ĠDer":12045,"ĠDame":12046,"Ġaggreg":12047,"Ġjun":12048,"Ġarisen":12049,"Ġrope":12050,"Ġrobbed":12051,"Ġplot":12052,"Ġplent":12053,"Ġbrute":12054,"Ġsmoot":12055,"Ġundertake":12056,"Ġgentry":12057,"landers":12058,"Ġindistinct":12059,"Ġextinguished":12060,"Ġexciting":12061,"ĠWeb":12062,"Ġmisfortunes":12063,"Ġplacid":12064,"Ġ180":12065,"Ġbrace":12066,"Ġestimate":12067,"oche":12068,"Ġbeds":12069,"ENCE":12070,"preced":12071,"Ġburnt":12072,"Ġsecretary":12073,"trouble":12074,"Ġprior":12075,"Ġassociations":12076,"Ġrepeatedly":12077,"wrong":12078,"Ġgarb":12079,"marriage":12080,"Ġwithdrawn":12081,"Ġexhibit":12082,"Ġwinning":12083,"Ġslipped":12084,"quarter":12085,"following":12086,"approach":12087,"ĠRedlaw":12088,"ĠDousterswivel":12089,"silence":12090,"Ġsoothed":12091,"Ġhomes":12092,"Ġcontemplation":12093,"hetic":12094,"ippi":12095,"solete":12096,"Ġardour":12097,"Ġavailable":12098,"Ġstamped":12099,"Ġproprietor":12100,"ĠSupply":12101,"Ġcontradict":12102,"Ġconfirmation":12103,"ĠFieldhead":12104,"Ġmedicine":12105,"ĠDiomed":12106,"George":12107,"ĠClub":12108,"Ġdemeanour":12109,")âĢĶ":12110,"100":12111,"67":12112,"Besides":12113,"King":12114,"Red":12115,"fac":12116,"faced":12117,"hosp":12118,"says":12119,"tone":12120,"Ġwink":12121,"Ġboughs":12122,"Ġferv":12123,"Ġpared":12124,"Ġponder":12125,"Ġpaces":12126,"Ġinward":12127,"Ġbeach":12128,"seven":12129,"Ġreplaced":12130,"Ġrejoice":12131,"Ġumb":12132,"rietta":12133,"ĠToo":12134,"Ġsuet":12135,"ĠAbb":12136,"ĠHum":12137,"ĠHurst":12138,"ĠBra":12139,"Ġvi":12140,"ieving":12141,"Ġmanhood":12142,"Ġmanuscript":12143,"ĠPolitical":12144,"wear":12145,"Ġunseen":12146,"Ġquivering":12147,"Ġrosy":12148,"ĠNicholas":12149,"issippi":12150,"Ġplump":12151,"Ġcloves":12152,"Ġbrass":12153,"intend":12154,"onshire":12155,"pses":12156,"Ġdaylight":12157,"Ġsubt":12158,"exceed":12159,"exactly":12160,"ibilities":12161,"Ġterrors":12162,"Ġcheat":12163,"Ġrestraint":12164,"ĠĠĠĠĠĠĠĠĠĠĠĠĠĠĠĠĠĠĠĠĠ":12165,"Ġtraversed":12166,"bring":12167,"period":12168,"Ġeffectually":12169,"Ġriot":12170,"ĠXI":12171,"understanding":12172,"Ġeffic":12173,"Ġdimensions":12174,"Ġwrongs":12175,"spec":12176,"Ġseasoned":12177,"Ġquantities":12178,"athemat":12179,"Ġodious":12180,"Ġcustomary":12181,"Ġwearied":12182,"necessarily":12183,"Ġcomparative":12184,"Ġdiscoveries":12185,"various":12186,"ĠCambridge":12187,"Ġamazed":12188,"mounted":12189,"Ġshooting":12190,"Ġfancies":12191,"Ġapparition":12192,"Ġlantern":12193,"Ġreverie":12194,"Aram":12195,"Say":12196,"cousin":12197,"dry":12198,"dressed":12199,"gage":12200,"sle":12201,"wat":12202,"Ãī":12203,"ervation":12204,"ishable":12205,"Ġpuddings":12206,"aroni":12207,"Ġinser":12208,"Ġlaz":12209,"Ġheiress":12210,"otan":12211,"Ġejac":12212,"vey":12213,"Ġrecl":12214,"altogether":12215,"urous":12216,"adne":12217,"ĠMir":12218,"Ġconsole":12219,"ĠHapp":12220,"ĠHugh":12221,"--,":12222,"Ġshewed":12223,"ĠCent":12224,"achers":12225,"oston":12226,"union":12227,"uncle":12228,"ĠFebruary":12229,"places":12230,"ĠDay":12231,"ĠDear":12232,"Ġroots":12233,"ĠNote":12234,"Ġens":12235,"ilet":12236,"Ġclimate":12237,"Ġobviously":12238,"Ġchur":12239,"Ġflames":12240,"superior":12241,"succeed":12242,"Ġsubmitted":12243,"served":12244,"Ġloan":12245,"Ġextend":12246,"Ġcurled":12247,"ĠThrough":12248,"ouncing":12249,"Ġillumin":12250,"Ġ47":12251,"Ġswallowed":12252,"ĠAnn":12253,"Ġapprove":12254,"cheer":12255,"Ġquarre":12256,"Ġsecretly":12257,"Ġwildly":12258,"Ġpenit":12259,"Ġseparately":12260,"ĠLetter":12261,"Ġschools":12262,"Ġtorment":12263,"Ġbrowned":12264,"Ġcreate":12265,"Ġqualified":12266,"solic":12267,"umberland":12268,"Ġstatement":12269,"confidence":12270,"Ġsufferings":12271,"carried":12272,"Ġintimated":12273,"Ġstrode":12274,"Ġluxurious":12275,"Ġsprings":12276,"Ġnovels":12277,"Ġretreated":12278,"Ġbridegroom":12279,"Ġobstinate":12280,"Ġvigil":12281,"Ġvigorous":12282,"Ġclaret":12283,"Ġornaments":12284,"Ġdischarged":12285,"Ġdollar":12286,"breakfast":12287,"Ġmendicant":12288,"ĠLancaster":12289,"Ġbenevolence":12290,"spoken":12291,"Ġoysters":12292,"Ġelliptical":12293,"ĠSophy":12294,"ĠSpanish":12295,"Ġsecrecy":12296,"ĠSAUCE":12297,"89":12298,"Hall":12299,"Hastings":12300,"More":12301,"Sm":12302,"Up":12303,"cream":12304,"eous":12305,"erest":12306,"fixed":12307,"iage":12308,"rude":12309,"tes":12310,"worn":12311,"yne":12312,"rection":12313,"Ġborough":12314,"Ġpig":12315,"arter":12316,"Ġlatt":12317,"omy":12318,"Ġgames":12319,"idious":12320,"Ġforlorn":12321,"adem":12322,"rol":12323,"ĠMa":12324,"ĠSpe":12325,"ĠHood":12326,"ĠCor":12327,"ĠChan":12328,"ĠCare":12329,"ĠBill":12330,"ĠBUT":12331,"Ġshower":12332,"isten":12333,"independ":12334,"neg":12335,"ffic":12336,"ĠDuring":12337,"Ġdished":12338,"Ġoutlaw":12339,"overeign":12340,"inkling":12341,"Ġobsolete":12342,"Ġbrush":12343,"Ġchorus":12344,"ickle":12345,"Ġblanc":12346,"aware":12347,"Ġattire":12348,"Ġtrow":12349,"anges":12350,"Ġboils":12351,"Ġboasted":12352,"Ġinstitution":12353,"Ġchances":12354,"Ġload":12355,"auty":12356,"Ġreadiness":12357,"Ġvisions":12358,"ĠThink":12359,"pray":12360,"Ġtraces":12361,"doing":12362,"Ġaccounted":12363,"ĠAlbert":12364,"prepar":12365,"Ġdespond":12366,"desire":12367,"Ġannihil":12368,"Ġspoil":12369,"incerity":12370,"ĠPerry":12371,"ynsent":12372,"Ġhinted":12373,"opposite":12374,"Ġbands":12375,"Ġthreats":12376,"Ġfleet":12377,"Ġsparkling":12378,"Ġconquered":12379,"erers":12380,"Ġfeverish":12381,"Ġcontemplated":12382,"Ġpoliceman":12383,"principles":12384,"discovered":12385,"Ġantiquity":12386,"Ġingenuity":12387,"Ġbriskly":12388,"ĠLydon":12389,"Ġabundance":12390,"ĠRoseville":12391,"Ġmartial":12392,"ĠWhether":12393,"Ġrigid":12394,"degree":12395,"Ġcrumbs":12396,"ĠMassachusetts":12397,"Ġviolet":12398,"ĠRandalls":12399,"direction":12400,"AND":12401,"CL":12402,"Has":12403,"MP":12404,"bacco":12405,"cup":12406,"pudding":12407,"ras":12408,"uits":12409,"inj":12410,"itle":12411,"Ġcents":12412,"Ġtops":12413,"Ġyo":12414,"Ġreduce":12415,"Ġwhip":12416,"verness":12417,"Ġstare":12418,"ĠTreas":12419,"Ġsails":12420,"ĠSpr":12421,"Ġdeem":12422,"ĠHim":12423,"ĠHortense":12424,"Ġshell":12425,"across":12426,"accompan":12427,"ĠLock":12428,"Ġdoomed":12429,"Ġproff":12430,"Ġprosec":12431,"unci":12432,"Ġquitting":12433,"asses":12434,"ĠNobody":12435,"acked":12436,"Ġdesolation":12437,"living":12438,"Ġattach":12439,"ĠMississippi":12440,"ĠKn":12441,"Ġpurity":12442,"Ġdearly":12443,"Ġinvent":12444,"Ġvehement":12445,"partic":12446,"ĠUnless":12447,"ĠUniversity":12448,"ĠMarian":12449,"smo":12450,"Ġcontrasted":12451,"appears":12452,"Ġpencil":12453,"ĠDecember":12454,"Ġjoyful":12455,"Ġdiscovering":12456,"Ġvanish":12457,"ĠComm":12458,"ynch":12459,"ĠCrag":12460,"Ġresembled":12461,"Ġaccessible":12462,"joining":12463,"Ġwelcomed":12464,"rook":12465,"Ġexclusion":12466,"surface":12467,"Ġalarming":12468,"Ġbriefly":12469,"Ġfaintly":12470,"Ġsentimental":12471,"Ġrejoiced":12472,"magnet":12473,"Ġbehaved":12474,"Ġsailor":12475,"build":12476,"Ġdeposited":12477,"Ġcasement":12478,"Ġabundant":12479,"Ġcelestial":12480,"Ġassertion":12481,"Ġsherry":12482,"connected":12483,"Ġgratefully":12484,"ordsworth":12485,"ĠDartle":12486,"obliged":12487,"achelor":12488,"AP":12489,"Acc":12490,"During":12491,"Mer":12492,"Mon":12493,"Note":12494,"bber":12495,"cases":12496,"frey":12497,"hig":12498,"pour":12499,"portion":12500,"tong":12501,"taste":12502,"Ġpays":12503,"Ġpaint":12504,"Ġincess":12505,"Ġhounds":12506,"Ġethereal":12507,"send":12508,"rod":12509,"root":12510,"âĢĻâĢĶ":12511,"ĠMell":12512,"Ġstanza":12513,"Ġsaint":12514,"ĠAct":12515,"ĠAfric":12516,"ĠBunting":12517,"Ġallusion":12518,"Ġarea":12519,"ĠPans":12520,"ĠFle":12521,"ĠFred":12522,"ĠFour":12523,"Ġunkind":12524,"ĠDIS":12525,"Ġjail":12526,"ĠRice":12527,"cipit":12528,"Ġbliss":12529,"Ġpresident":12530,"Ġconsumed":12531,"Ġwherefore":12532,"ggard":12533,"Ġinterven":12534,"Ġcurt":12535,"Ġcurrie":12536,"ricate":12537,"Ġadmission":12538,"Ġdoesn":12539,"Ġmoves":12540,"Ġprofusion":12541,"Ġexpectations":12542,"Ġmeetings":12543,"Ġideal":12544,"Ġbuff":12545,"Ġgladly":12546,"Ġlimit":12547,"ĠBlount":12548,"Ġcostly":12549,"persu":12550,"._\"":12551,"Ġundoubted":12552,"Ġvainly":12553,"hasis":12554,"Ġfondness":12555,"Ġsystems":12556,"Ġtorch":12557,"ĠSpencer":12558,"Ġspecific":12559,"playing":12560,"Ġwisely":12561,"surprise":12562,"aunted":12563,"Ġfacility":12564,"Ġprincely":12565,"helion":12566,"Ġmorsel":12567,"Ġobstacles":12568,"Ġselfishness":12569,"Ġsoothe":12570,"XXX":12571,"Ġflattering":12572,"walked":12573,"Adrian":12574,"Ġperilous":12575,"Warrington":12576,"Ġinvestig":12577,"talking":12578,"Ġuncommonly":12579,"Ġsurvey":12580,"ĠCatholic":12581,"difficulty":12582,"Ġperplexed":12583,"Ġsanction":12584,"nesday":12585,"Ġfelicity":12586,"Ġreconciled":12587,"Ġjumped":12588,"Ġsymptoms":12589,"Ġrebellion":12590,"ĠVoltaic":12591,"cuniary":12592,"Crawford":12593,"EP":12594,"VEN":12595,"due":12596,"sum":12597,"vial":12598,"Ġ0":12599,"Ġora":12600,"Ġomin":12601,"Ġsly":12602,"isive":12603,"Ġmun":12604,"Ġmask":12605,"arian":12606,"Ġdies":12607,"anthrop":12608,"Ġhoney":12609,"velled":12610,"Ġwhirl":12611,"Ġstub":12612,"Ġsaving":12613,"estone":12614,"ĠBald":12615,"acit":12616,"Ġrates":12617,"umbling":12618,"agers":12619,"Ġintox":12620,"Ġoutrage":12621,"Ġrobe":12622,"Ġconsistent":12623,"Ġglided":12624,"Ġretorted":12625,"ipes":12626,"retary":12627,"Ġsuppressed":12628,"plend":12629,"Ġjustified":12630,"Ġslain":12631,"Ġterrace":12632,"Ġstrat":12633,"Ġdifferences":12634,"Ġespecial":12635,"Ġacquis":12636,"ĠChild":12637,"Ġpausing":12638,"uteness":12639,"Ġdefy":12640,"Ġmuscular":12641,"arrison":12642,"ARK":12643,"Ġundist":12644,"Ġhonesty":12645,"pleased":12646,"belong":12647,"Ġphot":12648,"riarfield":12649,"ĠColumb":12650,"help":12651,"observation":12652,"ĠHighlanders":12653,"Ġdiamond":12654,"Ġsettlement":12655,"Ġalternately":12656,"Ġporch":12657,"Ġtyrant":12658,"beauty":12659,"Ġgrieve":12660,"importance":12661,"ĠDawton":12662,"ĠLucas":12663,"Ġremoval":12664,"Ġlouder":12665,"Ġinevitable":12666,"Ġhypothesis":12667,"strength":12668,"IB":12669,"UL":12670,"Vol":12671,"bone":12672,"fly":12673,"gle":12674,"hung":12675,"nation":12676,"heas":12677,"Ġster":12678,"Ġmac":12679,"Ġmuff":12680,"Ġfiles":12681,"ingham":12682,"inglass":12683,"lemon":12684,"Ġrein":12685,"Ġrevived":12686,"rove":12687,"ribs":12688,"ĠMem":12689,"Ġstature":12690,"ĠSoup":12691,"Ġsobs":12692,"Ġdeference":12693,"gey":12694,"ĠWH":12695,"umbered":12696,"Ġcomment":12697,"ĠLo":12698,"Ġspice":12699,"Ġadvert":12700,"ĠRemember":12701,"forgotten":12702,"icking":12703,"liqu":12704,"lips":12705,"Ġseemingly":12706,"Ġgentleness":12707,"Ġacceler":12708,"Ġeminence":12709,"Ġrefrang":12710,"coach":12711,"Ġregulating":12712,"proud":12713,"Ġhardened":12714,"mediate":12715,"Ġconstructed":12716,"Ġmetropolis":12717,"Ġbarren":12718,"ĠIsis":12719,"Ġfactory":12720,"regarded":12721,"Ġlegally":12722,"Ġhoping":12723,"amental":12724,"Stay":12725,"Ġspoiled":12726,"Ġattempting":12727,"Ġadmiring":12728,"Ġballad":12729,"Ġsuperflu":12730,"Ġpunct":12731,"Ġheroes":12732,"Ġpossessing":12733,"ocksley":12734,"Ġshrink":12735,"spirits":12736,"Ġmulti":12737,"continue":12738,"Ġarguments":12739,"ĠLongbourn":12740,"circumstance":12741,"Ġuncertainty":12742,"Ġpicturesque":12743,"Ġdevelopment":12744,"Ġwriters":12745,"gradation":12746,"Ġbattery":12747,"!!!!":12748,"anxious":12749,"Ġbridle":12750,"ĠSECTION":12751,"Ġtreacher":12752,"employed":12753,"ĠPrecept":12754,"quantity":12755,"NT":12756,"Please":12757,"city":12758,"cury":12759,"difference":12760,"government":12761,"ho":12762,"makes":12763,"paste":12764,"rick":12765,"oust":12766,"Ġmate":12767,"Ġfisher":12768,"Ġcock":12769,"Ġpool":12770,"Ġell":12771,"Ġeastern":12772,"stay":12773,"Ġgal":12774,"Ġgifted":12775,"idance":12776,"Ġstables":12777,"ulent":12778,"result":12779,"Ġbutton":12780,"Ġnegl":12781,"Ġrider":12782,"meant":12783,"text":12784,"Ġgreatness":12785,"Ġchoo":12786,"Ġdeserves":12787,"Ġgrasped":12788,"ensable":12789,"Ġflush":12790,"Ġimpost":12791,"Ġattorney":12792,"Ġgenteel":12793,"expected":12794,"Ġloveliness":12795,"Ġsilks":12796,"Ġtragedy":12797,"parlour":12798,"Ġsunset":12799,"Ġ42":12800,"Ġvariable":12801,"Ġmonot":12802,"Ġmonop":12803,"Ġsensitive":12804,"Ġtends":12805,"Ġcharacteristic":12806,"Ġviewing":12807,"Ġconversed":12808,"Those":12809,"Ġsigned":12810,"OUND":12811,"ĠDean":12812,"Ġundulations":12813,"ĠCommon":12814,"Ġuneasiness":12815,"Ġhalls":12816,"Ġoccurrence":12817,"Ġtorrent":12818,"Ġassociate":12819,"Ġmortification":12820,"Ġsorrowful":12821,"Ġgratification":12822,"athetic":12823,"Ġdeclaration":12824,"Ġsnug":12825,"saying":12826,"Ġyielding":12827,"current":12828,"Ġfolds":12829,"Ġfolding":12830,"Ġbuildings":12831,"Ġperformance":12832,"Ġgait":12833,"Ġgaily":12834,"Ġsolicitude":12835,"Ġcherries":12836,"promise":12837,"Ġamazement":12838,"ĠZenobia":12839,"Ġdispleased":12840,"Ġpupils":12841,"Ġridicule":12842,"remaine":12843,"Ġglare":12844,"Ġhalted":12845,"ĠService":12846,"Ġsagacity":12847,"Ġinvoluntarily":12848,"EATS":12849,"ĠRupert":12850,"Ġwilderness":12851,"ĠRockminster":12852,"Ġcigar":12853,"Ġforcibly":12854,"62":12855,"72":12856,"EG":12857,"Par":12858,"Thy":12859,"castle":12860,"easily":12861,"fool":12862,"liter":12863,"move":12864,"pent":12865,"pound":12866,"sword":12867,"Ġomn":12868,"isdom":12869,"Ġbald":12870,"Ġcir":12871,"Ġinexpress":12872,"Ġdip":12873,"Ġnet":12874,"Ġnour":12875,"Ġascent":12876,"herited":12877,"ĠMount":12878,"raised":12879,"ĠTart":12880,"illip":12881,"thrown":12882,"Ġsofter":12883,"ulum":12884,"Ġexterior":12885,"ĠBible":12886,"Ġalley":12887,"ĠLO":12888,"ĠLizzy":12889,"outs":12890,"outside":12891,"ordinate":12892,"ĠFortune":12893,"Ġability":12894,"ĠGall":12895,"Ġcanna":12896,"tears":12897,"Ġperfor":12898,"Ġshabby":12899,"Ġpartake":12900,"ĠNa":12901,"ranging":12902,"ollo":12903,"Ġscrup":12904,"enser":12905,"Ġaccost":12906,"Ġconsumm":12907,"Ġglove":12908,"Ġraven":12909,"Ġpleasantly":12910,"Ġjustify":12911,"Ġcurls":12912,"progress":12913,"ĠTherefore":12914,"Ġhopeful":12915,"Ġtraitor":12916,"rivol":12917,"Ġelastic":12918,"letters":12919,"Ġrubbing":12920,"Ġtemples":12921,"Ġfinan":12922,"voisin":12923,"Ġknelt":12924,"glad":12925,"handsome":12926,"Ġfooting":12927,"lication":12928,"please":12929,"Ġpursuing":12930,"Ġsadness":12931,"Ġbursting":12932,"Ġsucceeding":12933,"Ġmethinks":12934,"Ġcottons":12935,"Ġspeedy":12936,"Ġstrove":12937,"Ġboxes":12938,"Ġbidding":12939,"consideration":12940,"Ġrelatively":12941,"Ġmalice":12942,"Ġdecidedly":12943,"Ġsuscept":12944,"Ġtransparent":12945,"Ġplead":12946,"Ġpenetrate":12947,"Ġfixing":12948,"Ġwhistle":12949,"Ġresource":12950,"Ġstorms":12951,"Ġcomplaints":12952,"Charles":12953,"Ġsuperstition":12954,"situation":12955,"remembered":12956,"Ġshriek":12957,"Ġguineas":12958,"Copperfield":12959,"Ġfollies":12960,"Ġreconcile":12961,"Ġdangers":12962,"EF":12963,"First":12964,"Pardon":12965,"Surely":12966,"West":12967,"credit":12968,"fro":12969,"firm":12970,"future":12971,"mot":12972,"political":12973,"warrant":12974,"Ġafar":12975,"replied":12976,"recomm":12977,"Ġsins":12978,"Ġsciences":12979,"Ġshattered":12980,"encing":12981,"Ġfalter":12982,"Ġtomorrow":12983,"arrange":12984,"Ġec":12985,"stones":12986,"utable":12987,"alph":12988,"etor":12989,"ada":12990,"rians":12991,"choes":12992,"Ġstomach":12993,"ĠSun":12994,"Ġsect":12995,"ĠAg":12996,"--âĢĺ":12997,"ĠCOM":12998,"Ġexalted":12999,"ĠBri":13000,"ustion":13001,"perceived":13002,"perception":13003,"Ġspy":13004,"Ġenclosed":13005,"feet":13006,"Ġoverfl":13007,"Ġscoundrel":13008,"liber":13009,"Ġpeevish":13010,"ossibility":13011,"Ġtricks":13012,"Ġawaken":13013,"Ġwrung":13014,"ĠVer":13015,"Ġnewly":13016,"Ġendowed":13017,"Ġ32":13018,"prospect":13019,"Ġinfam":13020,"ethod":13021,"Ġbreach":13022,"Ġdetach":13023,"Ġpromising":13024,"Ġprevail":13025,"Ġ57":13026,"Ġtenants":13027,"Ġlengths":13028,"knows":13029,"Ġdropping":13030,"Ġsignify":13031,"Ġhurrying":13032,"Ġfreshly":13033,"Ġoccupations":13034,"hardly":13035,"._]":13036,"Ġembro":13037,"ĠFrenchman":13038,"distinguished":13039,"ALL":13040,"Ġfaltered":13041,"Ġkissing":13042,"expressed":13043,"Ġcookery":13044,"Ġrendering":13045,"Ġsacrific":13046,"linthus":13047,"Ġfrankness":13048,"Ġtreasures":13049,"Ġconquest":13050,"ĠCalenus":13051,"Ġempire":13052,"ĠMorris":13053,"Ġuniformly":13054,"Ġspeculations":13055,"Black":13056,"including":13057,"Ġoaths":13058,"Ġrichest":13059,"OOK":13060,"severance":13061,"ĠWARRANTIES":13062,"Ġremoving":13063,"ĠImogene":13064,"Ġnegroes":13065,"Ġinstitutions":13066,"ĠNigel":13067,"earnest":13068,"Ġantagonist":13069,"ĠDerby":13070,"Ġominous":13071,"Mort":13072,"Put":13073,"cer":13074,"cried":13075,"lod":13076,"nine":13077,"powers":13078,"soup":13079,"Ġign":13080,"Ġting":13081,"Ġtheat":13082,"Ġwool":13083,"Ġwounds":13084,"Ġbraw":13085,"Ġfaster":13086,"Ġtoils":13087,"Ġpulse":13088,"Ġduration":13089,"Ġhiding":13090,"Ġhears":13091,"omb":13092,"omon":13093,"icy":13094,"stranger":13095,"seat":13096,"altered":13097,"oop":13098,"iloqu":13099,"Ġseizing":13100,"Ġdepre":13101,"Ġconsec":13102,"estics":13103,"Ġvote":13104,"ĠEleanor":13105,"wealth":13106,"ĠGos":13107,"Ġju":13108,"ĠRich":13109,"Ġdiscipline":13110,"ĠOlinthus":13111,"Ġ100":13112,"Ġyeomen":13113,"Ġconsented":13114,"Ġtrun":13115,"ansion":13116,"Ġwrites":13117,"exist":13118,"ultural":13119,"Ġgrains":13120,"Ġharbour":13121,"ERS":13122,"spread":13123,"Ġextending":13124,"remained":13125,"Ġequivalent":13126,"Ġequilibrium":13127,"Ġcradle":13128,"Ġinvented":13129,"nox":13130,"Ġvaries":13131,"ughter":13132,"month":13133,"parties":13134,"Ġskilful":13135,"ĠAnnie":13136,"appre":13137,"Ġprominent":13138,"Ġprincipally":13139,"Ġengine":13140,"Ġconvent":13141,"Ġrepeating":13142,"Ġcentral":13143,"Ġtransactions":13144,"flowers":13145,"charge":13146,"Ġmassive":13147,"Ġcooking":13148,"calm":13149,"Ġexerted":13150,"Ġlodged":13151,"Ġintelligible":13152,"Ġtongues":13153,"Ġeducated":13154,"broke":13155,"Ġdiminish":13156,"Ġnovelty":13157,"Ġresemble":13158,"Ġillustration":13159,"Ġattacked":13160,"ĠBurke":13161,"ĠFlore":13162,"Ġpledged":13163,"strugg":13164,"journey":13165,"Ġdecorated":13166,"Ġhemisphere":13167,"Ġlustre":13168,"Ġextravagant":13169,"slowly":13170,"etherfield":13171,"recogn":13172,"64":13173,"AVE":13174,"Could":13175,"MENT":13176,"PLE":13177,"bones":13178,"rity":13179,"sick":13180,"tend":13181,"Ġtreason":13182,"Ġaust":13183,"inous":13184,"Ġwrest":13185,"Ġbars":13186,"Ġfox":13187,"Ġtowers":13188,"Ġpest":13189,"Ġdarted":13190,"Ġdiversity":13191,"Ġhush":13192,"Ġbeasts":13193,"iries":13194,"Ġaspir":13195,"ĠSquare":13196,"peace":13197,"ules":13198,"Ġdearer":13199,"ĠCy":13200,"ĠCaxon":13201,"Ġvowed":13202,"acrity":13203,"Ġrud":13204,"Ġrung":13205,"ĠEND":13206,"Ġliv":13207,"ĠFate":13208,"cking":13209,"Ġspur":13210,"ĠRalph":13211,"Ġintolerable":13212,"Ġushered":13213,"Ġperse":13214,"ĠNext":13215,"ellynch":13216,"aph":13217,"Ġresume":13218,"Ġspear":13219,"shut":13220,"Ġsubmission":13221,"serve":13222,"Ġrepast":13223,"Ġloaded":13224,"avin":13225,"Ġsurrender":13226,"Ġmarvell":13227,"proved":13228,"Ġinfring":13229,"Ġformats":13230,"Ġcirculation":13231,"Shelley":13232,"Ġconsiderations":13233,"Ġeyeb":13234,"Ġinsign":13235,"Ġhasten":13236,"Ġ1817":13237,"Ġestates":13238,"ĠAlthough":13239,"Ġsoftness":13240,"Ġconversing":13241,"thank":13242,"Ġsettling":13243,"Ġsubstantial":13244,"afford":13245,"strate":13246,"Ġhostile":13247,"Ġmortar":13248,"mingled":13249,"viving":13250,"Ġmatrim":13251,"Ġfailure":13252,"olitan":13253,"Ġresembling":13254,"Ġcomprehended":13255,"Ġdesigns":13256,"possess":13257,"Ġreckless":13258,"magn":13259,"Ġemphasis":13260,"Ġelegance":13261,"ĠSomething":13262,"Ġpacket":13263,"Ġpremises":13264,"sufficiently":13265,"consciousness":13266,"Ġlobster":13267,"+------------":13268,"ĠWilfred":13269,"Ġcorporation":13270,"ĠBailey":13271,"Ġcalamity":13272,"Ġcongregation":13273,"Ġransom":13274,"68":13275,"94":13276,"Boil":13277,"Louis":13278,"Many":13279,"ept":13280,"gued":13281,"nical":13282,"Ġaided":13283,"isons":13284,"Ġhym":13285,"Ġhag":13286,"Ġgn":13287,"Ġgout":13288,"Ġguns":13289,"Ġrepl":13290,"rolled":13291,"ĠMilly":13292,"terms":13293,"ichigan":13294,"illes":13295,"redits":13296,"ĠAuthor":13297,"ĠCHA":13298,"indul":13299,"ĠPAR":13300,"ĠPynsent":13301,"weel":13302,"Ġquaint":13303,"Ġspar":13304,"Ġspots":13305,"ĠGir":13306,"Ġcanv":13307,"Ġshaft":13308,"ruff":13309,"Ġroared":13310,"Ġrobes":13311,"ĠNelly":13312,"adeira":13313,"Ġclue":13314,"Ġprism":13315,"Ġscenery":13316,"Ġoffspring":13317,"Ġflowing":13318,"Ġconspicuous":13319,"Ġapric":13320,"Ġglances":13321,"Ġapprent":13322,"retching":13323,"getic":13324,"Ġgraces":13325,"ĠKEATS":13326,"ceives":13327,"Ġsecular":13328,"Ġconfinement":13329,"Ġsurgeon":13330,"Ġdelir":13331,"Ġadvised":13332,"Ġadvoc":13333,"ĠLords":13334,"Ġadmon":13335,"Ġdarker":13336,"Ġcontinues":13337,"ourably":13338,"Ġinspect":13339,"Ġinsolent":13340,"Ġpromotion":13341,"scill":13342,"ĠAlb":13343,"INC":13344,"Ġjudges":13345,"Ġburial":13346,"Ġelection":13347,"Ġlegitimate":13348,"Ġstrikes":13349,"Ġthickened":13350,"Ġdespatched":13351,"Ġexamining":13352,"Ġbounds":13353,"ĠGeorg":13354,"Ġgenial":13355,"advantages":13356,"Ġvictims":13357,"Ġringing":13358,"reflection":13359,"Ġfrightful":13360,"Ġstationed":13361,"Ġshroud":13362,"Ġcriticism":13363,"ursday":13364,"Scrooge":13365,"Ġawait":13366,"Ġcherish":13367,"Ġasserted":13368,"namely":13369,"ĠJanuary":13370,"Ġattractive":13371,"directly":13372,"Ġeloquent":13373,"Ġliterally":13374,"Ġattributed":13375,"ĠPresident":13376,"Ġstormy":13377,"Ġrapture":13378,"ĠServices":13379,"corns":13380,"ĠnebulÃ¦":13381,"original":13382,"Ġmemorable":13383,"Ġinherit":13384,"Ġcups":13385,"sympath":13386,"Ġfeudal":13387,"Ġbruised":13388,"Ġsearching":13389,"frequently":13390,"Ġapplause":13391,"Ġpiano":13392,"Keats":13393,"Ġsnatched":13394,"ĠBurgundy":13395,"Isabella":13396,"Ġvehicle":13397,"Ġsturdy":13398,"95":13399,"Allen":13400,"Jem":13401,"NE":13402,"PE":13403,"aise":13404,"bol":13405,"crow":13406,"eenth":13407,"fund":13408,"kens":13409,"paid":13410,"phenomen":13411,"sorrow":13412,"soul":13413,"tical":13414,"touch":13415,"ĠÃ":13416,"heres":13417,"reached":13418,"Ġtobacco":13419,"Ġpoultry":13420,"Ġdashing":13421,"asm":13422,"leman":13423,"utton":13424,"utral":13425,"Ġasks":13426,"Ġweb":13427,"Ġsums":13428,"quil":13429,"oresc":13430,"Ġconver":13431,"ĠHalf":13432,"ĠBurn":13433,"ĠBoston":13434,"artic":13435,"asty":13436,"Ġproves":13437,"Ġuns":13438,"assured":13439,"ĠDevil":13440,"Ġarbit":13441,"Ġdispar":13442,"elled":13443,"mances":13444,"Ġblowing":13445,"Ġcontem":13446,"Ġflock":13447,"Ġpew":13448,"Ġretro":13449,"Ġpleases":13450,"Ġrepetition":13451,"ĠKnow":13452,"Ġchannel":13453,"undered":13454,"phrase":13455,"Ġcontinual":13456,"ternational":13457,"Ġeschalots":13458,"Ġsensibility":13459,"hames":13460,"Were":13461,"likely":13462,"Ġsummit":13463,"Ġvalued":13464,"preme":13465,"Ġbadly":13466,"Ġcostume":13467,"Ġflag":13468,"Ġbanished":13469,"Ġreceipts":13470,"Ġrevolutions":13471,"Ġcandied":13472,"accurate":13473,"Ġambassad":13474,"Ġastonishing":13475,"riday":13476,"Ġstatements":13477,"interesting":13478,"surpr":13479,"ĠBertie":13480,"Ġhesitating":13481,"poch":13482,"Ġrepresentations":13483,"Ġbaronet":13484,"ĠClarinda":13485,"Ġturret":13486,"Ġcordiality":13487,"possessed":13488,"Ġdipped":13489,"Ġplanetary":13490,"Ġtype":13491,"Ġapprehensions":13492,"Ġswelled":13493,"OLD":13494,"Ġnebulous":13495,"Ġmerchants":13496,"merely":13497,"successful":13498,"ĠSimon":13499,"Ġmantle":13500,"Ġinconsistent":13501,"Ġachieved":13502,"experienced":13503,"Ġcoolly":13504,"Ġdazzling":13505,"villes":13506,"Ġdungeon":13507,"popular":13508,"Ġtyranny":13509,"Ġbaffled":13510,"Ġenlightened":13511,"sacri":13512,"Ġscanty":13513,"further":13514,"ĠHindley":13515,")--":13516,"Job":13517,"Like":13518,"brances":13519,"cat":13520,"hu":13521,"iac":13522,"wich":13523,"Ġ----":13524,"inue":13525,"Ġwench":13526,"erate":13527,"Ġfren":13528,"Ġfrying":13529,"Ġtoilet":13530,"Ġink":13531,"Ġinhabited":13532,"Ġding":13533,"Ġdagger":13534,"Ġhay":13535,"Ġeagle":13536,"entricity":13537,"irteen":13538,"ripp":13539,"Ġstake":13540,"raged":13541,"ĠTremaine":13542,"ĠSchool":13543,"Ġseren":13544,"ĠAber":13545,"ĠHy":13546,"ĠCorn":13547,"ĠBour":13548,"Ġalle":13549,"Ġally":13550,"ĠWILL":13551,"inding":13552,".âĢĿ--":13553,"ĠPhilosop":13554,"Ġprose":13555,"ordid":13556,"foreign":13557,"Ġtwa":13558,"Ġbeforehand":13559,"show":13560,"Ġcountess":13561,"angs":13562,"angled":13563,"Ġboon":13564,"Ġministry":13565,"Ġlessen":13566,"Ġrests":13567,"Ġreadable":13568,"Ġdelusion":13569,"Ġteacher":13570,"axons":13571,"Ġpersonally":13572,"Ġassuming":13573,"Ġcrimes":13574,"Ġcircum":13575,"Ġfearfully":13576,"Ġsweeping":13577,"Ġrespective":13578,"knowing":13579,"Ġincludes":13580,"ĠClack":13581,"prev":13582,"Ġmuscles":13583,"Ġbesee":13584,"ARD":13585,"Ġdrunken":13586,"Ġremembering":13587,"Ġjoining":13588,"Ġjovial":13589,"ĠLegh":13590,"Ġsuccessively":13591,"Ġgallon":13592,"Ġdependent":13593,"ĠCarolina":13594,"iii":13595,"Ġdebate":13596,"Ġidiot":13597,"Ġwitnesses":13598,"Ġdamages":13599,"servants":13600,"ĠDonne":13601,"Ġexcluded":13602,"Ġministers":13603,"Ġobstacle":13604,"Ġaccurately":13605,"Ġconcealment":13606,"Ġbasis":13607,"Ġemphat":13608,"matters":13609,"Ġsailors":13610,"sensations":13611,"Blanche":13612,"Ġcultivation":13613,"Ġestimation":13614,"Ġcrystals":13615,"Ġavenue":13616,"Ġhyper":13617,"favourite":13618,"Ġrecesses":13619,"ĠEsq":13620,"Ġdefeat":13621,"Ġprohibition":13622,"Supp":13623,"Ġbulk":13624,"establish":13625,"Ġdissip":13626,"Ġphilosophical":13627,"Ġchallenge":13628,"ĠMiddle":13629,"adventure":13630,"ĠEsther":13631,"ĠSympson":13632,"51":13633,"53":13634,"Val":13635,"afraid":13636,"breat":13637,"borough":13638,"covered":13639,"dri":13640,"eem":13641,"fu":13642,"litt":13643,"nament":13644,"tim":13645,"vain":13646,"wid":13647,"watch":13648,"Ã¢":13649,"âĻ":13650,"ĠÃł":13651,"Ġtract":13652,"inine":13653,"Ġsite":13654,"Ġfag":13655,"Ġfring":13656,"Ġcant":13657,"anse":13658,"Ġhaggard":13659,"Ġgasped":13660,"owdered":13661,"cerem":13662,"improve":13663,"Ġonward":13664,"Ġforb":13665,"Ġisinglass":13666,"ques":13667,"thro":13668,"ĠSer":13669,"ĠBox":13670,"ĠBriarfield":13671,"Ġvag":13672,"ĠWalk":13673,"Ġshorter":13674,"umper":13675,"ĠLiber":13676,"ĠLocksley":13677,"ĠParson":13678,"ureen":13679,"reating":13680,"ĠDiv":13681,"Ġagency":13682,"Ġspurs":13683,"ĠGam":13684,"Ġjam":13685,"Ġdisinterested":13686,"beam":13687,"Ġpartners":13688,"Ġplanted":13689,"Ġbrim":13690,"Ġresort":13691,"shop":13692,"Ġcommend":13693,"angle":13694,"Ġrepay":13695,"Ġendless":13696,"Ġrelent":13697,"Ġevinced":13698,"pride":13699,"Ġtramp":13700,"Ġhardy":13701,"Ġobjected":13702,"Ġoppression":13703,"Ġdecrease":13704,"Ġbeauties":13705,"Ġbeautifully":13706,"Ġsketch":13707,"Ġdispers":13708,"Ġdispersed":13709,"disp":13710,"additional":13711,"Ġrip":13712,"Ġsweetest":13713,"ĠEnglishman":13714,"regret":13715,"handed":13716,"Ġcenturies":13717,"Ġseverity":13718,"Ġrecovery":13719,"Ġposture":13720,"OTHER":13721,"Ġdomestics":13722,"strous":13723,"ĠIndians":13724,"Ġcrave":13725,"Ġblessings":13726,"ĠHighness":13727,"ĠBarbe":13728,"Ġsolemnity":13729,"single":13730,"Ġrecognize":13731,"ĠJews":13732,"ĠJewess":13733,"Ġexecute":13734,"Ġamusements":13735,"ĠChemist":13736,"Ġwondrous":13737,"Ġpredomin":13738,"waiting":13739,"electricity":13740,"Ġcontributions":13741,"Ġreluctant":13742,"Ġantique":13743,"Ġrecorded":13744,"difficult":13745,"ATIONS":13746,"Ġstrewed":13747,"Ġcompetition":13748,"Ġcrystal":13749,"Ġunwelcome":13750,"Ġwithdrawing":13751,"Ġfireside":13752,"Ġclothed":13753,"Ġsheriff":13754,"Ġaristocr":13755,"Ġdiscontented":13756,"Ġanalogy":13757,"Ġquotation":13758,"Ġimpertinent":13759,"CTURE":13760,"Ġspecimen":13761,"interrupted":13762,"Martin":13763,"Ġtypes":13764,"admiration":13765,"Ġbundle":13766,"Ġacquaintances":13767,"Dr":13768,"Eglantine":13769,"Father":13770,"Read":13771,"bble":13772,"coun":13773,"finite":13774,"gic":13775,"gies":13776,"lines":13777,"nant":13778,"save":13779,"venty":13780,"Ġx":13781,"Ġbail":13782,"Ġbisc":13783,"Ġmature":13784,"Ġcured":13785,"Ġpend":13786,"Ġinex":13787,"Ġdart":13788,"ica":13789,"leaving":13790,"uthering":13791,"entric":13792,"ĠMR":13793,"ĠTim":13794,"ĠTrue":13795,"ifting":13796,"ĠSav":13797,"ĠSpeak":13798,"Ġsealed":13799,"ĠHE":13800,"Ġshepherd":13801,"Ġallowing":13802,"acies":13803,"Ġarena":13804,"Ġproverb":13805,"ĠElect":13806,"Ġleaped":13807,"Ġunreasonable":13808,"performed":13809,"Ġspont":13810,"ĠGovern":13811,"Ġjug":13812,"ableness":13813,"ĠNun":13814,"ĠJer":13815,"clothes":13816,"closure":13817,"Ġlongitude":13818,"ĠKat":13819,"Ġmarched":13820,"uthors":13821,"Ġstealing":13822,"ĠChillip":13823,"ĠBecause":13824,"Ġpainting":13825,"Ġcourtiers":13826,"ĠAllan":13827,"Ġjudging":13828,"Thor":13829,"Ġstripped":13830,"Ġdetermining":13831,"composition":13832,"descend":13833,"boat":13834,"Ġperiodical":13835,"nah":13836,"impat":13837,"Ġwineglass":13838,"Ġtransient":13839,"trade":13840,"Ġhealthy":13841,"Ġwisest":13842,"ĠMademoiselle":13843,"ĠCovent":13844,";--âĢľ":13845,"Ġlanguid":13846,"fathers":13847,"ĠLovett":13848,"Ġspectre":13849,"Ġtopics":13850,"Ġinquiring":13851,"Ġavar":13852,"ĠAmericans":13853,"breast":13854,"Ġorganized":13855,"Ġgoddess":13856,"Ġlocations":13857,"Ġplaid":13858,"Ġbrilliancy":13859,"Ġreckoned":13860,"Ġkeys":13861,"Ġkeenly":13862,"Ġindicating":13863,"ĠNevertheless":13864,"principle":13865,"qualities":13866,"Ġghostly":13867,"Ġpremature":13868,"Ġcitizen":13869,"Ġdeduct":13870,"Ġfarmers":13871,"Ġmoisture":13872,"providing":13873,"knife":13874,"learned":13875,"flavoured":13876,"ĠEXP":13877,"origin":13878,"laughing":13879,"Ġacquiescence":13880,"Ġrhyme":13881,"ĠHenrietta":13882,"EntrÃ©e":13883,"Ġperplexity":13884,"Ġtelescope":13885,"Ġangels":13886,"ĠLobkins":13887,"antaloon":13888,"otanical":13889,"Ġfinancial":13890,"82":13891,"84":13892,"Gent":13893,"Pres":13894,"Return":13895,"eager":13896,"false":13897,"gently":13898,"mare":13899,"material":13900,"page":13901,"pathetic":13902,"run":13903,"rations":13904,"sor":13905,"sleep":13906,"winn":13907,"Ġtip":13908,"informed":13909,"oug":13910,"Ġbowing":13911,"Ġmud":13912,"Ġfab":13913,"Ġpushing":13914,"Ġinit":13915,"anes":13916,"Ġgale":13917,"Ġwashing":13918,"Ġforwards":13919,"chrom":13920,"Ġstretch":13921,"rapid":13922,"oreal":13923,"ulness":13924,"allic":13925,"geons":13926,"ĠCut":13927,"Ġkettle":13928,"ĠWagg":13929,"osia":13930,"asting":13931,"ĠLA":13932,"ĠPleas":13933,"venue":13934,"ittered":13935,"Ġunfit":13936,"plate":13937,"Ġshouldn":13938,"Ġrod":13939,"Ġtwisted":13940,"Ġenlar":13941,"Ġclenched":13942,"Ġgoodly":13943,"Ġchains":13944,"deb":13945,"olls":13946,"Ġblown":13947,"Ġblock":13948,"Ġscared":13949,"Ġoffend":13950,"bleness":13951,"Ġworkmen":13952,"sugg":13953,"Ġrefract":13954,"Ġsirs":13955,"production":13956,"Ġstepping":13957,"Ġincidents":13958,"Ġdetailed":13959,"Ġcoldly":13960,"ĠBeauty":13961,"ARY":13962,"Ġgladiator":13963,"Ġsaltspoonful":13964,"Ġbrighter":13965,"Ġdresses":13966,"Ġfreshness":13967,"Ġtremulous":13968,"Ġsymmet":13969,"risy":13970,"greatest":13971,"Ġcalmness":13972,"Ġflourish":13973,"instantly":13974,"Ġgradual":13975,"Ġheavenly":13976,"Ġloudly":13977,"Ġinjure":13978,"Ġreveal":13979,"Ġproofs":13980,"LIG":13981,"Ġaxe":13982,"Ġhesitate":13983,"Ġshrunk":13984,"constant":13985,"Ġvolunteer":13986,"mistress":13987,"Ġvegetation":13988,"ĠBenwick":13989,"walking":13990,"Ġ501":13991,"Ġprosperous":13992,"protected":13993,"profession":13994,"Ġfunds":13995,"Ġgreeted":13996,"Ġparallax":13997,"Ġabandon":13998,"ĠDespite":13999,"gradually":14000,"Ġlamps":14001,"Ġruffian":14002,"Ġretirement":14003,"jacent":14004,"Ġfeathers":14005,"Ġpulp":14006,"Ġcolumns":14007,"Ġaccomplishments":14008,"apartment":14009,"Ġantecedent":14010,"Ġloos":14011,"Ġcontinuing":14012,"Ġlabourers":14013,"acknowled":14014,"ĠThornberry":14015,"jamin":14016,"thoroughly":14017,"ĠSOUP":14018,"ĠCardillac":14019,"Ġaggregate":14020,"Any":14021,"Caleb":14022,"ELL":14023,"LD":14024,"Little":14025,"Sidney":14026,"eh":14027,"gaz":14028,"pul":14029,"pun":14030,"rings":14031,"vable":14032,"virt":14033,"wished":14034,"Î¿":14035,"Ġaversion":14036,"Ġwits":14037,"Ġbounded":14038,"Ġbinary":14039,"Ġfir":14040,"Ġcert":14041,"Ġcash":14042,"oric":14043,"Ġpush":14044,"Ġdial":14045,"Ġduck":14046,"asper":14047,"Ġhack":14048,"stretched":14049,"Ġgaud":14050,"Ġanch":14051,"ĠMall":14052,"Ġstain":14053,"ĠThames":14054,"Ġsupreme":14055,"estine":14056,"Ġvoc":14057,".âĢĿâĢĶ":14058,"ĠLast":14059,"ĠPost":14060,"ureau":14061,"Ġproving":14062,"ĠFul":14063,"weight":14064,"Ġabomin":14065,"Ġunfortunately":14066,"ĠDis":14067,"ĠRuth":14068,"bearing":14069,"Ġplat":14070,"Ġplum":14071,"iousness":14072,"Ġclinging":14073,"Ġbrut":14074,"features":14075,"defect":14076,"tyard":14077,"Ġcompose":14078,"Ġrespond":14079,"Ġsmith":14080,"Ġscrut":14081,"Ġcontend":14082,"Ġcontraction":14083,"Ġimped":14084,"Ġpresumption":14085,"Ġeyed":14086,"Ġsuppress":14087,"ockwinn":14088,"ĠKellynch":14089,"Ġrefusing":14090,"ĠUT":14091,"Ġmarvel":14092,"ierce":14093,"Ġcrisp":14094,"Ġaffront":14095,"Ġaffliction":14096,"Ġmiser":14097,"Ġhelmet":14098,
[...]
